{
  "version": "1.0",
  "truncation": null,
  "padding": null,
  "added_tokens": [],
  "normalizer": null,
  "pre_tokenizer": {
    "type": "ByteLevel",
    "add_prefix_space": false,
    "trim_offsets": true,
    "use_regex": true
  },
  "post_processor": {
    "type": "ByteLevel",
    "add_prefix_space": true,
    "trim_offsets": false,
    "use_regex": true
  },
  "decoder": {
    "type": "ByteLevel",
    "add_prefix_space": true,
    "trim_offsets": true,
    "use_regex": true
  },
  "model": {
    "type": "BPE",
    "dropout": null,
    "unk_token": null,
    "continuing_subword_prefix": null,
    "end_of_word_suffix": null,
    "fuse_unk": false,
    "byte_fallback": false,
    "ignore_merges": false,
    "vocab": {
      "!": 0,
      "\"": 1,
      "#": 2,
      "$": 3,
      "%": 4,
      "&": 5,
      "'": 6,
      "(": 7,
      ")": 8,
      "*": 9,
      "+": 10,
      ",": 11,
      "-": 12,
      ".": 13,
      "/": 14,
      "0": 15,
      "1": 16,
      "2": 17,
      "3": 18,
      "4": 19,
      "5": 20,
      "6": 21,
      "7": 22,
      "8": 23,
      "9": 24,
      ":": 25,
      ";": 26,
      "<": 27,
      "=": 28,
      ">": 29,
      "?": 30,
      "@": 31,
      "A": 32,
      "B": 33,
      "C": 34,
      "D": 35,
      "E": 36,
      "F": 37,
      "G": 38,
      "H": 39,
      "I": 40,
      "J": 41,
      "K": 42,
      "L": 43,
      "M": 44,
      "N": 45,
      "O": 46,
      "P": 47,
      "Q": 48,
      "R": 49,
      "S": 50,
      "T": 51,
      "U": 52,
      "V": 53,
      "W": 54,
      "X": 55,
      "Y": 56,
      "Z": 57,
      "[": 58,
      "\\": 59,
      "]": 60,
      "^": 61,
      "_": 62,
      "`": 63,
      "a": 64,
      "b": 65,
      "c": 66,
      "d": 67,
      "e": 68,
      "f": 69,
      "g": 70,
      "h": 71,
      "i": 72,
      "j": 73,
      "k": 74,
      "l": 75,
      "m": 76,
      "n": 77,
      "o": 78,
      "p": 79,
      "q": 80,
      "r": 81,
      "s": 82,
      "t": 83,
      "u": 84,
      "v": 85,
      "w": 86,
      "x": 87,
      "y": 88,
      "z": 89,
      "{": 90,
      "|": 91,
      "}": 92,
      "~": 93,
      "¡": 94,
      "¢": 95,
      "£": 96,
      "¤": 97,
      "¥": 98,
      "¦": 99,
      "§": 100,
      "¨": 101,
      "©": 102,
      "ª": 103,
      "«": 104,
      "¬": 105,
      "®": 106,
      "¯": 107,
      "°": 108,
      "±": 109,
      "²": 110,
      "³": 111,
      "´": 112,
      "µ": 113,
      "¶": 114,
      "·": 115,
      "¸": 116,
      "¹": 117,
      "º": 118,
      "»": 119,
      "¼": 120,
      "½": 121,
      "¾": 122,
      "¿": 123,
      "À": 124,
      "Á": 125,
      "Â": 126,
      "Ã": 127,
      "Ä": 128,
      "Å": 129,
      "Æ": 130,
      "Ç": 131,
      "È": 132,
      "É": 133,
      "Ê": 134,
      "Ë": 135,
      "Ì": 136,
      "Í": 137,
      "Î": 138,
      "Ï": 139,
      "Ð": 140,
      "Ñ": 141,
      "Ò": 142,
      "Ó": 143,
      "Ô": 144,
      "Õ": 145,
      "Ö": 146,
      "×": 147,
      "Ø": 148,
      "Ù": 149,
      "Ú": 150,
      "Û": 151,
      "Ü": 152,
      "Ý": 153,
      "Þ": 154,
      "ß": 155,
      "à": 156,
      "á": 157,
      "â": 158,
      "ã": 159,
      "ä": 160,
      "å": 161,
      "æ": 162,
      "ç": 163,
      "è": 164,
      "é": 165,
      "ê": 166,
      "ë": 167,
      "ì": 168,
      "í": 169,
      "î": 170,
      "ï": 171,
      "ð": 172,
      "ñ": 173,
      "ò": 174,
      "ó": 175,
      "ô": 176,
      "õ": 177,
      "ö": 178,
      "÷": 179,
      "ø": 180,
      "ù": 181,
      "ú": 182,
      "û": 183,
      "ü": 184,
      "ý": 185,
      "þ": 186,
      "ÿ": 187,
      "Ā": 188,
      "ā": 189,
      "Ă": 190,
      "ă": 191,
      "Ą": 192,
      "ą": 193,
      "Ć": 194,
      "ć": 195,
      "Ĉ": 196,
      "ĉ": 197,
      "Ċ": 198,
      "ċ": 199,
      "Č": 200,
      "č": 201,
      "Ď": 202,
      "ď": 203,
      "Đ": 204,
      "đ": 205,
      "Ē": 206,
      "ē": 207,
      "Ĕ": 208,
      "ĕ": 209,
      "Ė": 210,
      "ė": 211,
      "Ę": 212,
      "ę": 213,
      "Ě": 214,
      "ě": 215,
      "Ĝ": 216,
      "ĝ": 217,
      "Ğ": 218,
      "ğ": 219,
      "Ġ": 220,
      "ġ": 221,
      "Ģ": 222,
      "ģ": 223,
      "Ĥ": 224,
      "ĥ": 225,
      "Ħ": 226,
      "ħ": 227,
      "Ĩ": 228,
      "ĩ": 229,
      "Ī": 230,
      "ī": 231,
      "Ĭ": 232,
      "ĭ": 233,
      "Į": 234,
      "į": 235,
      "İ": 236,
      "ı": 237,
      "Ĳ": 238,
      "ĳ": 239,
      "Ĵ": 240,
      "ĵ": 241,
      "Ķ": 242,
      "ķ": 243,
      "ĸ": 244,
      "Ĺ": 245,
      "ĺ": 246,
      "Ļ": 247,
      "ļ": 248,
      "Ľ": 249,
      "ľ": 250,
      "Ŀ": 251,
      "ŀ": 252,
      "Ł": 253,
      "ł": 254,
      "Ń": 255,
      "á½": 256,
      "Î½": 257,
      "ĠÎ": 258,
      "ÏĦ": 259,
      "Î±": 260,
      "Î¿": 261,
      "á¼": 262,
      "Î¹": 263,
      "Îµ": 264,
      "Ġá¼": 265,
      "Ïģ": 266,
      "ÏĤ": 267,
      "á¿": 268,
      "Ïĥ": 269,
      "ĠÏĦ": 270,
      "ÏĢ": 271,
      "Î»": 272,
      "Î¼": 273,
      "ĠÎº": 274,
      "Ïħ": 275,
      "ĠÎºÎ±": 276,
      "á½¶": 277,
      "Îº": 278,
      "Ïī": 279,
      "Ġá¼Ĳ": 280,
      "Î·": 281,
      "ĠÏĢ": 282,
      "ĠÎ´": 283,
      "Ġá½": 284,
      "Î¸": 285,
      "ĠÎºÎ±á½¶": 286,
      "á½·": 287,
      "Î¿Î½": 288,
      "ĠÏĦá½": 289,
      "Î³": 290,
      "ĠÎ¼": 291,
      "á½³": 292,
      "Ïĩ": 293,
      "Î¿á¿": 294,
      "ÏĦÎ±": 295,
      "á¿¶": 296,
      "Î´": 297,
      "Ġá¼Ģ": 298,
      "á½±": 299,
      "Î¿Ïħ": 300,
      "á½Ĳ": 301,
      "ÏĨ": 302,
      "ĠÎ±": 303,
      "ĠÎ¿": 304,
      "Î¿á¿¦": 305,
      "Î¹Î½": 306,
      "á¿¶Î½": 307,
      "ĠÎµ": 308,
      "á½¹": 309,
      "á½°": 310,
      "ĠÏĥ": 311,
      "á½²": 312,
      "ÏīÎ½": 313,
      "ÎµÎ½": 314,
      "Î¿Î¹": 315,
      "á¿Ĩ": 316,
      "á½»": 317,
      "á½¸": 318,
      "ÏģÎ±": 319,
      "ÎµÎ¹": 320,
      "ĠÎ³": 321,
      "Î¿ÏĤ": 322,
      "Î±Î¹": 323,
      "ÏĥÏĦ": 324,
      "ÎµÏģ": 325,
      "ĠÏĦá½¸": 326,
      "ĠÎ±á½Ĳ": 327,
      "âĢ": 328,
      "ĠÎµá¼": 329,
      "Î±Î½": 330,
      "ĠÎ±á½ĲÏĦ": 331,
      "âĢĻ": 332,
      "Î¼Î±": 333,
      "á¿ĸ": 334,
      "´Î½": 335,
      "á¿ĨÏĤ": 336,
      "Ġá¼ĲÎ½": 337,
      "Î¾": 338,
      "ĠÏĢÏģ": 339,
      "Î»Î»": 340,
      "ÏĦÎ±Î¹": 341,
      "ĠÎ´Î¹": 342,
      "Ġá¼ĲÏĢ": 343,
      "ĠÏĦá¿¶Î½": 344,
      "ĠÏĦÎ¿á¿¦": 345,
      "Î²": 346,
      "Ġá¼Ķ": 347,
      "Î¯": 348,
      "ÏĦÎµ": 349,
      "á½³Î½": 350,
      "ĠÎ´á½²": 351,
      "á½µ": 352,
      "ÏĦÎ¹": 353,
      "ÏīÏĤ": 354,
      "ĠÎµá¼°": 355,
      "ÎŃ": 356,
      "ĠÎ»": 357,
      "ĠÏĨ": 358,
      "ÏĥÎ¸": 359,
      "Îµá¿ĸ": 360,
      "á¾": 361,
      "ĠÎ¿á½Ĳ": 362,
      "ĠÏĦá½´Î½": 363,
      "Î±ÏĤ": 364,
      "ĠÏĩ": 365,
      "Î¬": 366,
      "ÏģÎ¹": 367,
      "ĠÏĦá½°": 368,
      "á½²Î½": 369,
      "Î¿á¿ĸ": 370,
      "Ġá½ĳ": 371,
      "ĠÏĦá¿ĨÏĤ": 372,
      "Ġá¼¡": 373,
      "ÏĥÎ¹Î½": 374,
      "á½¸ÏĤ": 375,
      "á¿·": 376,
      "á½½": 377,
      "ÏĥÎ¹": 378,
      "ĠÎ¸": 379,
      "Î½Îµ": 380,
      "Ġá½ģ": 381,
      "Ġá½ħ": 382,
      "Ġá¼Ħ": 383,
      "á½º": 384,
      "ĠÏĦÎµ": 385,
      "Î¼á½³Î½": 386,
      "ĠÎ¿á½": 387,
      "ĠÎ¼á½²Î½": 388,
      "ÏĦÎ·": 389,
      "ÏĮ": 390,
      "ÏĦÎ¿": 391,
      "Î¿á¿ĸÏĤ": 392,
      "Î½Î±": 393,
      "á½´": 394,
      "ĠÎºÎ±ÏĦ": 395,
      "Î¼ÎµÎ½": 396,
      "ÏĦÏīÎ½": 397,
      "á½¸Î½": 398,
      "á½¹Î½": 399,
      "Î±Ïģ": 400,
      "Î»Îµ": 401,
      "ÏĪ": 402,
      "ĠÎ²": 403,
      "Ġá¼ĢÏĢ": 404,
      "Ġ|": 405,
      "ĠÎ¿á¼": 406,
      "ĠÏĦÎ¿": 407,
      "Ġá¼ĲÎº": 408,
      "Ïį": 409,
      "ĠA": 410,
      "ÏĦÎ¿ÏĤ": 411,
      "ÏĥÎµ": 412,
      "Ġá½Ģ": 413,
      "ĠÎ¼Îµ": 414,
      "Î·ÏĤ": 415,
      "Î±Î»": 416,
      "Î¶": 417,
      "á¿³": 418,
      "Îĩ": 419,
      "á½ºÏĤ": 420,
      "Ïģá½·": 421,
      "á½°Ïģ": 422,
      "ÏĥÎ¸Î±Î¹": 423,
      "ĠÏĥÏħ": 424,
      "Î¿ÏħÏĤ": 425,
      "ĠÏĦá¿·": 426,
      "05": 427,
      "ĠÏĦá½¸Î½": 428,
      "ĠÎ³á½°Ïģ": 429,
      "ĠÏĢÏģÎ¿": 430,
      "ĠÎºÎ±ÏĦá½°": 431,
      "ĠU": 432,
      "á¿ĩ": 433,
      "Ġá½ĳÏĢ": 434,
      "ĠÏĦÎ±": 435,
      "Ġá¼¢": 436,
      "Îµá½·": 437,
      "á¿¦": 438,
      "á½³Ïģ": 439,
      "Î¿Î¹ÏĤ": 440,
      "ÏĥÎ±": 441,
      "Î®": 442,
      "Î·Î½": 443,
      "Ġá¼ĳ": 444,
      "ĠÎµá¼°ÏĤ": 445,
      "á½´Î½": 446,
      "ĠÏĦÎ¿á¿ĸÏĤ": 447,
      "ĠÏĢÎµÏģ": 448,
      "ÎºÎ±": 449,
      "ĠÏĢÎ¿": 450,
      "á¾¶": 451,
      "ÎµÎ¹Î½": 452,
      "Ġá½¡": 453,
      "ĠÎ±á¼": 454,
      "Ġ1": 455,
      "Ġá¼ĲÏĢá½¶": 456,
      "Ġt": 457,
      "Ġá¼ĢÎ»Î»": 458,
      "Ġá¼ĲÏĥÏĦ": 459,
      "Î¹Îº": 460,
      "ÏĦÎ¿Î½": 461,
      "Ġá¼ĢÎ½": 462,
      "á½±Î½": 463,
      "á¿¥": 464,
      "ĠÎ½": 465,
      "Î´Îµ": 466,
      "ĠÎ´Î¹Î±": 467,
      "Î·Ïĥ": 468,
      "Ġo": 469,
      "Î»Î±": 470,
      "ĠÏĩÏģ": 471,
      "Ġá½¡ÏĤ": 472,
      "ĠÏĢÎ±": 473,
      "Ġ(": 474,
      "ĠÎĳ": 475,
      "á¿ĥ": 476,
      "ÏģÎµ": 477,
      "Ġá¼ĲÎ¾": 478,
      "Ï²": 479,
      "Ġá¼ĲÏĢÎ¹": 480,
      "ĠÎµá¼¶": 481,
      "ÏģÎ¿": 482,
      "Ġa": 483,
      "ÏĥÎµÎ¹": 484,
      "he": 485,
      "ĠÎ±á½ĲÏĦÎ¿á¿¦": 486,
      "ĠÏĦÎ¹": 487,
      "ĠÏĢÏģá½¸ÏĤ": 488,
      "Î»Î·": 489,
      "ÎĦ": 490,
      "Ġá¼¡Î¼": 491,
      "Ġá¼°": 492,
      "ÏħÏĦ": 493,
      "á½·Î½": 494,
      "ÏĥÎº": 495,
      "ÏĦÎµÏģ": 496,
      "ÏħÎ½": 497,
      "Ġá¼ķ": 498,
      "á¿¶ÏĤ": 499,
      "ĠÎ´Î¹á½°": 500,
      "Î¿Î¼": 501,
      "Â·": 502,
      "áµ": 503,
      "ĠÎ¿á½ĸ": 504,
      "ĠÏĦá½°ÏĤ": 505,
      "ÏĦÎµÏĤ": 506,
      "ĠÏĦá¿ĩ": 507,
      "Ġ2": 508,
      "Î½Î±Î¹": 509,
      "ĠÎ±á½ĲÏĦá¿¶Î½": 510,
      "ĠÎ¿á¼±": 511,
      "ĠÎºÎ±Î¸": 512,
      "Î»Î¹": 513,
      "Î¿á½»": 514,
      "á½±Ïģ": 515,
      "ÏĢÎµÏģ": 516,
      "in": 517,
      "Ġá¿¥": 518,
      "Î¼ÏĢ": 519,
      "ÏĦÏī": 520,
      "Ġá¼ĢÎ½Î±": 521,
      "Îµá¿ĸÎ½": 522,
      "Ġp": 523,
      "ĠÎ¿á½ĲÎº": 524,
      "ĠÎ¿á½ĸÎ½": 525,
      "ÏģÎ·": 526,
      "ÏģÎ±Ïĩ": 527,
      "ĠÎ³Îµ": 528,
      "ĠÎµá¼´": 529,
      "ÏĥÏĩ": 530,
      "ĠÏĦÎ¿á½ºÏĤ": 531,
      "ĠÏĢÎ±Ïģ": 532,
      "ÏħÎ¼": 533,
      "Î¿Î»": 534,
      "Ġá¼ĢÏģ": 535,
      "ĠÎļ": 536,
      "Î¼Îµ": 537,
      "Ġá¼ĦÎ»Î»": 538,
      "Î¿Î¼á½³Î½": 539,
      "Ġs": 540,
      "Ïİ": 541,
      "á½·Î±ÏĤ": 542,
      "ĠÎ¼á½´": 543,
      "ÎĦ.": 544,
      "ÏĥÎ±Î½": 545,
      "ĠÎ¿á½ĲÎ´": 546,
      "ĠB": 547,
      "ÏħÏģ": 548,
      "Ġá¼ĢÏĢÎ¿": 549,
      "ĠÏĢÎµÏģá½¶": 550,
      "Ġá¼¸": 551,
      "Ġá¼ĲÎ³": 552,
      "Ġá¼ģ": 553,
      "á¿ĸÏĤ": 554,
      "Î¿á¿¦Î½": 555,
      "á½³ÏģÎ±": 556,
      "Ġá½ħÏĦÎ¹": 557,
      "ĠÏĪ": 558,
      "Ïģá½±": 559,
      "Ġthe": 560,
      "re": 561,
      "ÏĢÎ¿": 562,
      "Ġá¼ĶÏĩ": 563,
      "Ġá¼ħ": 564,
      "á½¹Î¼ÎµÎ½": 565,
      "ÏĥÎµÏīÏĤ": 566,
      "ĠÎºÎ±ÏĦÎ±": 567,
      "Î¸Î·": 568,
      "á½·Î±Î½": 569,
      "Î¼á½±": 570,
      "ĠÎ¼ÎµÏĦ": 571,
      "ĠÎ¼á½³": 572,
      "ĤÎ½": 573,
      "Î¼Î±ÏĦÎ¿ÏĤ": 574,
      "ĠÏĦÎ¿Î¹": 575,
      "Î³Î¿Î½": 576,
      "ĠÎ¸Îµ": 577,
      "Ïģá½¹": 578,
      "ĠÏĢÎ»": 579,
      "ĠÏĦÎ¿á¿¦ÏĦÎ¿": 580,
      "ÏĦÏīÏĤ": 581,
      "Ġâ": 582,
      "ĠÎ¿á½ķ": 583,
      "Ġá½Ħ": 584,
      "á½¼": 585,
      "Ġom": 586,
      "ĠÏĦÎ¿á½»": 587,
      "ÏĥÏĦÎ±": 588,
      "ÏĥÎ±Î¹": 589,
      "ĠÏĦÎ¹Î½": 590,
      "Ġá½¥": 591,
      "ÏĦÏģ": 592,
      "ÎŃÎ½": 593,
      "ÏħÏĩ": 594,
      "Ġá¼¤": 595,
      "ÎµÏĢ": 596,
      "ÏĦÎ¹Îº": 597,
      "Î¹ÏĤ": 598,
      "ÏĦÎ¿Î¹": 599,
      "ĠÏĥÎº": 600,
      "ÏĦÎµÏģÎ¿Î½": 601,
      "Î¸Ïģ": 602,
      "ÏĢÎ±": 603,
      "ÎµÏĦÎ±Î¹": 604,
      "ÏħÏĥ": 605,
      "ĠÏĢÎ¿Î¹": 606,
      "Î³Î±": 607,
      "ĠÏĥÏħÎ½": 608,
      "ÏĨÎ¿": 609,
      "ĠÎµá½Ĳ": 610,
      "ĠÏĢÎ¿Î»Î»": 611,
      "Î±Îº": 612,
      "ÏĦÎ¿Ïħ": 613,
      "ĠÏĢÏģÎ¿Ïĥ": 614,
      "ÏĮÎ½": 615,
      "er": 616,
      "Î´Î·": 617,
      "á¾³": 618,
      "Ġá¼ĤÎ½": 619,
      "á½·Î½Îµ": 620,
      "Ġá¼ĢÎº": 621,
      "ĠÎ¸ÎµÏģ": 622,
      "Î´Î±": 623,
      "Î³Î½": 624,
      "á½°ÏĤ": 625,
      "ĠÏĢÎµÏģÎ¹": 626,
      "ha": 627,
      "ĠÏĥÏĦ": 628,
      "Ġá¼ĢÎ»Î»á½°": 629,
      "ÏĦÎ±ÏĤ": 630,
      "ÏĢÎ¿Î½": 631,
      "ĠÏĥÎ¿Ïħ": 632,
      "ĠÏĢÎ±ÏģÎ±": 633,
      "ĠÎ¶": 634,
      "ÏĥÎ¿Î½": 635,
      "Ġá¼Ī": 636,
      "ĠÎ´Îµ": 637,
      "ĠÏħ": 638,
      "Î¿á½ºÏĤ": 639,
      "ÏĦÎ·ÏĤ": 640,
      "Î¸ÎµÎ½": 641,
      "Ġpr": 642,
      "Î¸Îµ": 643,
      "ĠÎ¾": 644,
      "ĠÎºÎ±Î¹": 645,
      "ĠÎ±á¼°": 646,
      "ÏħÎº": 647,
      "ĠÏĢá½±Î½": 648,
      "nd": 649,
      "Ġá¼ĦÎ½": 650,
      "ĠÎ¼Î·": 651,
      "Ġá¼ĢÏĢá½¸": 652,
      "ĠQ": 653,
      "Î¼Î²": 654,
      "Î»á½±": 655,
      "Î»Î¿Î½": 656,
      "á¿¦ÏĦÎ±": 657,
      "ĠÎ£": 658,
      "ĠÎ´ÏģÎ±Ïĩ": 659,
      "ĠÎºÎµ": 660,
      "ÏĢÎµ": 661,
      "ĠÏĨá½»": 662,
      "Î»á½·": 663,
      "ÏīÏģ": 664,
      "Î³Î³": 665,
      "Î¼Î¿Î½": 666,
      "ÏĥÎ¹ÏĤ": 667,
      "á¾¶ÏĤ": 668,
      "ÏĥÏī": 669,
      "á½°Î½": 670,
      "ĠÎ¿á½Ķ": 671,
      "á½±Î»": 672,
      "Î¿ÏħÏĥÎ¹Î½": 673,
      "ĠÏĦÎ±á¿ĸÏĤ": 674,
      "Î¼Î±ÏĦÎ±": 675,
      "Ġâ¸": 676,
      "it": 677,
      "ÏģÎ³": 678,
      "ÏģÎ±Î½": 679,
      "ĠÎ²Î±": 680,
      "ĠÎ´á½»": 681,
      "ÏĦá½³Ïģ": 682,
      "Î¸Î±": 683,
      "Î¬Î½": 684,
      "ÎµÎ»": 685,
      "Ġá¼ĲÏĥÏĦÎ¹Î½": 686,
      "ÏĦá½·": 687,
      "Ġá½ĳÎ³": 688,
      "ÏģÎ±ÏĤ": 689,
      "ĠÎ¼Î¿Ïħ": 690,
      "ĠÎ¼á½¹Î½": 691,
      "ÏħÎ³": 692,
      "ĠÎ±á¼±": 693,
      "Î¼Î¿": 694,
      "Î·Ïģ": 695,
      "Ġ3": 696,
      "ĠÏĪÏħÏĩ": 697,
      "ĠÎ»á½¹": 698,
      "ÏĥÎµÎ¹ÏĤ": 699,
      "ĠÎ³ÎµÎ½": 700,
      "is": 701,
      "Ġc": 702,
      "á½³Î³": 703,
      "Ġb": 704,
      "ĠÎ±á½ĲÏĦá¿·": 705,
      "or": 706,
      "Ġá½ķ": 707,
      "ÏĥÎµÏĦÎ±Î¹": 708,
      "ÏĥÎ¼": 709,
      "ÏĢÎ¹": 710,
      "Ġw": 711,
      "ÏģÎ¿Î½": 712,
      "Î¿Î³": 713,
      "ĠÎµá¼¶Î½Î±Î¹": 714,
      "Î´Î¹": 715,
      "ĠÎ·": 716,
      "Ġ+": 717,
      "á½¶Î½": 718,
      "á½±Î¶": 719,
      "ÎµÏĥÎ¸Î±Î¹": 720,
      "á¼±": 721,
      "Î¼ÏĨ": 722,
      "ĠÏĦÎ¹ÏĤ": 723,
      "Ġá¼ĶÎ½": 724,
      "Ġá¼ĲÏĥÏĦÎ¹": 725,
      "Ġá¾": 726,
      "ÎµÎ¹ÏĤ": 727,
      "¤á¿¥": 728,
      "áµĥ": 729,
      "Ġin": 730,
      "Ġá½ĳÎ¼": 731,
      "Ġá¼ĲÏĨ": 732,
      "ÏĦÎ·Î½": 733,
      "ĠÎ¼ÎµÏĦá½°": 734,
      "Ġá¼¦": 735,
      "ĠÎľ": 736,
      "Ġá¼´": 737,
      "Îµá¿ĸÏĤ": 738,
      "ĠÎĻ": 739,
      "Î½Î·": 740,
      "ÎºÎ¿Î½": 741,
      "ĠÎ±á½ĲÏĦá½¸Î½": 742,
      "Ġá¼ģÏĢ": 743,
      "ĠÎ¿á½ķÏĦÏīÏĤ": 744,
      "ÏĦÎ±Î½": 745,
      "ĠÏĥÏĨ": 746,
      "ĠÏĢÏģá½¹": 747,
      "ĠÎ²Î±ÏĥÎ¹": 748,
      "ĠÎµá½": 749,
      "ĠÎ±á½ĲÏĦÎ¿á¿ĸÏĤ": 750,
      "ĠÎ¿á¼·": 751,
      "Ġá½ĢÎ½": 752,
      "Î¼á½³Î½ÏīÎ½": 753,
      "ĠâĢ": 754,
      "ĠÎ»Î±": 755,
      "Ġá¼ĢÏģÏĩ": 756,
      "ĠÏĨÎ±": 757,
      "ĠÎ½Îµ": 758,
      "ÏĨÎ¸": 759,
      "ĠÏħá¼±": 760,
      "á½¹Î½ÏĦÏīÎ½": 761,
      "Î¼á½±ÏĦÏīÎ½": 762,
      "ra": 763,
      "ĠÏĦÎ±á¿¦ÏĦÎ±": 764,
      "á¿ĸÎ½": 765,
      "Î¼Î¹": 766,
      "ĠÎ¸ÎµÏģÎ¼": 767,
      "ĠÎºÎ¿": 768,
      "ÏĥÏĢÎµÏģ": 769,
      "Î¿Ïį": 770,
      "ĠÎ±á½ĲÏĦá¿ĨÏĤ": 771,
      "Î¿Ïĥ": 772,
      "ĠÎºÎ±Î»": 773,
      "ÏĥÎ±ÏĤ": 774,
      "Ġâ¸Ģ": 775,
      "ÏĥÎ·ÏĤ": 776,
      "ĠÎºÎ±Ïģ": 777,
      "Î»Î»Î¿Î½": 778,
      "Ġá¼¥": 779,
      "Ġá¼±": 780,
      "á½¹ÏĤ": 781,
      "ÎµÏħ": 782,
      "ĠÎ´ÏħÎ½": 783,
      "ĠÎł": 784,
      "Î¯Î±ÏĤ": 785,
      "Î´Î¿": 786,
      "Ġm": 787,
      "on": 788,
      "Ġof": 789,
      "ĠÏĦá½³": 790,
      "Î±ÏħÏĦ": 791,
      "ÏĨÎ±Î»": 792,
      "ĠÎĴ": 793,
      "Ġf": 794,
      "ĠÏĢá½±": 795,
      "á½³Î¿Î½": 796,
      "Ġá½¥ÏĥÏĢÎµÏģ": 797,
      "ÏĥÎ¸ÎµÎ½": 798,
      "ÏģÎ¹Î¿ÏĤ": 799,
      "Î³Îº": 800,
      "Î¿á½¶": 801,
      "á½¶ÏĤ": 802,
      "Î¸á½³": 803,
      "Î´ÎµÎ¹": 804,
      "ĠÏĨÎ»Îµ": 805,
      "ĠÏĢÎ±Î½": 806,
      "ĠÎ¼á½µ": 807,
      "ÏĢÎµÎ½": 808,
      "Ġá¼ĢÏĨ": 809,
      "Ġand": 810,
      "ĠâĢĺ": 811,
      "ÎµÏĤ": 812,
      "ÎºÎ¿Ïħ": 813,
      "ĠÎ±á½": 814,
      "Ġá½ĥ": 815,
      "Î·Î»": 816,
      "ÏģÎ¹Î¿Î½": 817,
      "á¿¤á¿¥": 818,
      "Î±Î¹ÏĤ": 819,
      "Î²Î±": 820,
      "á¿¦Î½": 821,
      "ÏĦá½±": 822,
      "ÏĥÏĦÎµ": 823,
      "Ġá¼ĶÏĥÏĦ": 824,
      "ÏĢÎ±Î½": 825,
      "Î´Ïģ": 826,
      "ĠÎ¼Î·Î´": 827,
      "Ê¼": 828,
      "Î¸Î¿ÏĤ": 829,
      "ĠÎ¼ÎµÎ³": 830,
      "á½·Î½ÎµÏĦÎ±Î¹": 831,
      "Î¼Î±ÏĦÎ¹": 832,
      "ĠÎ¿á½Ĺ": 833,
      "ÎºÎµÎ¹": 834,
      "ĠÎºá½±": 835,
      "ÏĥÎµÎ½": 836,
      "ĠÎ´Ïħ": 837,
      "Ġá½ĳÏĢá½¸": 838,
      "Î¿Î½ÏĦÎ±Î¹": 839,
      "ÏĦá½³ÏģÎ±": 840,
      "en": 841,
      "á½·Î±": 842,
      "ĠÏĢÎ»Îµ": 843,
      "Î¹Î±": 844,
      "Î»á½³": 845,
      "á½¹Î¼ÎµÎ½Î¿Î½": 846,
      "ĠÏĦÎ¿Ïħ": 847,
      "ĠÎ»á½¹Î³": 848,
      "ÏĦá¿³": 849,
      "Ġá½ħÏĦÎ±Î½": 850,
      "Î·ÏĥÎ±Î½": 851,
      "Î¼ÎµÎ½Î¿Î½": 852,
      "ĠÎºÎ¹Î½": 853,
      "ĠÎ´á½´": 854,
      "Î·ÏĥÎµÎ½": 855,
      "Ïģá½¸Î½": 856,
      "Ïĥá¿ĥ": 857,
      "Î¿ÏħÏĥÎ¹": 858,
      "es": 859,
      "Ġá½ħÎ»": 860,
      "ÎºÎ¿": 861,
      "Î»ÎµÎ¹": 862,
      "ĠÎ¼ÎµÏĦÎ±": 863,
      "Ġá¼ĶÏĦÎ¹": 864,
      "ĠÎ¿á½ķÏĦÏī": 865,
      "up": 866,
      "ĠÏĢá¾¶": 867,
      "Ġá½§": 868,
      "ĠÎºá¾": 869,
      "Ġá¼°ÏĥÏĩ": 870,
      "ĠÎ¼á¾¶": 871,
      "Î¯Î±Î½": 872,
      "ll": 873,
      "ĠÎ½á¿¦Î½": 874,
      "ĠÏĥÏĢ": 875,
      "á½·Î¶": 876,
      "ĠÎ±á½ĲÏĦá½¸": 877,
      "ÏħÎ»": 878,
      "ĠÎĶ": 879,
      "Î·Î¸": 880,
      "á½·Î¿Ïħ": 881,
      "á½¼Î½": 882,
      "ĠÎ¤": 883,
      "Ġá½ĳÏĢÎ¿": 884,
      "á¿ĨÎ½Î±Î¹": 885,
      "ÏĥÏĦÎ¿Î½": 886,
      "ÏĦá½¸ÏĤ": 887,
      "ĠÏĥá½»": 888,
      "ĠÏĦÎ¿á½»ÏĦÏīÎ½": 889,
      "Ġá¼ĺ": 890,
      "ĠÎ¼Î¿": 891,
      "á¾¿": 892,
      "ĠV": 893,
      "Ġá¼ĲÏģ": 894,
      "ÎµÎ¹Î´": 895,
      "ĠÏĥá½½": 896,
      "ĠÎ³á½³Î½": 897,
      "ÏĢÎ½": 898,
      "Ġá½ł": 899,
      "Î¯Î½": 900,
      "Î¯Î¿Ïħ": 901,
      "ĠÎ¿á¼°": 902,
      "ĠÎµá¼¶ÏĢÎµÎ½": 903,
      "ĠÏĦÏģ": 904,
      "ĠÏĩÏģá½´": 905,
      "Î¼ÎµÎ½Î¿ÏĤ": 906,
      "ĠÎ»Îµ": 907,
      "á½³Ïĩ": 908,
      "ed": 909,
      "Îºá½±": 910,
      "ĠÎ¼á½±": 911,
      "ĠÎ¼á½³Ïģ": 912,
      "ĠÏĦÎ¿Î¹Î±": 913,
      "Ġá½ĦÎ½": 914,
      "ing": 915,
      "ĠÎ»á½³Î³": 916,
      "ÎŃÏģ": 917,
      "âģ": 918,
      "ĠÎ¼á½¹Î½Î¿Î½": 919,
      "ĠÎ¿á½ĲÎ´á½²": 920,
      "ĠF": 921,
      "Îµá½¶": 922,
      "ĠÎ¼á¾¶Î»Î»Î¿Î½": 923,
      "ĠÎ¿á¼¶": 924,
      "Î³ÏģÎ±": 925,
      "Î¼Î½": 926,
      "ÏĢÎ¿Ïħ": 927,
      "Ġá½§Î½": 928,
      "ÎµÎ¹Ïģ": 929,
      "á½¹ÏĦÎ·": 930,
      "ĠÏĢá½¹": 931,
      "Ġá¼¦Î½": 932,
      "ĠÎ´ÏħÎ½á½±": 933,
      "ĠÏĢÏħ": 934,
      "Ġá¼¤Î´Î·": 935,
      "Î¿Ïģ": 936,
      "ÏĥÏĥ": 937,
      "ĠÏĦÎ±á½»": 938,
      "ĠÎ±á½ĲÏĦá½´Î½": 939,
      "Ġá¼ĳÎ±ÏħÏĦ": 940,
      "ĠÎ´á½»Î½Î±": 941,
      "Ġ4": 942,
      "Î·Î³": 943,
      "ÏĥÏĦÎ±Î¹": 944,
      "ĠÏĢÎ½Îµ": 945,
      "ĠÎµÎ½": 946,
      "ÏĦÏĦ": 947,
      "ĠÏĢÎ¿Î»": 948,
      "Ġá¼ĦÏģ": 949,
      "ÎºÎµÎ½": 950,
      "ĠÏĦá½¹": 951,
      "ĠÎºÏħ": 952,
      "ĠÎ´á½³": 953,
      "Î±á½·": 954,
      "á½±ÏģÏĩ": 955,
      "Î±ÏĥÏĦ": 956,
      "Î¿Î½ÏĦÎ±": 957,
      "ĠÎºÎµÏĨÎ±Î»": 958,
      "ĠÎ»ÎµÏĢ": 959,
      "Ġv": 960,
      "ÏĦÎ¿Î¹ÏĤ": 961,
      "Î³Îµ": 962,
      "ĠÎ¼á½³Î½": 963,
      "Î³Î¼Î±": 964,
      "ÏģÎ¹Î²": 965,
      "ĠÏĨÎ±Ïģ": 966,
      "á½·ÏīÏĤ": 967,
      "ÎºÎµ": 968,
      "ĠÎ¿á½ĲÏĩ": 969,
      "Î¼ÎŃÎ½": 970,
      "ĠÎµá¼°Ïĥ": 971,
      "Â°": 972,
      "Îµá½·Î±ÏĤ": 973,
      "ĠÏĢÎµÏĢ": 974,
      "ÎºÏģ": 975,
      "áµĩ": 976,
      "ĠÎ¿á½ĲÎ´á½²Î½": 977,
      "ĠÏĦá½·": 978,
      "Ġá¼§": 979,
      "ou": 980,
      "ĠÎ±ÏħÏĦ": 981,
      "ĠÏĥÏħÎ½Îµ": 982,
      "Ġá½ĳÏĢá½±ÏģÏĩ": 983,
      "ĠÎĵ": 984,
      "om": 985,
      "Î¿Î¼á½³Î½ÏīÎ½": 986,
      "ÏĢÏĦ": 987,
      "ĠÎ¼Î¿Î¹": 988,
      "ĠÎ³Î½": 989,
      "Îµá¿ĸÏĦÎ±Î¹": 990,
      "ÏĥÏģÎ±": 991,
      "ĠÎ¼Î¹Îº": 992,
      "Ġá¼ĢÎ¼": 993,
      "á½±Îº": 994,
      "Ġá¼ħÎ¼Î±": 995,
      "á½µÎ»": 996,
      "ras": 997,
      "ÎµÏīÏĤ": 998,
      "Ġn": 999,
      "á½»Ïģ": 1000,
      "ĠÏĢÎµ": 1001,
      "Î´á½³": 1002,
      "Î·ÏĦ": 1003,
      "ĠÏĢÎ¬Î½": 1004,
      "ĠÏĦÏģá½·": 1005,
      "Ġto": 1006,
      "Îµá½·Î½": 1007,
      "ĠÎ±á½ĲÏĦÎ¿á½ºÏĤ": 1008,
      "Î¾Î±": 1009,
      "ĠÎ¿á½ĶÏĦÎµ": 1010,
      "Ġre": 1011,
      "ĠÏĥÎµ": 1012,
      "Î¿Î½ÏĦÎµÏĤ": 1013,
      "ĠÎ½Î¿Ïĥ": 1014,
      "Ġá¼ł": 1015,
      "Î¿Î¼ÎµÎ½": 1016,
      "ea": 1017,
      "ĠAF": 1018,
      "Î¸ÏģÏī": 1019,
      "Ġá¼ĲÏĩ": 1020,
      "ĠÏĢÎ±Ïģá½°": 1021,
      "ĠÏĨá½»ÏĥÎ¹Î½": 1022,
      "Î·Î¼": 1023,
      "Î±á½¶": 1024,
      "ÏīÎ¸": 1025,
      "ĠÎ¹": 1026,
      "Ġá¼ĢÏģÏĦÎ·": 1027,
      "ÎµÎ¾": 1028,
      "ĠÏĦá½±": 1029,
      "ĠÎºÎ±ÏģÎ´": 1030,
      "ÏĦÎ¿ÏħÏĤ": 1031,
      "ĠÎµá¼°ÏģÎ·": 1032,
      "á½½Î´": 1033,
      "Î¹Î²": 1034,
      "Î³ÎµÎ¹": 1035,
      "Ġá¼ĶÏĩÎµÎ¹": 1036,
      "Î±Ïħ": 1037,
      "Î¿á½·": 1038,
      "Ġá¼¡Î¼á¿¶Î½": 1039,
      "Î´Îµá½·": 1040,
      "ĠÎķ": 1041,
      "Î»Îº": 1042,
      "Î´Î¿ÏĤ": 1043,
      "st": 1044,
      "ĠÎ¼á½±Î»Î¹": 1045,
      "ic": 1046,
      "Ġl": 1047,
      "á½µÎ½": 1048,
      "ĠÎ²ÏģÎ±Ïĩ": 1049,
      "ĠÎºá½»": 1050,
      "á¾·": 1051,
      "ĠÎ»ÎŃ": 1052,
      "ĠÏĥÏĨÏħÎ³": 1053,
      "ĠÎºÏģ": 1054,
      "ĠÏĥÎ¿Î¹": 1055,
      "Î¾Ïī": 1056,
      "á½²ÏĤ": 1057,
      "Î¼Î¹Î½": 1058,
      "Î·ÏĦÎ±Î¹": 1059,
      "ĠÏĩÏħÎ¼": 1060,
      "ÏģÎ¿ÏĨ": 1061,
      "ĠÏĢÏģá½½": 1062,
      "Î¯Î±": 1063,
      "ĠÏĢÏģá¿¶": 1064,
      "Î´á½»": 1065,
      "âģ°": 1066,
      "Ġá½ħÏĥÎ±": 1067,
      "Ġá¼ĲÎ¼": 1068,
      "á½·ÏīÎ½": 1069,
      "Ġá¼ħÏĢÎ±Î½": 1070,
      "Î¼ÎµÎ¸Î±": 1071,
      "ĠT": 1072,
      "Ġd": 1073,
      "Ġá¼°Î±": 1074,
      "ĠH": 1075,
      "Î±ÏĨ": 1076,
      "Ġá¼µ": 1077,
      "ĠÎ¼á½´Î½": 1078,
      "Ġá¼ĢÎºÏģÎ¹Î²": 1079,
      "ĠÎ´Î¹Î±ÏĨÎ¿": 1080,
      "id": 1081,
      "ÏĥÏĦÎµÏģ": 1082,
      "ĠÏĢÏħÏģÎµ": 1083,
      "Î´Î¿Î½": 1084,
      "ĠÎºÎ±Î¸á½±": 1085,
      "ÏĮÏĤ": 1086,
      "Î´ÎµÏĤ": 1087,
      "ÏĦÎµÎ¹Î½": 1088,
      "ĠÎ¼á½¹": 1089,
      "ÏĩÏģÎ¹": 1090,
      "á¿¶Î¼Î±": 1091,
      "Ġá¼ĳÎºá½±": 1092,
      "Ġá½ĢÎ½Î¿Î¼": 1093,
      "ĠÎºÎ±Î¸á½±ÏĢÎµÏģ": 1094,
      "Ġá¼ĲÏĥÏĦá½¶": 1095,
      "Ġsup": 1096,
      "á¿ĨÎ½": 1097,
      "Ġá¼ĲÎºÎµá½·Î½": 1098,
      "ÏĩÎ½": 1099,
      "ĠÎ²Î±ÏĥÎ¹Î»Îµ": 1100,
      "ÏĩÎ¸": 1101,
      "ĠÎ´Î¹á½±": 1102,
      "ĠÎºá¾Ģ": 1103,
      "ÏĦÏĦÎ¿Î½": 1104,
      "Î¿ÏħÏĥ": 1105,
      "Ġá¼¸ÏĥÏģÎ±": 1106,
      "Î¼ÏīÎ½": 1107,
      "ÏĦá¿¶Î½": 1108,
      "ĠÎ¾Î·": 1109,
      "ĠÏĥÏĨÏħÎ³Î¼": 1110,
      "ĠÏĨÎ±ÏģÎ¼á½±": 1111,
      "Î¬Ïģ": 1112,
      "Ġbe": 1113,
      "..": 1114,
      "Ġras": 1115,
      "ĠÏĨÏħ": 1116,
      "á½µÏĥÎµÏĦÎ±Î¹": 1117,
      "Ġá¼¹": 1118,
      "Î¾Î¹": 1119,
      "at": 1120,
      "ÎºÏīÎ½": 1121,
      "Î¿Î¼Î±": 1122,
      "ĠÎļÏį": 1123,
      "ÏħÎ¸": 1124,
      "Îµá¿ĸÏĥÎ¸Î±Î¹": 1125,
      "Ġis": 1126,
      "Î»Î¸": 1127,
      "Î¿á¿¦ÏĦÎ¿Î½": 1128,
      "Î»ÎŃ": 1129,
      "ÏĨÎ±": 1130,
      "ii": 1131,
      "ÏģÎ·ÏĦÎ±Î¹": 1132,
      "ĠÏĦÏģÎ¹": 1133,
      "ĠÎ¼Ïħ": 1134,
      "Î»Î·Î¸": 1135,
      "ĠÏĢá½±Î½ÏĦÎ±": 1136,
      "ĠÏĩÏģá½¹Î½": 1137,
      "ĠÎ±Ïħ": 1138,
      "Ġá½ĢÏĥÏĦ": 1139,
      "Î´Ïī": 1140,
      "Î·ÏĥÎ¹Î½": 1141,
      "Ïģá½·Î±ÏĤ": 1142,
      "Ïģá½·Î¿Ïħ": 1143,
      "Ġ5": 1144,
      "Ġá½ĢÎ»á½·": 1145,
      "Ġá½ģÎ¼Î¿": 1146,
      "Î»Î¿Ïħ": 1147,
      "Î¿ÏĢ": 1148,
      "Ġá¼ĶÎ¼ÏĢ": 1149,
      "ĠÏĥÏĩ": 1150,
      "ÏĥÎ¸Îµ": 1151,
      "Î¼Î·Î½": 1152,
      "Î¼Î±Ïģ": 1153,
      "ĠAQ": 1154,
      "ÏĢÏĢÎ¿": 1155,
      "Ġá¼Ĳá½°Î½": 1156,
      "ÏĦÎµÏģÎ±": 1157,
      "ÏģÎ¹Î±": 1158,
      "ÎºÏģá½±": 1159,
      "Ġá¼¹ÏĢÏĢÎ¿": 1160,
      "ÏħÏĢ": 1161,
      "Ġá¼ĲÏĥÏĦá½¶Î½": 1162,
      "Îºá½¹": 1163,
      "Ġá¼ĢÎ½Î¸Ïģ": 1164,
      "Ġá¼ĶÏĥÏĦÎ±Î¹": 1165,
      "ÏĦá½³": 1166,
      "ĠÏĥá½º": 1167,
      "ÎºÎ±Î½": 1168,
      "ĠÎºÎ¿Î¹": 1169,
      "ĠS": 1170,
      "ot": 1171,
      "ĠI": 1172,
      "ÏĦá½¸Î½": 1173,
      "ĠÎ¼á½±Î»Î¹ÏĥÏĦÎ±": 1174,
      "ĠÏĥá¿¶Î¼Î±": 1175,
      "ĠÎ´Î¿": 1176,
      "ÏĥÏĦÎ·": 1177,
      "á½·Î¿Î½": 1178,
      "Î¼á½³Î½Î¿Î½": 1179,
      "ÎºÎ½": 1180,
      "ĠÎ¼ÎŃ": 1181,
      "Î¾ÎµÎ¹": 1182,
      "se": 1183,
      "ĠÏĢá½³": 1184,
      "Ġá¼¡Î¼á½³ÏģÎ±": 1185,
      "Ġá¼¡Î¼á¿ĸÎ½": 1186,
      "Î¹Î¿Î½": 1187,
      "ĠÎ±á½ĲÏĦá½¸ÏĤ": 1188,
      "Ġe": 1189,
      "ĠL": 1190,
      "ÏĦá¿ĥ": 1191,
      "Î½ÎµÏĦÎ±Î¹": 1192,
      "Ïģá½·ÏīÎ½": 1193,
      ".]": 1194,
      "Ġá¼ĦÎ»Î»ÏīÎ½": 1195,
      "Î¼á½³Î½Î¿Ïħ": 1196,
      "xx": 1197,
      "ĠÎ¸ÎµÏģÎ¼Î±": 1198,
      "Ġá½ĳÎ¼á¿¶Î½": 1199,
      "á½±Î½ÏĦÏīÎ½": 1200,
      "ĠÎ§": 1201,
      "ĠÎ³Î¹Î½": 1202,
      "ÏīÏĥÎ¹Î½": 1203,
      "Ġá¼ĲÎ³á½¼": 1204,
      "Î´Î¿Ïħ": 1205,
      "Î¿ÏĨ": 1206,
      "á¼°": 1207,
      "Î¸ÎµÎ¹": 1208,
      "ĠHe": 1209,
      "ĠÎ³Î±ÏĥÏĦ": 1210,
      "ĠÏĢÎ¹": 1211,
      "Ġá¼ĲÎ¼ÏĢ": 1212,
      "ÏĦÎ¿Î¼": 1213,
      "ĠÎµá½ĳ": 1214,
      "Î¾Î¹Î½": 1215,
      "Ġï": 1216,
      "ÏĨá½³Ïģ": 1217,
      "Ġha": 1218,
      "Ïģá½¹ÏĦÎ·": 1219,
      "ĠÏĨá½±Ïģ": 1220,
      "Î¼Î¿Ïħ": 1221,
      "ÏĥÏĦá½±": 1222,
      "ĠÎ´ÏħÎ½á½±Î¼Îµ": 1223,
      "á¿ĨÏĥÎ±Î¹": 1224,
      "Î¼ÎµÎ½Î¿Î¹": 1225,
      "ÏĦá½µ": 1226,
      "Ġ6": 1227,
      "ÏĢÎ»": 1228,
      "Î»Î·Ïģ": 1229,
      "Î»Î±Î²": 1230,
      "ĠÏĦÏģá½¹": 1231,
      "Ġá¼ĲÏĢá½·": 1232,
      "ÏĨÎ¸Î±Î»": 1233,
      "ĠÎ¿á¼°Îº": 1234,
      "Î¿á¿¦ÏĤ": 1235,
      "Ġá¼ĢÎ³": 1236,
      "ĠÎ³á½·": 1237,
      "ĠÎ´á½»Î¿": 1238,
      "Ġá¼ĦÎ½Î¸ÏģÏī": 1239,
      "Î¹Î»": 1240,
      "Î¿Î½ÏĦÎ¿ÏĤ": 1241,
      "ĠÎļÎ±á½¶": 1242,
      "Î³ÎºÎ±": 1243,
      "Ġá¼£": 1244,
      "ÎºÎ¿ÏĤ": 1245,
      "Î¹Î³Î½": 1246,
      "Î¼Î¿Î¹": 1247,
      "Ġ10": 1248,
      "ĠR": 1249,
      "ÎµÏĦÎ¿": 1250,
      "Ïĥá½·": 1251,
      "Î³ÎµÎ½": 1252,
      "Î·Î¼Î±": 1253,
      "ĠC": 1254,
      "ĠÏĥÏħÎ¼ÏĢ": 1255,
      "á½µÏĥÎµÏīÏĤ": 1256,
      "á½±ÎºÎ¹ÏĤ": 1257,
      "á½¹ÏĦÎ¹": 1258,
      "ĠÏĦÎ¹Î½Î±": 1259,
      "ĠÎ³á½·Î½ÎµÏĦÎ±Î¹": 1260,
      "á½´Î»": 1261,
      "Ġá¼ĢÎ³Î±": 1262,
      "Î±Î²": 1263,
      "Ġá¼¹ÏĢÏĢÎ¿ÎºÏģá½±": 1264,
      "Ġ8": 1265,
      "ÏĦÎŃ": 1266,
      "Ġá¼ĶÎ¾Ïī": 1267,
      "ĠÎºÎ±á½·": 1268,
      "ĠÎºÎ¿Î¹Î½": 1269,
      "Ġá¼ħÏĢÎ±": 1270,
      "Ġá¼¤ÏĦÎ¿Î¹": 1271,
      "ÏĥÎ¿Î½ÏĦÎ±Î¹": 1272,
      "ĠÎ¼Î±": 1273,
      "ÎºÎ±Î¹": 1274,
      "ĠÎµÎ¹": 1275,
      "ÎµÎ²": 1276,
      "ĠÎ³Î»": 1277,
      "Î¿á¿¦ÏĥÎ¹Î½": 1278,
      "ĠÏĥÎ¼": 1279,
      "Ġth": 1280,
      "á½²Ïģ": 1281,
      "ly": 1282,
      "ĠÎ¿Ïħ": 1283,
      "ĠÎŁ": 1284,
      "ar": 1285,
      "á½±Î³": 1286,
      "ÏĦá½»": 1287,
      "Ġá½¥ÏĥÏĦÎµ": 1288,
      "á½µÏĥÎµÎ¹": 1289,
      "ĠÎ¾Î·Ïģ": 1290,
      "ĠÎµá¼´ÏģÎ·ÏĦÎ±Î¹": 1291,
      "ĠHeb": 1292,
      "á½¹Î¼ÎµÎ½Î¿ÏĤ": 1293,
      "Ġá¼ĥ": 1294,
      "Î½Î·ÏĤ": 1295,
      "Ġá¼ĲÎ½Î±Î½": 1296,
      "ĠÎ¼Î±Î»": 1297,
      "Ġá¼ķÎºÎ±": 1298,
      "Ġá½ĳÏĢá½²Ïģ": 1299,
      "Ġfor": 1300,
      "á½¹Î¼ÎµÎ½Î±": 1301,
      "ĠÎ´ÏħÎ½Î±": 1302,
      "ÏĥÏĢ": 1303,
      "Ġá½ĢÎ¾": 1304,
      "ĠÎĽ": 1305,
      "Ġá½ĢÎ½Î¿Î¼á½±Î¶": 1306,
      "Ġá¼£Î½": 1307,
      "Ġ[": 1308,
      "Î¿Î¼Î±Î¹": 1309,
      "Ġá½ĢÏĨÎ¸Î±Î»": 1310,
      "ĠÎ¿á¼·Î¿Î½": 1311,
      "ĠÏĨá½±ÏģÎ¼Î±": 1312,
      "ĠÎ¶á½½": 1313,
      "Ġá¼°Î´": 1314,
      "ĠBáµĥ": 1315,
      "ÏĢÎ¿ÏĤ": 1316,
      "ĠÏĥÏī": 1317,
      "ĠÎºÎµÎ½": 1318,
      "Î¼á½³Î½Î¿Î¹ÏĤ": 1319,
      "Î½ÎµÎ¹Î½": 1320,
      "ĠÏĢÏģá¿¶ÏĦÎ¿Î½": 1321,
      "ĠÎºÎ±Îº": 1322,
      "ÏģÎ¿ÏĥÎ¸ÎµÎ½": 1323,
      "ĠÎ»á½³": 1324,
      "Ġá¼ĦÎ»Î»Î¿": 1325,
      "ĠÏĦÎ¿á¿¦ÏĦ": 1326,
      "Ġá¼ģÏĢÎ»": 1327,
      "ĠÏĥá½½Î¼Î±ÏĦÎ¿ÏĤ": 1328,
      "Î»ÏīÎ½": 1329,
      "ĠÏĩÎ±Î»": 1330,
      "ĠÎ»á½¹Î³Î¿Î½": 1331,
      "ĠÎ±á¼°ÏĥÎ¸": 1332,
      "ĠÏĦÏģÎ¿ÏĨ": 1333,
      "Ġas": 1334,
      "ĠÎ±á½ĲÏĦá½°": 1335,
      "ĠÏĢÎ±Ïĩ": 1336,
      "ĠÎ¼á½³ÏģÎ¿ÏĤ": 1337,
      "á¼Ģ": 1338,
      "ĠÏĥÏħÎ¼Î²": 1339,
      "ĠÎµá¼´Î·": 1340,
      "ĠÏĥÏĨÎ¿": 1341,
      "ĠÏĥÎ±ÏĨ": 1342,
      "Î¯ÏīÎ½": 1343,
      "ĠÎºÎ±ÏĦá½±": 1344,
      "Ġá¼ĢÎºÏģÎ¹Î²á¿¶ÏĤ": 1345,
      "Ġá¼ĶÎ¼ÏĢÏģÎ¿ÏĥÎ¸ÎµÎ½": 1346,
      "Ġá¼ĳÎºá½±ÏĥÏĦ": 1347,
      "ut": 1348,
      "ÏĦÎ±á½·": 1349,
      "ĠÏĢá½±Î»": 1350,
      "ĠÎ¸ÎµÏģÎ±": 1351,
      "Ġá¼ĲÏĨÎµÎ¾": 1352,
      "Ïģá¿¶Î½": 1353,
      "ÏģÏĩ": 1354,
      "ĠÎ»á½·": 1355,
      "ĠÎ»ÏĮ": 1356,
      "Ġ(-": 1357,
      "ĠÏĦÎ¿Î¹Î¿á½»": 1358,
      "Î¾Î±Î½": 1359,
      "Î³Ïī": 1360,
      "Ġá¼ķÏīÏĤ": 1361,
      "ĠÎ±á¼µ": 1362,
      "ÏģÎ¿Ïħ": 1363,
      "ÎµÏģÎ³": 1364,
      "ÎºÎ»": 1365,
      "Î¼á½³Î½Î·ÏĤ": 1366,
      "ĠÏĢÎ¿ÏĦ": 1367,
      "ÏģÏīÎ½": 1368,
      "ÏĢá½·": 1369,
      "ĠÎ±á¼·": 1370,
      "mg": 1371,
      "ĠÎ¿á¼´": 1372,
      "Ġá¼ĲÏĨÎµÎ¾á¿ĨÏĤ": 1373,
      "á½³Î½Î±Î¹": 1374,
      "Ġá¼±ÎºÎ±Î½": 1375,
      "an": 1376,
      "ÏĢÏīÏĤ": 1377,
      "ĠÎ±á½ĲÏĦá¿ĩ": 1378,
      "ĠÎ±á½ĸ": 1379,
      "ÏīÏģá½·": 1380,
      "ion": 1381,
      "Ġ9": 1382,
      "ĠÏĢÏĮ": 1383,
      "ĠÏĢá½±Î»Î¹Î½": 1384,
      "Ġá¼ĲÎ»Î±": 1385,
      "ĠÎ¦": 1386,
      "Ġá¼ĶÏĥÏĦÎ¹": 1387,
      "á½µÏĥÎµ": 1388,
      "ĠÏĢÎ¿Î»Î»á½±ÎºÎ¹ÏĤ": 1389,
      "Î¿Î¯": 1390,
      "Ġá¼ĲÎ»": 1391,
      "Ïģá½¸ÏĤ": 1392,
      "Î¬Î»": 1393,
      "ĠÏĦÎ¿á½»ÏĦÎ¿Î¹ÏĤ": 1394,
      "»¿": 1395,
      "Ġï»¿": 1396,
      "ĠÎ½á½¹": 1397,
      "áµį": 1398,
      "á½µÏĥÎµÎ¹ÏĤ": 1399,
      "ĠÎ³á¿ĨÏĤ": 1400,
      "ĠÎµá¼°ÏĢ": 1401,
      "Î¼á¿¶Î½": 1402,
      "Î¸Î¿ÏħÏĤ": 1403,
      "ÏģÎ±Î¹": 1404,
      "Îµá½»": 1405,
      "Î³Ïĩ": 1406,
      "RE": 1407,
      "ĠÏĩÎµÎ¹Ïģ": 1408,
      "Î¿Î¼ÎŃÎ½": 1409,
      "ÏħÏģÎ¯Î¿Ïħ": 1410,
      "ÏĢÎµÎ¹": 1411,
      "á½·á¾³": 1412,
      "á½±Î»Î»": 1413,
      "Ïģá½³": 1414,
      "REV": 1415,
      "Ġá¼ĢÎ½á½±": 1416,
      "Ġá¼ģÏĢá½±Î½ÏĦÏīÎ½": 1417,
      "ĠÏĢÎ¿Î»á½º": 1418,
      "ĠÎºá½±ÏĦÏī": 1419,
      "Î¼Î·": 1420,
      "ÏĥÎ±ÏĥÎ¸Î±Î¹": 1421,
      "Î¼Î±Î¹": 1422,
      "ĠÏĢÎ±Î¹": 1423,
      "ĠâĢĻ": 1424,
      "ĠÎ¿á½ĲÏĥ": 1425,
      "Î²Î¿Î»": 1426,
      "Ġá½ħÏĥÎ¿Î½": 1427,
      "ĠD": 1428,
      "ÏĦá½³ÏģÏīÎ½": 1429,
      "ĠAB": 1430,
      "Ġá½ĳÏĢÎµÏģ": 1431,
      "ĠÎļÏįÏģÎ¹Î¿ÏĤ": 1432,
      "BREV": 1433,
      "ve": 1434,
      "ÏģÎ¿á¿¦": 1435,
      "Ġá¼ĲÏĢÎµÎ¹Î´": 1436,
      "Î´ÎµÎ»": 1437,
      "im": 1438,
      "Î¹Î¿Î¹": 1439,
      "ĠÎ´Î·": 1440,
      "ĠÏĦÎ¿Î¹Î±á½»": 1441,
      "ĠÎ²Î¿": 1442,
      "ĠÎ¸ÎµÎ¿á¿¦": 1443,
      "ĠÏĩÏīÏģ": 1444,
      "ĠABBREV": 1445,
      "Ġá½ķÎ´Î±": 1446,
      "ÏĢÎ¿Î¹": 1447,
      "ÎºÎ¹": 1448,
      "Ġá¼°ÏĥÏĩÏħÏģ": 1449,
      "Îĳ": 1450,
      "ĠÏĩÎµá¿ĸ": 1451,
      "Î¼ÎµÎ½Î±": 1452,
      "Ġá¼¡Î¼á¾¶ÏĤ": 1453,
      "Ġá¼ĲÎ½á½·": 1454,
      "Î½ÏĦÏīÎ½": 1455,
      "Îµá¿ĸÎ¿Î½": 1456,
      "ĠÎ¼Î±Îº": 1457,
      "Î¸Î±Î½": 1458,
      "Ġá¼ĢÎ»": 1459,
      "Ïģá½°": 1460,
      "Ġá¼°Î±ÏĦÏģ": 1461,
      "ĠÎĿ": 1462,
      "ĠÏĨÎ»ÎµÎ³": 1463,
      "Ġá¾ĸ": 1464,
      "ĠÎµÏĢÎ¹": 1465,
      "Î¼Î±ÏĥÎ¹Î½": 1466,
      "Â°]": 1467,
      "Ġá¼µÎ½Î±": 1468,
      "ĠÏĨÎ»ÎµÎ²": 1469,
      "ĠÎµá½ĲÎ¸": 1470,
      "á¿¶Î´ÎµÏĤ": 1471,
      "ĠÎµá½Ķ": 1472,
      "â¸": 1473,
      "ÏĦÎ¯": 1474,
      "ĠÎ¼ÎµÎ³á½±Î»": 1475,
      "Ġá¼ĲÏģÎ³": 1476,
      "ĠÏĢÏħÏģ": 1477,
      "Ġá¼ĢÏģÎ¹": 1478,
      "ĠÎ³Ïģá½±": 1479,
      "â¸ĥ": 1480,
      "Ġâ¸Ĥ": 1481,
      "á½·Î½ÎµÏĥÎ¸Î±Î¹": 1482,
      "ĠÏĢÎ±ÏģÎµ": 1483,
      "Ġ7": 1484,
      "Ġ?": 1485,
      "ÏĨÏħ": 1486,
      "ÎµÏģá¿¶Î½": 1487,
      "Ġ11": 1488,
      "ĠÏĨÏīÎ½": 1489,
      "ĠÎ´ÏħÎ½á½±Î¼ÎµÏīÏĤ": 1490,
      "ÎµÎ¯": 1491,
      "ĠÎ³á½·Î³": 1492,
      "ĠÏĢÏģÎ±": 1493,
      "Ġá¼ĳÎºÎ±": 1494,
      "ĠÎºÎ±ÏĦÎµ": 1495,
      "ĠÎ±ÏħÏĦÎ¿Ïħ": 1496,
      "ĠÏĢÎ±Î»": 1497,
      "á¿ĨÏĥÎ¸Î±Î¹": 1498,
      "Î»Î¿Î³": 1499,
      "ĠÎ²Î¿Ïħ": 1500,
      "á½·Î½ÎµÎ¹": 1501,
      "ĠÏĦÎ¿Ïį": 1502,
      "Ġ14": 1503,
      "Î³ÏģÎ±Î¼": 1504,
      "Î¼á½³Î½Î±": 1505,
      "Ġá½ħÏĢÏīÏĤ": 1506,
      "us": 1507,
      "ĠÎ¸Ïħ": 1508,
      "ĠÎºá½¹": 1509,
      "Î¿Î¹ÏĦÎ¿": 1510,
      "ÏĩÎ¸Î·": 1511,
      "Î¿Ïĩ": 1512,
      "ĠÏĩÎ¿Î»": 1513,
      "Î´ÏģÎ±": 1514,
      "ÏĥÎ¸Î·": 1515,
      "Î¿á½»ÏĥÎ·ÏĤ": 1516,
      "Ġh": 1517,
      "ĠÎ³á½±Ïģ": 1518,
      "ĠÎ¿á¼·ÏĤ": 1519,
      "ĠÏĨÎ»ÎµÎ³Î¼Î¿Î½": 1520,
      "ÏĢÏīÎ½": 1521,
      "ĠÏĢÎ½Îµá½»": 1522,
      "ÏĪÎµÎ½": 1523,
      "Î®Î»": 1524,
      "ĠÎ¼á½µÏĦÎµ": 1525,
      "Î´ÏīÎ½": 1526,
      "Ġá½ģÎ´": 1527,
      "ÏģÎ¬": 1528,
      "ÏĢÏī": 1529,
      "ĠÎºÏģá½·": 1530,
      "ĠÎ³ÎµÎ½á½³": 1531,
      "áµĲ": 1532,
      "Î±ÏģÎ³": 1533,
      "ĠÏĥÎ¹": 1534,
      "Î½ÎµÏħ": 1535,
      "ĠÎ³Î¿á¿¦Î½": 1536,
      "ÏĦÎµÏģÎ¿ÏĤ": 1537,
      "hat": 1538,
      "ĠÏĦÎ¿á½»ÏĦÎ¿Ïħ": 1539,
      "Ġá½ĢÏģ": 1540,
      "Î¿ÏĦÎµ": 1541,
      "Î»Îµá½·": 1542,
      "ÎĻ": 1543,
      "ĠÏĦÎ¿Ïĥ": 1544,
      "Ġá¾§": 1545,
      "ÏĥÎ¿Î¹": 1546,
      "ĠÎ´á½»Î½Î±Î¼Î¹Î½": 1547,
      "ĠÎ´ÏħÏĥ": 1548,
      "ÏĥÎºÎµÏħ": 1549,
      "Ġá¼ĦÎ½Ïī": 1550,
      "Î±Î³": 1551,
      "Î¼Î¬": 1552,
      "ÏĩÎµÎ¹": 1553,
      "Ġá¼ķÏĦÎµÏģÎ¿Î½": 1554,
      "ĠÏĢÏģá½¸": 1555,
      "Ġá¼ģÎ¼Î±Ïģ": 1556,
      "ĠÎ³ÏħÎ¼": 1557,
      "Ġá½ĢÏģÎ³": 1558,
      "ĠâĻ": 1559,
      "Î®Î½": 1560,
      "ĠâĻĥ": 1561,
      "Î±ÏģÎº": 1562,
      "Î¯á¾³": 1563,
      "ĠBáµĥáµĩ": 1564,
      "Ġá¼ĶÏĥÏĦÎ¹Î½": 1565,
      "Î¼Î¼Îµ": 1566,
      "Î³Î½Ïī": 1567,
      "ith": 1568,
      "ÏĥÏĦÎ¹Îº": 1569,
      "Ġá¼ĢÎ½Î±Î³ÎºÎ±": 1570,
      "ÏĥÏĦÎµÏģÎ¿Î½": 1571,
      "ĠÎ¼á½³Î½ÏĦÎ¿Î¹": 1572,
      "ĠÎ´Î¹Î±Î¸á½³": 1573,
      "ĠÏĦÎ·Î½": 1574,
      "ĠÏĨÎ±ÏģÎ¼á½±ÎºÏīÎ½": 1575,
      "ĠÎ´á½³Ïģ": 1576,
      "AQ": 1577,
      "ÏĦá½¶": 1578,
      "á½·Î½ÎµÎ¹Î½": 1579,
      "ĠÎ£Î±": 1580,
      "ÏĦÎ±á¿¦": 1581,
      "áµĲáµį": 1582,
      "Ġsha": 1583,
      "Î³Î¹": 1584,
      "ĠÎ±á¼´": 1585,
      "Ġ13": 1586,
      "ab": 1587,
      "ĠÎºÎ¿Î¹Î»": 1588,
      "ĠÎ²Î¹Î²": 1589,
      "ĠÎµÎº": 1590,
      "Ġá¼ĢÎ¼ÏĨ": 1591,
      "ĠÎ´á½·": 1592,
      "á½´ÏĤ": 1593,
      "Ġá¼ĢÎ½ÏĦÎ¹": 1594,
      "Î¸Î¹": 1595,
      "ĠÎ»Î¿Î³": 1596,
      "Ġit": 1597,
      "ĠÎ±á¼°ÏĦ": 1598,
      "ĠÏ²": 1599,
      "ÏģÏħ": 1600,
      "ĠÎļÏħ": 1601,
      "Î»Î¿ÏĤ": 1602,
      "Î®ÏĥÎµÏĦÎ±Î¹": 1603,
      "Î¾Îµ": 1604,
      "ĠE": 1605,
      "ĠQmg": 1606,
      "ĠÏĨÎ±á½·Î½ÎµÏĦÎ±Î¹": 1607,
      "ĠÏĦÎ¿Î¹Î±á¿¦ÏĦÎ±": 1608,
      "ÏģÎ¹Îº": 1609,
      "ord": 1610,
      "ĠÎ»Î¹": 1611,
      "Ġ??": 1612,
      "Î¿ÏħÏĥÎ±": 1613,
      "ĠÎ´ÎµÏħÏĦ": 1614,
      "ĠÎ¼Î·Î´á½²Î½": 1615,
      "ĠÎ¼Î¹": 1616,
      "ĠÎµá¼°Ïģ": 1617,
      "ĠÎ±á¼·Î¼Î±": 1618,
      "ÏģÏī": 1619,
      "Ġá¼ĢÎ³Î³": 1620,
      "ĠÎ´Î¹Î±ÏĨÎ¿Ïģ": 1621,
      "ĠÎ±Î½": 1622,
      "ers": 1623,
      "á½·ÏĥÏĦ": 1624,
      "Ġá¼ĲÎ½ÎµÏģÎ³": 1625,
      "ro": 1626,
      "Ġá¼ĢÎ³Î±Î¸": 1627,
      "ĠÎ´Î¿Îº": 1628,
      "ÎµÎ¹Î»": 1629,
      "á½µÎ¼Î±ÏĦÎ±": 1630,
      "ĠÏĦÎ¿Î¹Î¿á¿¦ÏĦÎ¿Î½": 1631,
      "ĠÎ¸Îµá½¸ÏĤ": 1632,
      "ĠÎ¿á½ĹÏĦÎ¿ÏĤ": 1633,
      "ÏģÎ¹Î¼": 1634,
      "Î¿Î¼á½³Î½Î·ÏĤ": 1635,
      "ĠÏĦÎ¿á¿ĸ": 1636,
      "Ġ12": 1637,
      "ĠÎ¼Î±Î»Î±Îº": 1638,
      "Î´Î±ÏĤ": 1639,
      "Î½ÎµÏĥÎ¸Î±Î¹": 1640,
      "ÎµÎº": 1641,
      "ÏĥÎ±ÏĦÎ¿": 1642,
      "ĠÏĢÎ»á½³Î¿Î½": 1643,
      "á½½ÏģÎ±": 1644,
      "Î¼á½³Î½Î·Î½": 1645,
      "ÏĦÎ¿á¿¦": 1646,
      "á½¹ÏĦÎ·ÏĦÎ±": 1647,
      "ÏĦá½¹Î½": 1648,
      "Ġá¼ĵ": 1649,
      "ÏģÎ¿ÏĤ": 1650,
      "ĠÏĩÏīÏģá½¶ÏĤ": 1651,
      "á½´Ïģ": 1652,
      "ĠÎ¼Î¿Ïģá½·ÏīÎ½": 1653,
      "Ġá¼ĦÎ»Î»Î±": 1654,
      "ĠÎ¸ÏħÎ¼": 1655,
      "Ġá¼ķÎºÎ±ÏĥÏĦÎ¿Î½": 1656,
      "ĠÏĢÎ¿ÏĦÎµ": 1657,
      "Ġá½ģÏģ": 1658,
      "ÏģÎµá½»": 1659,
      "ĠÎ´Ïį": 1660,
      "Ġá¼ĢÎ»Î»á½µÎ»": 1661,
      "á½½ÏĥÎº": 1662,
      "Ġá¼¡Î¼ÎŃ": 1663,
      "ĠÏĥÏĦá½¹": 1664,
      "ÏĦÎ±á¿¦Î¸Î±": 1665,
      "Ġá¼ĶÏĩÎµÎ¹Î½": 1666,
      "Î¿Î¾": 1667,
      "hab": 1668,
      "ÎµÏĥ": 1669,
      "ÏĨá½»": 1670,
      "Ġá¼ĶÏĨ": 1671,
      "ĠÏĦÎ¿á½»ÏĦá¿³": 1672,
      "ĠÏĦÏģá½¹ÏĢÎ¿Î½": 1673,
      "á¿ĸÎ¿Î½": 1674,
      "ĠÎ³Î¹Î³Î½": 1675,
      "ÏĦá½³ÏģÎ±ÏĤ": 1676,
      "Î·Îº": 1677,
      "ce": 1678,
      "ĠÎ¿á¼´Î½": 1679,
      "á¿¦Î¼Î±": 1680,
      "ĠÎºá¾ĢÎ½": 1681,
      "ĠÎ´Î±Îº": 1682,
      "al": 1683,
      "Î´Î¹Îº": 1684,
      "em": 1685,
      "Ġá¼ĲÎºÎµá¿ĸ": 1686,
      "Ġá¼ĲÎ³á½³Î½": 1687,
      "ÎºÏĦÎ±Î¹": 1688,
      "Î±Ïĥ": 1689,
      "ĠÎ´Î¹Î´": 1690,
      "ĠÏĩÎµÎ¹": 1691,
      "Î¿Î½ÏĦÎ±ÏĤ": 1692,
      "Î¾ÎµÎ½": 1693,
      "ĠÏĦÎµÏĦ": 1694,
      "il": 1695,
      "Ġá½ĥÎ½": 1696,
      "á½»Î½": 1697,
      "ĠThe": 1698,
      "ĠÏĦÎŃ": 1699,
      "ĠÏĢá½±Î½ÏĦÏīÎ½": 1700,
      "Ġá½ģÎ¼Î¿á½·ÏīÏĤ": 1701,
      "Î³ÏīÎ½": 1702,
      "Ġá¼ĢÏĥ": 1703,
      "ĠÏĢá¾¶Î½": 1704,
      "Î»Î¸ÎµÎ½": 1705,
      "Î¼Î¿á½¶": 1706,
      "Ġá½ħÎ»ÏīÏĤ": 1707,
      "Ġhe": 1708,
      "Ġ15": 1709,
      "Î¿Î¹Îº": 1710,
      "ĠÎ»á½¹Î³á¿³": 1711,
      "Ġá¼ĢÎ½Î¸Ïģá½½": 1712,
      "ĠÎľÏī": 1713,
      "Î»Î¹Îº": 1714,
      "ĠÏĩÎ¹": 1715,
      "ĠÏĦÎµÎ»Îµ": 1716,
      "ĠÎºÏģÎ¹": 1717,
      "ÏĦá½³ÏģÎ±Î½": 1718,
      "ĠÎ³á¿ĨÎ½": 1719,
      "Îĵ": 1720,
      "Î¿Î¼á½³Î½Î¿Ïħ": 1721,
      "Ġg": 1722,
      "ĠÏĨá½±ÏģÎ¼Î±ÎºÎ¿Î½": 1723,
      "Î±Î½Î±": 1724,
      "á½½Î´Î·": 1725,
      "ĠÎ¿Î¹": 1726,
      "ĠÏĦÎ¿á½·Î½": 1727,
      "ĠÏĦÎ¿á½·Î½ÏħÎ½": 1728,
      "cr": 1729,
      "Î¿Î²": 1730,
      "ĠÎºá½·Î½": 1731,
      "Ġá¼ĢÎ´ÎµÎ»": 1732,
      "ĠÎ³ÏħÎ½": 1733,
      "á½½Î½": 1734,
      "ÏĥÏĦÎ¿Î»": 1735,
      "ÏĦÎ¹Î¿Î½": 1736,
      "Ġshall": 1737,
      "ĠÏĢÎ¿ÏĦá½²": 1738,
      "Ġá¼ĲÎ´": 1739,
      "ĠÏĢÎ±Î½ÏĦá½¸ÏĤ": 1740,
      "Ġ16": 1741,
      "ĠÏĦÎ±Ïĩ": 1742,
      "ĠÎ½Î¿Î¼": 1743,
      "ĠÏĦÎ¯": 1744,
      "Ġá¼ĳÏĦá½³Ïģ": 1745,
      "ĠÏĢÎ±Î»Î±Î¹": 1746,
      "Î¸Î¼": 1747,
      "Ġnot": 1748,
      "Î»Î»Î±": 1749,
      "Ġá¼ĳÎ½": 1750,
      "Î»Ïħ": 1751,
      "Î²Î·": 1752,
      "ĠÏħá¼±Î¿á½¶": 1753,
      "Ġal": 1754,
      "ĠÏĢÎ»Îµá¿ĸ": 1755,
      "Î¸á½³Î½": 1756,
      "Ġse": 1757,
      "Ġá¼ĶÏģ": 1758,
      "ĠÏĢÎ»á¿Ĩ": 1759,
      "ĠÏĥá½ºÎ½": 1760,
      "ĠÎĺ": 1761,
      "Ġá¼¸ÏĥÏģÎ±á½´Î»": 1762,
      "Î´ÏħÎ½": 1763,
      "Ġthat": 1764,
      "ÏģÎ¹ÏĥÏĦ": 1765,
      "á½¼ÏĤ": 1766,
      "Ġá¼ĶÎ¾ÏīÎ¸ÎµÎ½": 1767,
      "ĠÏĥÏħÎ½Î±": 1768,
      "ĠÏĥá½»Î¼ÏĢ": 1769,
      "ÏĥÎ·": 1770,
      "Î½á½µ": 1771,
      "ĠÎ´á½¹": 1772,
      "Ġá¼ĲÎºÎµá¿ĸÎ½": 1773,
      "Î»Î¿": 1774,
      "Îµá¿ĸÎ±": 1775,
      "Î¼Î¼": 1776,
      "Îµá½·ÏīÎ½": 1777,
      "Ġá¼±ÎµÏģ": 1778,
      "Ġá½ħÏĢÎµÏģ": 1779,
      "Ġá¼ĢÏĢá½¹": 1780,
      ")]": 1781,
      "Ġá¼ĶÎ½Î¹Î¿Î¹": 1782,
      "ÏĥÏĦÎ¹": 1783,
      "Ġ17": 1784,
      "ĠÏĦÎ¿Î½": 1785,
      "ÏĥÏĦÎ¹Î½": 1786,
      "ÏĦÎ¹Îºá½¸Î½": 1787,
      "Ġá¼ĲÎ½á½·Î¿ÏĦÎµ": 1788,
      "ĠÏĦá¿Ĩ": 1789,
      "Ġwith": 1790,
      "Ġá¼ĲÎ¾Îµ": 1791,
      "Ġá¼ĶÎº": 1792,
      "Î¿á¿ĸÎ½": 1793,
      "ĠÏĢÎ¿Î»Î»á½°": 1794,
      "ÏĩÎµ": 1795,
      "Î´ÏīÏģ": 1796,
      "ĠÏĥÎ·Î¼": 1797,
      "ĠÎ¼ÎµÎ¸": 1798,
      "Ġá¼ĢÎ½á½°": 1799,
      "Îºá½³": 1800,
      "Ġá¼ĶÎ³ÏģÎ±": 1801,
      "ÏĥÎ¸Ïī": 1802,
      "ÏħÎºÎ½": 1803,
      "ad": 1804,
      "ĠÎ´á¿Ĩ": 1805,
      "ÏĩÏīÏģ": 1806,
      "ÏĦÎµÎ»": 1807,
      "Îµá½·Î±Î½": 1808,
      "Ġá½ĳÎ¼á¿ĸÎ½": 1809,
      ",âĢĻ": 1810,
      "Ġ19": 1811,
      "ĠÎºÎ·Ïģ": 1812,
      "ĠÏĢÎ»Î·": 1813,
      "ÏģÎ±ÏĨ": 1814,
      "Ġá¼¸ÎµÏģ": 1815,
      "Ġá½ĢÏĨÎ¸Î±Î»Î¼": 1816,
      "Ġá½ħÎ»Î¿Î½": 1817,
      "ÏįÎ½": 1818,
      "th": 1819,
      "Ġ2âģ°": 1820,
      "á½¹ÏĦÎ±": 1821,
      "ĠÏĥÏħÎ½ÎµÏĩ": 1822,
      "á½½ÏĥÎµÏīÏĤ": 1823,
      "Î¾ÎµÏīÏĤ": 1824,
      "ÏħÏĥÎµÎ½": 1825,
      "ĠÎ»ÎµÏħÎº": 1826,
      "ĠÎ»Î¿Î¹": 1827,
      "Î´Î¿á½º": 1828,
      "ÎºÏģÎ±": 1829,
      "ÏĥÎ¸Î±á½·": 1830,
      "ĠÎ»ÎµÏĢÏĦ": 1831,
      "Ġ22": 1832,
      "ÎºÎ¿Î½ÏĦÎ±": 1833,
      "ĠÎ´ÎŃ": 1834,
      "ÏĦÎ¬": 1835,
      "ÏĪÎµ": 1836,
      "Ġver": 1837,
      "ĠÏĢÏħÎºÎ½": 1838,
      "ÏĢÎ±Ïģ": 1839,
      "ĠÎµá¼´ÏĦÎµ": 1840,
      "Î¸ÏħÎ¼": 1841,
      "ĠÎ²Î»á½±": 1842,
      "Ġá¼§ÏĦÏĦÎ¿Î½": 1843,
      "Ġx": 1844,
      "ĠÎ´á½µ": 1845,
      "ent": 1846,
      "ĠÎ±á¼µÎ¼Î±ÏĦÎ¿ÏĤ": 1847,
      "ĠÎºÏį": 1848,
      "Ġá¼ĲÏĢÎ¹Îº": 1849,
      "Î»Î¿ÏħÏĤ": 1850,
      "ĠÎļÏħÏģÎ¯Î¿Ïħ": 1851,
      "ĠÏĢÏģÏĮ": 1852,
      "Î¯Î¶": 1853,
      "Î»Îµá½»": 1854,
      "Î¿á¿¦Î½ÏĦÎµÏĤ": 1855,
      "ĠÎ½Îµá½»Ïģ": 1856,
      "Î±Î½Î¸": 1857,
      "ĠÎ±ÏĢÎ¿": 1858,
      "Ïģá½·Î±Î½": 1859,
      "ÏĦá½¹ÏĤ": 1860,
      "ĠÎ´Îµá¿ĸ": 1861,
      "ÏĦÏħ": 1862,
      "Ġá¼ķÎ»Îº": 1863,
      "á¿ĨÎ¼Î±": 1864,
      "ĠÎ¿á½ĲÎ´Îµ": 1865,
      "Ġá¼ĶÎ¸": 1866,
      "Ġá¼ħÏĢÎ±Î½ÏĦÎ±": 1867,
      "Ġá¼ĵÎ½": 1868,
      "ÏĩÎ±": 1869,
      "ĠÎ¸á½½ÏģÎ±": 1870,
      "ĠÎ¸ÎµÏģÎ±ÏĢÎµ": 1871,
      "ÎµÏĥÏĦ": 1872,
      "ĠÏĢÏģÎ¿ÏĥÎµ": 1873,
      "Ġá½ĢÎ»á½·Î³Î¿Î½": 1874,
      "ÏģÎµÏħ": 1875,
      "ĠÏĥÎºÎ»Î·": 1876,
      "Ġá¼ĢÏģÏĩá½´Î½": 1877,
      "Î»Î±Î¼Î²": 1878,
      "ĠÎ¼Ïħá¿¶Î½": 1879,
      "?)": 1880,
      "Ġá½ģÏĢ": 1881,
      "Ġ18": 1882,
      "ķÏĦÎ·": 1883,
      "ay": 1884,
      "ĠÏĢÎ¬Î½ÏĦÎ±": 1885,
      "ÏĢÎµÎ¹Î½": 1886,
      "ĠÏĢÏģá½¹ÏĥÎ¸ÎµÎ½": 1887,
      "ÏģÎµÏĤ": 1888,
      "ĠÏĥÏĢá½³Ïģ": 1889,
      "Î¬Î¶": 1890,
      "Ġá¼ķÎ½Îµ": 1891,
      "ĠÏĢÎ»á¿ĨÎ¸Î¿ÏĤ": 1892,
      "Ġá¼ĢÎµá½¶": 1893,
      "ÏĥÎ±ÏĦÎµ": 1894,
      "Î¿á¿¦ÏĥÎ¹": 1895,
      "ĠÎ»á½¹Î³Î¿ÏĤ": 1896,
      "ĠÎ¸ÎµÏģÎ¼á½¸Î½": 1897,
      "ĠÏĦÎ¹Î½á½°": 1898,
      "ÏĥÎ¿Ïħ": 1899,
      "Î¾Î±Î¹": 1900,
      "ĠÎ»ÏĮÎ³": 1901,
      "Î¿Î¼á½³Î½Î·": 1902,
      "ĠÎĶÎ±Ïħ": 1903,
      "ÎµÏģá½¶": 1904,
      "Î¸ÎµÏĥÎ¹Î½": 1905,
      "ĠÏĦÎ¹Î½Î¿ÏĤ": 1906,
      "ĠÎ¿á½ĶÏĦ": 1907,
      "Ġá½łÏĨ": 1908,
      "ĠÏĦÏī": 1909,
      "Î»Î¯": 1910,
      "Ħµ": 1911,
      "Î½Î±Î½": 1912,
      "ÏĥÎµÏīÎ½": 1913,
      "ĠÏĪá½»": 1914,
      "Î»Î¿Î¹": 1915,
      "Î¼á½³Î½Î·": 1916,
      "ĠÎ¸Î±": 1917,
      "Ġá¼ĲÎ¼ÏĨ": 1918,
      "Î¿á¿¤á¿¥": 1919,
      "á½¹ÏĦÎµÏģÎ¿Î½": 1920,
      "Ġá½ķÎ´ÏīÏģ": 1921,
      "ĠÎ³ÎµÎ³ÏģÎ±Î¼": 1922,
      "gh": 1923,
      "Ġá¼¢Î½": 1924,
      "ĠÏĨá½»ÏĥÎµÏīÏĤ": 1925,
      "á½³ÏīÎ½": 1926,
      "ÏĨÎµÏģ": 1927,
      "ÏĩÎ¿ÏĤ": 1928,
      "ÏĪÎ±Î½": 1929,
      "ÏħÎ½Î±": 1930,
      "ĠÎºÎ±Î»á¿¶ÏĤ": 1931,
      "ĠÎ²á½±": 1932,
      "Ġ20": 1933,
      "Ġá¼ĲÎ½Î±Î½ÏĦá½·": 1934,
      "ĠâĦµ": 1935,
      "ĠÏĨÎ¸": 1936,
      "á½·Î½Î¿Î½ÏĦÎ±Î¹": 1937,
      "ĠÎ±á½ĸÎ¸": 1938,
      "Ġá¼ĲÎ¾Î·Î³": 1939,
      "ĠÎ±á½ķÏĦÎ·": 1940,
      "Î¼á½°ÏĤ": 1941,
      "Î»Ïī": 1942,
      "Ġá½ĳÏĢá½±ÏģÏĩÎµÎ¹Î½": 1943,
      "ÏĦÎµÎ¹": 1944,
      "Î¼ÎµÎ¹Î½": 1945,
      "ĠÏĥÎ¼Î¹Îº": 1946,
      "ĠÎ¾Î·ÏģÎ±": 1947,
      "ĠÏĥÎ±ÏģÎº": 1948,
      "ĠÎ´ÏģÎ¹Î¼": 1949,
      "ĠÎ¼á½³ÏĩÏģÎ¹": 1950,
      "Ġá¼ĢÏģÏĩá¿ĨÏĤ": 1951,
      "Ġá¼ĢÎ¾Î¹": 1952,
      "á½³Î±": 1953,
      "ÏĪÎ±": 1954,
      "Ġá¼ĳÎ¾": 1955,
      "Ġá¼ĢÏģÏĦÎ·Ïģá½·Î±ÏĤ": 1956,
      "Î¸Îµá¿ĸÎ½": 1957,
      "ĠÏĥÎ¿ÏĨ": 1958,
      "á½µÎ¼Î±ÏĦÎ¿ÏĤ": 1959,
      "ĠÎ¼á½¹ÏģÎ¹Î±": 1960,
      "ĠÎ´Î·Î»": 1961,
      "Ġá¼¡Î¼á½³ÏģÎ±ÏĤ": 1962,
      "ÎŁ": 1963,
      "Î´á½¹": 1964,
      "á½±ÏĦÏīÎ½": 1965,
      "ĠÎ¼á½µÏĦ": 1966,
      "Î¿Î»Î¿Î³": 1967,
      "ur": 1968,
      "ĠÎµÎ¹ÏĤ": 1969,
      "ĠÎ³ÎµÎ½á½³ÏĥÎ¸Î±Î¹": 1970,
      "Â¹": 1971,
      "ĠÎ±á½ĸÎ¸Î¹ÏĤ": 1972,
      "Ġá¼¹ÏĢÏĢÎ¿ÎºÏģá½±ÏĦÎ·ÏĤ": 1973,
      "ÏĥÎ¼Î±": 1974,
      "Î¼Î¿ÏĤ": 1975,
      "ÏĨÏħÎº": 1976,
      "Ġá½ĢÏģÎ¸": 1977,
      "Ġá¼ĲÏĢÎ±": 1978,
      "Ġor": 1979,
      "le": 1980,
      "ĠÏĩÎ±": 1981,
      "ÏĪÎµÎ¹": 1982,
      "ĠÏĩÏģÎ·": 1983,
      "ĠÎ²Î±ÏĥÎ¹Î»ÎŃ": 1984,
      "Î»á½»": 1985,
      "á¿¶ÏĥÎ¹Î½": 1986,
      "ĠÏĦÎ¿á¿¦ÏĦÎ¿Î½": 1987,
      "ĠÎĳá¼°": 1988,
      "Ġá¼ĲÎ½Î±ÏģÎ³": 1989,
      "Ġá¼¸Î·Ïĥ": 1990,
      "Ïģá¿·": 1991,
      "ĠÎ´Î·Î»Î¿Î½": 1992,
      "Î¹ÏĥÏĦ": 1993,
      "Ġá¼ĲÎ¼Î²": 1994,
      "ĠÏĦÎ±á½»ÏĦÎ·Î½": 1995,
      "ĠÎ²Î¹Î²Î»á½·": 1996,
      "ÏĨá½±Î»": 1997,
      "Ġá¼ĳÎ»Îº": 1998,
      "âĢĻ,": 1999,
      "Ġá½ĳÎ¼á¾¶ÏĤ": 2000,
      "á½¹Î¼ÎµÎ½Î¿Î¹": 2001,
      "ÏĦÎ¹Îºá¿ĨÏĤ": 2002,
      "ĠÎµá½ĳÏģ": 2003,
      "ĠG": 2004,
      "ĠÏĦÎ±á¿¦": 2005,
      "Ġá½¦": 2006,
      "Î»Î·ÏĤ": 2007,
      "ÏĥÎ¿ÏħÏĥÎ¹Î½": 2008,
      "á½µÏĥÎ¹": 2009,
      "Ġá½ĳÏĪ": 2010,
      "ĠÏĢÏģÎ¿ÎµÎ¹": 2011,
      "Î»Î±Î¹": 2012,
      "Ġá¼ĢÎ½Îµ": 2013,
      "Ġá¼ģÏĢÎ»á¿¶ÏĤ": 2014,
      "ow": 2015,
      "ÎĿ": 2016,
      "Î¸Î·ÏĥÎ±Î½": 2017,
      "Î¿Î¼á½³Î½Î¿Î¹ÏĤ": 2018,
      "Ïĥá¿³": 2019,
      "ĠÏĢÎ±Î¹Î´": 2020,
      "Ġá¼ĲÏĢÎµ": 2021,
      "Ġá½ĦÎ½Î¿Î¼Î±": 2022,
      "ĠÏĦÏīÎ½": 2023,
      "Î»Î·Î½": 2024,
      "...": 2025,
      "Ġá¼ĲÎ»á½±": 2026,
      "ÏĦÎ±Ïģ": 2027,
      "ĠÎ¿á½ĹÏĦÎ¿Î¹": 2028,
      "Ġá¼ĲÎ³á½³Î½ÎµÏĦÎ¿": 2029,
      "Ġá¼ĲÏģÎ³á½±Î¶": 2030,
      "ĠM": 2031,
      "Î¼á½³Î½Î¿ÏħÏĤ": 2032,
      "nt": 2033,
      "vid": 2034,
      "Ġxx": 2035,
      "Ġá¿": 2036,
      "ĠÏĦÏĮ": 2037,
      "ĠÏĥÎ±ÏĨá¿¶ÏĤ": 2038,
      "ÏĨÎ±Î½": 2039,
      "ĠÏĢÎ¬": 2040,
      "ĠÎ³Î¿": 2041,
      "ĠÏĢÎ½Îµá¿¦Î¼Î±": 2042,
      "ÏĩÎ¿Î½": 2043,
      "Ġá¼ĢÎ¸": 2044,
      "Ġá¼¸Ïī": 2045,
      "Ġá¼ĢÎ½Î¸ÏģÏİ": 2046,
      "ĠÎ»ÎµÎ³": 2047,
      "ĠÎµá¼°ÏĢÎµá¿ĸÎ½": 2048,
      "Î²á½±Î»Î»": 2049,
      "Ġ1âģ°": 2050,
      "XX": 2051,
      "ÎºÎ½Ïħ": 2052,
      "á½·á¿³": 2053,
      "ĠÎ¼á½·": 2054,
      "Î®Î¼": 2055,
      "ĠÎºÏī": 2056,
      "ÏĦÏĦÎµÎ¹Î½": 2057,
      "ĠÎºÏģÎ±": 2058,
      "á¿ĥÏĤ": 2059,
      "ĠÏĢÎ¿Î½": 2060,
      "Î¿ÏħÏĥÎ±Î»": 2061,
      "ÏĥÎ¿Î¼Î±Î¹": 2062,
      "Ġá¼ĦÏĩÏģÎ¹": 2063,
      "ÏħÏĨ": 2064,
      "Î¼á½¹": 2065,
      "ĠÏĦÎ¿Î¹Î¿á¿¦": 2066,
      "á¿¤á¿¥Ïī": 2067,
      "ĠÎ»á½·ÏĦ": 2068,
      "Ġá¼ĢÏĥÎ¸ÎµÎ½": 2069,
      "Ġwh": 2070,
      "Î¯á¿³": 2071,
      "ĠÏĥÏĨÎ¿Î´Ïģ": 2072,
      "ÏĪÎ±Î¹": 2073,
      "Î²Î±Î»": 2074,
      "ĠÏĨÎ»á½³": 2075,
      "Î¹Î³": 2076,
      "Ġá½ĳÏĢá½¹": 2077,
      "Ġá¼ĲÏĢÎµá½¶": 2078,
      "Ġá¼ĦÏģÏĩ": 2079,
      "ĠÎ¿á½ĲÏģÎ±Î½": 2080,
      "Ġá¼ĢÏĢÎ¿Îº": 2081,
      "Ġá¼ĢÎ½á½±Î³Îº": 2082,
      "á½»ÎµÎ¹Î½": 2083,
      "ÏĬ": 2084,
      "Î¼ÏīÏĤ": 2085,
      "ĠÏĢÎ»Î±": 2086,
      "ÏģÎ¹Îµ": 2087,
      "ĠÏĨÏħÎ»á½±": 2088,
      "ÏĨÏīÎ½": 2089,
      "ĠÎłÎµÏģá½¶": 2090,
      "ÏĦÎ®": 2091,
      "Ġá½ĢÏĢ": 2092,
      "ĠÎµá¼°ÏģÎ·Î¼á½³Î½ÏīÎ½": 2093,
      "ĠÎ¶á¿¶": 2094,
      "ĠÏĦÎ¿ÏĥÎ¿á¿¦ÏĦÎ¿Î½": 2095,
      "á½¹ÏĦÎ·ÏĦÎ¿ÏĤ": 2096,
      "Ġá¼¡Î¼Îµá¿ĸÏĤ": 2097,
      "ĠÏĥÎºá½³": 2098,
      ".,": 2099,
      "ct": 2100,
      "rom": 2101,
      "Ġá¼±ÎºÎ±Î½á¿¶ÏĤ": 2102,
      "ÏĥÏĦÏģÎµ": 2103,
      "ĠÏĩÏħÎ¼á¿¶Î½": 2104,
      "Ġá¼ĢÏĢá½³": 2105,
      "ĠÎ³á½·Î³Î½ÎµÏĦÎ±Î¹": 2106,
      "ĠÏĩÏħÎ»": 2107,
      "ĠÏĢÏģá½¹ÏĦÎµÏģÎ¿Î½": 2108,
      "ĠÎ¼Î·Î´á½²": 2109,
      "ÏĥÎ±á½»": 2110,
      "ĠÎºÎµÏĨÎ±Î»á¿ĨÏĤ": 2111,
      "ĠÏĩÎ±Î»Îº": 2112,
      "ÏĢÎ»Î±": 2113,
      "Î¿á½»ÏĤ": 2114,
      "iv": 2115,
      "ÏĢÏĦÎ¿Ïħ": 2116,
      "ÏĦÎ±Î¹ÏĤ": 2117,
      "Î¿á½»Î¼ÎµÎ½Î¿Î½": 2118,
      "á½½Î´Î·ÏĤ": 2119,
      "Î¼Î±ÏĥÎ¹": 2120,
      "ss": 2121,
      "á½¹Î¼ÎµÎ¸Î±": 2122,
      "ÏģÎµÎ¹": 2123,
      "ĠÎºÎµÏĨÎ±Î»á½´Î½": 2124,
      "ĠÎ´Î·Î»Î¿Î½á½¹ÏĦÎ¹": 2125,
      "ÏĦá½½": 2126,
      "ĠÏĢÎ±ÏģÎ¿Î¾": 2127,
      "ĠÎ²Î±ÏĥÎ¹Î»Îµá½ºÏĤ": 2128,
      "Ïģá½¹ÏĦÎ·ÏĦÎ±": 2129,
      "ĠÏĨÎ¹Î»": 2130,
      "ĠÎµá¼¶ÏĦÎ±": 2131,
      "Ġ21": 2132,
      "Î¹ÏĥÎ¼": 2133,
      "ĠÎ´ÏģÎ±ÏĩÎ¼á½°ÏĤ": 2134,
      "Î´Î¿Î¼": 2135,
      "ĠÏĦá½µ": 2136,
      "ĠÎ½Îµá¿¦": 2137,
      "Ġá¼ĦÎ»Î»Î¿Î¹ÏĤ": 2138,
      "Î¿á¿¦Î½ÏĦÎ±Î¹": 2139,
      "Ġá¼ĦÎ½ÎµÏħ": 2140,
      "ĠBáµĩ": 2141,
      "Î»á½³ÏīÏĤ": 2142,
      "ĠÎºÏģá½±": 2143,
      "ĠÏĥÏĦÎ¿": 2144,
      "ÏģÎ¹ÏĥÎ¼": 2145,
      "ĠÏĢá½±Î½ÏĦÏīÏĤ": 2146,
      "ĠÎ»ÎŃÎ³ÎµÎ¹": 2147,
      "á¾¶ÏĥÎ¸Î±Î¹": 2148,
      "Î´Î·Î»Î¿Î½": 2149,
      "Ġá¼´Ïĥ": 2150,
      "Ġá¼ĢÏĢÎµ": 2151,
      "ÏģÎ¿á½ºÏĤ": 2152,
      "Ġ23": 2153,
      "ĠÎºá¾ĤÎ½": 2154,
      "ÏĢá¿³": 2155,
      "Ġá½ĳÎ³Î¹": 2156,
      "ĠÏĢÎµÏĢÎ¿Î½": 2157,
      "ĠÎ´Î¹Îµ": 2158,
      "ÏĪÎµÏīÏĤ": 2159,
      "her": 2160,
      "od": 2161,
      "ÏĢÏĦÎµ": 2162,
      "ĠÎ¼á½³Î»Î¹": 2163,
      "ĠÎ±á¼°ÏĦá½·": 2164,
      "ĠÎ´Î¹ÎºÎ±Î¹": 2165,
      "Ġá¼ĲÏĢÊ¼": 2166,
      "Ġá¼ĢÎ¼ÏĨÎ¿": 2167,
      "Ġá¼ĲÏĢÎµÎ¹Î´á½´": 2168,
      "ĠÎµÎ¾": 2169,
      "á½·Î½Î¿Ïħ": 2170,
      "am": 2171,
      "ĠÏĢÎ±Î¸": 2172,
      "á½·Î½Î·ÏĤ": 2173,
      "ĠÎºá½»ÏģÎ¹Î¿ÏĤ": 2174,
      "Ïģá½¹Î½": 2175,
      "ĠÏĨÎ±Î½": 2176,
      "ĠÏĢÎµÏĢÎ¿Î½Î¸": 2177,
      "ĠÎ±Î¹": 2178,
      "ĠÏĦÎ±á½»ÏĦÎ·ÏĤ": 2179,
      "ĠÎ¸ÎµÏģÎ¼Î±Ïĥ": 2180,
      "ÏĢá½³": 2181,
      "ĠÏĢÎ±ÏģÎ±ÏĢÎ»": 2182,
      "ĠÏħá¼±á½¸ÏĤ": 2183,
      "Ġá¼ĢÎ»Î·Î¸": 2184,
      "á½³Î»": 2185,
      "ĠÏĦÎ±á½Ĳ": 2186,
      "Îµá½·Î·": 2187,
      "ÏģÎµÏį": 2188,
      "ost": 2189,
      "Ġ.": 2190,
      "Ġá½ĢÎ»á½·Î³": 2191,
      "Î¶Îµ": 2192,
      "ĠÎ³Î»ÏħÎº": 2193,
      "ĠÏĢÏģÎ¿ÎµÎ¹ÏģÎ·": 2194,
      "Î¿Î¼á½³Î½Î·Î½": 2195,
      "Ġá¼ĦÎ½Î¸ÏģÏīÏĢÎ¿ÏĤ": 2196,
      "Ïģá½°Î½": 2197,
      "ĠÎºÎ±á½·ÏĦÎ¿Î¹": 2198,
      "Ġá¼°Î´Î¿á½º": 2199,
      "ĠÏĥÎºÎ¿ÏĢ": 2200,
      "Î±Î¹Ïģ": 2201,
      "ĠÎµá¼´ÏĢÎµÏģ": 2202,
      "ĠÎ´Îµá½»": 2203,
      "á¿ĨÎ»Î¸ÎµÎ½": 2204,
      "ĠÏĥá½»Î½": 2205,
      "ĠÏĦÎ¿Î¹Î¿á½»ÏĦÏīÎ½": 2206,
      "Ý²": 2207,
      "ĠÎ´ÏĮ": 2208,
      "ĠÎ¼ÎµÏĦÎ±Î¾": 2209,
      "Î²Îµ": 2210,
      "ĠÏĦÎ·ÏĤ": 2211,
      "Ġá½ħÏĥÎ¿Î¹": 2212,
      "Î³ÎµÎ¸Î¿ÏĤ": 2213,
      "ÏĥÏĦÎ¿ÏĤ": 2214,
      "Ġá¼ĢÏĢÎŃ": 2215,
      "á¼Ĳ": 2216,
      "Ġá¼ĲÏĥÏĩ": 2217,
      "ĠÎ¼á½¹ÏģÎ¹Î¿Î½": 2218,
      "ĠÏĩá½½": 2219,
      "ĠÎºÎ±ÏģÏĢ": 2220,
      "ĠÏĨÎ»ÎµÎ³Î¼Î±": 2221,
      "Ġá¾Ĺ": 2222,
      "Ġá½ĢÎ½Î¿Î¼Î±": 2223,
      "ĠÏĦá½·ÏĤ": 2224,
      "ÏĪÎ±ÏĤ": 2225,
      "ÏģÎ¿ÏħÏĤ": 2226,
      "ĠÎºÎ±Î¸Î±Ïģ": 2227,
      "Î¼á½³Î½á¿³": 2228,
      "Ġá½ĥÏĤ": 2229,
      "Î±Î¸": 2230,
      "Ġon": 2231,
      "Ġá¼§ÏĤ": 2232,
      "Ġá¼¸ÎµÏģÎ¿ÏħÏĥÎ±Î»": 2233,
      "ĠÏĦÎ·": 2234,
      "Î¿Î½ÏĦÎ¿": 2235,
      "ĠÎ´Î¹Î¿": 2236,
      "ĠÏĢá½±Î½Ïħ": 2237,
      "ÏĦá½³Î¿Î½": 2238,
      "ĠÎ¼Î±Ïģ": 2239,
      "á¾¶ÏĦÎ±Î¹": 2240,
      "ĠÎ½ÎµÏĨ": 2241,
      "ĠÎŁá½Ĳ": 2242,
      "ĠÏĢÎ±ÏĦ": 2243,
      "Ġ24": 2244,
      "ĠÎ³ÏħÎ½Î±Î¹": 2245,
      "á½³ÏģÎ±ÏĤ": 2246,
      "ĠÎ¿á¼µ": 2247,
      "ĠÎºá½±Î¼Î½": 2248,
      "ĠÎ»ÎµÎ¹": 2249,
      "ĠÏĨá½»ÏĥÎ¹ÏĤ": 2250,
      "ÏģÎ±Î¼": 2251,
      "Ġá¼ĢÏģÎ³": 2252,
      "ÏĥÎ±Î½ÏĦÎµÏĤ": 2253,
      "ĠÎ´ÎµÎ¾Î¹": 2254,
      "ĠÎ³ÎµÎ½Î½": 2255,
      "ÏĦá½¹": 2256,
      "ÏĮÎ½ÏĦÏīÎ½": 2257,
      "á½½Î´Î¿ÏħÏĤ": 2258,
      "ĠÏĨá½³Ïģ": 2259,
      "Ġfrom": 2260,
      "Îºá¿³": 2261,
      "ÏĪÎ¹Î½": 2262,
      "Ïģá½·á¿³": 2263,
      "ich": 2264,
      "Ġá¼ĢÎ´ÎµÎ»ÏĨ": 2265,
      "ÏĦÎ±á¿ĸÏĤ": 2266,
      "ÏģÎ±ÏĢ": 2267,
      "Ġá¿¬": 2268,
      "ÏĦÎ¹Î½": 2269,
      "ĠÏĢÏģÎ¿ÏĨ": 2270,
      "el": 2271,
      "ĠÏĨá½»ÏĥÎµÎ¹": 2272,
      "ÏīÎ¼Î±": 2273,
      "Ġá½ħÏĦÎµ": 2274,
      "ĠÎ²ÏģÎ±": 2275,
      "ĠÏĢÏģÎ¿ÏĥÎ¸": 2276,
      "ĠÏĢÎµÏģÎ¹ÏĦÏĦ": 2277,
      "Ġá¼ĳÎ¾á¿ĨÏĤ": 2278,
      "Î¹Î¶": 2279,
      "ĠÏĦá½³ÏĩÎ½": 2280,
      "ĠÎ´á¿ĨÎ»Î¿Î½": 2281,
      "Ġá¼ĢÏĢÎ¿ÏĥÏĦ": 2282,
      "ĠÏĢÎ»á½µ": 2283,
      "ÎºÎ±ÏĤ": 2284,
      "á½±Î»Î±": 2285,
      "Ġá½ģÎ¼": 2286,
      "ÏĦÎ¹Îºá¿¶Î½": 2287,
      "Ġá½ĢÎ´á½»": 2288,
      "ĠÎ³ÎµÎ³Î¿Î½": 2289,
      "ĠÏĩÏģá½¹Î½á¿³": 2290,
      "ĠÎ¼Î½Î·": 2291,
      "Î¸Îµá½¶ÏĤ": 2292,
      "Ġcon": 2293,
      "ĠÎ´Î¹Î±ÏĨá½³Ïģ": 2294,
      "ĠÎ»Î±Î¼Î²": 2295,
      "ÎµÎ´": 2296,
      "á½±Î½ÏīÎ½": 2297,
      "ÏĦÎµÏģÎ¿Î¹": 2298,
      "ÎºÎµá½·": 2299,
      "ĠÏĢá¿¶ÏĤ": 2300,
      "Î´á¿¶Î½": 2301,
      "ĠÎ¼ÎµÏĦÎ±Î¾á½º": 2302,
      "ĠÎ¼á½³Î³ÎµÎ¸Î¿ÏĤ": 2303,
      "ĠÏĦÏģÎ±Ïĩ": 2304,
      "Î¿á½»Î½ÏĦÏīÎ½": 2305,
      "Ġá½ĳÏĢá½±ÏģÏĩÎµÎ¹": 2306,
      "ÏĢÎ½Î¿": 2307,
      "Î¿á¿Ĩ": 2308,
      "Ġá¼ĲÎ½ÏĦÎ±á¿¦Î¸Î±": 2309,
      "Î¸á½µ": 2310,
      "ÏģÎ¹á¿¶Î½": 2311,
      "ĠÏĥÎºÎ»Î·Ïģ": 2312,
      "Ġ30": 2313,
      "Ġá¼ĲÏĢÎ¹ÏĥÎº": 2314,
      "iii": 2315,
      "á½µÎ¸Î·": 2316,
      "ĠÎ´ÏħÎ½á½±Î¼": 2317,
      "ĠÎµá¼·": 2318,
      "ÏĦÏģÎ¿Î½": 2319,
      "á½¹Î³": 2320,
      "Î®ÏĥÎµÎ¹": 2321,
      "á¾·Î½": 2322,
      "ĠÏĦÎ¹Î½ÎµÏĤ": 2323,
      "ĠÎ¼Î¿ÏĩÎ¸Î·": 2324,
      "ĠÏĢÎ¹Îº": 2325,
      "Ġá¼ĢÏģÎ¹Î¸Î¼": 2326,
      "Ġi": 2327,
      "Ġá¼ĲÏĢÎ¿á½·": 2328,
      "Ġá¼ĲÎ³Î³": 2329,
      "Ġá¼ĶÎ´Ïī": 2330,
      "Î½ÎµÏĦÎ¿": 2331,
      "ĠÏĢÏģÎ±Î³Î¼Î±": 2332,
      "Ġá½ĳÏĢÎ¿Î¼": 2333,
      "ĠÎļá½»": 2334,
      "Ïģá½¹ÏĦÎµÏģÎ¿Î½": 2335,
      "ĠÎ»á½³Î³ÎµÎ¹Î½": 2336,
      "ere": 2337,
      "ĠÎ»á½»": 2338,
      "ĠÏĢÏģÎ¿Ïĥá½µ": 2339,
      "Ġá¼ĦÎ½Î¸ÏģÏīÏĢÎ¿Î½": 2340,
      "ĠÏĢÎ½Îµá½»Î¼Î¿Î½": 2341,
      "Ġá¼´Î´Î¹": 2342,
      "ÎºÎ¬": 2343,
      "Î·ÏĥÎ±": 2344,
      "ÏĥÎ±Î¹ÏĤ": 2345,
      "ĠÎ²Î¿á½»": 2346,
      "ke": 2347,
      "ÏĩÎ¹": 2348,
      "ear": 2349,
      "ÏĢÎ»á½±": 2350,
      "Î·Î¼á½±ÏĦÏīÎ½": 2351,
      "ĠÎ¼ÏĮÎ½": 2352,
      "Î¼Ïī": 2353,
      "ĠÏĥÎ·Î¼Î±": 2354,
      "Ġá½ĳÏĨ": 2355,
      "á¿¦ÏĤ": 2356,
      "ĠÎ¶Ïī": 2357,
      "Î¿Î´": 2358,
      "ĠÎĸ": 2359,
      "Î¾ÎµÎ¹ÏĤ": 2360,
      "ĠÎµá¼°ÏĥÎ¹Î½": 2361,
      "ĠÏĨÎ·Ïĥ": 2362,
      "Ġá¼ĲÏģÎ³Î±": 2363,
      "Ġá¼°Î±ÏĦÏģá¿¶Î½": 2364,
      "ĠÎ³ÏħÎ¼Î½": 2365,
      "ĠÎ»Î¿Î¹ÏĢ": 2366,
      "Ġá¼¡Î³": 2367,
      "ÏĦÎ·Ïģ": 2368,
      "ĠÏĢÎ»Îµá½·": 2369,
      "á½½Î´ÎµÎ¹ÏĤ": 2370,
      "ĠÎºá¼Ģ": 2371,
      "ĠÏĢÎ»á½´Î½": 2372,
      "ĠÏĪÏħÏĩÏģá½¸Î½": 2373,
      "ÎµÎ¹Î±Î½": 2374,
      "ÏģÎ¿á½¶": 2375,
      "ĠÎ´Î¹Î±Î»": 2376,
      "Ġá¼ĳÎºÎ±ÏĦá½³Ïģ": 2377,
      "á½±Î½Î¿Ïħ": 2378,
      "ĠÎ¿á¼·á½¹Î½": 2379,
      "ĠÎ´ÏħÏĥÎº": 2380,
      "ĠÏĦÏģÎµá¿ĸÏĤ": 2381,
      "Ġá¼¸ÏĥÏģÎ±Î®Î»": 2382,
      "ĠÏĥÏīÎ¼á½±ÏĦÏīÎ½": 2383,
      "ĠÎ±á½ĲÏĦÏĮÎ½": 2384,
      "Ġá¿¥á¾³": 2385,
      "ÏĦÏģá½³": 2386,
      "Î¿ÏįÏĤ": 2387,
      "ĠÎĳá¼°Î³": 2388,
      "Ġá¼ĲÏĩÏģ": 2389,
      "ĠÎ¼Î¹ÎºÏģá½¸Î½": 2390,
      "Ġá½ķÎ´Î±ÏĦÎ¿ÏĤ": 2391,
      "Ġby": 2392,
      "ĠÎ³á½·Î½ÎµÏĥÎ¸Î±Î¹": 2393,
      "Ġá¼ĲÏĢÎ¹ÏĥÏĦ": 2394,
      "Ġá¼ķÎ½ÎµÎºÎ±": 2395,
      "Î¿Î½ÏĦÎ¹": 2396,
      "á¿¶Î½Î±": 2397,
      "ÏĦÎµá¿ĸ": 2398,
      "ĠÎ¸á½³": 2399,
      "Ġá¼ĲÏĢÎ¿Î¯": 2400,
      "ĠÎ¸Î±Ïħ": 2401,
      "ÎµÏĥÎ¹Î½": 2402,
      "Ġ26": 2403,
      "ĠÏĢÏģá½¹ÏĥÏī": 2404,
      "ĠÎ½Îµá½»ÏģÏīÎ½": 2405,
      "ĠÎºÎ±ÎºÎ¿": 2406,
      "Î¿ÏħÎ´Î±": 2407,
      "Ġhave": 2408,
      "ĠÏĦÎµÎ»ÎµÏħÏĦ": 2409,
      "ĠÎºÎ±ÏģÎ´á½·Î±ÏĤ": 2410,
      "ĠÏī": 2411,
      "á½½ÏĦÎ±": 2412,
      "ĠÏĢÏģÎ±Î³Î¼Î±ÏĦÎµ": 2413,
      "Ïĥá¿¶Î½": 2414,
      "ĠÏĢÎµÎ½": 2415,
      "á½³ÏĦÏģ": 2416,
      "Ġá¼°Î±ÏĦ": 2417,
      "ĠÎ±á½ĲÏĦá½°ÏĤ": 2418,
      "Ġá¼ĳÎºá½±ÏĥÏĦÎ¿Ïħ": 2419,
      "ĠÎ´Î±ÎºÏĦá½»": 2420,
      "Ġá¼ĢÎ½Î´Ïģ": 2421,
      "Ġread": 2422,
      "ĠÎµÏĢ": 2423,
      "Î³Î¿": 2424,
      "ĠÎµá½ĲÎ¸á½ºÏĤ": 2425,
      "ÏĥÎ±á½»ÏĦÏīÏĤ": 2426,
      "Î³Ïģá½±": 2427,
      "all": 2428,
      "Î³ÏīÎ³": 2429,
      "ĠÎľÏīÏħÏĥ": 2430,
      "Î´ÎµÎ½": 2431,
      "Ġbut": 2432,
      "ĠÏĥÏĨÎ¿Î´": 2433,
      "Ġá¼ĦÎ¼ÎµÎ¹Î½": 2434,
      "Ġá½¡ÏĥÎ±á½»ÏĦÏīÏĤ": 2435,
      "la": 2436,
      "ĠÏĥÏħÎ¼Î²Î±": 2437,
      "Ġá¼ĢÏĦ": 2438,
      "ĠÏĢÏīÏĤ": 2439,
      "ÏĦÏĦÎµ": 2440,
      "ÏĢÎ¿ÏħÏĤ": 2441,
      "ÏģÎ¿Ïĥ": 2442,
      "á½·ÎºÎ±": 2443,
      "Î»á½µ": 2444,
      "Î¾Î¹ÏĤ": 2445,
      "Î¼á½³Î½Î±ÏĤ": 2446,
      "ĠÎ¼á½·Î±Î½": 2447,
      "á½½Î´Îµ": 2448,
      "Î»Î±ÏĤ": 2449,
      "Ġá¼ĪÎ½": 2450,
      "Ġá¼ĳÎ±ÏħÏĦÎ¿á¿¦": 2451,
      "ght": 2452,
      "ÏİÎ½": 2453,
      "Ġá¼¡Î¼ÎµÏģá¿¶Î½": 2454,
      "ĠÏĨÎ±Î¹Î½": 2455,
      "ÎµÏĦÎµ": 2456,
      "Î±Î»Î±": 2457,
      "ub": 2458,
      "Î±Î»Î»": 2459,
      "ÎºÏĮ": 2460,
      "Ġá¼ĲÏĥ": 2461,
      "Î½Î±á½·": 2462,
      "Ġá¼ĲÏĤ": 2463,
      "Ġá¼ĲÏĢÎ±Î½": 2464,
      "ÎºÎ±á½¶": 2465,
      "Ġword": 2466,
      "Ġá½ĢÎ½Î¿Î¼Î±Î¶": 2467,
      "Î»ÎµÏį": 2468,
      "Ġá½ĳÏĪÎ·Î»": 2469,
      "ĠP": 2470,
      "ĠÏĨÏģ": 2471,
      "Î¼á½³Î½Î¿ÏĤ": 2472,
      "Ġá¼ĳÎ²": 2473,
      "Î¿á¿¦Î½ÏĦÎ±": 2474,
      "Î¾Î±ÏĤ": 2475,
      "ĠÏĢÎµÏģÎ¹á½³Ïĩ": 2476,
      "Î»Î¬": 2477,
      "ĠÏĦÎ¿á½Ĳ": 2478,
      "ĠÎºÎ¹Î½á½µÏĥÎµÏīÏĤ": 2479,
      "ĠÎ½á½¹Ïĥ": 2480,
      "ÏĢÎ¹Î¿Î½": 2481,
      "Ġá¼ģÏĢá½±": 2482,
      "ĠÎ¼á¿¦ÏĤ": 2483,
      "Ġá¼ħÏĢÎ±ÏĥÎ¹": 2484,
      "ĠÎ´Î¹Î´Î±": 2485,
      "ĠÏĩÏģÎ·ÏĥÏĦ": 2486,
      "ĠÎ¿á¼´Î½Î¿Ïħ": 2487,
      "ĠÏĨÎ»": 2488,
      "á½ºÎ½": 2489,
      "ĠÏħá¼±á¿¶Î½": 2490,
      "imp": 2491,
      "ÏĢÏĦÎ¿Î½": 2492,
      "Ġá¼ĶÎ»Îµ": 2493,
      "ĠÏĢá½±Î¸Î¿ÏĤ": 2494,
      "ÏģÎ±Ïĥ": 2495,
      "Ïģá½·ÏīÏĤ": 2496,
      "á½±ÏĥÎº": 2497,
      "Ġá½ĦÎ¾": 2498,
      "Ïĥá½¶Î½": 2499,
      "Î¸Î¿Î½": 2500,
      "ÏĦÎ¹Î±": 2501,
      "ĠBab": 2502,
      "ome": 2503,
      "Ġá¼ĲÎ»Î±á½·Î¿Ïħ": 2504,
      "Ġá¼ĲÎ½á½³Ïģ": 2505,
      "ĠÏĢÏģÎ¿ÏĥÎ±": 2506,
      "ch": 2507,
      "á½·ÏĥÏĦÎ±": 2508,
      "Ġá¼¡Î»Î¹Îº": 2509,
      "ĠÎ²Î¿ÏħÎ»": 2510,
      "II": 2511,
      "ÏĦÏĦÏī": 2512,
      "Ġá¼ĢÏħÏĦ": 2513,
      "Î¿Î»Î¿Ïħ": 2514,
      "ĠÎ½ÏĮ": 2515,
      "ter": 2516,
      "áµĪ": 2517,
      "ĠÏĢÎ»ÎµÎ¿Î½": 2518,
      "Ġex": 2519,
      "ĠÎ¸Î±ÏħÎ¼Î±": 2520,
      "Ġá¼ĲÎ½á½³ÏģÎ³ÎµÎ¹": 2521,
      "ĠÎ¼Îµá½·Î¶": 2522,
      "Î¸Î¿Ïħ": 2523,
      "ĠÎ´Î¯": 2524,
      "ĠÏĢÏģÏī": 2525,
      "Ġá¼ĲÎ¼Î¿á¿¦": 2526,
      "Ġá¼ĢÎ½Î±Î³ÎºÎ±á¿ĸÎ¿Î½": 2527,
      "Ġá¼ĢÎ´": 2528,
      "ĠQáµĲáµį": 2529,
      "ĠÏĢá½±ÏĥÏĩ": 2530,
      "Ġá½¤": 2531,
      "ĠÏĩÏģÏħÏĥ": 2532,
      "ĠÎºÎ±ÏĦÎ±ÏĥÎºÎµÏħ": 2533,
      "ĠÎ¿á½ĲÏĥá½·Î±ÏĤ": 2534,
      "Ġá¿¥á¾³Î´": 2535,
      "ĠÎ±á½ĲÏĦÎ¿á½¶": 2536,
      "Ġá¼ĲÎ½Î´Îµá½·": 2537,
      "á½½ÏĦÎµÏģÎ¿Î½": 2538,
      "ĠÏĦÎ¹Î½á½²ÏĤ": 2539,
      "ĠÏĪÏħÏĩá¿ĨÏĤ": 2540,
      "ĠÏĥá½»Î¼ÏĢÎ±Î½": 2541,
      "ĠÏĨÎ»á½³Î²": 2542,
      "Î¿ÏħÏĥÎ±Î½": 2543,
      "Î¯Î¿Î½": 2544,
      "Î»Î¸Î¿Î½": 2545,
      "ĠÏĢÎ»Îµá¿ĸÏĥÏĦÎ¿Î½": 2546,
      "ĠÏĢá¾¶ÏĤ": 2547,
      "Î¿á¿¦Î¼ÎµÎ½": 2548,
      "ĠÏĢÏģá½¶Î½": 2549,
      "ĠÎ´á½³ÏģÎ¼Î±": 2550,
      "ÏĢÎµÏĢ": 2551,
      "á½½ÏĤ": 2552,
      "Ġá¼ĦÎ½Î´": 2553,
      "Ġá¼ĲÎ½Î±ÏģÎ³á¿¶ÏĤ": 2554,
      "ÏĥÏħ": 2555,
      "Ġá¼©": 2556,
      "á½µÎ¼": 2557,
      "ĠÏĥÏĦÎµÎ½": 2558,
      "ir": 2559,
      "qu": 2560,
      "Î±á¿ĸÏĤ": 2561,
      "Î»ÎµÏīÏĤ": 2562,
      "Ïģá½·Î±": 2563,
      "ÏĥÏĦÎ±ÏĥÎ¹Î½": 2564,
      "ĠÏĦÎ±á½»ÏĦá¿ĥ": 2565,
      "ÏĢÎµÏĦÎ±Î¹": 2566,
      "ĠÏĢá¿¦": 2567,
      "ĠÏĨÏħÎ»": 2568,
      "ĠÏĦÎµÎ»á½³ÏīÏĤ": 2569,
      "ĠÎ¼á½³ÏĥÎ¿Î½": 2570,
      "ul": 2571,
      "ÏĢÎµÎ¹ÏĦÎ±": 2572,
      "Ġá½ĳÎ³Ïģá½¸Î½": 2573,
      "ĠÎ¿Î¹Îº": 2574,
      "ÏĦÏĦÎ±": 2575,
      "ĠÏĥÏĦÎ±": 2576,
      "Ġá¼¡Î¼á½³ÏģÎ±Î½": 2577,
      "ĠÏĥÏĦá½¹Î¼Î±": 2578,
      "Ïģá½»": 2579,
      "Ġá¼¥ÏĢÎ±": 2580,
      "ĠÏĦá½µÎ½": 2581,
      "ÏīÎ¼ÎµÎ½": 2582,
      "ĠÎ´ÏįÎ½Î±": 2583,
      "ĠÎºÎ±ÏĦÎ¿Î¹Îº": 2584,
      "ĠÎ»Î±Î²": 2585,
      "ĠÎ¼á¿Ĩ": 2586,
      "ĠÎ¼Î®": 2587,
      "ĠÎ³á¿Ĩ": 2588,
      "ĠÎ´ÏħÎ½Î¬": 2589,
      "Î½Î¿Î½": 2590,
      "Ġá¼ĢÏĢÎ¿Î»": 2591,
      "Î¸Îµá¿ĸ": 2592,
      "ÏĦÎ¹Îºá½´Î½": 2593,
      "Ïģá½¹ÏĦÎ·ÏĦÎ¿ÏĤ": 2594,
      "ĠÎ¼á½»": 2595,
      "ĠÎ»Î±Î»": 2596,
      "ĠÎ¸á½±": 2597,
      "ĠÏĥÏĦá½»": 2598,
      "Ġá¼ĢÎºÎ¿á½»": 2599,
      "Î³Î¿Î½ÏĦÎµÏĤ": 2600,
      "ÏħÎ¼Î±": 2601,
      "Ġá¼ģÎ¼Î±ÏģÏĦ": 2602,
      "ÏĦÎŃÏģ": 2603,
      "á¼Ħ": 2604,
      "Ġá¿¥á½·Î¶": 2605,
      "Ġá¼ĲÏĢÎµÎ¹Î´á½°Î½": 2606,
      "Ġá¼ĶÏĨÎ·Î½": 2607,
      "ÏĮÏĦÎ·": 2608,
      "ĠÏĨÏħÎ»Î±": 2609,
      "ĠÏĩÏģá½¹Î½Î¿Î½": 2610,
      "ÎºÎ±ÏĦÎ±": 2611,
      "ĠÎ³Ïģá½±ÏĨ": 2612,
      "ĠÎ´Î¿ÎºÎµá¿ĸ": 2613,
      "Î¼Î½Î·": 2614,
      "Î¸á¿ĨÎ½Î±Î¹": 2615,
      "ĠÎ¶á½½Î¿Ïħ": 2616,
      "Ġá¼ĦÎ¼ÎµÎ¹Î½Î¿Î½": 2617,
      "ĠÏĢÎŃ": 2618,
      "Ġá¼ĢÏģÎ±Î¹": 2619,
      "áµĽ": 2620,
      "ĠÎľÎ±": 2621,
      "erscr": 2622,
      "á½Ķ": 2623,
      "Î¹Ïĥ": 2624,
      "Î³Î¹Î½": 2625,
      "ĠÎ»á½¹Î³Î¿Ïħ": 2626,
      "ĠÎ³á½³Î½Î¿ÏĤ": 2627,
      "Î¸Î®": 2628,
      "ÏĢÏĦÎµÎ¹Î½": 2629,
      "ĠÎºÏħÏģ": 2630,
      "Ġá¼ĢÎ½Î±ÏĦÎ¿Î¼": 2631,
      "ĠÏĥÏĨÏħÎ³Î¼á¿¶Î½": 2632,
      "Ġvid": 2633,
      "ÎµÏĩ": 2634,
      "ÏĢÎ·": 2635,
      "á½½ÏĥÎµÎ¹ÏĤ": 2636,
      "Ġá½ģÎ¼Î¿Î¹": 2637,
      "ĠÏĢÎ»Î·Ïĥ": 2638,
      "á½³Î½ÏĦÎ¿ÏĤ": 2639,
      "ĠÎ²Î±Ïģ": 2640,
      "Ġá¼ĪÎ²": 2641,
      "Î¿Î´Î¿Î½": 2642,
      "á¿¦ÏĥÎ±Î¹": 2643,
      "Ġá¼ĦÎ»Î»Î·": 2644,
      "ÎºÏģá½·": 2645,
      "Îµá½¶Î´": 2646,
      "ĠÏĥÏħÎ¼ÏĨ": 2647,
      "ĠÎ³ÏħÎ¼Î½Î±": 2648,
      "ÏģÎ±Îº": 2649,
      "ĠÎ³Î¯": 2650,
      "ĠÎ³ÏħÎ½Î±": 2651,
      "ĠÏĢÎ»ÎµÏħÏģ": 2652,
      "ĠÎ¿á¼¶ÎºÎ¿Î½": 2653,
      "ĠÎ³Î±ÏĥÏĦÏģá½¸ÏĤ": 2654,
      "ÎºÏģÎ¹": 2655,
      "ĠÎ³á½·Î½Î¿Î½ÏĦÎ±Î¹": 2656,
      "Îµá½·Î±": 2657,
      "Ġan": 2658,
      "Î»Î¿Î¹ÏĤ": 2659,
      "ĠÏĩÏīÏģá½·": 2660,
      "ĠÏĥÎºÎµÏħ": 2661,
      "Ġá¼ĢÏĨÎ¹Îº": 2662,
      "Î¼Î¹ÏĤ": 2663,
      "Î»ÎµÏħ": 2664,
      "ĠÏĢÎµÏģá½·": 2665,
      "Ġá¼ĢÎ»Î»Î¿Î¹": 2666,
      "ol": 2667,
      "Ġá¼ĶÏģÎ³": 2668,
      "Î´ÎµÎ¹ÎºÏĦÎ±Î¹": 2669,
      "Ġ;": 2670,
      "Ġá¼ĲÎ³ÎºÎµ": 2671,
      "ĠÎĶÎ±ÏħÎµá½¶Î´": 2672,
      "ÎºÎ±Ïħ": 2673,
      "ĠÏĢÎ±ÏĦÏģ": 2674,
      "Î¿ÏĦÎ¿Î¼": 2675,
      "á½·Î´Î¿ÏĤ": 2676,
      "ĠÏĥÏĦÎ¿Î¹": 2677,
      "ÏĥÎ¹Îº": 2678,
      "ĠÏĩÏģá¿ĨÏĥÎ¸Î±Î¹": 2679,
      "ĠÏĢá½±Î½ÏĦÎµÏĤ": 2680,
      "ĠÏĨÎ¿Î²": 2681,
      "Î¹Î¼": 2682,
      "ÏĥÏĥÎ±": 2683,
      "Ïģá¾³": 2684,
      "Î³Î³ÎµÎ»": 2685,
      "ĠÎ¶á¿¶Î¿Î½": 2686,
      "á¿¶ÏĥÎ±Î¹": 2687,
      "ĠÏĢÎ±ÏģÎ±Îº": 2688,
      "ĠÏĦÏģÎ¿": 2689,
      "Îµá½·Î¿Ïħ": 2690,
      "Ġá¼ģÎ³": 2691,
      "ÎĳÎ": 2692,
      "ĠÎ´Îµá½»ÏĦÎµÏģÎ¿Î½": 2693,
      "ÏģÎŃ": 2694,
      "ĠÎ¼ÎµÏģá¿¶Î½": 2695,
      "ĠÎ±Î½Î±": 2696,
      "ĠQáµĥ": 2697,
      "ĠÎ³Î±ÏĥÏĦá½³ÏģÎ±": 2698,
      "ĠÎµá¼·ÏĤ": 2699,
      "Îķ": 2700,
      "ĠÏĢÎ¿Î¹Îµá¿ĸ": 2701,
      "Ġá¼ĢÏĨÎ¿": 2702,
      "ÏģÎ¿á½»": 2703,
      "Ġá¼ķÎ½Î±": 2704,
      "est": 2705,
      "ÏĥÏĥÎµ": 2706,
      "Î·ÏĥÎ¹ÏĤ": 2707,
      "ĠÏĦá½»": 2708,
      "Î»Î·ÏģÎ¿Î½": 2709,
      "á½·Î±Î¹ÏĤ": 2710,
      "ÏĥÎµÏĥÎ¹Î½": 2711,
      "ĠÎ¶Î·": 2712,
      "ĠÏĦÏģÎ±": 2713,
      "ĠÏĢÎ»Î·Ïģ": 2714,
      "Ġ25": 2715,
      "Î¼á½´Î½": 2716,
      "Î¹Î½Î¿Î½": 2717,
      "ĠÏĢÎ¿Î¹á½µ": 2718,
      "ĠÏĢÎ¿Î»Î»á¿¶Î½": 2719,
      "ĠÎ³ÏħÎ½Î±á¿ĸ": 2720,
      "if": 2721,
      "Î¿á¿¦Î½ÏĦÎ±ÏĤ": 2722,
      "ÎŁÎ": 2723,
      "Î½á¿¶Î½": 2724,
      "Ġá½ķÎ´Î±ÏĦÎ¹": 2725,
      "ĠÏĢÎ±ÏģÎ¿Î¾ÏħÏĥ": 2726,
      "et": 2727,
      "ĠÏĥÏħÎ³Îº": 2728,
      "ĠÏĢÎ¿Ïĥ": 2729,
      "ĠÎ´ÏħÎ¿á¿ĸÎ½": 2730,
      "Î¼Î·ÏĤ": 2731,
      "Î´á½·": 2732,
      "ÎŃÎ½ÎµÏĦÎ¿": 2733,
      "ĠÎ»á½³Î³ÏīÎ½": 2734,
      "ÎµÎ¹Î»ÎµÎ½": 2735,
      "ĠÎļá½»ÏģÎ¹Î¿ÏĤ": 2736,
      "ÏĥÎµÎ²": 2737,
      "Ġthis": 2738,
      "ĠÎ¼ÎµÎ»Î±": 2739,
      "Ġá¼ĲÎ´Îµá½·": 2740,
      "Î¹Î½á½¹Î½ÏĦÏīÎ½": 2741,
      "Î»Î±Î½": 2742,
      "á½³ÏīÏĤ": 2743,
      "á½°Î¼": 2744,
      "ÏĮÎ¼ÎµÎ½Î¿ÏĤ": 2745,
      "ÏĢá½¶": 2746,
      "ĠÎºÎ¬": 2747,
      "á½¹ÏĦÎ·ÏĤ": 2748,
      "ĠÎ´á½»Î½Î±ÏĦÎ±Î¹": 2749,
      "ÏĢÏĦÎµÎ¹": 2750,
      "ĠÏĥá½½Î¼Î±ÏĦÎ¹": 2751,
      "ĠÂ": 2752,
      "ĠÏĢÎ¬Î½ÏĦÎµÏĤ": 2753,
      "Î½Î±ÏĦÎ¿Î½": 2754,
      "Ġá½ĢÎ½á½¹": 2755,
      "Ġhas": 2756,
      "Î½Î¿Ïħ": 2757,
      "Ġá¼ĲÎ¾Î±": 2758,
      "Ġá¼ģÎ»": 2759,
      "ĠÏĢá¾¶ÏĥÎ±Î½": 2760,
      "Ġá¼ĢÏģÏĦÎ·ÏģÎ¹á¿¶Î½": 2761,
      "Ġá¼¹ÏĢÏĢÎ¿ÎºÏģá½±ÏĦÎ¿ÏħÏĤ": 2762,
      "ain": 2763,
      "ÏīÎ¼": 2764,
      "Ġá½ĢÏĥÏĦá¿¶Î½": 2765,
      "Ïģá½·ÏĥÎº": 2766,
      "ĠÎ½Î¿": 2767,
      "Ġwhich": 2768,
      "ĠÎ¸Î±ÏħÎ¼Î±ÏĥÏĦ": 2769,
      "Î¿ÎµÎ¹Î´": 2770,
      "ĠÏĦÎ±Ïį": 2771,
      "Ġá½¥ÏĥÏĦ": 2772,
      "ĠÎ²Î¿Î·Î¸": 2773,
      "ver": 2774,
      "ÏĢÎ¿Î¹ÏĤ": 2775,
      "Ġá½ħÎ»Î·Î½": 2776,
      "Ïģá½·Î¶": 2777,
      "Î·Ïĥá½±": 2778,
      "ĠÏĨÏį": 2779,
      "ĠÎºÏħÏģá½·Î¿Ïħ": 2780,
      "ĠÎµá¼°Ïĥá½¶": 2781,
      "á¿¶Î¼ÎµÎ½": 2782,
      "ÏĥÏĦÎ¿Ïħ": 2783,
      "ri": 2784,
      "á½³ÏģÎ±Î½": 2785,
      "ĠÏĦÎ¹Î½á½¸ÏĤ": 2786,
      "ÏĦá½°": 2787,
      "ĠÎ²ÏģÎ±Ïĩá½º": 2788,
      "ÏĦÎµÏĦÎ±": 2789,
      "Ġmg": 2790,
      "ĠÏĥÎ¼á½»Ïģ": 2791,
      "ĠÎ²Î±ÏĥÎ¹Î»ÎŃÏīÏĤ": 2792,
      "ÏĥÎ¼Î±ÏĦÎ±": 2793,
      "âĢĶ": 2794,
      "Ïĥá¿ĥÏĤ": 2795,
      "Ïĥá½¶": 2796,
      "Î¿á¿¦ÏĦÎ±Î¹": 2797,
      "ĠÎ¸ÎµÏģÎ±ÏĢ": 2798,
      "ĠÏĨÎ»ÎµÎ²Î¿ÏĦÎ¿Î¼": 2799,
      "ĠÎ±á¼°ÏĦá½·Î±Î½": 2800,
      "Ġá¿¥á¾³Î´á½·ÏīÏĤ": 2801,
      "Î±Î½ÏĦÎ¹": 2802,
      "ĠÎ½Î¿Î¼á½·Î¶": 2803,
      "ĠÎ³ÏħÎ½Î±Î¹Îº": 2804,
      "ĠÏĩÏģá¿¶": 2805,
      "ĠÎµá¼°Ïĥá½¶Î½": 2806,
      "ĠÎ¼Î¬": 2807,
      "ÏĦÎ¿á½ºÏĤ": 2808,
      "Ġá½ĢÎ´": 2809,
      "ĠÎ´Î¹Î±ÏĥÏĦ": 2810,
      "Ġá½ĢÏģÎ¸á¿¶ÏĤ": 2811,
      "Ġu": 2812,
      "á½½ÏĥÎµÎ¹": 2813,
      "ĠÎ¿á½ĵ": 2814,
      "Ïģá½¹ÏĤ": 2815,
      "ĠÎ´Î¹ÏĦÏĦ": 2816,
      "Ġá¼ĶÎ½Î´Î¿Î½": 2817,
      "Ġá¼ĦÏģÎ¸Ïģ": 2818,
      "á½±Ïĩ": 2819,
      "á½¹Î½ÏĦÎµÏĤ": 2820,
      "ĠÎµá¼°ÏĥÎ¹": 2821,
      "Ġá¼¸Î¿Ïį": 2822,
      "Ġá½ħÎ»Î·ÏĤ": 2823,
      "ĠÎºÏģÎ¯": 2824,
      "Ġá½łÏĨÎµÎ»": 2825,
      "ÏĥÎ¹Î±": 2826,
      "Ïģá½·Î¿Î¹ÏĤ": 2827,
      "Î¼ÎµÎ»": 2828,
      "ĠÏĢÏģÎ¿Ïĥá½³": 2829,
      "á½³Î»Î»": 2830,
      "Ï²Î¹Î½": 2831,
      "Ġ27": 2832,
      "ess": 2833,
      "ĠÎºá½·Î½Î·ÏĥÎ¹Î½": 2834,
      "ore": 2835,
      "ÏĦÎ¹ÏĤ": 2836,
      "Î¿Î¼á½³Î½Î¿ÏħÏĤ": 2837,
      "ĠÎ¿á¼¶Î¼Î±Î¹": 2838,
      "ÎµÏį": 2839,
      "Î¼Î¿á¿¦": 2840,
      "ĠÎ´Î¹Î±Î¹": 2841,
      "Î¿á½º": 2842,
      "ÏĥÎ¿Î¼ÎµÎ½": 2843,
      "ĠÎ´Î¹á½¹ÏĦÎ¹": 2844,
      "Ġá¼ĲÎ¸": 2845,
      "ĠÏĢÎ¿Ïħ": 2846,
      "ĠÏĥÎ±": 2847,
      "Ġá¼ĲÏĢÎ¹Î´á½³": 2848,
      "Ġy": 2849,
      "ĠÎµá¼¶Î´Î¿ÏĤ": 2850,
      "ĠÎµá½ķ": 2851,
      "ĠÎ´Î¹Î´Î±ÏĥÎº": 2852,
      "ĠÏĦÎ±á¿¦ÏĦ": 2853,
      "á½³ÏģÏĩ": 2854,
      "Ġá¼ģÏģ": 2855,
      "Ġá¼ĲÎºÎµá½·Î½ÏīÎ½": 2856,
      "Î¸Î±Î¹": 2857,
      "Î¿á¿¦ÏĥÎ¸Î±Î¹": 2858,
      "Ġá¼ĶÎ»Î±Î²": 2859,
      "Ġá¼ĥÏĤ": 2860,
      "ÎµÎ¼": 2861,
      "ĠÏĦÎ¿ÏħÏĦá½³": 2862,
      "Î¿ÏħÏģÎ³": 2863,
      "ĠÎ±á½ĲÏĦá½¹": 2864,
      "Ġá¼ĲÎ½ÎµÏģÎ³Îµá½·Î±ÏĤ": 2865,
      "ĠÎ²ÏģÎ±Ïĩá½·Î¿Î½": 2866,
      "ĠO": 2867,
      "Ïģá¾¶ÏĤ": 2868,
      "Ïĥá½±": 2869,
      "ĠÎ´Î¹Î±Î¸á½³ÏĥÎµÎ¹ÏĤ": 2870,
      "ÏĩÎµÎ¹Ïģ": 2871,
      "ĠÎ±á½ĲÏĦá½¹Î½": 2872,
      "ÎµÏĥÎ²": 2873,
      "ĠÎ¿á½ĵÏĤ": 2874,
      "Î¬Îº": 2875,
      "ÏĢá½·ÏĥÏī": 2876,
      "Ġá¼ĶÎ³ÏģÎ±ÏĪÎµÎ½": 2877,
      "Î¿á¿¦ÏĥÎ±": 2878,
      "ĠAáµĥ": 2879,
      "ĠÎ±á¼°ÏĦá½·Î±ÏĤ": 2880,
      "ĠÏĢÏģá½±": 2881,
      "ĠÎ¿á½ĲÏĥá½·Î±Î½": 2882,
      "Ġá½ģÎ¼Î¿Î»Î¿Î³": 2883,
      "ĠÎ´Îµá¿ĸÏĦÎ±Î¹": 2884,
      "Ġá¼ĶÏĩÎ¿Î½ÏĦÎ±": 2885,
      "Î¿á¿ĨÏĤ": 2886,
      "ÏĩÎ¿Ïħ": 2887,
      "Î»Î»Î¹": 2888,
      "ĠÎ¶á½½ÏīÎ½": 2889,
      "ĠÏĦÏģá½³": 2890,
      "ĠÏĥÎ·": 2891,
      "Ġá¼¡Î¼á½³Ïģ": 2892,
      "as": 2893,
      "Î¸Î±Ïģ": 2894,
      "á½¹Î½ÏĦÎ±": 2895,
      "ĠÎ³á½³": 2896,
      ").": 2897,
      "Î»ÎµÎ¹ÏĤ": 2898,
      "rob": 2899,
      "Ġá¼ĲÏ²": 2900,
      "ĠÏĦÎµÏĦá½±Ïģ": 2901,
      "Ġá¼ĲÎ³ÎºÎµÏĨá½±Î»": 2902,
      "ĠÎ¿ÏħÏĦÏīÎ½": 2903,
      "á½½ÏĥÎºÎµÎ¹Î½": 2904,
      "ĠÎ½Î±": 2905,
      "Ġá¼ĲÎ³ÎŃÎ½ÎµÏĦÎ¿": 2906,
      "Ġá¼´ÏĥÎ¿Î½": 2907,
      "ĠÎ³á½³Î½Î·ÏĦÎ±Î¹": 2908,
      "ĠÎ³Î½á½½": 2909,
      "Ġá½ħÎ¼Î¿Î¹": 2910,
      "Î®ÏĥÏī": 2911,
      "ĠÎ¼á½³Î³Î¹": 2912,
      "Ġá¼¡Î¼ÎŃÏģÎ±ÏĤ": 2913,
      "and": 2914,
      "ĠJ": 2915,
      "ĠÏĢÏģÎµÏĥÎ²": 2916,
      "Î¹Îºá¿¶Î½": 2917,
      "Ġá½ķÏĥÏĦÎµÏģÎ¿Î½": 2918,
      "Ġab": 2919,
      "ĠÎķá¼°": 2920,
      "Î»Î¹Î½": 2921,
      "ĠÎ³ÏģÎ±ÏĨ": 2922,
      "ÏīÎ¸ÎµÎ½": 2923,
      "Ġá¼ĶÏģÎ³Î±": 2924,
      "Ġpro": 2925,
      "Î²Î±Î»Î»": 2926,
      "ĠÏĥÏĦÎ¿Î¹Ïĩ": 2927,
      "ÏĩÎ·": 2928,
      "ĠÏĥÏİ": 2929,
      "ĠÎ´Î¹á½¸": 2930,
      "ĠÎ¸ÏħÎ³Î±": 2931,
      "ĠÎ´ÎµÏħÏĦá½³Ïģ": 2932,
      "ĠÎ±á½ĲÏĦÎ±á¿ĸÏĤ": 2933,
      "ĠÎ´Î¹ÎµÎ»": 2934,
      "Î¬ÏĦÏīÎ½": 2935,
      "ĠÏĦÎ±ÏĢÎµÎ¹Î½": 2936,
      "ĠÎ»Î¹Î²": 2937,
      "ĠÏĢÏģÎ¿ÎºÎµÎ¹": 2938,
      "ĠÏĩÎµá¿ĸÏģÎ±ÏĤ": 2939,
      "Ġá¼ĶÏģÎ³Î¿Î½": 2940,
      "Î¼á½·Î±Î½": 2941,
      "Ġá¼ĦÎ³": 2942,
      "ÎºÏģÎ¬": 2943,
      "Î¹ÎºÎ±": 2944,
      "á½³Î½ÏĦÏīÎ½": 2945,
      "Ġá¼ĳÏĢÏĦ": 2946,
      "Ġá¼´ÏĥÏīÏĤ": 2947,
      "ĠÏĩÏģá½µÏĥÎ¹": 2948,
      "Ġare": 2949,
      "ĠÎ¼ÎµÏĦÏģá½·ÏīÏĤ": 2950,
      "ĠÎºÎ±Î»Î¿Ïħ": 2951,
      "Ġá¼ĲÏģÎ³á½±Î¶ÎµÏĦÎ±Î¹": 2952,
      "á¿´": 2953,
      "Î´ÏĮ": 2954,
      "ÏĦÎµá¿ĸÎ½": 2955,
      "ĠÏĢÎ±Î½ÏĦá½¶": 2956,
      "ĠÏĢÏģá½½ÏĦÎ·Î½": 2957,
      "ĠÏĩÎµÎ¹Ïģá½¸ÏĤ": 2958,
      "á¿¶Î½Î¿ÏĤ": 2959,
      "ĠÏĦÏģÎ¿ÏĨá¿ĨÏĤ": 2960,
      "ÏĦÎµÏģá½¹Î½": 2961,
      "ÏĥÏĥÎ±Ïģ": 2962,
      "ation": 2963,
      "Î»Î±Î¹Î¿Î½": 2964,
      "Î¼ÎŃ": 2965,
      "Ġá¼ĢÎ½á½´Ïģ": 2966,
      "sic": 2967,
      "ÏĦÏģá½·": 2968,
      "Ġst": 2969,
      "ĠÏĨá½±ÏģÎ¼Î±ÎºÎ±": 2970,
      "ĠÎ³á½·Î³Î½ÎµÏĥÎ¸Î±Î¹": 2971,
      "ĠÎ¸ÏħÏĥÎ¹": 2972,
      "ĠÎ½ÏħÎ½": 2973,
      "ĠÎµá¼¶ÏĢÎ¿Î½": 2974,
      "ĠÎ´Î¹á½±Î¸ÎµÏĥÎ¹Î½": 2975,
      "ÏĮÎ¼ÎµÎ½Î¿Î½": 2976,
      "Ġá¼ĢÎ½á½³": 2977,
      "ĠÎµá½ĲÏĨ": 2978,
      "ĠX": 2979,
      "á½¹ÏĦÎµÏģÎ±": 2980,
      "Ġá½ħÎ¸ÎµÎ½": 2981,
      "ĠÏĢÏģÎ¿ÏĥÎº": 2982,
      "ĠÎºÏģá¾¶": 2983,
      "ÏĦÎ¿á½·": 2984,
      "Ġá¼ĲÎ³Îºá½³": 2985,
      "ĠÏĥÏħÎ½á½³": 2986,
      "ĠÏĢÎ¿Î»Î»Î¿á½¶": 2987,
      "á½»ÏģÎ¿Ïħ": 2988,
      "RT": 2989,
      "ÎµÎ¯Î½": 2990,
      "ĠÎºÏĮ": 2991,
      "Ġá¼¸Î¿ÏħÎ´Î±": 2992,
      "ĠÎºÎ·ÏģÎ¿á¿¦": 2993,
      "Ġá¼ĦÏģÎ±": 2994,
      "ĠÏħÎ¹": 2995,
      "ĠÎ³Î½ÏīÏģá½·": 2996,
      "Î±Î½Î¿Î½": 2997,
      "ĠÏĢá½¹Î½": 2998,
      "ĠÏĨÎ·": 2999,
      "ĠÏĩÎµÏģ": 3000,
      "Ġá¼ĳÏĦá½³ÏģÎ±Î½": 3001,
      "Î»Î·ÏģÎ¿Î½Î¿Î¼": 3002,
      "Î½Î¿ÏĤ": 3003,
      "Î¼Î¿á¿¤á¿¥": 3004,
      "Î¿Î¹Î±Î½": 3005,
      "Ġá¼¡Ïĥ": 3006,
      "ĠÏĦÏģá½·ÏĦÎ¿Î½": 3007,
      "ĠÏĩÏģá¿Ĩ": 3008,
      "Î³Î½Ïħ": 3009,
      "ÏĦá½±ÏĢÎ±": 3010,
      "ĠÏĢÎ¿Î½Î·Ïģ": 3011,
      "ĠÎ±á½ĲÏĦÎ¿ÏįÏĤ": 3012,
      "ĠÏĢÏģÎ¿ÏĤ": 3013,
      "Ġpl": 3014,
      "ĠÎ»Î±Î¿á¿¦": 3015,
      "ĠÏĢÎ»Îµá½·Î¿Î½": 3016,
      "ĠÏĢÏħÏģÎµÏĦá¿¶Î½": 3017,
      "Ġá¼¸Î·ÏĥÎ¿á¿¦ÏĤ": 3018,
      "Ġá¼ĲÎ³Îºá½³ÏĨÎ±Î»": 3019,
      "á½¹Î»Î¿Ïħ": 3020,
      "ĠÎ±á½ĲÎ¾": 3021,
      "ÎĲ": 3022,
      "Ġá½ī": 3023,
      "ĠÎ¸á½³Ïģ": 3024,
      "ĠÏĥÏĢÎ»á½±": 3025,
      "ĠÎĶÎ¹": 3026,
      "Ġá½ĳÎ³Î¹ÎµÎ¹Î½": 3027,
      "Îł": 3028,
      "ĠÎ²á½³Î»": 3029,
      "ĠÎµá½ĲÎ¸á½³": 3030,
      "ÏĢÎ¿Î»": 3031,
      "Ġá¼ĳÏĪ": 3032,
      "Ġá¿¥á¿Ĩ": 3033,
      "ĠÏĥÎ¹ÏĦá½·": 3034,
      "ĠÏĢá¾¶ÏĥÎ¹Î½": 3035,
      "ĠÎºÎ±ÏģÎ´á½·Î±Î½": 3036,
      "ĠLxx": 3037,
      "Ġá¼ĲÏĢÎ¿": 3038,
      "Ġá¼ĲÏĢÎ¹ÏĦÎ·": 3039,
      "á½±Î¶ÎµÎ¹Î½": 3040,
      "Î¶Î¿Î½": 3041,
      "Ġad": 3042,
      "Ġá¼ķÎ½": 3043,
      "Ġá½ĢÏģÎ³á½±Î½ÏīÎ½": 3044,
      "Î»ÎµÎº": 3045,
      "ĠÎ´Î¹Î±ÏĥÏĦÎ¿Î»": 3046,
      "ÏĦÎ¹Îºá½°": 3047,
      "ĠÎ´Î¹ÎºÎ±Î¹Î¿Ïĥ": 3048,
      "ÏģÎ±Î¹ÏĤ": 3049,
      "Ġá¼¡Î½": 3050,
      "Ï²Î¹": 3051,
      "ĠÎ½Î¿ÏĥÎ·Î¼á½±ÏĦÏīÎ½": 3052,
      "ĠÏĦÎ¿ÏįÏĦÏīÎ½": 3053,
      "Ġá½ĢÎ»Î¹": 3054,
      "ĠÏĢÎ¯": 3055,
      "Ġá¼ĢÎ½Î±Î²": 3056,
      "ĠÏĢÎ±Î½ÏĦá½±ÏĢÎ±": 3057,
      "Ġet": 3058,
      "ĠÎ¿á½ĶÎ¸": 3059,
      "ĠÎ¼á½³ÏģÎ·": 3060,
      "Î¸ÎµÎ¹Î±Î½": 3061,
      "Îµá¿ĸÏĦÎµ": 3062,
      "Ġá¼ĳÎ±ÏħÏĦá¿·": 3063,
      "á½³ÏĥÏĦÎµÏģÎ¿Î½": 3064,
      "ĠÏĩÏģá½½": 3065,
      "ĠÎ²Î±ÏĥÎ¹Î»": 3066,
      "ĠÏĨÎ»ÎµÎ²á¿¶Î½": 3067,
      "Ġá¼ĲÏģÎ³Î±Î¶": 3068,
      "ive": 3069,
      ".âĢĻ": 3070,
      "Ġá¼Ļ": 3071,
      "ÏĦá½³ÏģÎ¿Ïħ": 3072,
      "ĠÎºÎ¿Î¹Î½á½¸Î½": 3073,
      "ÏĩÏħÎ¼": 3074,
      "Ġá¼ĢÎ½Î±ÏĥÏĦ": 3075,
      "ĠÎ¶Î·ÏĦ": 3076,
      "ĠSy": 3077,
      "ĠÏĦá½¼": 3078,
      "á¿ĸÎ¿ÏĤ": 3079,
      "ĠÏĩÏģÎ¿Î½": 3080,
      "Î¿Î³Î¿Î½": 3081,
      "á¿Ħ": 3082,
      "ĠÏĥÏħÎ¼Î¼": 3083,
      "ĠÏĢÎ±Ïģá½³": 3084,
      "ĠÎ»Î¹Î¸": 3085,
      "ÏĦÎ¿á½»": 3086,
      "Ġá¿¥Î·ÏĦ": 3087,
      "Î¿á¿¦Î½ÏĦÎ¿ÏĤ": 3088,
      "Ġá¼ĢÎ½á½±Î³ÎºÎ·ÏĤ": 3089,
      "á½±ÏĥÎ±ÏĥÎ¸Î±Î¹": 3090,
      "ĠÎ´á½»Î½Î±Î¼Î¹ÏĤ": 3091,
      "ĠÎ¼Î·Î½": 3092,
      "ÏĮÏĦÎ¹": 3093,
      "ĠÎļÏįÏģÎ¹Îµ": 3094,
      "Î³ÏĩÎ½": 3095,
      "ĠÎ¸Î±ÏħÎ¼": 3096,
      "ĠÏīÏĤ": 3097,
      "Ġá¼ĢÏģÎº": 3098,
      "ĠÎµá½ĲÎ¸á½³ÏīÏĤ": 3099,
      "ÏĦÏģÎ¹": 3100,
      "ÏģÎ¿Î¹ÏĤ": 3101,
      "ÏĥÏĦÏģÎ±": 3102,
      "Ġá¼ĲÎºÎµÎ¯Î½": 3103,
      "Î¼Î¬ÏĦÏīÎ½": 3104,
      "Ġá¼Į": 3105,
      "ĠÎ²Î±Î»": 3106,
      "Ġá½ĳÎ³Î¹Î±": 3107,
      "ĠÏĨÎµÏģ": 3108,
      "ĠÏĥÏħÎ»Î»": 3109,
      "ĠÎ£Î±Î»": 3110,
      "Î¼ÎŃÎ½ÏīÎ½": 3111,
      "Ġá¼ĢÎ³Î½": 3112,
      "ÏĥÎ¸á¿ĨÎ½Î±Î¹": 3113,
      "ĠÎ±á¼±Î¼Î¿á¿¤á¿¥": 3114,
      "ĠÏĥá½»Î¼Î¼Îµ": 3115,
      "Î±Î¶": 3116,
      "Ġá¼ĢÎ½ÎŃ": 3117,
      "Ġá¼ĢÎ³Î³Îµá½·ÏīÎ½": 3118,
      "ĠÏĢá¿¦Ïģ": 3119,
      "Ġá¼ĶÏĩÎ¿ÏħÏĥÎ¹": 3120,
      "Î¡": 3121,
      "ĠÏĦá½³Î½": 3122,
      "ĠÎĽÎµÏħ": 3123,
      "ĠÎ¼á¿ĨÎºÎ¿ÏĤ": 3124,
      "Ġ28": 3125,
      "ĠÏĨÏħÏĥÎ¹Îº": 3126,
      "Ġ29": 3127,
      "Ġá¼ĦÎ»Î»ÏīÏĤ": 3128,
      "ĠÎ¾á½»": 3129,
      "âģ±": 3130,
      "um": 3131,
      "á½·ÏĥÎº": 3132,
      "ĠÎ´Î¹Î±ÏĨÎ¸": 3133,
      "ĠÎµá¼¶ÏĦ": 3134,
      "Ġthey": 3135,
      "Ġá½ĦÎ³Îº": 3136,
      "ĠÏĥÎ¼á½»ÏģÎ½Î·ÏĤ": 3137,
      "Î¿ÏħÎ½": 3138,
      "ĠÎ¸Î±Î½": 3139,
      "ĠÎºÎ±ÏĦá½³": 3140,
      "Ġá¼ĲÎ¼Î¿á½¶": 3141,
      "Ġá½į": 3142,
      "á½¹Î½ÏĦÎ¿ÏĤ": 3143,
      "ĠÎļÎ±": 3144,
      "Ġá¼´ÏĥÏĩ": 3145,
      "ÏĩÏīÏģÎµá¿ĸ": 3146,
      "ĠÎ½Îµá¿¦ÏģÎ±": 3147,
      "Ġá½ĦÎ¾Î¿ÏħÏĤ": 3148,
      "á½±ÏĤ": 3149,
      "ĠÏĥÏĢÎ¿Î½": 3150,
      "Ġá¼ĳÏĢ": 3151,
      "Î¿Î¼á½³Î½Î±ÏĤ": 3152,
      "Ġá¼ĢÎ»Î»á½µÎ»Î¿Î¹ÏĤ": 3153,
      "ĠÎ¸Î±Î»": 3154,
      "Ġá¼¤ÎºÎ¿Ïħ": 3155,
      "Î¹á¿¶Î½": 3156,
      "ĠÏĢá½µ": 3157,
      "Ġá¼ķÎ»": 3158,
      "ĠÎ¾Î±Î½Î¸": 3159,
      "Î¾Î±ÏĦÎ¿": 3160,
      "Ġá¼ĢÎ´á½»": 3161,
      "ĠÏĥÏį": 3162,
      "Ġá½ĳÎ´": 3163,
      "Î»ÎµÏĢ": 3164,
      "Ġá¼ĳÎ½á½¸ÏĤ": 3165,
      "Ġá¼ĲÏĥÏĩá½±": 3166,
      "Ġ)": 3167,
      "ĠÏĩÏģÎµá½·Î±ÏĤ": 3168,
      "Ġ31": 3169,
      "Ġup": 3170,
      "ĠÎ´Î¹Î±Î½": 3171,
      "Ġá¼ĶÏĩÎ¿Î½": 3172,
      "ĠÏĥÎºÎ·Î½": 3173,
      "ĠÎ´Î¹Î±Ïģ": 3174,
      "ĠÎ»ÎŃÎ³ÏīÎ½": 3175,
      "ĠÏĦÏģÎ¿ÏĨá½´Î½": 3176,
      "ĠÎ¼Î½Î·Î¼Î¿Î½": 3177,
      "Ġá¼ĳÏĢÏĦá½°": 3178,
      "á½±Î½ÎµÎ¹Î½": 3179,
      "ÏĮÎ¼Î±": 3180,
      "ĠÎ»ÏĮÎ³Î¿Î½": 3181,
      "ĠÏĢÎ±Î¸á¿¶Î½": 3182,
      "âģ±áµĪ": 3183,
      "ĠÏĥÏĢá½³ÏģÎ¼Î±": 3184,
      "os": 3185,
      "ÎµÏĪ": 3186,
      "Î»ÎµÎ³": 3187,
      "Ġá¼ĢÎ¼Ïħ": 3188,
      "Î´ÎŃ": 3189,
      "ÏĥÎ¹Î¿Î½": 3190,
      "Ġá¼¡ÏĥÏħÏĩ": 3191,
      "Î´Ïħ": 3192,
      "Ġá¼ĢÎºÎ¿Î»Î¿Ïħ": 3193,
      "ns": 3194,
      "ĠÎºÏģá½¹": 3195,
      "ĠÏĢá½·": 3196,
      "ÏĦÎ¹ÎºÎ¿á¿¦": 3197,
      "Ġá¼ĢÏģÎ¹ÏĥÏĦÎµÏģ": 3198,
      "Ġá½ģÏĢÎ¿á¿ĸ": 3199,
      "ĠÏĩá½½ÏģÎ±Î½": 3200,
      "Ġá¼ľ": 3201,
      "ĠÏĦá¼Ħ": 3202,
      "ÏīÏĥÎµÎ½": 3203,
      "Ġá¼ĲÎ²": 3204,
      "ĠÏĢÎ¿Î¹Îµá¿ĸÎ½": 3205,
      "ĠÏĥÏĢá½³ÏģÎ¼Î±ÏĦÎ¿ÏĤ": 3206,
      "Î´Î·ÏĤ": 3207,
      "ĠÎ»á½·ÏĦÏģÎ±Î½": 3208,
      "ted": 3209,
      "ÏĥÏīÎ½": 3210,
      "Ġá¼ĲÏĢÎ¹Î¸ÏħÎ¼": 3211,
      "Ġá¼ĶÏĩÏīÎ½": 3212,
      "ĠÎºÎµÎºÎ±Ïħ": 3213,
      "Î»Î®": 3214,
      "á½¹Î´": 3215,
      "á½µÏĥÎ±ÏĤ": 3216,
      "Ġá¼ĶÎ½Î¸Î±": 3217,
      "Ġá½ĳÎ¼Îµá¿ĸÏĤ": 3218,
      "ĠÏĥÎ¿á¿¦": 3219,
      "ĠÏĢÏģÎ¿Ïĥá½µÎºÎµÎ¹": 3220,
      "Ġá¼ĲÎ½á½³ÏģÎ³ÎµÎ¹Î±Î½": 3221,
      "improb": 3222,
      "ill": 3223,
      "ÏīÏĦ": 3224,
      "ÎµÏģÎ¿Î½": 3225,
      "ĠÏĥÏĢÎ±": 3226,
      "Î¿Î¹ÏĥÎ¹": 3227,
      "ĠÎ»ÎµÏĢÏĦÎ¿Î¼": 3228,
      "ĠÎºá¾ĢÎº": 3229,
      "Ġthou": 3230,
      "Î¼á½¸Î½": 3231,
      "Ġá¼ĲÎºÏĦá½¸ÏĤ": 3232,
      "ĠÏĦÎ¹Î½Î¹": 3233,
      "ĠÏĥá½½Î¼Î±ÏĦÎ±": 3234,
      "ÏĢá½±": 3235,
      "Î´á½³Ïĩ": 3236,
      "ĠÎ¿ÏĦÎ¹": 3237,
      "Î¯Î¿Î¹ÏĤ": 3238,
      "á½³Î³ÏģÎ±ÏĢ": 3239,
      "ÏĢÎ½Î¿á¿ĨÏĤ": 3240,
      "Ġá¼§ÏĢÎ±Ïģ": 3241,
      "ÏģÎµÏĥÎ¹Î½": 3242,
      "Ġlit": 3243,
      "Î¸ÎµÏĥÎ¹ÏĤ": 3244,
      "ĠÏĦá¼ĦÎ»Î»Î±": 3245,
      "ÏĥÏĨ": 3246,
      "Î¶ÎµÎ¹Î½": 3247,
      "ĠÏĥÏħÎ³Î³": 3248,
      "Ġpa": 3249,
      "Ġá¼ĶÏĥÏĦÏī": 3250,
      "ĠÏĢÎ»Îµá½·ÏĥÏĦ": 3251,
      "ĠÎ½Î¿Ïĥá½µÎ¼Î±ÏĦÎ¿ÏĤ": 3252,
      "ãĢ": 3253,
      "Î¿Î¹Î½": 3254,
      "Î¬Î²": 3255,
      "ÏĦÎµá¿¦": 3256,
      "ĠÎ¸Î·": 3257,
      "ĠÎ¿á¼´ÎºÎ¿Ïħ": 3258,
      "Ġá¼¥ÏĢÎ±ÏĦÎ¿ÏĤ": 3259,
      "Î±ÏģÎ±": 3260,
      "ÏīÏĦá½³Ïģ": 3261,
      "Ġá¼ĲÏĢá½³": 3262,
      "ĠÏĦÏģÎ¹á¿¶Î½": 3263,
      "ĠÎ¿á½ĲÎ´Îµá½¶ÏĤ": 3264,
      "á¿¤á¿¥ÏīÏĥÏĦ": 3265,
      "á½³Î½ÏĦÎ±": 3266,
      "res": 3267,
      "Ġá¼ĲÏĩÏģá¿ĨÎ½": 3268,
      "ĠÏĢÎµá½·": 3269,
      "Î¿ÏħÎ´": 3270,
      "ĠÏĢá½±Î¸Î·": 3271,
      "áµĽâģ±áµĪ": 3272,
      "á½·Î´Î±": 3273,
      "ÏĩÏīÎ½": 3274,
      "Ġá¼ĢÏģÏĩá½°ÏĤ": 3275,
      "Ġá½ģÏĢá½¹": 3276,
      "Î¼á¿³": 3277,
      "Ġá½ĢÏĢá½·ÏĥÏī": 3278,
      "ĠÏĢÎ¿Î»Î»á¿·": 3279,
      "Î´Î¹Î±": 3280,
      "Ġá¼ĲÏĩá½¹Î½ÏĦÏīÎ½": 3281,
      "ĠÎ¼á½³Î»Î¹ÏĦÎ¿ÏĤ": 3282,
      "ĠÏĦÎ¬": 3283,
      "Ġá¼ĲÏģÏħ": 3284,
      "ĠLXX": 3285,
      "ĠÏĥÏħÎ¼ÏĢÏĦá½½": 3286,
      "ĠÎ´Î¿á¿¦": 3287,
      "Îµá½·ÏĥÎ·ÏĤ": 3288,
      "ĠÎ¼á½³Î³Î±": 3289,
      "ĠÎ´ÏįÎ¿": 3290,
      "Ġá¼ĲÎ¸á½³": 3291,
      "ÏĥÏĦÎµÎ¹Î»ÎµÎ½": 3292,
      "á½±ÏģÎº": 3293,
      "ĠÏĩÎµá¿ĸÏģÎ±": 3294,
      "ÏĦÏħÏģ": 3295,
      "Ġá¼ĢÎ½ÏĦá½¶": 3296,
      "ĠÎ¸á½½ÏģÎ±ÎºÎ¿ÏĤ": 3297,
      "Î³Î¼á½±ÏĦÏīÎ½": 3298,
      "ĠÎ¼ÎŃÎ½": 3299,
      "ĠÎ´Î¹ÎµÎ¾": 3300,
      "ÏĥÎ±Î¼ÎµÎ½": 3301,
      "Ġá¼ĺÏģÎ±": 3302,
      "ĠÎµá½ĳÏģá½·ÏĥÎº": 3303,
      "ek": 3304,
      "ĠÎ¹Î²": 3305,
      "ĠÏĦá¼Ģ": 3306,
      "Î¼Î¼Î±": 3307,
      "ĠÏĢÎ¿Î»Î»Î¿á¿ĸÏĤ": 3308,
      "ĠÎ±ÏħÏĦÏī": 3309,
      "ĠÎ¸ÎµÏģÎ±ÏĢÎµÏħ": 3310,
      "Î¹á½±": 3311,
      "ĠÎ±á½ĲÏĦá½´": 3312,
      "ĠÎºÎ±ÏĦÎŃ": 3313,
      "ĠÏĥÏħÎ³Ïĩ": 3314,
      "ÏĦÎŃÏģÎ±": 3315,
      "á½±Î½ÎµÎ¹": 3316,
      "Ġá¼°Î´á½³": 3317,
      "ĠÏĥÏĨÏħÎ³Î¼á½¸ÏĤ": 3318,
      "ÏĥÏĥÎ¿Î½": 3319,
      "Î¿Î¼á½³Î½á¿³": 3320,
      "Ġá½ħÎ»Î¿Ïħ": 3321,
      "Ġá¼ĢÎ½á½±Î»": 3322,
      "ĠÎ´Î¹Î±ÏĨ": 3323,
      "Ġá½ķÏĢÎ½": 3324,
      "ĠÎ»Î¿Î³Î¹ÏĥÎ¼": 3325,
      "ĠÏĢÎ±Î½ÏĦá½±ÏĢÎ±ÏĥÎ¹Î½": 3326,
      "ĠÏħÎ¼": 3327,
      "Ġus": 3328,
      "ĠÎ¿ÏħÎº": 3329,
      "Ġá¼ĶÏĥÏī": 3330,
      "ĠÏĥÏħÏĥÏĦ": 3331,
      "á½·Î½ÏīÎ½": 3332,
      "ĠÏĢá¾¶ÏĥÎ±": 3333,
      "ĠÏĢÏħÏģÎµÏĦ": 3334,
      "ĠÏĢÎ½Îµá½»Î¼Î±ÏĦÎ¿ÏĤ": 3335,
      "ĠÏĦÎ¿ÏħÏĤ": 3336,
      "Ġá¼ĺÎ½": 3337,
      "ings": 3338,
      "ÏĦÏĦÎµÎ¹": 3339,
      "Ġá½ĢÏĥÏĦÎ¿á¿¦Î½": 3340,
      "Î½Î¿": 3341,
      "ĠÎ¼ÎµÏĦÎ±Î²Î¿Î»": 3342,
      "ĠÎ³á½·Î³Î½": 3343,
      "ĠÎ´á½µÏĢÎ¿Ïħ": 3344,
      "Îµá¿ĸÎ±Î½": 3345,
      "Îµá½·á¾³": 3346,
      "Ġá¼ĢÎ¼ÏĨÎ¿á¿ĸÎ½": 3347,
      "Ġá¼ĶÎ´ÏīÎºÎµÎ½": 3348,
      "ÏĦÏĦÎ¿Ïħ": 3349,
      "ĠÎºÎ»Î·ÏģÎ¿Î½Î¿Î¼": 3350,
      "ÎºÎ·Î½": 3351,
      "ÏīÏĥÎ¹ÏĤ": 3352,
      "Ġá¼ĦÎº": 3353,
      "ÏĮÎ¼ÎµÎ½Î¿Î¹": 3354,
      "Î®ÏĥÎ¿Î½ÏĦÎ±Î¹": 3355,
      "Î©": 3356,
      "ÎµÎ½á½¸ÏĤ": 3357,
      "ĠÎ²ÎµÎ²": 3358,
      "ĠÏĦÎ¿Î¹Î±á½»ÏĦÎ·Î½": 3359,
      "ĠÏĦÎ¿á¿ĸÏĥÎ¹": 3360,
      "ÏĥÎ¬": 3361,
      "ÏģÎ±á½¶": 3362,
      "Îµá½·Î¿Î¹ÏĤ": 3363,
      "ĠÏĢÎ¿Î»Îµ": 3364,
      "á¾¶Î½": 3365,
      "Ġá¼ĲÎ³ÎµÎ½": 3366,
      "ĠÎ¼Î·Î´Îµ": 3367,
      "Ġá¼´Î´Î¹Î¿Î½": 3368,
      "Ġá¼ĲÎ³ÎºÎµÏĨá½±Î»Î¿Ïħ": 3369,
      "ĠÎ²á½³Î»ÏĦÎ¹Î¿Î½": 3370,
      ".)": 3371,
      "Ġá¼ĦÎºÏģ": 3372,
      "ĠÏĦÎ·Î½Î¹ÎºÎ±": 3373,
      "ĠÎ´á½±Îº": 3374,
      "Ġá¼ĶÏĥÏĩ": 3375,
      "Ġá¼ĲÏĥÎ¸": 3376,
      "Î½ÎµÎ³Îº": 3377,
      "Ġá¼ĢÎºÎ¿Ïį": 3378,
      "ah": 3379,
      "á½³ÏĩÎµÎ¹Î½": 3380,
      "ĠÏĨÎ±ÏģÎ¼á½±ÎºÎ¿Ïħ": 3381,
      "ĠÎ»ÎµÏĢÏĦÎ¿Î¼ÎµÏģ": 3382,
      "ÏĦÏģÎ¿Ïħ": 3383,
      "ĠÏĨÏīÎ½á¿ĨÏĤ": 3384,
      "ÎºÏĦ": 3385,
      "Î¶ÏħÎ³": 3386,
      "Ġá¼ĦÎ½ÏīÎ¸ÎµÎ½": 3387,
      "ĠÎ¸ÎµÏģÎ¼Î±Ïĥá½·Î±ÏĤ": 3388,
      "Ġá¼ĢÏĨÎ¿ÏģÎ¹ÏĥÎ¼": 3389,
      "Î»á¿³": 3390,
      "Î¼Î¿ÏħÏĤ": 3391,
      "Ġá¼ĲÎ¾ÎµÎ»": 3392,
      "ÏĦÏīÏĥÎ±Î½": 3393,
      "ĠÎ¿á½ĲÎºá½³": 3394,
      "ĠÏĥÏĦÏħÏĢ": 3395,
      "ĠÎ±ÏħÏĦÎ¿Î½": 3396,
      "Î±Ïĩ": 3397,
      "Î¼á½¸ÏĤ": 3398,
      "ÎºÎ¿Î¹ÏĤ": 3399,
      "Î¸Î·Î½": 3400,
      "ÏĥÏĦÎ¹ÏĤ": 3401,
      "Î»Î¹ÏĢ": 3402,
      "ĠÏĥÏħÎ¼Î¼á½³ÏĦÏģ": 3403,
      "ÏħÏĤ": 3404,
      "ĠÏĩÏī": 3405,
      "ĠÎ´Î¹Î±á½·": 3406,
      "ĠÎ±á½ĳ": 3407,
      "á½µÏĥÎµÏīÎ½": 3408,
      "Î»Î¿Î³Î¿Î½": 3409,
      "ĠÎ±á½Ķ": 3410,
      "Ġrend": 3411,
      "ĠÎ²Î»á½±Î²": 3412,
      "á½·Î±Î¹": 3413,
      "ĠÎ³á¿ĩ": 3414,
      "á½¹Î½ÏīÎ½": 3415,
      "Ġá¼ĲÎ³ÏĩÏīÏģÎµá¿ĸ": 3416,
      "ĠÎ±ÏħÏĦÎ¿ÏħÏĤ": 3417,
      "Ġá¼ĳÎºá½±ÏĦÎµÏģÎ¿Î½": 3418,
      "ĠÎļÏħÏģÎ¹Î¿ÏĤ": 3419,
      "ĠÎ¸ÏħÏĥÎ¹Î±ÏĥÏĦ": 3420,
      "ĠÎ¾Î·ÏģÎ±Î½": 3421,
      "ĠÏĢÎ±ÏģÎ±ÏĢÎ»Î·Ïĥ": 3422,
      "Ġá¼Ģá¿¤á¿¥ÏīÏĥÏĦ": 3423,
      "ÏĥÎµÏĥÎ¸Î±Î¹": 3424,
      "ĠÎ¼á½³Î³": 3425,
      "ĠÎ´Î±": 3426,
      "ÏĥÎ±Î½ÏĦÎ¿": 3427,
      "ĠÏĢÎµÏģÎ¹ÎµÏĩ": 3428,
      "Î»á½±ÏĦÏīÎ½": 3429,
      "ĠÎ±á½Ĺ": 3430,
      "ĠLord": 3431,
      "ĠÏĥÏħÎ¼Î²Î±á½·Î½ÎµÎ¹": 3432,
      "ĠÎ½ÏħÎ½á½¶": 3433,
      "Ïĥá½·Î½": 3434,
      "Î¬Î³": 3435,
      "ĠÏģ": 3436,
      "Î¼á¿ĨÏĤ": 3437,
      "Î¸á¿ĩ": 3438,
      "á½µÏĥá¿ĥ": 3439,
      "Î¼á½³Î½Î¿Î¹": 3440,
      "ĠÎ¼Î¹Î³Î½": 3441,
      "ĠÏĩÎ¹ÏĦá¿¶Î½": 3442,
      "Ġá¼ĲÎºÎµá¿ĸÎ½Î¿": 3443,
      "ĠÎºÏĤ": 3444,
      "ĠÎºÎ»": 3445,
      "Ġá¼ĲÎ´Îµ": 3446,
      "ĠÎµá½ĲÎ»Î¿Î³": 3447,
      "Ġá¼±Î´Ïģ": 3448,
      "ĠÏĩÎµÎ¹Î¼á¿¶Î½": 3449,
      "ĠÏĨÎ»á½³Î²Î±ÏĤ": 3450,
      "ĠÎ´Î¹Î´Î±ÏĥÎºÎ±Î»": 3451,
      "Ġá¼¡Î¼ÎŃÏģ": 3452,
      "ĠÏĢá¾¶ÏĥÎ¹": 3453,
      "ÎºÏģÎ¹Î½": 3454,
      "ĠÏĢÎ¬Î½ÏĦÏīÎ½": 3455,
      "ĠÏĢÏģÎ¿ÏĥÎ±Î³Î¿": 3456,
      "ÏĦÎµá¿¦Î¸ÎµÎ½": 3457,
      "á¿¶Î½Î±Î¹": 3458,
      "ĠÏĥÎºÎ¿": 3459,
      "Ġmea": 3460,
      "ĠÎ±á¼°ÏĥÎ¸Î·ÏĦ": 3461,
      "ÎºÎ½ÏħÏĦÎ±Î¹": 3462,
      "ĠÎ¼ÏĮÎ½Î¿Î½": 3463,
      "ĠÎµá¼¶Î¸": 3464,
      "Î³Î³Î¿ÏĤ": 3465,
      "ÎºÎµÎ¹ÏĦÎ±Î¹": 3466,
      "ĠÎ»á½·ÏĦÏģÎ±ÏĤ": 3467,
      "á½³Î³ÏģÎ±ÏĢÏĦÎ±Î¹": 3468,
      "á¿¶ÏĥÎ¹": 3469,
      "á¿ĨÎ»Î¸Î¿Î½": 3470,
      "Ġá¼ĢÏģÏĦÎ·Ïģá½·": 3471,
      "ÏĪÎ¹ÏĤ": 3472,
      "ĠÎ½ÏħÎº": 3473,
      "ÏīÏ²": 3474,
      "Î¸ÎŃ": 3475,
      "Ġá¼ĲÏĢÎ¿Î¹": 3476,
      "ĠÏĨÎ·ÏĥÎ¹Î½": 3477,
      "ÏģÎ¹Î¶": 3478,
      "Ġá¼ĲÏĢÎ¹Î²": 3479,
      "ĠÎ»Î±á½¸ÏĤ": 3480,
      "ĠÎºÎ¿Î¹Î»á½·Î±ÏĤ": 3481,
      "Î½Î±Î½ÏĦá½·": 3482,
      "Ġá¼ĢÎ»Î»á½µÎ»ÏīÎ½": 3483,
      "ĠÏĨÎ·ÏĥÎ¹": 3484,
      "ÎĴ": 3485,
      "ĠÏĦÎµÏģ": 3486,
      "ĠÏĢÎ·": 3487,
      "Î¸ÏīÎ½": 3488,
      "ĠÎ±á½ĲÏĦÎ¿á½»ÏĤ": 3489,
      "Ġá¼ĶÎ»Î±Î¹Î¿Î½": 3490,
      "ÏįÏĤ": 3491,
      "ĠÏĩÏģá½¹Î½Î¿Ïħ": 3492,
      "pp": 3493,
      "ÎµÎ¹Î±": 3494,
      "ĠÎ³Î¬Ïģ": 3495,
      "Ġá¼ĲÎºÏĦÎµ": 3496,
      "ĠÏĢÎ±ÏģÎ±Ïĩ": 3497,
      "ĠÎ¸Îµá¿·": 3498,
      "Ġverb": 3499,
      "Î±ÏģÏĩ": 3500,
      "Î¿á½»ÏĥÎ±ÏĤ": 3501,
      "Ġá¼ĦÎ»Î»Î¿Î¹": 3502,
      "ĠÏĥÏĩÎµÎ´": 3503,
      "ĠÎ´ÏħÎ½á½±Î¼ÎµÎ¹ÏĤ": 3504,
      "sup": 3505,
      "ĠN": 3506,
      "ĠÏĩÏģÎµá½·Î±Î½": 3507,
      "ĠÏĥÏĢÎ»á½±Î³ÏĩÎ½": 3508,
      "ÏħÏģÎ¿": 3509,
      "ĠÏĢÎ¿Î»Ïħ": 3510,
      "ĠÎļÏħÏģá½·Î¿Ïħ": 3511,
      "Ġá¼ĲÏĢÎ¿á½·Î·ÏĥÎµÎ½": 3512,
      "ĠÏĢÎµÎ¹": 3513,
      "á½»ÏĦÎ·": 3514,
      "ĠÎ³ÎŃÎ½": 3515,
      "ĠÎ´Î¹á½³": 3516,
      "ĠÎ¿á½ĲÎ´á½³": 3517,
      "Ġá¼¸Î±Îº": 3518,
      "ÏĦÎ¹ÎºÎ¿á¿ĸÏĤ": 3519,
      "Ġá¼¦ÏĥÎ±Î½": 3520,
      "ÎºÎ¿ÏĥÎ¹": 3521,
      "Î¯ÏīÏĤ": 3522,
      "ĠÎµá¼°Îºá½¹": 3523,
      "ÏĪÏī": 3524,
      "Î»Î¹ÏĤ": 3525,
      "ĠÎµá½ĲÎ»": 3526,
      "Ġá¼ĢÎ»Î³": 3527,
      "Ġá¼ĲÏĢÎ¯": 3528,
      "ÏĦÎ¿Î»": 3529,
      "ÏĦÏīÎ¼Î±": 3530,
      "ĠÏĦÎ·Î½Î¹ÎºÎ±á¿¦ÏĦÎ±": 3531,
      "ÎºÎ·ÏĤ": 3532,
      "Ġá¼ĲÎ¸Îµ": 3533,
      "Ġá¼ĲÎºÎºÏģá½·": 3534,
      "Ġá¼¸ÏĥÏģÎ±á½µÎ»": 3535,
      "Ïģá¿³": 3536,
      "Î±Î½Î¹": 3537,
      "ĠÎ»Î¿Ïħ": 3538,
      "á½½Î¼Î±ÏĦÎ±": 3539,
      "Ïģá½¹ÏĦÎ·ÏĤ": 3540,
      "Î¼ÏĨÏī": 3541,
      "Ġá¼ĳÎ»Îºá¿¶Î½": 3542,
      "ĠÏĦá½»Ïĩ": 3543,
      "cc": 3544,
      "ĠÎµá¼°Îº": 3545,
      "Î³Î±Î³": 3546,
      "ĠÎ±á¼´ÏĥÎ¸": 3547,
      "Ġá¼ĶÏĨÎ·": 3548,
      "ĠÎ´ÏħÏĥÎºÏģÎ±Ïĥ": 3549,
      "Î½Î¹": 3550,
      "Î½ÎµÏĥÎ¹Î½": 3551,
      "Ġá¼ĦÎ¼ÏĨÏī": 3552,
      "ĠÏĦá¿·Î´Îµ": 3553,
      "Ġá¼ĲÏĢÎ¹á¿¤á¿¥": 3554,
      "Î·ÏĥÎ¿Î½": 3555,
      "ĠMS": 3556,
      "Î¯Î¿ÏħÏĤ": 3557,
      "Îµá¿ĸÎ½Î±Î¹": 3558,
      "Ġá¼ĶÏĩÎ¿ÏħÏĥÎ¹Î½": 3559,
      "ĠÎºÎ¿ÏĦá½»": 3560,
      "ĠÎ³Î½Ïī": 3561,
      "Ġá¼ĢÎ³Î½Î¿": 3562,
      "ÏĥÏĥÎ·ÏĤ": 3563,
      "Î»ÎµÎºÏĦÎ±Î¹": 3564,
      "Î®Î¸Î·": 3565,
      "Î¹Îºá½¸Î½": 3566,
      "ĠÏĥÏħÎ½ÏĦÎµ": 3567,
      "ĠÏĥÎ·Î¼Îµá¿ĸÎ¿Î½": 3568,
      "0Â¹": 3569,
      "á½³Î¿ÏĤ": 3570,
      "Ġá¼ĢÎ»Î·": 3571,
      "ÏĨÎ·": 3572,
      "ĠÎ³Î»á½·": 3573,
      "ÎºÎ¿Î´Î¿Î¼": 3574,
      "ĠÎ´Î¹Î±ÏĨÎ¿ÏģÎ·": 3575,
      "ĠÎ±ÏħÏĦÎ·ÏĤ": 3576,
      "ld": 3577,
      "ĠÏĢá½³ÏģÎ±": 3578,
      "á½·Î¿Î¹ÏĤ": 3579,
      "Ġá¼ĲÏĢÎŃ": 3580,
      "ther": 3581,
      "ÏģÎ±Î³": 3582,
      "ĠÏĥÏħÎ¼Î¼Îµ": 3583,
      "ĠÎ¼ÎµÏĦÊ¼": 3584,
      "ĠÎºÎ±Î¹Ïģá¿·": 3585,
      "ĠÎ¼ÎµÏĦÎ±Î²": 3586,
      "ĠÏĩÎ±Î»ÎµÏĢ": 3587,
      "Î£": 3588,
      "Î·Î¸Î·": 3589,
      "Î¸Î·ÏĤ": 3590,
      "ĠÎ´á½»Î½Î±ÏĥÎ¸Î±Î¹": 3591,
      "Ġxxx": 3592,
      "ĠÎ´Ïİ": 3593,
      "ÏĥÎµÏĥÎ¹": 3594,
      "ĠÏĢÏģÏĮÏĥÏī": 3595,
      "ĠÎ²Î¹Î²Î»á½·Î¿Î½": 3596,
      "á½³ÏĤ": 3597,
      "Î»Î»ÏīÎ½": 3598,
      "Î¿á½»Î¼ÎµÎ½Î¿ÏĤ": 3599,
      "ĠÏĩÎµÎ¹Ïģá½¶": 3600,
      "ĠÎ´á½³ÏģÎ¼Î±ÏĦÎ¿ÏĤ": 3601,
      "ĠÏĩÎ¹Î»Î¹": 3602,
      "ĠÎ¿á½ĲÏģÎ±Î½Î¿á¿¦": 3603,
      "ÎĹ": 3604,
      "Ġá¼ĶÏĢÎµÎ¹ÏĦÎ±": 3605,
      "Ġá¼ĢÏĢÎ¿Î´Îµá½·": 3606,
      "Ġá½ĦÏģÎ³": 3607,
      "ÎºÎ¿ÏĥÏĦ": 3608,
      "ĠÎ´ÏħÎ½Î±ÏĦá½¸Î½": 3609,
      "ÏĢÏħ": 3610,
      "ĠÎµá¼´ÏģÎ·": 3611,
      "hap": 3612,
      "ĠÎ»á½³Î³ÎµÎ¹": 3613,
      "ĠÏĦá¿ĨÏ²": 3614,
      "ĠÎ³Î»á½·ÏĥÏĩ": 3615,
      "ĠÎºÎ½á½µ": 3616,
      "Ġá¼ĪÏĥÎº": 3617,
      "ĠÎ´Î¹Î´á½±ÏĥÎº": 3618,
      "Ġá¼ĦÎ½Î´ÏģÎµÏĤ": 3619,
      "ĠÎ±á½ĹÏĦÎ±Î¹": 3620,
      "Î¸ÎµÏģ": 3621,
      "á½µÎ¼Î±ÏĦÎ¹": 3622,
      "ÏĪÎµÏĦÎ±Î¹": 3623,
      "Ġá¼ĳÏģ": 3624,
      "ĠÎµá¼¶Î½Î±á½·": 3625,
      "Ġthem": 3626,
      "Ġomit": 3627,
      "ĠÎºÎµÎ»Îµá½»": 3628,
      "ĠÎºÎ¹Î½á½µÏĥÎµÎ¹ÏĤ": 3629,
      "Î¾Î±ÏĥÎ¸Î±Î¹": 3630,
      "Ġá¼ĢÎ´ÎµÎ»ÏĨÎ¿": 3631,
      "ĠÏĦÎ¿á¿ĸÏ²": 3632,
      "ĠÏĥÏĢÎ¿Î½Î´á½»": 3633,
      "Î¼ÏĨÏħ": 3634,
      "ĠÎłÎ»á½±ÏĦÏīÎ½": 3635,
      "ĠÎºá¾ĢÎ½ÏĦÎ±á¿¦Î¸Î±": 3636,
      "ĠÏĨÏģÎµÎ½": 3637,
      "ĠAnd": 3638,
      "ÎºÎ»á¿³": 3639,
      "Ġá¼ĲÏĢÎ¿Î¯Î·ÏĥÎµÎ½": 3640,
      "Î¼á½µ": 3641,
      "ÏĩÎµÎ¹Î½": 3642,
      "ĠÎºÎ±Î¸á½¹Î»Î¿Ïħ": 3643,
      "ĠÏħá¼±Î¿á¿¦": 3644,
      "Ġá½ĦÎ½ÏĦÏīÎ½": 3645,
      "ÏĦá¿Ĩ": 3646,
      "ĠÎºÎ¹": 3647,
      "ĠÎ³ÎµÎ½Îµ": 3648,
      "Ġá¼ĢÏĥÏĨÎ±Î»": 3649,
      "Ġá¼¡Î¼ÎŃÏģá¾³": 3650,
      "ĠMSS": 3651,
      "xt": 3652,
      "ĠÏĥÏĦÎµÏģ": 3653,
      "á½³Î½ÏĦÎµÏĤ": 3654,
      "ĠÏĦÎ¿á½»ÏĦÎ¿ÏħÏĤ": 3655,
      "Ġá¼ķÎ»ÎºÎ¿ÏĤ": 3656,
      "ÏĦÏĮÏĤ": 3657,
      "ĠÏĢá½³Î½": 3658,
      "ĠÎ¸ÏħÏĥ": 3659,
      "ĠÎ¸ÎµÏģÎ¼Î¿á¿¦": 3660,
      "Î·Î³Î¿": 3661,
      "ib": 3662,
      "ÎºÏĦÎ±": 3663,
      "ÎŃÏīÎ½": 3664,
      "ĠÏĢÎ¿ÏĦÎ±": 3665,
      "ĠÎ¼ÎµÎ³á½³": 3666,
      "ĠÏĢá½³ÏĨÏħÎº": 3667,
      "ĠÎ²ÏģÎ±Î´": 3668,
      "ÎºÎ¿ÏħÏĤ": 3669,
      "ĠÎ½Ïī": 3670,
      "ĠÎ»ÎŃÎ³": 3671,
      "ĠÏĦÎ¿Î¹ÏĤ": 3672,
      "ĠÏĥÏħÎ¶ÏħÎ³": 3673,
      "Ġá¼ĶÎ½Î´ÎµÎ¹": 3674,
      "Îµá¿¦": 3675,
      "Î³á½¼": 3676,
      "ÏĦÎ±Î¾ÎµÎ½": 3677,
      "Ġá¼ĢÎ´Î¹Îº": 3678,
      "Ġá¼ĲÎ½Îµ": 3679,
      "Ġá¼ĲÏĥÏĦá½·Î½": 3680,
      "ĠÏĢÎ±Ïģá½±": 3681,
      "Ġá½łÎ½": 3682,
      "ĠÏĦÎ¿Î¹Î¿á¿¦ÏĦÎ¿ÏĤ": 3683,
      "ĠÎ¼á½»ÎµÏĤ": 3684,
      "Î¿ÏħÎ¼á½³Î½ÏīÎ½": 3685,
      "Î¼Î±Î»": 3686,
      "á¿ĸÎ¿Î¹": 3687,
      "ally": 3688,
      "ĠÏĦÏģá½³ÏĨ": 3689,
      "ak": 3690,
      "ÏĩÏģ": 3691,
      "ĠÎµÏĢÎµ": 3692,
      "ĠÎ³á½³Î½Î¿ÏħÏĤ": 3693,
      "á½¹ÏĦÎ·ÏĦÎ¹": 3694,
      "ĠÏĢÎ»Î·Ïĥá½·Î¿Î½": 3695,
      "ĠÎ¡": 3696,
      "ĠÎºÏħÏģÎ¯Î¿Ïħ": 3697,
      "ĠÎ¸Î¬": 3698,
      "ĠÏĩÏģÎµá½·Î±": 3699,
      "ĠÎĴÎ±Î²": 3700,
      "ĠÏĦÎ¯ÏĤ": 3701,
      "Î±Î¼": 3702,
      "ÏĦÎ±Î¯": 3703,
      "Ġá¼ĲÎ½ÏĦá½¸ÏĤ": 3704,
      "Î»ÎµÎ¸": 3705,
      "ĠÎ³á½³Î½ÎµÏĥÎ¹Î½": 3706,
      "ĠÎ±ÏħÏĦÏīÎ½": 3707,
      "ĠÏĢÎ»Î·Î³": 3708,
      "ÏĦÏħÏĩ": 3709,
      "Î¾ÎµÏĦÎ±Î¹": 3710,
      "ĠÎ´Î¹ÎºÎ±": 3711,
      "ĠÏĦá½¹ÏĦÎµ": 3712,
      "ĠÎ¾Î·Ïģá½¸Î½": 3713,
      "Ġá¼ĢÎ¸Ïģá½¹": 3714,
      "ĠÎ´ÎµÎ¹": 3715,
      "Ġá¼ĢÎºÎ±": 3716,
      "Î´ÎµÎºÎ±": 3717,
      "Ġï¬": 3718,
      "Ġá¼°ÏĥÏĩÏħÏģá¿¶ÏĤ": 3719,
      "Ġá½ģÎ´á½¸Î½": 3720,
      "Ġhis": 3721,
      "ĠÎ½á½¹ÏĥÎ·Î¼Î±": 3722,
      "ÏĨÏģÎ¿Î½": 3723,
      "ĠK": 3724,
      "Ġá½ĢÎ´ÏħÎ½": 3725,
      "Î»Î·ÏĢÎ¹": 3726,
      "á½·Î½Î·": 3727,
      "Ġper": 3728,
      "Î¼ÏīÎ½Î¹": 3729,
      "Ġá¼ĶÎ»Î±Î²ÎµÎ½": 3730,
      "Î¤": 3731,
      "ÏĩÏī": 3732,
      "Ġá¼ĲÎ¾ÎŃ": 3733,
      "Ġá¼ĲÏĢÎ¹Î³": 3734,
      "ĠÏĥÏħÎ½á½±": 3735,
      "ĠÎĻÏī": 3736,
      "ĠÏĢÎ»Î·Î¸": 3737,
      "ĠÎºÎ±Î¸á½¼ÏĤ": 3738,
      "Ġá¼¸ÎµÏģÎ¿ÏħÏĥÎ±Î»Î®Î¼": 3739,
      "Ġá¼ĢÎ½á½±Î»Î¿Î³Î¿Î½": 3740,
      "á½·Î³": 3741,
      "ÏĪá½»": 3742,
      "ĠÎµá¼¶ÏĢÎ±Î½": 3743,
      "Ġá¼ĶÎ¸Î½Î·": 3744,
      "á¿¶Î½ÏĦÎ±Î¹": 3745,
      "ĠÎ²Ïģ": 3746,
      "Ġmay": 3747,
      "Î´ÏģÎ¿": 3748,
      "ĠÎ±ÏĢÎµ": 3749,
      "Î¾Î¿Î½": 3750,
      "ĠÏĨÏģÎ¿Î½": 3751,
      "aA": 3752,
      "á½½ÏĢÎ¿Ïħ": 3753,
      "Î·ÏĥÎ±ÏĤ": 3754,
      "Ġsome": 3755,
      "Î´Î¹Î´": 3756,
      "ĠÎºÏħÏģÎ¹": 3757,
      "Ġá½ĢÎ½Î¿Î¼á½±Î¶ÎµÎ¹Î½": 3758,
      "ĠÎ±á¼±Î¼Î¿á¿¤á¿¥Î±Î³": 3759,
      "á¼´": 3760,
      "á½´Î¼": 3761,
      "ĠÎ½Î¿á¿¦Î½": 3762,
      "ĠÎ³ÎµÎ³": 3763,
      "ĠÏĪÎµÏħ": 3764,
      "ÏĢÎ¿ÏĦÎµ": 3765,
      "Ġá¼ĶÎ½Î¹Î±": 3766,
      "ĠÏĩÎ¿Î»á¿ĨÏĤ": 3767,
      "ĠÏĦá½³ÏĩÎ½Î·ÏĤ": 3768,
      "á½¹Î³ÏīÏĤ": 3769,
      "Ġá¼ĪÏĥÎºÎ»Î·ÏĢÎ¹": 3770,
      "\".": 3771,
      "ÏģÎ¿á¿ĸÏĤ": 3772,
      "á¿ĸÎ½Î¿Î½": 3773,
      "Ġá¼ħÏĢÎ±ÏĥÎ¹Î½": 3774,
      "ĠÎµá¼°Îºá½¹ÏĦÏīÏĤ": 3775,
      "Ġá¼ī": 3776,
      "ĠÎ»á½³Î¾Î¹Î½": 3777,
      "Ġá¼¡Î¼á½³Ïģá¾³": 3778,
      "ÎºÎµÎ¹Î½": 3779,
      "ĠÎ±á½ĲÏĦá½µÎ½": 3780,
      "Î³Î±Î³ÎµÎ½": 3781,
      "Ġá¼ĳÎ±ÏħÏĦá¿¶Î½": 3782,
      "ĠSyr": 3783,
      "á½µÏĥÏī": 3784,
      "Î¹ÎºÎ¿á¿ĸÏĤ": 3785,
      "ĠÏĥÎºÎ¹": 3786,
      "ÏĮÎ½ÏĦÎµÏĤ": 3787,
      "ÏĨÎ¸Î±Î¹": 3788,
      "Ġá¼ķÎºÎ±ÏĥÏĦÎ¿ÏĤ": 3789,
      "ĠÎµá½ĶÎ´Î·Î»Î¿Î½": 3790,
      "Ġseem": 3791,
      "ĠÎ½Îµá¿¦ÏģÎ¿Î½": 3792,
      "Ġá¼¸Î¿ÏįÎ´Î±": 3793,
      "Ġá¼ĲÎ½Ïİ": 3794,
      "ĠÎ´Î¹Î·Î³": 3795,
      "ÏĥÎ±Î½ÏĦÎ±": 3796,
      "ÏĦÎ¹Îºá½´": 3797,
      "Ġ33": 3798,
      "Ġá¼ĢÏģÏĩá¿ĩ": 3799,
      "Î¼Î¹ÏĥÏħ": 3800,
      "Ġá¼ĲÎ¼ÏĢÎµÎ¹": 3801,
      "Ġá¼°Î±ÏĦÏģÎ¹Îº": 3802,
      "Î¸ÏģÎ±": 3803,
      "á½µÏĥÎ¿Î½ÏĦÎ±Î¹": 3804,
      "ÏģÎ¹Ïĥ": 3805,
      "ĠÏĦÎ±á½»ÏĦÎ±ÏĤ": 3806,
      "ĠÏĥÏĩÎµÎ´á½¸Î½": 3807,
      "Î¼á¿ĥ": 3808,
      "Ġá¼ĶÏĨÎ±": 3809,
      "ĠÏĨÎ»ÎµÎ³Î¼Î¿Î½á¿ĨÏĤ": 3810,
      "ĠÎĴÎ±Î²ÏħÎ»": 3811,
      "ÎºÏħ": 3812,
      "ĠÏĦÎ¿á¿¦Î´Îµ": 3813,
      "ĠÏĨÏħÏĦ": 3814,
      "Ġá¿¥á½±Ïĩ": 3815,
      "ĠÎ¸ÎµÏĮÏĤ": 3816,
      "our": 3817,
      "ame": 3818,
      "ĠÎºÏħÎº": 3819,
      "ĠÎ´Î¿Ïħ": 3820,
      "ÏĦÎ±ÏĦÎ¿Î½": 3821,
      "á½µÏĥÎ±ÏĦÎ¿": 3822,
      "Ġá¼ĲÏĢÎ¹ÏĦá½µ": 3823,
      "ĠÎ¿á¼´Î½á¿³": 3824,
      "ĠÎ¸á½½ÏģÎ±ÎºÎ±": 3825,
      "ĠÎ´Î¹Î±ÏģÎ¸Ïģ": 3826,
      "ĠÎ´Ïģ": 3827,
      "Ïĩá½½": 3828,
      "ĠÎ³á½±Î»Î±": 3829,
      "ĠÎ³á½³Î³ÏģÎ±ÏĢÏĦÎ±Î¹": 3830,
      "Î¾á½±": 3831,
      "Î¹ÎºÎ¿á¿¦": 3832,
      "ĠÏĢÎ¿Î¹á¿ĨÏĥÎ±Î¹": 3833,
      "ĠÎºÎ±Î¹Ïģá½¸Î½": 3834,
      "ĠÎ¼Î¿Ïģá½·Î¿Î¹ÏĤ": 3835,
      "ĠÏĥÏĨÏħÎ³Î¼á½¸Î½": 3836,
      "Ġá¼ĢÎ¼Îµ": 3837,
      "Î»ÎµÎ¯": 3838,
      "Ġá¼ĳÏĦá½³ÏģÎ±ÏĤ": 3839,
      "Ġá¼ĲÎ³Îº": 3840,
      "ĠÏĥÏħÎ½Î¹": 3841,
      "ĠÏĢÏģÎ¿ÏĥÏİ": 3842,
      "ĠÎ¿á½ĶÏĥÎ·ÏĤ": 3843,
      "ĠÏĦá½¹ÏĢÎ¿Î½": 3844,
      "ĠÏĢá½³Î¼ÏĢ": 3845,
      "ĠÎºÏģá¾¶ÏĥÎ¹Î½": 3846,
      "Î¿Îº": 3847,
      "ÏĥÎ´Îµ": 3848,
      "ĠÏĢÏģÎ¿Î²": 3849,
      "Ġá¼ĲÎ¾á½³": 3850,
      "á½¹ÏĦÎ±ÏĦÎ¿Î½": 3851,
      "Ġá¼ĲÎ½Î±Î½ÏĦá½·Î¿Î½": 3852,
      "Ġá¼ĢÎ½Î¬": 3853,
      "Ġli": 3854,
      "Ġá¼ĢÎ½Î¸ÏģÏİÏĢÎ¿Ïħ": 3855,
      "Ġá¼ĲÎ»Îµ": 3856,
      "ÏĦÎ¿á½¶": 3857,
      "Ġ32": 3858,
      "ĠÏĦÏģÎ¯": 3859,
      "Ġá½ĦÎ½ÏĦÎ±": 3860,
      "Ġá¼ħÏĢÎ±Î½ÏĦÎµÏĤ": 3861,
      "ÎºÎ¹ÏĥÏĦÎ±": 3862,
      "Ġá¼ĢÎ½Î¸Ïģá½½ÏĢÏīÎ½": 3863,
      "ĠÏĥÏĨÎ¿Î´Ïģá¿¶ÏĤ": 3864,
      "ostea": 3865,
      "ĠÎ¼Î±Î½": 3866,
      "Ġá¼Ģá¿¤á¿¥": 3867,
      "Ġá¼ĶÏģÏĩ": 3868,
      "Ġá½ĳÎ´Î±": 3869,
      "Î½ÎµÏĤ": 3870,
      "Î»ÎµÏĥÎµÎ½": 3871,
      "ĠAa": 3872,
      "ĠÎ´Î¹Î±Î³Î½": 3873,
      "ĠÏĢÎ±á½»": 3874,
      "Ġcom": 3875,
      "ect": 3876,
      "Ġá¼Ĩ": 3877,
      "ĠÎ¸Î»á½·": 3878,
      "Ġá¼ĲÎ¾Î±á½·": 3879,
      "ĠÏĢÏħÏģá½³": 3880,
      "ĠÏĢÎ±ÏģÎµÎ¼Î²": 3881,
      "iff": 3882,
      "Ġá½Ī": 3883,
      "Î¿Î¼ÎŃÎ½ÏīÎ½": 3884,
      "ĠÏĦÎ±Ïĩá½³ÏīÏĤ": 3885,
      "ÎºÎµá½·Î¼ÎµÎ½Î¿Î½": 3886,
      "ĠÏĢÎ±ÏģÎ±ÏĩÏģ": 3887,
      "ĠÎµá¼°ÏĥÎµ": 3888,
      "Ġá¼ĢÎ½Î¿Î¼": 3889,
      "ĠÏĢÎµÏģÎ¹ÏĦÏĦÏī": 3890,
      "ĠÎ´á½³Î´ÎµÎ¹ÎºÏĦÎ±Î¹": 3891,
      "ĠÏĦÎ±á½ĲÏĦá½¸Î½": 3892,
      "Ġá¼ĲÎ³Îºá½³ÏĨÎ±Î»Î¿Î½": 3893,
      "ÓĦ": 3894,
      "Î¿Ï²": 3895,
      "ÏĢÎ¿ÏģÎµÏħ": 3896,
      "ĠÏĢÎ¬Î½ÏĦÎ±ÏĤ": 3897,
      "ĠÏĢÏħÏģÎµÏĦá½¸ÏĤ": 3898,
      "Ġá¼ĢÏĥÎº": 3899,
      "ĠÏĢÏģá½±Î³": 3900,
      "Î¬ÏĢÎµÏģ": 3901,
      "Ġá¼ĦÏģÎ¹": 3902,
      "Ġá½ĢÎ»Î¯": 3903,
      "ĠÎ±á¼°á¿¶Î½Î±": 3904,
      "Ġá½ĢÏĨÎ¸Î±Î»Î¼á¿¶Î½": 3905,
      "ĠÎ´Î¹Î±ÏĨÎ¿Ïģá½°ÏĤ": 3906,
      "ĠÎºÏīÎ»á½»": 3907,
      "ĠÏĦÏģá½±": 3908,
      "á½±Î²": 3909,
      "ĠÏĦÎ¹Î½Î±ÏĤ": 3910,
      "ÏĦá½³ÏģÎ¿Î¹ÏĤ": 3911,
      "ĠÏĢÎ½ÎµÏį": 3912,
      "Ġá¼°Î±ÏĦÏģÎ¿á¿ĸÏĤ": 3913,
      "ĠÏĢÎµÏĢÎ¿Î½Î¸á½¹": 3914,
      "ning": 3915,
      "Î¼Î±ÏĤ": 3916,
      "ĠÏĩá½¹Î½": 3917,
      "ÏĦÏģÎ¿ÏĤ": 3918,
      "ĠÎ§ÏģÎ¹ÏĥÏĦ": 3919,
      "Ġhere": 3920,
      "Î¹Î±ÏĤ": 3921,
      "ĠÏĨÎ¿Ïģ": 3922,
      "Ïģá½·ÏĥÏĦ": 3923,
      "ÏĥÎ±ÏĨ": 3924,
      "ÏģÎµÏīÏĤ": 3925,
      "Ġá¼°Î´Î¹": 3926,
      "Ġá¼ĲÎ¼ÏĨá½»": 3927,
      "ĠÎ´ÏħÎ½á½±Î¼ÎµÎ¹": 3928,
      "ĠÎ¼ÎµÎ»Î±Î³Ïĩ": 3929,
      "so": 3930,
      "Î¼Î¿Î¹ÏĤ": 3931,
      "Ġá¼°á½±": 3932,
      "Î³Î½ÏīÏĥÎ¹Î½": 3933,
      "Ġá¼ĢÏģÏĩá½´": 3934,
      "ĠÏħá¼±Î¿á¿ĸÏĤ": 3935,
      "Î¼Î¹Î½Î¸": 3936,
      "ÏĢÎ½Îµ": 3937,
      "ÏĨÎµ": 3938,
      "âĢĻ.": 3939,
      "Ġá¼ĲÎ½Î¹": 3940,
      "á½±Î½Î·ÏĤ": 3941,
      "Ġá¼ģÏĨ": 3942,
      "Ġá½ĳÎ³ÏģÎ±": 3943,
      "ĠÎºÎ¿Î»Î»": 3944,
      "ĠÏĢÎ±ÏģÎ±ÏĢÎ»á½µÏĥÎ¹": 3945,
      "Ġá¼¸ÎµÏģÎ¿ÏħÏĥÎ±Î»á½´Î¼": 3946,
      "Ġá¼ģÏģÎ¼á½¹": 3947,
      "ĠÎ±á½ĲÏĦá½·ÎºÎ±": 3948,
      "Ġag": 3949,
      "ĠÎºÎ±ÏĦÎ±ÏĥÏĦá½±": 3950,
      "ĠÎ¼ÎµÎ³Î¬Î»": 3951,
      "ĠÎ¼ÎµÎ³á½·ÏĥÏĦ": 3952,
      "ĠÎ¿á¼´Îºá¿³": 3953,
      "ĠÎ¼ÎµÏģ": 3954,
      "ĠÏĦÎµÏĦÎ±": 3955,
      "Ġá¿¥Î¹Î½": 3956,
      "ĠÎ¼á½³Î»Î»": 3957,
      "Î±ÎºÎ¿á¿¦": 3958,
      "ĠÏĢá½±ÏĥÎ±ÏĤ": 3959,
      "Ġá¼°ÏĥÏĩÎ½": 3960,
      "ĠÎºÏģá½¹ÎºÎ¿Ïħ": 3961,
      "ec": 3962,
      "Î¼Î±ÏĦ": 3963,
      "ĠÏĢÎµÏģÎ¹Îº": 3964,
      "ĠÎ´Î¹Î±Î²": 3965,
      "ĠÎºÎ±Î¸Î¬ÏĢÎµÏģ": 3966,
      "ĠÏĪÏħÏĩá½´Î½": 3967,
      "ĠÏĢÎ±ÏģÎ±ÏĩÏģá¿ĨÎ¼Î±": 3968,
      "ĠÓĦ": 3969,
      "Î»Î·ÏĥÎµÎ½": 3970,
      "ĠÎµá¼°Î¼Î¹": 3971,
      "ĠÎ²ÎµÎ»": 3972,
      "Ġá¼ĢÏĢÊ¼": 3973,
      "ĠÏĩÏģÏĮÎ½": 3974,
      "Ġá¼ĦÎ»Î»Î·Î½": 3975,
      "ĠÏĢÎ»á½±": 3976,
      "ĠÏĥÏħÎ½Î¸á½³": 3977,
      "ĠÎ¿á¼¶Î½Î¿Î½": 3978,
      "Ġá¼¨": 3979,
      "ĠÏĩÏģá½µ": 3980,
      "Ġá¿¥ÏħÏĢ": 3981,
      "á½¹Î¼ÎµÎ½Î±Î¹": 3982,
      "pt": 3983,
      "ĠÎºÎµÏģ": 3984,
      "ĠÎ»ÏħÏĢ": 3985,
      "Î´ÎµÎºá½±": 3986,
      "Ġá¼ķÏĦÎµÏģÎ¿ÏĤ": 3987,
      "ĠÏĦá½³ÏĦÏĦÎ±": 3988,
      "Î³ÏģÎ±ÏĨ": 3989,
      "á½³ÏĥÎ¸Ïī": 3990,
      "Ġá½ħÎ¼ÏīÏĤ": 3991,
      "ĠÏĦÎµÏĩÎ½": 3992,
      "ĠÏĦÎ¿á½Ķ": 3993,
      "Ġá¼¥Î¼Î¹ÏĥÏħ": 3994,
      "Ġá¼µÎ½": 3995,
      "ÏĢÏĦÎµÏĥÎ¸Î±Î¹": 3996,
      "ÏĩÎ¿ÏħÏĤ": 3997,
      "ĠÏĢÎ±á¿ĸ": 3998,
      "Ġcf": 3999,
      "ĠÏĦá½¹Î½": 4000,
      "ĠÎ»á½³Î»ÎµÎºÏĦÎ±Î¹": 4001,
      "ĠÎ±á¼´ÏĥÎ¸Î·ÏĥÎ¹Î½": 4002,
      "Ġá¼ĲÎ»Î¸": 4003,
      "ÏĨÏģ": 4004,
      "ĠÏĩÎµá½·": 4005,
      "ĠÏĥÏħÏĥÏĦÎ¿Î»": 4006,
      "Ġá¿¥á½»": 4007,
      "ĠÎ¾Î·Ïģá½°": 4008,
      "ĠÎ¼ÎµÎ»Î±Î³ÏĩÎ¿Î»": 4009,
      "á½³Î»ÎµÎ¹": 4010,
      "Ġá¼ĢÏĢÎ¿Î¸Î±Î½": 4011,
      "Ġá¼ĪÏģÏĩ": 4012,
      "ÏĦÏĦÎµÏĥÎ¸Î±Î¹": 4013,
      "Ġá¼ĲÏĢÎ¹ÏĦá½µÎ´ÎµÎ¹": 4014,
      "ĠÎºá½½": 4015,
      "ĠÏĥÏĦÏģÎ±": 4016,
      "Î´ÎµÎ¹ÎºÎ½": 4017,
      "Ġá¼ħÏĢÎ±Î¾": 4018,
      "Ġá½ĢÎ´á½»Î½": 4019,
      "Ġá¼ģÏĢá½±ÏĥÎ±ÏĤ": 4020,
      "ÏĦá½¸": 4021,
      "ÏĦÏģÎµ": 4022,
      "Î±Î´": 4023,
      "ÏīÏĦá½±": 4024,
      "Î¶ÎµÎ¹": 4025,
      "Î¸Î·ÎºÎµÎ½": 4026,
      "ĠVáµĥ": 4027,
      "Ġá¼ĢÎ¼ÏĨÎ¿ÏĦá½³ÏģÏīÎ½": 4028,
      "ĠÎºá¿¶": 4029,
      "ĠÏĥÏĦÎµ": 4030,
      "Ġá¼ĶÏĦÎ·": 4031,
      "á½µÎ³": 4032,
      "ĠÏĩÏħÎ¼á½¸Î½": 4033,
      "Ġdiff": 4034,
      "Ġá¼µÏĢ": 4035,
      "ÏģÏħÏĢÎ½": 4036,
      "ĠÎ´Î¹Î¬": 4037,
      "Ġat": 4038,
      "ĠÎµá¼´ÏĦ": 4039,
      "ĠÏĦÎ¹Î½á½¶": 4040,
      "ĠÏĢÎ¿Î¹Î®": 4041,
      "Ġ87": 4042,
      "ĠÎ´Î±ÎºÎ½": 4043,
      "Ġá¼ĶÎ³ÏģÎ±ÏĪÎµ": 4044,
      "Ġr": 4045,
      "Î¼Î·Î¸": 4046,
      "Î¼á½³Î½á¿ĥ": 4047,
      "Î¸ÏģÎ¿Î¹": 4048,
      "Î¬Î»Î¹Î½": 4049,
      "ÏĦÏĮ": 4050,
      "á½¹Î´Î¿Ïħ": 4051,
      "ĠÏĥá½±Ïģ": 4052,
      "Ġá¼ĦÎ»Î»Î±ÏĤ": 4053,
      "ĠÎ¿á½ĶÏģÏīÎ½": 4054,
      "Ġwill": 4055,
      "ĠÎºÏįÏģÎ¹Î¿ÏĤ": 4056,
      "Ġá¼ĢÎ½á½±Î³ÎºÎ·": 4057,
      "ake": 4058,
      "ÏĦÎ¹Ïĥ": 4059,
      "ÏĪÎµÎ¹ÏĤ": 4060,
      "á½³ÏģÎµÏīÏĤ": 4061,
      "ĠÎ£Îµ": 4062,
      "Ġá¼ĢÎ½Î±Î³ÎºÎ±á¿ĸ": 4063,
      "Ġá½ĢÏĨÎ¸Î±Î»Î¼Î¿á½ºÏĤ": 4064,
      "Ġá¼ĢÎ´á½»Î½Î±ÏĦÎ¿Î½": 4065,
      "ÏĢÎ¯": 4066,
      "á½·Î·": 4067,
      "Ġá¼ĳÎ±ÏħÏĦá½¸Î½": 4068,
      "ÏĩÎ¸Î±Î¹": 4069,
      "Î¸ÎµÏĤ": 4070,
      "Ġá¼ĲÎ¼Î½Î·": 4071,
      "ĠÎºÎ¿Î¹Î»á½·": 4072,
      "ĠÎĳá¼°Î³á½»": 4073,
      "AC": 4074,
      "Ïģá½¶": 4075,
      "Ġá¼ĶÏĥÎ¿Î½ÏĦÎ±Î¹": 4076,
      "ÏĦÎ¿Ï²": 4077,
      "ĠÎµá¼´ÏĥÏī": 4078,
      "ĠÏĨÎ»á½³Î³": 4079,
      "ÎŁÎ¥": 4080,
      "ĠÏĢá½³Î½ÏĦÎµ": 4081,
      "ĠÎ´á½³Î¿Î½": 4082,
      "Ġá¼ĶÎ¼Îµ": 4083,
      "Ġá¼ĳÏĦÎ¿á½·": 4084,
      "ĠÎµá¼°Ïģá½µÏĥÎµÏĦÎ±Î¹": 4085,
      "ĠÏĦÎ±ÏĤ": 4086,
      "ĠÏĦÎµÎ¸": 4087,
      "Î»Î±Î¼": 4088,
      "á½±ÏģÏīÎ½": 4089,
      "ĠÏĢá½±Î½ÏĦÎ±ÏĤ": 4090,
      "ĠÏĪÏħÏĩÏģÎ¿á¿¦": 4091,
      "Ġá¼¥ÏĦÎ¹ÏĤ": 4092,
      "ĠÏĦÎ¿Î¹Î±á½»ÏĦÎ·": 4093,
      "ĠÏĢÏħÏģá½¸ÏĤ": 4094,
      "ĠÎ»ÏĮÎ³Î¿ÏĤ": 4095,
      "á½±Î»Î»Î¿Î½": 4096,
      "Î¿ÏħÎ»": 4097,
      "Ġá¼ĲÎ½ÎµÏģ": 4098,
      "ÏĨÎ¿Ïģ": 4099,
      "ĠÎ»Î±á½¸Î½": 4100,
      "ĠÎ±á¼°ÏĦá½·ÏīÎ½": 4101,
      "ĠÏĢÏģÎ¿Î³Îµ": 4102,
      "ĠÎºá½·Î½Î·ÏĥÎ¹ÏĤ": 4103,
      "ĠÎ±á½ĲÏĩ": 4104,
      "Ġá¼ĲÎºÎºÎµÎ½": 4105,
      "ong": 4106,
      "ĠÏĦÏģÏĮ": 4107,
      "Ġá¼ĲÎºÎµá½·Î½Î¿Ïħ": 4108,
      "ĠÎ³Î»á¿¶": 4109,
      "ĠÏĢÏį": 4110,
      "ĠÎ¼á½·Î±": 4111,
      "ĠÏĥÏĦÏģ": 4112,
      "Î¸ÎµÏĦÎ¿": 4113,
      "Ġá¼¥ÎºÎ¹ÏĥÏĦÎ±": 4114,
      "ous": 4115,
      "AQÎĵ": 4116,
      "Ġá¼ĳÏĦá½³ÏģÎ¿Ïħ": 4117,
      "ĠÏĩÎ¿": 4118,
      "á½·Î½Î¿Î½ÏĦÎ±": 4119,
      "ort": 4120,
      "ĠIs": 4121,
      "ĠÎ³ÎµÎ³Î¿Î½á½³Î½Î±Î¹": 4122,
      "Ġá¼ĢÏĨÎ¹ÎºÎ½": 4123,
      "Ġá½ĢÎ»Î¹Î³": 4124,
      "Ġá¼ĲÏĢÎ¹ÏĩÎµÎ¹Ïģ": 4125,
      "ĠÏĨÎ¸Î¹Î½": 4126,
      "ĠÎ³ÎŃ": 4127,
      "ÏħÏĦá½³Ïģ": 4128,
      "Ġá¼ĢÎ½Î±Î³Îº": 4129,
      "Ġá¼ĦÎ»Î»Î¿Ïħ": 4130,
      "ĠÂ§": 4131,
      "ĠÎ¼Î½Î·Î¼Î¿Î½Îµá½»": 4132,
      "vi": 4133,
      "Ġá½ģÎ»Î¿": 4134,
      "ĠBb": 4135,
      "ĠÎ¤Î¯": 4136,
      "ĠÏĢÏģá½¹ÏĥÏīÏĢÎ¿Î½": 4137,
      "Î±Î¯": 4138,
      "ÏĨÎµÎ¹": 4139,
      "ĠÎµÏħ": 4140,
      "á½¹Î¼Î±": 4141,
      "ĠÎ¿á½ĸÏģÎ±": 4142,
      "ĠÎ¸Îµá½¸Î½": 4143,
      "Ġá¼ĢÏģÏĦÎ·Ïģá½·Î±Î½": 4144,
      "Ġá¼ĢÏģÎ¹Î¸Î¼á½¸Î½": 4145,
      "ng": 4146,
      "Î±á½Ĳ": 4147,
      "ÎºÎµÏĤ": 4148,
      "ÏīÎ´á¿¶Î½": 4149,
      "ĠÏĢÏģÎ¿ÏĥÏĨá½³Ïģ": 4150,
      "ĠÏħá¼±Î¿á½ºÏĤ": 4151,
      "Ġá½ĦÎ½ÏĦÎ¿ÏĤ": 4152,
      "ĠÎ´Î¹á½±Î¸ÎµÏĥÎ¹ÏĤ": 4153,
      "ĠÏĥÏĢÎ±ÏĥÎ¼": 4154,
      "the": 4155,
      "ĠÎºá½³Î½": 4156,
      "Î·ÏĦÎµ": 4157,
      "Î³Î¼Î±ÏĦÎ¿ÏĤ": 4158,
      "Î¬ÏĤ": 4159,
      "Ġsu": 4160,
      "Ġá½ĢÎ½Î¿Î¼á½±ÏĦÏīÎ½": 4161,
      "ĠÏĥÏĩá¿ĨÎ¼Î±": 4162,
      "ÎµÏĥÎ¹": 4163,
      "Î±Î¹Î¿Î½": 4164,
      "ĠÎ»Î¿Î¾": 4165,
      "Î»Î±ÏĥÏĦ": 4166,
      "ĠÏĢÎ¹ÏĥÏĦÎµ": 4167,
      "ĠÏĦá½³ÏĩÎ½Î·Î½": 4168,
      "ĠÎ»Î¿ÏħÏĦÏģ": 4169,
      "ÏīÏĥ": 4170,
      "á½¹Î½ÏĦÎ¹": 4171,
      "Î¿á½»Î¼ÎµÎ½Î±": 4172,
      "ĠÎµá¼°ÏģÎ·Î¼á½³Î½Î¿Î¹ÏĤ": 4173,
      "Ġá¼ĳÎºá½±ÏĥÏĦÎ·Î½": 4174,
      "Î³Î½ÏīÏĥÏĦÎ¹Îº": 4175,
      "Ġá¼ĢÎºÎ¿Î»Î¿ÏħÎ¸": 4176,
      "á½°Î²": 4177,
      "Î±Î»Î¹Î½": 4178,
      "Ġá¼ĢÏĢÎ¿ÏĨá½»": 4179,
      "Ġsuperscr": 4180,
      "ĠÎ´Î¹Î±Î¸á½³ÏĥÎµÏīÏĤ": 4181,
      "ĠÎºÏįÏģÎ¹Î¿Î½": 4182,
      "Ġá¼ĪÏĥÎºÎ»Î·ÏĢÎ¹á½±": 4183,
      "ig": 4184,
      "ĠÎ»Î¯": 4185,
      "ÏĥÎ¸Î·ÏĥÎ±Î½": 4186,
      "Î¼ÎŃÎ½Î¿Î½": 4187,
      "ĠÎ½Î¿Ïĥá½µÎ¼Î±ÏĦÎ±": 4188,
      "ĠÎ¶á½½Î¿Î¹ÏĤ": 4189,
      "Ġá¼ĶÏģÎ³ÏīÎ½": 4190,
      "Ġá¼ĢÎ³Îº": 4191,
      "Î¿Î¹ÏĥÎ¹Î½": 4192,
      "Ġá¼ĶÎ½Îµ": 4193,
      "Î»ÎµÏħÏĥÎµÎ½": 4194,
      "Ġá¼ĳÏĦá½³ÏģÎ±": 4195,
      "ĠÎľÎµ": 4196,
      "superscr": 4197,
      "ÎµÎ½Îµ": 4198,
      "Î±Î½Îµ": 4199,
      "ÏĥÏĩÏħÎ½": 4200,
      "ĠÏĢÎµÏĢÎ¿Î¹": 4201,
      "Ġsee": 4202,
      "ĠÎ´ÏħÎ½Î¬Î¼Îµ": 4203,
      "ÏģÏĮÎ½": 4204,
      "ÎµÎ¹Î¼": 4205,
      "Î¾Î·ÏĤ": 4206,
      "Î¯Î±Î¹ÏĤ": 4207,
      "ÏĥÎ¹Î¿Î¹": 4208,
      "ĠÎºÎ¿á½·": 4209,
      "Î´Î¿Îº": 4210,
      "ĠÏĢá½¹ÏĦÎµÏģÎ¿Î½": 4211,
      "ĠÏĦÏĮÏĦÎµ": 4212,
      "ĠÏĢá½³ÏģÎ±ÏĤ": 4213,
      "ĠÎĻÎµÏģ": 4214,
      "ĠÏĦÎ¿ÏĥÎ¿á½»": 4215,
      "Ġá¼ĢÎ½Î¸Ïģá½½ÏĢÎ¿Ïħ": 4216,
      "ĠÏĦÎµÏģÎ¼Î¹Î½Î¸": 4217,
      "Î¹Î¿ÏĤ": 4218,
      "Î¾á¿ĥ": 4219,
      "Î»Î»Ïħ": 4220,
      "ÏĥÎ¹Î¿ÏĤ": 4221,
      "Î®Î¼Î±ÏĦÎ±": 4222,
      "Î´Î·Î¼Î¹": 4223,
      "Ġá½ĳÏĢÎ¿Î¼Î½á½µ": 4224,
      "ÏĦÏį": 4225,
      "ĠÏĪÎ±": 4226,
      "Ġthere": 4227,
      "Ġá½ĳÎ³Ïģá¿¶Î½": 4228,
      "Ġwhe": 4229,
      "Ġá¼ĲÎºÎµá½·Î½Î¿Î¹ÏĤ": 4230,
      "ĠÎ±á¼·ÏĤ": 4231,
      "ĠÏĢÏģÎ¿ÏĥÏİÏĢÎ¿Ïħ": 4232,
      "Î¼á½½": 4233,
      "ĠÎ¼ÎµÎ¹": 4234,
      "ĠÎ³ÏģÎ±Î¼": 4235,
      "Ġá¼ĲÎ½ÏĦÎµá¿¦Î¸ÎµÎ½": 4236,
      "ĠÎµá¼°Î´": 4237,
      "ĠÎ£Î¹": 4238,
      "ĠÏĢÏģá½¹ÏĤ": 4239,
      "Î´á½³ÏĥÎ¼": 4240,
      "ĠÏĩÎ±Î»Î²": 4241,
      "ĠÎ»ÎµÏħÎºÎ¿á¿¦": 4242,
      "ĠÏĨÎ±Î½ÎµÏģ": 4243,
      "ĠÎ´Ïī": 4244,
      "Ġá¼ĶÎ¿Î¹": 4245,
      "Ġá¼ĳÎº": 4246,
      "Ġá¼ĢÎ½Ïī": 4247,
      "Ġá¼ĲÏĢÎ¹ÏĨá½³Ïģ": 4248,
      "Ġá¼ĢÏĢÎ¿Î²": 4249,
      "ĠÏĥÎ·Î¼Îµá¿ĸÎ±": 4250,
      "ĠÎºÏħÏģÎ¯á¿³": 4251,
      "ÏĥÏĢÎ±": 4252,
      "Ġá½ħÏĥÎ±Î¹": 4253,
      "Ġá¼ħÎ³": 4254,
      "Ġá¼¦Î»Î¸ÎµÎ½": 4255,
      "Ġá¼ĢÎ¼Î¼ÏīÎ½Î¹": 4256,
      "Ġá¼ĲÎºÎµá½·Î½á¿³": 4257,
      "ĠÏĨÎ¹Î»Î¿Ïĥ": 4258,
      "ĠÏĦÏģÎ¿Ïĩ": 4259,
      "ÎºÎ·": 4260,
      "ĠÎ¼Î½": 4261,
      "á½³ÏĥÎ¸Î±Î¹": 4262,
      "Î¿á¿¦ÏĥÎ±Î¹": 4263,
      "ÏīÎ½ÏĦÎ±Î¹": 4264,
      "ĠÎ±á½ĲÏĦÎ®Î½": 4265,
      "ĠÏĢÏģá¾¶": 4266,
      "ÎŃÏīÏĤ": 4267,
      "á½½Î¼ÎµÎ¸Î±": 4268,
      "Ġ34": 4269,
      "ĠÎ³Î¹Î½á½½ÏĥÎº": 4270,
      "ag": 4271,
      "ÏĦÏĦÎ¿": 4272,
      "ÏĥÎ¿ÏĤ": 4273,
      "ĠÏĢÎ¿Î»Î»Î¿á½ºÏĤ": 4274,
      "ĠÎĻÏĥÏģÎ±": 4275,
      "ĠÏĢÎ±Î½ÏĦÎ±": 4276,
      "ĠÏĦÎ¿Î¹Î¿á½»ÏĦÎ¿Î¹ÏĤ": 4277,
      "ÏīÏĦá½³ÏģÏī": 4278,
      "01": 4279,
      "¶Î½": 4280,
      "ĠXX": 4281,
      "á¼ĤÎ½": 4282,
      "ĠÏĢá½»": 4283,
      "á¿ĨÏĩ": 4284,
      "Ġá¼ĶÎ»Î±": 4285,
      "ĠÏĦÎµÎº": 4286,
      "Î»Î¹Î±": 4287,
      "ÏĥÏĦÎµÏīÏĤ": 4288,
      "Î¿ÏģÎ´": 4289,
      "ĠÎ¼Î±Î¸Î·": 4290,
      "Ġá¼ĳÎºá½±ÏĥÏĦá¿³": 4291,
      "ÏĢá½¹": 4292,
      "ÏĢá¿ĥ": 4293,
      "Î¼á½·": 4294,
      "ĠÏĥÏĦÎ·": 4295,
      "Î²Î¿": 4296,
      "ĠÏĦÎµÏĦÎ±Ïģ": 4297,
      "Ġá¼ķÏĢÎµÏĦÎ±Î¹": 4298,
      "Ġá¼¤Ïģ": 4299,
      "ÏĥÎ¼ÎŃÎ½": 4300,
      "ĠÎ·Î¼Îµ": 4301,
      "ĠÎ³Ïģá½±Î¼": 4302,
      "ĠÏĨÎ·Ïĥá½¶": 4303,
      "li": 4304,
      "Î¼Î½ÎµÎ¹Î½": 4305,
      "Ġá¼ĲÎ½Î´Îµ": 4306,
      "ĠÏĢÏģÎ¿Î½": 4307,
      "Ġá¼´Î±": 4308,
      "ĠÎµá½Ĺ": 4309,
      "ĠÎĴÎ±": 4310,
      "ĠÎ¼Î¿Ïģá½·Î¿Ïħ": 4311,
      "ÏīÎ¸á¿ĨÎ½Î±Î¹": 4312,
      "ĠÎºÎ±ÏģÎ´á½·Î±": 4313,
      "ĠÎºá¾ĢÏĢá½¶": 4314,
      "Ġá¼ĲÏĢÎ±Î¹Î½": 4315,
      "ĠÏĨÏħÎ»Î±Îº": 4316,
      "ĠÎ²ÏģÎ±Ïĩá½·Î¿Î½Î¿ÏĤ": 4317,
      "ĠÎºÎ±Î¯": 4318,
      "ĠÎ¿á¼³": 4319,
      "ĠÏĦÎ¹Î½ÏīÎ½": 4320,
      "ÏĢÎµÏĥÎ¸Î±Î¹": 4321,
      "ĠÎ¼á½³ÏģÎ¿ÏħÏĤ": 4322,
      "ĠÎ¼Î¹á¾¶ÏĤ": 4323,
      "Ġá¼ĲÎ¸Î½á¿¶Î½": 4324,
      "Ġá¿¥á¿ĨÏĥÎ¹Î½": 4325,
      "Î¸ÎŃÎ½": 4326,
      "ÏĨÎ¿Î½": 4327,
      "Ġá¼ĲÎºÎºÎ»": 4328,
      "á½±Î½Î±Î¹": 4329,
      "ĠÎ¼ÎµÎ³Î±Î»": 4330,
      "ĠÎºÏħÏģá½·á¿³": 4331,
      "ĠÏĢÏħÏģÎµÏĦÎ¿á¿¦": 4332,
      "Ġá¼ĲÎ»Î±á½·á¿³": 4333,
      "ĠÎ²Î¿á½»Î»Îµ": 4334,
      "ĠÏĢÏģÎ¿ÏĥÎ±Î³Î¿ÏģÎµá½»": 4335,
      "ÏĦÏĦÏīÎ½": 4336,
      "ÏģÎµÎ¹Î½": 4337,
      "ĠÎ´Îµá½·": 4338,
      "ÎºÎ±ÏĥÎ¹Î½": 4339,
      "Î»Î±ÏĦÎ¿": 4340,
      "Ġá¼ĦÎ»Î»Î¿ÏĤ": 4341,
      "Ġá¾¿": 4342,
      "Ġá½ĳÏĢÎ¿ÎºÎµÎ¹": 4343,
      "ĠÏĦÎ¿á¿¦ÏĦá½¹": 4344,
      "Ġá½ĢÏĨÎ¸Î±Î»Î¼Î¿á¿ĸÏĤ": 4345,
      "ĠÏĩÏħÎ»Î¿á¿¦": 4346,
      "ĠÎ´ÏįÎ½Î±Î¼Î¹Î½": 4347,
      "ĠÏĢÎ¬Î»Î¹Î½": 4348,
      "Ġá¼ĲÏĢÎ¹ÏĢÎ¿Î»": 4349,
      "ĠÎĺÎµ": 4350,
      "ĠÏĢÎ½Îµá½»Î¼Î¿Î½Î±": 4351,
      "á½½ÏĦÎ±ÏĦÎ¿Î½": 4352,
      "ĠÎ¼Îµá½·Î¶Î¿Î½": 4353,
      "ÏĩÏģÎ·": 4354,
      "ĠÎ´Î¹ÏĮÏĦÎ¹": 4355,
      "Ġ36": 4356,
      "ĠÏĥÏĢÎŃÏģ": 4357,
      "ĠTh": 4358,
      "ĠÏĥÏħÎ¼Î²ÎµÎ²": 4359,
      "ĠÎ²Î±ÏĥÎ¹Î»ÎŃÎ±": 4360,
      "Ġá¼ĲÎ½Î´Îµá½·ÎºÎ½ÏħÏĦÎ±Î¹": 4361,
      "ÏĦá½´Î½": 4362,
      "ÏģÎ±á¿ĸÏĤ": 4363,
      "Ġá¼ĶÎ¸Î¿ÏĤ": 4364,
      "ĠÎ¿á½ĲÎ³Î³": 4365,
      "ĠÏĥÏħÎ½Î´á½³ÏĥÎ¼": 4366,
      "Ġthy": 4367,
      "ĠÏĢÏģÎ±Î³Î¼á½±ÏĦÏīÎ½": 4368,
      "ÏįÎ½Î·Î½": 4369,
      "Ġá¼ĲÎ³Î³á½ºÏĤ": 4370,
      "op": 4371,
      "á½µÏĤ": 4372,
      "Ġá¼ĲÏĢÎ¹ÏĦÎµ": 4373,
      "Ġtheir": 4374,
      "Î²á½±Î»Î»ÎµÎ¹Î½": 4375,
      "Î¹Î³á½³Î½": 4376,
      "ext": 4377,
      "Ïĥá½·Î±Î½": 4378,
      "ÏħÏģÎ¹": 4379,
      "ĠÎ¸ÎŃ": 4380,
      "Ġá¼ĢÎ½ÏīÎ¼Î±": 4381,
      "á½·Î½á¿³": 4382,
      "Ġá½ĦÎ³": 4383,
      "ĠÏĢÏģá½¹Î´Î·Î»Î¿Î½": 4384,
      "ĠÎ³ÏħÎ½Î±á¿ĸÎºÎ±": 4385,
      "Ġá½ģÏĢÎ¿": 4386,
      "Ġá¼ĳÎºÎ¬": 4387,
      "ĠÎ±ÏħÏĦÎ¿Î¹ÏĤ": 4388,
      "ÏĥÏĦÏģÎµÏĪÎµÎ½": 4389,
      "ÎºÏĦÎ·": 4390,
      "Î¸á½µÏĥÎµÏĦÎ±Î¹": 4391,
      "ĠÎ¼á½³Î»Î»Î¿Î½": 4392,
      "Ġá¼ĳÎ±ÏħÏĦÎ¿á¿ĸÏĤ": 4393,
      "ĠÏĨÎ±ÏģÎ¼á½±ÎºÎ¿Î¹ÏĤ": 4394,
      "ĠÏĢÎ¹ÏĥÏĦ": 4395,
      "ĠCf": 4396,
      "ĠÎ²Î±ÏĥÎ¹Î»Îµá¿ĸ": 4397,
      "),": 4398,
      "ÏĥÏĥÎ±Î½": 4399,
      "Ġá¼ĲÏĢÎ¹ÏĦÎ¹": 4400,
      "Ġá¼ĪÏģÎ¹ÏĥÏĦ": 4401,
      "ĠÎºá¾Ħ": 4402,
      "Ġá¼ģÏĢÎ»á¿¶Î½": 4403,
      "ĠÎ½ÏīÏĦÎ¹Î±": 4404,
      "ĠÏĢÎ±Î¼ÏĢ": 4405,
      "Ġá¼ĢÎ½Î±ÏĢÎ½Î¿á¿ĨÏĤ": 4406,
      "Ġá¼ĢÏĢÎ¿Î´": 4407,
      "ĠÏĦÎ¿Î¹Î±á½»ÏĦÎ·ÏĤ": 4408,
      "ĠÎ³ÎµÎ½á½³ÏĥÎµÏīÏĤ": 4409,
      "Ġá¼ĲÏĢÎ¹ÎºÏģÎ±": 4410,
      "Ġá¼¸Î·ÏĥÎ¿á¿¦": 4411,
      "ĠÏĢÎ½Îµá½»Î¼Î¿Î½Î¿ÏĤ": 4412,
      "Î¿ÏħÏĥÎ±Î¹": 4413,
      "ĠÎ¸Î±Î½Î±": 4414,
      "Ïģá½¹ÏĦÎµÏģÎ±": 4415,
      "Ġá½ĦÎ¾ÎµÎ¹": 4416,
      "ĠÎ¸ÎµÏģÎ¼á½¹ÏĦÎ·ÏĦÎ¿ÏĤ": 4417,
      "ĠÏĥÎµÎ±ÏħÏĦ": 4418,
      "Ġá½ĢÎ½Î¿Î¼á½±Î¶Î¿ÏħÏĥÎ¹Î½": 4419,
      "Ġá¼°Î´á½·á¾³": 4420,
      "Ġá¼ĲÎ»á½³Î³": 4421,
      "ĠÎºÏģá½±ÏĥÎµÏīÏĤ": 4422,
      "ĠÎ¼Î±ÏģÏĦÏħÏģ": 4423,
      "Ġ-": 4424,
      "Ġá¼ĶÎ³Î½Ïī": 4425,
      "Ġá¼ĶÏĥÎµÏĥÎ¸Î±Î¹": 4426,
      "Ġá¼¡Î»á½·": 4427,
      "Ġá½ģÎ¼Î±Î»": 4428,
      "Ġá¼ĶÏĩÎ¿Î½ÏĦÎµÏĤ": 4429,
      "Ġá¼ĪÎ±Ïģ": 4430,
      "Ġá¼ĲÎ½Î±Î½ÏĦ": 4431,
      "Ġá¼ĳÎ²Î´á½¹": 4432,
      "ĠÏĥÎ·ÏĢÎµ": 4433,
      "Ġá¼ĲÎ½ÏİÏĢÎ¹Î¿Î½": 4434,
      "ÏĦÎ±á½¶": 4435,
      "ÏĥÏĦÎ¿Î¹": 4436,
      "ĠÏĩÎ»": 4437,
      "ĠÎ¿á½ĲÎ´á½³Î½": 4438,
      "ĠÎ¼á½¹Î½Î·Î½": 4439,
      "ĠÎ³á½³Î½Î¿Î¹ÏĦÎ¿": 4440,
      "ĠÏĩÏħÎ¼Î¿á½ºÏĤ": 4441,
      "ĠÎºÎ±Îºá¿¶ÏĤ": 4442,
      "sub": 4443,
      "Î½ÎµÎ¹": 4444,
      "ĠÎ¼ÏĮ": 4445,
      "Ġsa": 4446,
      "ĠÏĦÏģÎ¹ÏĦÎ±": 4447,
      "ĠÎ¼Ïħá½¸ÏĤ": 4448,
      "Ġ106": 4449,
      "art": 4450,
      "ÏĦÎ¯Î¿Î½": 4451,
      "Î»Î±Î¼Î²á½±Î½": 4452,
      "Î±Ï²": 4453,
      "Ġá¼ĶÎ½Î±Î½ÏĦÎ¹": 4454,
      "ÎºÎ¿ÏħÎ½": 4455,
      "ĠÏĨÎ±ÏģÎ¼Î±": 4456,
      "Ġá½ĳÏĢá½±ÏģÏĩÎ¿Î½": 4457,
      "ĠÏĢÏģá½½ÏĦÎ¿Ïħ": 4458,
      "Ġá¼ĢÎ³Î±ÏĢ": 4459,
      "ÏĨÏħÏĥÎ¹Î½": 4460,
      "Ġá¼ķÎ½ÎµÎºÎµÎ½": 4461,
      "ĠÏĢÎ»Îµá½·Ïī": 4462,
      "ĠÎ¼Î¬Î»Î¹": 4463,
      "Ġï¬ģ": 4464,
      "ÏĦÏģÎ¿": 4465,
      "ÏģÎ¸": 4466,
      "ÏĢÏĦÎ±Î¹": 4467,
      "ÏīÏĥÎº": 4468,
      "ÎµÎ½ÏĦÎµÏģ": 4469,
      "Ġá½ģÎ¼Î¹": 4470,
      "Ġá¼ĦÏĢÎ¿": 4471,
      "Ġá¿¥á¿ĨÎ¼Î±": 4472,
      "ĠÏĦÏģá½·ÏĦÎ·ÏĤ": 4473,
      "Ġá¼ĲÏĩÎ¸Ïģ": 4474,
      "ĠÏĥÏħÎ½ÎµÏĩá¿¶ÏĤ": 4475,
      "Î´á½³ÏĩÎµÏĦÎ±Î¹": 4476,
      "Îľ": 4477,
      "Ġá¼Ŀ": 4478,
      "Ġá¼ĢÏĢÎ¿á¿¤á¿¥": 4479,
      "reek": 4480,
      "ĠÎ¼á½¹Î½Î·ÏĤ": 4481,
      "Ġá¼ĲÏĨÊ¼": 4482,
      "ĠÏĢÎµÏĢá½³ÏģÎµÏīÏĤ": 4483,
      "Ġá½ĢÎ½Î¿Î¼á½±Î¶Î¿ÏħÏĥÎ¹": 4484,
      "á½µÏĥÎµÏĥÎ¸Î±Î¹": 4485,
      "ĠÎ±á¼´ÏĦÎ¹Î¿Î½": 4486,
      "ĠÎºÎ¿Î¹Î»á½·Î±Î½": 4487,
      "Ġá¼ĢÎ½Î´Ïģá¿¶Î½": 4488,
      "Ġqu": 4489,
      "ĠÏĩá½±Ïģ": 4490,
      "Ġá¼ĢÎ½Î¹": 4491,
      "Î³Î³Îµ": 4492,
      "ĠÎĴÎ±Î¹": 4493,
      "ĠÎ¼Î·Î´á½³": 4494,
      "á½³ÏĩÎµÎ¹": 4495,
      "ĠÎ¼á½³ÏģÎµÎ¹": 4496,
      "ÏīÎ³": 4497,
      "ÏĥÏĦÎµÎ¹": 4498,
      "ĠÎµá¼°Ï²": 4499,
      "ĠÎ¸á½»": 4500,
      "ÏĦÎ·ÏĥÎµÎ½": 4501,
      "Ġá¼ĶÏĩá¿ĥ": 4502,
      "ĠÏĢÎ¿Î¹Îµá¿ĸÏĥÎ¸Î±Î¹": 4503,
      "ĠÏĢÎ¿Î¹á½¹ÏĦÎ·ÏĦÎ±": 4504,
      "ĠÏĥÏĢÎ»Î·Î½": 4505,
      "ĠÏĥÏĨÏħÎ³Î¼Î¿á½ºÏĤ": 4506,
      "Î±Î»Î»á½±": 4507,
      "Ġá¼ĢÏģÎµ": 4508,
      "Ġá¼ĢÏĥÎµÎ²": 4509,
      "Ġá¼ĢÏĢÎ¿ÏĨ": 4510,
      "ĠÏĢÎ»ÎµÎ¹": 4511,
      "Ġá½ķÏĪ": 4512,
      "ĠÏĢÏģá½½ÏĦá¿³": 4513,
      "ĠÎºÎ¿Î¹Î½ÏīÎ½": 4514,
      "ĠÎºÏģá½·ÏĥÎ¹Î½": 4515,
      "ĠÏĥÏħÎ½Î±Î³ÏīÎ³": 4516,
      "ĠÎ¸Î±ÏħÎ¼Î±ÏĥÏĦá½¸Î½": 4517,
      "Ġá¼¡Î½á½·ÎºÎ±": 4518,
      "mp": 4519,
      "ÎµÏģÏĩ": 4520,
      "ÏħÏģÎ¿Î½": 4521,
      "ĠÎ»ÎµÏĢÏĦá½¸Î½": 4522,
      "ĠÎ²ÏģÎ±Ïĩá½»": 4523,
      "ĠÏĥÏħÎ¼ÏĢÏĦÏī": 4524,
      "ĠÎ¦Î±ÏģÎ±": 4525,
      "ĠÎ³ÏħÎ½á½´": 4526,
      "ĠÏĩÎ±Î»ÎºÎ¿á¿¦": 4527,
      "ĠÏĥÏħÎ³ÏĩÏīÏģ": 4528,
      "ĠÏĥÏħÎ¼Î¼ÎµÏĦ": 4529,
      "ĠÏĢÎ·Î³": 4530,
      "Î²Î¿Ïħ": 4531,
      "Ġá¼ĶÏĢÎ¹": 4532,
      "ĠÎ¼á½³Î»Î±Î½": 4533,
      "ert": 4534,
      "Ġcor": 4535,
      "ĠÏĥÏĨá½¹": 4536,
      "ÏĥÎ¸Îµá½¶ÏĤ": 4537,
      "ĠÏĩÎµÎ¹Ïģá¿¶Î½": 4538,
      "Ġá¼ĢÎ³Î±Î¸á½¸Î½": 4539,
      "ĠÏĩÏģá½µÏĥÎ¹Î¼Î¿Î½": 4540,
      "ĠÎºÏħÎ½": 4541,
      "á½³ÏĥÎ¹": 4542,
      "ĠÎ±ÏģÏĩ": 4543,
      "ÏĦÎ¹Î¿á¿¦Î½": 4544,
      "Îµá¿ĸÏĥÎ±": 4545,
      "ĠÏĢÏģÎ¿Î·Î³": 4546,
      "Ġá½ĳÏĢÎ¬Ïģ": 4547,
      "Ġá¼ĢÏĢÎ¿ÏĨÎ±": 4548,
      "ĠÎ¸ÎµÏģÎ¼Î¿": 4549,
      "ĠÏĢÎ±ÏĦÏģá½¸ÏĤ": 4550,
      "haps": 4551,
      "Î¼ÎµÎ¹": 4552,
      "á½·Î´ÏīÎ½": 4553,
      "Î¹Î½Î±": 4554,
      "ĠÏĢÏģÎ¿ÏĥÏĦ": 4555,
      "ĠÎ¼á½³Î¸": 4556,
      "ist": 4557,
      "ĠÏĥÏĨá½¹Î´ÏģÎ±": 4558,
      "ÏĦÏģÎ±": 4559,
      "ÏĢÏĦÏīÎ½": 4560,
      "Ġá½ģÏĦÎ¹Î¿á¿¦Î½": 4561,
      "ĠÎ²Î¹Î±": 4562,
      "Ġá¼ķÏĦÎµÏģÎ±": 4563,
      "ĠÎµá½ĲÏģ": 4564,
      "Ġá½ķÎ»Î·ÏĤ": 4565,
      "ĠÏħá¼±á½¸Î½": 4566,
      "ĠÎ¿á¼°ÎºÎ¿Î´Î¿Î¼": 4567,
      "ĠÎ»á½³Î³Ïī": 4568,
      "Ġá¼ĳÎ½á½¶": 4569,
      "Ġá¼ĢÏģÎºÎµá¿ĸ": 4570,
      "Ġseems": 4571,
      "Ġá¼ĪÏģÏĩÎ¹Î³á½³Î½": 4572,
      "Î½Î¿Î¼Î±": 4573,
      "ĠÎºÏģÎ¿": 4574,
      "ĠÏĦÎ¿á¿¦Î¸": 4575,
      "Î¼ÎµÎ½Î±Î¹": 4576,
      "Ġá½ĢÏĩ": 4577,
      "á½·Î½Î·ÏĦÎ±Î¹": 4578,
      "Ġpo": 4579,
      "ĠÏĢÎ¿Î»Î»Î¿á¿¦": 4580,
      "ĠÎ½ÎµÎ±Î½": 4581,
      "Ġá¼ĢÎ½Î±Î³ÎºÎ±á¿ĸá½¹Î½": 4582,
      "ĠáµĲáµį": 4583,
      "ĠÏĢÏĦÎ¹Ïĥ": 4584,
      "á½±ÏĥÎ±Î¹": 4585,
      "ÏĨÏģÎ¿Ïĥ": 4586,
      "Ġá½ĳÏĢÎµ": 4587,
      "Ġtra": 4588,
      "ÎŃÏģÏīÎ½": 4589,
      "ĠÏĨÏīÎ½á½´Î½": 4590,
      "ĠÏĦÎ¿ÏįÏĦÎ¿Ïħ": 4591,
      "Î©ÎĿ": 4592,
      "ÏĥÎ¸á¿ĩ": 4593,
      "ĠÏĦá½·Î½Î±": 4594,
      "ÏĦá¿ĨÏĤ": 4595,
      "ÏĥÎ¯": 4596,
      "ÏīÏĢ": 4597,
      "á½¹Î½ÏĦÎ±ÏĤ": 4598,
      "Ġá¼ĦÎ»Î»Î¿ÏħÏĤ": 4599,
      "ĠÏĢÎ±ÏģÎ±ÏĥÎºÎµÏħ": 4600,
      "Î´Î¹Î¿Î½": 4601,
      "Ġmy": 4602,
      "ĠÎ¿á¼¶Î´Î±": 4603,
      "Ġrep": 4604,
      "ĠÎ³Î±ÏĥÏĦÏģá½¶": 4605,
      "Ġá¼ĦÎ½Î¸ÏģÏīÏĢÎ¿Î¹": 4606,
      "Ġá¼°Î´Îµá¿ĸÎ½": 4607,
      "ĠÎ£Î±Î»ÏīÎ¼": 4608,
      "Ġá½¢": 4609,
      "ÏĨÎ¹": 4610,
      "ÏĥÏĦÎ¿": 4611,
      "Ġá¼ĲÎºá½±": 4612,
      "Ġall": 4613,
      "ĠÎ¸ÎµÏī": 4614,
      "ĠÎµá½ĸ": 4615,
      "ĠÎµá¼°Ïģá¿ĨÏĥÎ¸Î±Î¹": 4616,
      "ĠGreek": 4617,
      "ĠÏĨÎ·Ïĥá½¶Î½": 4618,
      "ond": 4619,
      "ud": 4620,
      "ÏģÎ¿Î¹": 4621,
      "ÎºÎ±Î»": 4622,
      "ĠÎ¼ÎµÎ½": 4623,
      "Î»Î»Î·": 4624,
      "ĠÏĢá¾¶ÏĥÎ±Î¹": 4625,
      "ĠÎ»á½³Î³ÎµÏĦÎ±Î¹": 4626,
      "ant": 4627,
      "ĠÏĥÎ·Î¼Î±Î¹Î½": 4628,
      "Î¿á¿¦ÏĥÎ±Î½": 4629,
      "ÏĮÎ¼ÎµÎ½Î±": 4630,
      "Î¬Î½ÏĦÏīÎ½": 4631,
      "ĠÏĢá½±Î¼ÏĢ": 4632,
      "ĠÎ±á¼°ÏĥÎ¸Î·": 4633,
      "ĠÏĢÎ±Ïĩá½»": 4634,
      "ably": 4635,
      "ĠÎĻÏĥÏģÎ±Î·Î»": 4636,
      "Î¼Î±Î½": 4637,
      "ĠÎ½á½»": 4638,
      "Ġá½ĳÎ´Î±ÏĦ": 4639,
      "Ïĥá½·ÏīÎ½": 4640,
      "ÏĢÎŃ": 4641,
      "Îºá½³Î½Î±Î¹": 4642,
      "ĠÎµÎ³ÎµÎ½": 4643,
      "Ġá¼ĲÎºÏĨá½»": 4644,
      "Ġá¼ĢÎ½Î±Î¹": 4645,
      "ould": 4646,
      "urs": 4647,
      "Ġá¼ĢÎ½Î¸ÏģÏİÏĢÏīÎ½": 4648,
      "ĠÎµÎ¾Îµ": 4649,
      "Ġá½ħÏĥÏĦÎ¹ÏĤ": 4650,
      "ÏĦÎ·ÏĥÎ¹Î½": 4651,
      "ÏĥÎµÏĥÎ¸Îµ": 4652,
      "Ġso": 4653,
      "Ġá½¥ÏģÎ±ÏĤ": 4654,
      "ĠÎºÎ±Î¹Ïģá½¸ÏĤ": 4655,
      "Ġá¾ł": 4656,
      "ĠÎ¼á¾¶Î»Î»": 4657,
      "Î¯Î½Î¿Ïħ": 4658,
      "Ġá¼ħÏĢÎ±Î½ÏĦÎ±ÏĤ": 4659,
      "Ïĥá½·ÏĥÏĦÏģÎ±": 4660,
      "ĠÎ´Î¹Î±ÏĨá½³ÏģÎµÎ¹": 4661,
      "Ġá¼ĺÏģÎ±Ïĥá½·ÏĥÏĦÏģÎ±": 4662,
      "ĠÏĩá½¹Î½Î´Ïģ": 4663,
      "ĠÏĢÏģÏİ": 4664,
      "Ġá¼ĳÎ±Ïħ": 4665,
      "ĠÎ³ÎµÎ³ÎµÎ½": 4666,
      "ĠÏĥÏħÎ½á½µ": 4667,
      "ĠÎ¼Î·Îºá½³": 4668,
      "Ġca": 4669,
      "Ġá½łÎ¼Î¿": 4670,
      "ĠÎºÎ±ÏģÎ´á½·á¾³": 4671,
      "ĠÎ¼á½±Î»Î¹ÏĥÎ¸": 4672,
      "Ġá¼ĢÎ³ÏģÏħÏĢÎ½": 4673,
      "ĠÎ´Î·Î¼Î¹": 4674,
      "ĠÎ±á¼°ÏĦá½·Î±": 4675,
      "Ġprob": 4676,
      "ĠÎ¸á¾¶": 4677,
      "Îµá½·Î¼ÎµÎ½Î¿Î½": 4678,
      "Ġsp": 4679,
      "Ġsub": 4680,
      "Ġá½ĳÎ³Ïģá½¹ÏĦÎ·ÏĦÎ¿ÏĤ": 4681,
      "Ġá¼°ÏĥÏĩÏħÏģÎ¿": 4682,
      "ĠÎ¹ÏĥÏĦ": 4683,
      "Ġá¼ĲÎ¼á½³": 4684,
      "Ġá¼ĦÏģÎ¸ÏģÎ¿Î½": 4685,
      "ĠÎµá½ĲÎ»á½¹Î³ÏīÏĤ": 4686,
      "ĠÏĢÎµÎ¹Ïģ": 4687,
      "ÏģÎµÏħÎ¸": 4688,
      "ÏĢÎ¿Ïģ": 4689,
      "ĠÎ¼á½µÎ¸": 4690,
      "Î¼Î½á½µ": 4691,
      "viii": 4692,
      "ĠÏĢÏģÎ¿ÏĥÎ·Î³Î¿": 4693,
      "ÏħÎ³Ïĩ": 4694,
      "Î¼ÎŃÎ½Î¿Ïħ": 4695,
      "Î¿ÏħÏĥá¿¶Î½": 4696,
      "Ġá¼ĢÎ¸ÏģÎ¿": 4697,
      "Îµá½ºÏĤ": 4698,
      "Î¬Î»Î»": 4699,
      "ÏĥÎµÏĦÎµ": 4700,
      "Ġá½ĢÏĢÎ¿": 4701,
      "Ġá¼ĢÏĢÎ¿Î¸": 4702,
      "á½¼Î²": 4703,
      "Ġá½ĳÏĢÎ¿Ïĩ": 4704,
      "Î±ÏģÎ¹": 4705,
      "Î¸Î®ÏĥÎµÏĦÎ±Î¹": 4706,
      "á½³ÏĥÏĦÎ±": 4707,
      "ĠÎ´Î¹ÏĪ": 4708,
      "Ġá¼ĲÏĢÎ¹Î½": 4709,
      "ĠÎ»Îµá½·": 4710,
      "ĠÎ²Î¿Ïģ": 4711,
      "Ġá¼ĢÏĢÏĮ": 4712,
      "Î¸ÎµÎ¯": 4713,
      "ĠÎ³ÎµÎ½Î½Î·": 4714,
      "ĠÎ¤á½¸": 4715,
      "ĠÎºÎ±ÏģÏĢá½¸Î½": 4716,
      "Ġá¼ĲÎ´Îµá½·ÏĩÎ¸Î·": 4717,
      "ĠÎºá½³": 4718,
      "ÏĨÎµÎ¹Î½": 4719,
      "ĠÏĨÏħÏĥ": 4720,
      "ĠÏĢÎ¿Î´": 4721,
      "ÏĥÎ±Î½ÏĦÎ¿ÏĤ": 4722,
      "ĠÎ¼á½³Ïĥá¿³": 4723,
      "ĠÎµá½ĳÏģÎµá¿ĸÎ½": 4724,
      "ĠÏĢÎ±Î¼ÏĢá½¹": 4725,
      "ĠÏĥÏħÎ¼ÏĢÏĦÏīÎ¼á½±ÏĦÏīÎ½": 4726,
      "Î³Î¿ÏĤ": 4727,
      "á½»ÏīÎ½": 4728,
      "Ġá½ĳÏĢÎ±ÏģÏĩ": 4729,
      "ĠÎµá¼´ÏĤ": 4730,
      "ĠÏĢÎ»á½±Î³": 4731,
      "ÏĢÎ¹ÏĥÎ¸ÎµÎ½": 4732,
      "ĠÏĥÏĢÎ»": 4733,
      "Î¾Î±Î¼ÎµÎ½": 4734,
      "Î¸á½³Î½ÏĦÏīÎ½": 4735,
      "ĠÏĥá½»Î¼ÏĢÏĦÏīÎ¼Î±": 4736,
      "ĠÏĥÎ¼Î¹ÎºÏģá½°": 4737,
      "fore": 4738,
      "Ġá½ĤÎ½": 4739,
      "ĠÎ²á½±Ïģ": 4740,
      "Ġapp": 4741,
      "ĠÏĢá½±ÏĩÎ¿ÏĤ": 4742,
      "ĠÏĢÎ±Î½ÏĦÎµÎ»": 4743,
      "ÏĥÏĦÎµÎ»Î»": 4744,
      "ĠÏĢÏģá½½ÏĦÎ·ÏĤ": 4745,
      "Ġá½ĢÏĥÏĦÎ¿á¿¦": 4746,
      "ÎµÎ²Î»Î·": 4747,
      "Ġá¼ĪÏģÎ¹ÏĥÏĦÎ¿": 4748,
      "Ġá½¢Î½": 4749,
      "ÏĥÏħÎ½": 4750,
      "ÏĥÎ¼á½±ÏĦÏīÎ½": 4751,
      "ĠÎ±á½ĲÏĦá½±ÏģÎº": 4752,
      "âĢĻ:": 4753,
      "ĠÎ»ÎµÎ»": 4754,
      "Ġá¼ĢÏĢÎ¿ÏĦÎµÎ»": 4755,
      "Ġthee": 4756,
      "ĠÎ½ÎµÎºÏģ": 4757,
      "ĠÎ´á½³ÎºÎ±": 4758,
      "ate": 4759,
      "ĠÏĢÎ¹Î¸Î±Î½": 4760,
      "ĠÎ´ÏħÎ½á½±Î¼ÎµÏīÎ½": 4761,
      "Ġalso": 4762,
      "ÎºÏģÎ±ÏĦÎ¿Î½": 4763,
      "ĠÎºá¼ĢÎ½": 4764,
      "ĠÏĢÎµÏģÎ¹ÏĦÏĦÏīÎ¼á½±ÏĦÏīÎ½": 4765,
      "AF": 4766,
      "use": 4767,
      "ĠÏĢÎ¿Ïģ": 4768,
      "Ġá¼°Ïĥ": 4769,
      "Î¿á½»Ïĥá¿ĥ": 4770,
      "ĠÎ¼Î±ÎºÏģÎ¿": 4771,
      "Ġá¼ĦÎ½Î´ÏģÎ±ÏĤ": 4772,
      "ĠW": 4773,
      "ÏħÏĦÎ±": 4774,
      "Ïĩá¿¶Î½": 4775,
      "Î¾Î¿ÏħÏĥÎ¹Î½": 4776,
      "Ġá½ħÏĢÎ¿Ïħ": 4777,
      "ÎºÎ±á¿ĸÏĤ": 4778,
      "Î½Î±Î¹ÏĤ": 4779,
      "Ġá¼ĢÎ½Î±ÏĢ": 4780,
      "Ġbis": 4781,
      "ÎºÏģÎ¯": 4782,
      "ĠÎŁá½": 4783,
      "ĠÏĩÎ¿Î»á½´Î½": 4784,
      "ĠÏĥÎ±ÏģÎºá½¸ÏĤ": 4785,
      "ĠÎľÏīÏħÏĥá¿ĨÏĤ": 4786,
      "ĠÏĥÏĦÏħÏĢÏĦÎ·": 4787,
      "Ġá¼ĳÏģÎ¼Î·": 4788,
      "ĠÏĥÏĦÎµÏģÎµ": 4789,
      "ĠÎ´Î·Î¼Î¹Î¿ÏħÏģÎ³": 4790,
      "ÏĦÏģÎ¹Î²": 4791,
      "ĠÎºá¼ĤÎ½": 4792,
      "ĠÎ´á½¶ÏĤ": 4793,
      "ĠÎ¼ÏħÏĥ": 4794,
      "Ġsil": 4795,
      "ĠÏĥÏħÎ½ÎŃ": 4796,
      "ĠÏĥÏĦÏĮÎ¼Î±": 4797,
      "ĠÎ»á½¹Î³ÏīÎ½": 4798,
      "ĠÎ¿á½ĲÏĩá½¶": 4799,
      "Ġá¼ĲÎ¾ÎµÏħÏģ": 4800,
      "ĠÎ²ÏģÎ±Î´á½»": 4801,
      "ĠÏĢÎ»á½µÎ¸Î¿ÏħÏĤ": 4802,
      "Ġá½ģÎ»Î¿ÎºÎ±": 4803,
      "Î¼Î·ÏĥÎµÎ½": 4804,
      "á¿ĨÏ²": 4805,
      "ĠÎ³Î±Ïģ": 4806,
      "Ġpre": 4807,
      "ĠÏĥÏĦá½³Ïģ": 4808,
      "ĠÎ³Î½Ïİ": 4809,
      "ĠÎµá½ĳÏģÎµ": 4810,
      "ĠÎ¼ÎµÎ³á½±Î»Î·Î½": 4811,
      "ĠÏĦÎ¿ÏįÏĦá¿³": 4812,
      "Ġá¼ĳÎ²Î´Î¿Î¼": 4813,
      "ĠÎ¼á½³Î³Î¹ÏĥÏĦÎ¿Î½": 4814,
      "Ġá¼ĲÏģÏħÎ¸Ïģ": 4815,
      "ÏģÏīÏĤ": 4816,
      "ĠÎµÎ³Ïī": 4817,
      "á½¹ÏĨ": 4818,
      "Ġá¼ĲÎ¾á¿ĨÎ»Î¸ÎµÎ½": 4819,
      "Ġá¼ķÎ´": 4820,
      "Ġá¼ĶÏĩÎ¿ÏħÏĥÎ±": 4821,
      "ĠÏĥÏħÎ½á½·ÏĥÏĦÎ±": 4822,
      "Î³Î³Î¹": 4823,
      "Ġ37": 4824,
      "á½·Î¶ÎµÎ¹Î½": 4825,
      "ĠÎµá¼°ÏģÎ·Î¼á½³Î½Î±": 4826,
      "Ġá¼¹ÏĢÏĢÎ¿ÎºÏģÎ¬": 4827,
      "á½±Î³ÎµÎ¹Î½": 4828,
      "ĠÎµá¼°ÏĢá½¼Î½": 4829,
      "ĠÎ¼ÏħÏģ": 4830,
      "ĠÎ²Î»á½³": 4831,
      "ĠÏĦÎ±ÏħÏĦ": 4832,
      "ĠÎ´Î¹Î±ÏĩÏīÏģ": 4833,
      "ĠÏĢÏģÎ¿Ïĥá½½ÏĢÎ¿Ïħ": 4834,
      "ĠÎ¼á½³ÏģÎµÏĥÎ¹": 4835,
      "ĠÏĥÏīÏĦÎ·": 4836,
      "Ġá¼ĲÏĢÎ¹ÏĥÎºá½³": 4837,
      "ĠÏĢÏģÏĮÏĥÏīÏĢÎ¿Î½": 4838,
      "ĠÏĩÎ»ÏīÏģ": 4839,
      "Ġk": 4840,
      "Ġá½Ļ": 4841,
      "Î¯ÏĥÎº": 4842,
      "ÏĥÏĦÎ±ÏĥÎ¹ÏĤ": 4843,
      "ĠÏĥÏĦá½³": 4844,
      "Î¼Î²Î±Î½Îµ": 4845,
      "ĠÎ´Î¹Î±ÏĨÎ¿Ïģá¾¶ÏĤ": 4846,
      "Ġá¼ĲÎ½Î±Î½ÏĦá½·ÏīÎ½": 4847,
      "ÏĮÏĦÎ·ÏĦÎ±": 4848,
      "ĠÎ»Î¹Î²á½±Î½Î¿Ïħ": 4849,
      "ĠÏĥÏħÎ¼ÏĢÏĦá½½Î¼Î±ÏĦÎ±": 4850,
      "ĠÎ³ÏģÎ¬": 4851,
      "ÏĪÎ¿Î½": 4852,
      "Ġá¼ĲÎºÎºÎ±": 4853,
      "Ġá¼ĲÏĢÎ¹ÏĢÎ»": 4854,
      "ĠÎ¼á½¹Î½á¿³": 4855,
      "ĠâĢĶ": 4856,
      "ĠÏĨÎ±ÏģÎ¼Î¬": 4857,
      "ĠÏĦá½±ÏĩÎ¿ÏĤ": 4858,
      "Ġá¼¡Î¼ÎŃÏģÎ±Î½": 4859,
      "ĠÎ³Î¯Î³": 4860,
      "ĠÏĪÎµÏħÎ´": 4861,
      "to": 4862,
      "ÏĩÎ±Î¹": 4863,
      "Î¿Î¹Ï²": 4864,
      "ÎµÎ¹ÏĦÎ±Î¹": 4865,
      "Î¼á½³Î½Î±Î¹ÏĤ": 4866,
      "Ġá¿¥á½½": 4867,
      "ĠÎµá¼´ÎºÎ¿ÏĥÎ¹": 4868,
      "ĠÎ·Î¼ÏīÎ½": 4869,
      "Î·Î¼ÎµÏģ": 4870,
      "ĠÏĩÏħÎ¼Î¿á¿¦": 4871,
      "ĠÎ²á½±Î¸Î¿ÏĤ": 4872,
      "ĠÏĦÏģÎ±Ïĩá½µÎ»": 4873,
      "ĠÎ¸á½±ÏĦÎµÏģÎ¿Î½": 4874,
      "Ġá¼ĳÏĦÎ¿á½·Î¼ÏīÏĤ": 4875,
      "ÏģÎ·Î½": 4876,
      "ĠÎµá¼°ÏĥÎ±": 4877,
      "Î¬ÏĦÎ¿Ïħ": 4878,
      "ĠÏĦÎµÏĥÏĥÎ±Ïģ": 4879,
      "Ġá¼ĳÏĦá½³ÏģÏīÎ½": 4880,
      "ĠÎ½á½±Ïģ": 4881,
      "ĠÏĢÎ±ÏģÎŃ": 4882,
      "ÏİÏĥÎº": 4883,
      "Î¸Î±Î½ÎµÎ½": 4884,
      "Ġá½ĢÏĢá½·Î¿Ïħ": 4885,
      "ĠÏĦá½·Î½": 4886,
      "ĠÎ¼ÎŃÏģ": 4887,
      "á½¹Î½ÏĦÏīÏĤ": 4888,
      "Ġá¿¥á¿ĸ": 4889,
      "Ġá¼ģÏĢÎ±": 4890,
      "ÏĥÏĥÎ±Î»": 4891,
      "ĠÏĢÏĮÎ»Îµ": 4892,
      "ĠÎ´á½·Î´Î¿Ïħ": 4893,
      "ĠÎºá½·Î½Î´ÏħÎ½": 4894,
      "á½³ÏģÏĩÎµÏĦÎ±Î¹": 4895,
      "ĠÏĥÎ¹ÏĦá½·ÏīÎ½": 4896,
      "ĠÎ»Î¹Î¸Î±ÏģÎ³": 4897,
      "ĠÎ¿á½ĲÎºá½³ÏĦÎ¹": 4898,
      "ĠÏĢÎ±ÏģÎµÎ¼Î²Î¿Î»": 4899,
      "Ġ*": 4900,
      "Î±Î½Ïī": 4901,
      "Î¾Î·": 4902,
      "Ġá¼ĲÏĥÏĦá½·": 4903,
      "ÏģÎµÏĦÎ±Î¹": 4904,
      "ĠÎºÎ±Î»Îµá¿ĸÎ½": 4905,
      "Î¼ÎŃÎ½Î·": 4906,
      "ĠÎĿÎ±Î²": 4907,
      "ĠÎ´á½¹Î¾ÎµÎ¹": 4908,
      "Î¼ÏĨÏħÏĦÎ¿Î½": 4909,
      "ÎºÎ»Î·": 4910,
      "Ġá¼Ĳá½±Î½": 4911,
      "Ġá¼Ģá½³Ïģ": 4912,
      "ÏĨÎ¸Î·": 4913,
      "á½¹Î½Î´": 4914,
      "Î®Ïĥá¿ĥ": 4915,
      "Î·ÏĥÎ¿Î½ÏĦÎ±Î¹": 4916,
      "Ġá¼ĢÎ½Î±ÏĨá½³Ïģ": 4917,
      "Ġ41": 4918,
      "Î·ÏģÎµ": 4919,
      "ĠÎ´Îµá¿ĸÎ½": 4920,
      "á½±ÏĦÎ¿Ïħ": 4921,
      "ĠÏĩÏģá½¹": 4922,
      "á½·Î½Î¿ÏħÏĥÎ¹": 4923,
      "á½±ÏģÎ¸ÏģÏī": 4924,
      "Ġch": 4925,
      "ĠÏĦá½³ÏĦÎ±Ïģ": 4926,
      "Ġj": 4927,
      "Ġá¼ĲÎ½ÏĦá½³ÏģÏīÎ½": 4928,
      "ÏĦÎµÏ²": 4929,
      "Ġá¼ķÎº": 4930,
      "ĠBa": 4931,
      "ĠÎ¸Îµá½¹ÏĤ": 4932,
      "ĠÏĥÏħÎ½ÏĦÎµÎ»": 4933,
      "Î±Ïĥá½±": 4934,
      "ĠÎºÎ·ÏģÏīÏĦ": 4935,
      "Ġá¼ĢÏĢÎ¿ÎºÏģÎ¹": 4936,
      "ÏĢÏĦÎµÏĦÎ±Î¹": 4937,
      "Ġrender": 4938,
      "ĠÏĢá½³ÏĨÏħÎºÎµÎ½": 4939,
      "Ġá¼ģÏĢÎ±Ïĥá¿¶Î½": 4940,
      "Î¿ÏĦá½±": 4941,
      "ÏģÎµÎ½": 4942,
      "ÏģÏĮ": 4943,
      "á½·Î¿ÏħÏĤ": 4944,
      "Ġá½ĢÏĥÎ¼": 4945,
      "ÎºÎ±á½·": 4946,
      "ĠÎºÎ±Î»Îµá¿ĸÏĦÎ±Î¹": 4947,
      "ĠÏĢÏģá¿¶ÏĦÎ±": 4948,
      "Ġá½ĢÏĥÏĦá¾¶": 4949,
      "Ġá¼ĲÎ½Î±Î½ÏĦÎ¹": 4950,
      "ĠÏĥÎºÎ»Î·Ïģá½¸Î½": 4951,
      "Ġá¼ĲÎ¼Î½Î·Î¼á½¹": 4952,
      "ĠÎ²Î¿á½»Î»ÎµÏĦÎ±Î¹": 4953,
      "Î³á½¹": 4954,
      "ĠÏĩÎ±Ïģ": 4955,
      "ÎµÎ»Î¸": 4956,
      "Î¼ÎŃÎ½Î·Î½": 4957,
      "ĠÏĨÎ±ÏģÎ¼á½±Îºá¿³": 4958,
      "Ġá¼¡Î¼á½³ÏģÎ±Î¹ÏĤ": 4959,
      "ÏĪÎ±ÏĥÎ¸Î±Î¹": 4960,
      "Ġwords": 4961,
      "ĠÏĨÏħÎ»Î¬": 4962,
      "Ġá½łÎ½á½¹Î¼Î±": 4963,
      "Ġá¼ĪÏģÎ¹ÏĥÏĦÎ¿ÏĦá½³": 4964,
      "ai": 4965,
      "ÏĦá¿·": 4966,
      "á¼¶": 4967,
      "ÏĥÎ¼Î¿Î½": 4968,
      "ÎºÎ¿Ïį": 4969,
      "Î³Î¼Î±ÏĦÎ±": 4970,
      "Ġá¼¡Î¼á½·": 4971,
      "Ġá½ĦÏģÏĩ": 4972,
      "ĠÎ½ÎµÏħÏģ": 4973,
      "ĠÎºá½±Î»Î»": 4974,
      "Î³ÎµÎ¹á¿¶Î½": 4975,
      "ĠÎºá½±Î¼Î½Î¿Î½ÏĦÎ¿ÏĤ": 4976,
      "ĠÏĢÎ»Îµá½·Î¿ÏħÏĤ": 4977,
      "ĠÎ³á½³Î³Î¿Î½": 4978,
      "Ġá¼ĲÎ½ÎµÏģÎ³ÎµÎ¹á¿¶Î½": 4979,
      "Ġá¼ĲÏĢÎ¹ÏĢÎ¿Î»á¿ĨÏĤ": 4980,
      "ÏĢÏĦÏī": 4981,
      "Î»á¿¶Î½": 4982,
      "ĠÎºÏģÎµ": 4983,
      "ĠÏĢÏģÎ¿ÏĥÏĦÎ¹": 4984,
      "ĠÏĢÏģÎ¿Î³Î½ÏīÏĥÏĦÎ¹Îº": 4985,
      "Ġá¼ĢÎ»Î»Ê¼": 4986,
      "ĠÎ¿á½ĲÎ´ÎµÎ½á½¸ÏĤ": 4987,
      "ÏĦá½³ÏģÎ¿ÏħÏĤ": 4988,
      "Ġ35": 4989,
      "Ġá½ĦÎ³ÎºÎ¿Î½": 4990,
      "Ġá¼ĲÎ»Î»": 4991,
      "ĠÏĢÎ¹Î½": 4992,
      "ĠÏĢÏĦÏī": 4993,
      "á½³ÏĥÎ¹Î½": 4994,
      "ine": 4995,
      "Ġwas": 4996,
      "Ġá½ĦÎ½ÏĦÏīÏĤ": 4997,
      "Ġá¼ĢÎ¼Î¼ÏīÎ½Î¹Î±ÎºÎ¿á¿¦": 4998,
      "ÎµÎ¸": 4999,
      "Î»á¿ĥ": 5000,
      "á½·Îº": 5001,
      "Ġá¼¡Î³Îµ": 5002,
      "Ġá¼ĦÎ¼Îµ": 5003,
      "Ġá½ĢÎ²Î¿Î»": 5004,
      "ĠÏĩÏģÏī": 5005,
      "ĠÏĢÎ±Ïĥá¿¶Î½": 5006,
      "ÏĩÎ·Î»Î¿Î½": 5007,
      "Ġá¼ĢÎ¼ÏħÎ´Ïģ": 5008,
      "á½»ÎµÎ¹": 5009,
      "Î»Î¹Î¿Î½": 5010,
      "Ġá¼ĲÎºÎµá¿ĸÎ½Î¿Î½": 5011,
      "Ġá¼ĢÎ»Î·Î¸Îµ": 5012,
      "ĠÎ¼Î¿Î½": 5013,
      "ĠÎµÎ±ÏħÏĦ": 5014,
      "Î¹Îºá¿ĨÏĤ": 5015,
      "á½·Î½Î¿ÏħÏĥÎ¹Î½": 5016,
      "ÏĦá½³Ïģá¿³": 5017,
      "ĠÎľá½´": 5018,
      "ense": 5019,
      "ĠÎ³á½³Î½ÎµÎ¹": 5020,
      "ĠÏĢÎ¿Î»á½»": 5021,
      "ĠÎ»Î¹ÏĢÎ±Ïģ": 5022,
      "ĠÎ´ÎµÏħÏĦá½³ÏģÎ±Î½": 5023,
      "Î¸á½²Î½": 5024,
      "ĠÎºÎ±ÏĦÎ¬": 5025,
      "Ġá¿¥Î¿Î´": 5026,
      "ĠÎµá¼´ÏĢÎ¿Î¹": 5027,
      "ĠÎºá½±Î¼ÏĢ": 5028,
      "ĠÎºÎ¹Î½á½µÏĥÎµÏīÎ½": 5029,
      "Ġá¼ĶÎ¼ÏĢÎ±Î»Î¹Î½": 5030,
      "Ġá¼ĲÎ»á½±Î»Î·ÏĥÎµÎ½": 5031,
      "ÏĬÎº": 5032,
      "ĠÎ´Î¹ÎµÎ»Î¸Îµá¿ĸÎ½": 5033,
      "Ġá¼ĲÎ½Î¹Î±ÏħÏĦ": 5034,
      "ĠÏĦÎµÏģÎ¼Î¹Î½Î¸á½·Î½Î·ÏĤ": 5035,
      "Ġá¼ĲÏĢÎ¹Î¼ÎµÎ»": 5036,
      "ĠÏĦÎ¹Î½á½°ÏĤ": 5037,
      "á½¹ÏĦÎ·ÏĦÎ±ÏĤ": 5038,
      "Ġá¼ĳÎºÎ±ÏĦá½³ÏģÏīÎ¸ÎµÎ½": 5039,
      "ÎµÏĥÎ¹ÏĤ": 5040,
      "Ïĥá½·Î±ÏĤ": 5041,
      "Î´Î¿ÏħÏĤ": 5042,
      "ÏĥÏĦÎ·Ïģ": 5043,
      "ÏĮÎ´ÏģÎ±": 5044,
      "ÏĥÎµá½¶": 5045,
      "ÏĥÎ±á½·": 5046,
      "Ġá½ĳÎ³Ïģá½¹ÏĦÎ·ÏĦÎ±": 5047,
      "Î´Î¿Î¾": 5048,
      "ĠÎ¸ÎµÏģÎ¼Î±Ïĥá½·Î±Î½": 5049,
      "ĠÎ´Î¹Î±ÏĥÏĦÎ¿Î»á¿ĨÏĤ": 5050,
      "Ġá½ĦÏģÎ³Î±Î½Î¿Î½": 5051,
      "ÏĥÎ¿Î¹ÏĤ": 5052,
      "á¿¶Î½Î±ÏĤ": 5053,
      "Ġá¼ĶÏĢÎµ": 5054,
      "Î®ÏĥÎµÏīÏĤ": 5055,
      "ÏĦÎ¹Îºá½¹Î½": 5056,
      "ÏĥÏĦÎµÏģÎ±": 5057,
      "ĠÏĢÏħÏģÎµÏĦá½¸Î½": 5058,
      "ĠÏĢÏģÎ±Î³Î¼Î±ÏĦÎµá½·Î±ÏĤ": 5059,
      "ĠÎµÎ¸": 5060,
      "á½µÎ¼Î±ÏĥÎ¹Î½": 5061,
      "ĠÎºÎ±ÏĦÎ±Î²": 5062,
      "Ġinst": 5063,
      "Ġá¼ĢÏģÏĩÎ¹": 5064,
      "ĠÏĨÎ±á½·Î½ÎµÏĥÎ¸Î±Î¹": 5065,
      "Ġá¼ĺÏĨ": 5066,
      "ĠÏĨÎ»ÎµÎ²á½¸ÏĤ": 5067,
      "ĠÏħÎ¼ÏīÎ½": 5068,
      "ight": 5069,
      "Î¿ÏĥÎº": 5070,
      "ĠÏĦÎµÏĥÏĥ": 5071,
      "ĠÏĢÎ¿ÏģÎµÏħ": 5072,
      "Î·ÏĥÎµÎ¹": 5073,
      "Ġá¼ĢÎ½Î±Î»á½±": 5074,
      "ĠÏĨÎ±ÏĥÎ¹Î½": 5075,
      "ĠÏĥá½½Î¼Î±ÏĥÎ¹Î½": 5076,
      "ĠÏĦÏģá½·ÏĦÎ·Î½": 5077,
      "ĠÎ²á½±Î¸Î¿ÏħÏĤ": 5078,
      "ĠÏĩÏīÏģá½·Î¿Î½": 5079,
      "ĠÎ¼á¾¶Î»Î»á½¹Î½": 5080,
      "are": 5081,
      "ies": 5082,
      "scr": 5083,
      "Ġá¼ĲÏĦá¿¶Î½": 5084,
      "á½·ÏĤ": 5085,
      "ÏĦÎ¿Î¯": 5086,
      "Ġá¼ĲÎºÏĨ": 5087,
      "Îµá½·Î±Î¹ÏĤ": 5088,
      "Ġá¼ĦÎ»Î»á¿³": 5089,
      "ĠÏĥÏĦÏģÎ¿": 5090,
      "ÏĢÎµÏĥ": 5091,
      "ĠÎºÎ±Î»Î¿á½»Î¼ÎµÎ½Î¿Î½": 5092,
      "ĠÎºá½»ÎºÎ»á¿³": 5093,
      "Ġá¼±ÎµÏģÎµá¿ĸÏĤ": 5094,
      "ĠÏĢÏģá½±Î³Î¼Î±ÏĦÎ¿ÏĤ": 5095,
      "Ġá¼ĪÎ±Ïģá½¼Î½": 5096,
      "Î¹Î´": 5097,
      "Î¹Î±Î½": 5098,
      "ÏĩÎµÏĦÎ±Î¹": 5099,
      "Ġá¼ĢÏĥÏĦ": 5100,
      "ĠÎµÎ½Îµ": 5101,
      "ĠÏĨÏī": 5102,
      "Ġá¼ĲÏĢÎ¹Î´": 5103,
      "ĠÎ¼Î·ÏģÎ¿á¿¦": 5104,
      "ĠÏĥÏĨÏĮÎ´ÏģÎ±": 5105,
      "Ġ49": 5106,
      "ĠÎķá½Ĳ": 5107,
      "ĠÏĢÏģÎ¿ÏĨÎ®": 5108,
      "Ġá¼ĪÎ²ÏģÎ±": 5109,
      "ee": 5110,
      "Ġá¼ĲÎ¶": 5111,
      "ÏĥÎµá½½ÏĤ": 5112,
      "ĠÎºÎ±Î¸Î±á½·": 5113,
      "ĠÏĢÎ¿Î»Î»á½°ÏĤ": 5114,
      "ĠÏĢÎ±ÏģÎ±ÏĨÏģÎ¿Ïĥ": 5115,
      "Ġá½ĳÎ³Ïģá½°": 5116,
      "Ġá¼´ÏĥÎ±": 5117,
      "ĠÏĥÏĦá½¹Î¼Î±ÏĦÎ¿ÏĤ": 5118,
      "Ġá¼ĲÎºÎµá¿ĸÎ½Î¿ÏĤ": 5119,
      "Ġá¼ĲÎ¼Î²á½±Î»Î»": 5120,
      "ĠÎ´Î¹Î¿ÏģÎ¹ÏĥÎ¼": 5121,
      "ĠÏĨÎ»á½³Î²ÎµÏĤ": 5122,
      "ĠÎ³ÏģÎ±Î¼Î¼Î±": 5123,
      "Ġá¼ĳÏģÎ¼Î·Î½Îµ": 5124,
      "ĠÎºÎ±ÏĦÎ·": 5125,
      "ĠÎµÏĥÏĦÎ¹Î½": 5126,
      "ĠÏĥÎ¿á½¶": 5127,
      "Ġtak": 5128,
      "ĠÏĪÎ±Î»": 5129,
      "Ġá½ĢÎ½ÏĮ": 5130,
      "ĠÎºÏħá½±": 5131,
      "ound": 5132,
      "ĠÎ¿á¼°ÎºÎµá½·Î±Î½": 5133,
      "Ġá¼ħÏĢÎ±ÏĥÎ±Î½": 5134,
      "ĠÏĢÏĮÎ»Î¹Î½": 5135,
      "ĠÎ´Î·Î»Î¿á¿ĸ": 5136,
      "ĠÏĥá½»Î¼ÏĢÎ±Î½ÏĦÎ±": 5137,
      "ÏĥÏĦÏīÎ½": 5138,
      "ĠÎ¼ÎµÏĦÎµ": 5139,
      "Î¿á½»Î¼ÎµÎ½Î¿Î¹": 5140,
      "Ġbeen": 5141,
      "Î»Î¸á¿ĥ": 5142,
      "ered": 5143,
      "ĠÏĢÎ¿Ïĥá½¸Î½": 5144,
      "ĠÏĩá½±ÏģÎ¹Î½": 5145,
      "Ġá¼ĢÎ»Î»Î¿": 5146,
      "Ġá¼ĢÎ½Î´": 5147,
      "Ï²Î¸Î±Î¹": 5148,
      "Î»Î¹ÏĦÎ¿ÏĤ": 5149,
      "Ġá¼ĢÎ½Î±ÏĢÎ½Î¿": 5150,
      "ĠBU": 5151,
      "Î¼á½±ÏĩÎ¿Ïħ": 5152,
      "ĠÏĢÎ¿Î»Î»á½´Î½": 5153,
      "Ġme": 5154,
      "ĠÎ»ÎµÏĩÎ¸": 5155,
      "Ġye": 5156,
      "ĠÎ´ÎµÏĥÎ¼": 5157,
      "Î·Î¸á¿ĨÎ½Î±Î¹": 5158,
      "ĠÎ»á½³Î³Î¿Î½ÏĦÎµÏĤ": 5159,
      "ĠÏĩá½½ÏģÎ±ÏĤ": 5160,
      "ĠÏĢÎ±ÏģÎ±ÏĢÎ»Î·Ïĥá½·ÏīÏĤ": 5161,
      "ĠÎ»Î¹Î¸Î±ÏģÎ³á½»ÏģÎ¿Ïħ": 5162,
      "ĠÎ»Î·": 5163,
      "ÏģÎ¹Î¿Ïħ": 5164,
      "ĠÏĢÏģÎ¿Îµá½·": 5165,
      "ĠÎ¸ÎµÏģÎ¼á¿·": 5166,
      "Ġá½ĢÎ½Î¿Î¼á½±Î¶ÎµÏĦÎ±Î¹": 5167,
      "Î¸á½³Î½ÏĦÎ¿ÏĤ": 5168,
      "ÏĩÎ¹ÏĥÏĦÎ±": 5169,
      "ĠÎ²Î±Î»Î±Î½": 5170,
      "Î¿Î´Î¿ÏĤ": 5171,
      "á½»ÏĥÎµÎ¹": 5172,
      "Ġá¼ĲÎ½ÎµÏĦÎµ": 5173,
      "ÏģÎµÏĥÎ¸Î±Î¹": 5174,
      "ĠÎµá¼¶Î´Î¿Î½": 5175,
      "ĠÎºÎ±ÏĦÎ±ÏĥÎº": 5176,
      "ĠÏĢÎ¿Î¹Îº": 5177,
      "Ġá¼ĦÎ½Î´ÏģÎ±": 5178,
      "ÏĥÎ·ÏĦÎµ": 5179,
      "ÏīÏĥÎ¹": 5180,
      "ĠÎ±Î½Îµ": 5181,
      "á½¹Î´ÏīÎ½": 5182,
      "Î²Î»Î·": 5183,
      "ĠÎ»á½±Ïģ": 5184,
      "ÏĪá¿ĥ": 5185,
      "Ġá½ĢÏĥÏĨ": 5186,
      "Î±Î»Î³": 5187,
      "Ġsh": 5188,
      "Ġá¼ĢÏĢÎ¿Ïģ": 5189,
      "ĠÏĢÏģÎ¿ÏĥÏĨ": 5190,
      "Îµá½¶Ïģ": 5191,
      "ĠÏĢÎµÎ´": 5192,
      "ĠÏĨÎ»ÎµÎ³Î¼Î¿Î½á½´Î½": 5193,
      "Ġverse": 5194,
      "ĠÎ´Î¯ÎºÎ±Î¹": 5195,
      "*)": 5196,
      "Ġá½ĢÎ¼ÏĨ": 5197,
      "ÏİÏĥÎµÎ¹": 5198,
      "Ġá¼¸Î´Î¿á½º": 5199,
      "ÏĢÎ¿Î¼ÎµÎ½": 5200,
      "ÏĥÏĦÎ±ÏĥÎ¸Î±Î¹": 5201,
      "Ġcla": 5202,
      "ĠÎ²Î±ÏĥÎ¹Î»á½³": 5203,
      "Î¼Î¼ÎµÏīÏĤ": 5204,
      "ĠÎ´á½³ÏģÎ¼Î±ÏĦÎ¹": 5205,
      "ĠÎ¸ÎµÏģÎ±ÏĢÎµá½·Î±ÏĤ": 5206,
      "ĠÏĢÏģÎ¿Î³ÎµÎ³ÏģÎ±Î¼": 5207,
      "ĠÏĢÎŃÎ½": 5208,
      "á½±Î½ÎµÏĥÎ¸Î±Î¹": 5209,
      "ĠÏĥÎŃ": 5210,
      "Î¿á¿ĸÏ²": 5211,
      "Ġá½¡Ï²": 5212,
      "Î¼ÎŃÎ½Î¿ÏħÏĤ": 5213,
      "Ġá¼ĲÎºÎµá½·Î½Î·Î½": 5214,
      "ĠÏĥÏĩÎ¹ÏĥÏĦ": 5215,
      "Ġá¼ĲÎºÎµá¿ĸÎ½Î±": 5216,
      "Î¼ÏĮ": 5217,
      "ĠÎ¼á¿¦Î½": 5218,
      "Ġá¼ĢÎ´Î¹": 5219,
      "ĠÎ³Î·": 5220,
      "Ġá½¥ÏģÎ±Î½": 5221,
      "ÏĥÏīÎ¼ÎµÎ½": 5222,
      "ĠÏĢÏģá¿¶ÏĦÎ¿ÏĤ": 5223,
      "ĠÎ´ÏħÏĥÎµÎ½ÏĦÎµÏģ": 5224,
      "ĠÏĢÎ±ÏĦá½´Ïģ": 5225,
      "ĠÎ»Î¿Î¹ÏĢá½¸Î½": 5226,
      "Ġá¼ĢÏħÏĦá¿¶Î½": 5227,
      "Ġun": 5228,
      "Ġupon": 5229,
      "ust": 5230,
      "ĠÎºÎ¿Î»": 5231,
      "ÏīÏĥÎµ": 5232,
      "Ġá¼ĢÏģá½·ÏĥÏĦ": 5233,
      "á½±ÎºÎ¿Î½ÏĦÎ±": 5234,
      "ĠÎµÎ»": 5235,
      "á½»Î½Î±Î¹": 5236,
      "ĠÎ³Î·ÏĤ": 5237,
      "Ġá¼ĳÏī": 5238,
      "Î·ÏĥÎ±Î¹": 5239,
      "ÏİÎ¼Î±ÏĦÎ±": 5240,
      "ĠÎ¾Ïħ": 5241,
      "Ġá¼ĲÏĢá½·Î´Îµ": 5242,
      "Ġá¼±ÎºÎ±Î½á½¸Î½": 5243,
      "Ġá¼ģÎ¼Î±ÏģÏĦÏī": 5244,
      "Ġá¼ĳÏĦá½³Ïģá¿³": 5245,
      "Ġá¼ĲÏģÎ³á½±Î¶ÎµÏĥÎ¸Î±Î¹": 5246,
      "ĠÏĥá½»Î¼Î¼ÎµÏĦÏģÎ¿Î½": 5247,
      "ÏĦÏĮÎ½": 5248,
      "Ġá¼Ń": 5249,
      "ĠÎºÎ¹Î²": 5250,
      "Ġá¼ĢÎ¼ÏĢ": 5251,
      "Î¼Î±Î¸": 5252,
      "Ġá¼ĶÎ´ÎµÎ¹": 5253,
      "ĠÏĨÏĮ": 5254,
      "Î»Îµá½·Î±ÏĤ": 5255,
      "Ġá¼ĲÎºÎ¬": 5256,
      "ĠÎ½á½·": 5257,
      "á½·Î½Î¿Î¹ÏĦÎ¿": 5258,
      "ĠÎ¶á¿¶Î½": 5259,
      "Ġá¼ĢÎ³Î³Îµá¿ĸÎ¿Î½": 5260,
      "Ġá¼ĲÏĢÎ¿ÏģÎµá½»": 5261,
      "ãĢī": 5262,
      "á½ĳ": 5263,
      "ĠÏĥá½²": 5264,
      "á½½Î¼Î±": 5265,
      "ÏħÎ¼á½±ÏĦÏīÎ½": 5266,
      "Ġá¼ħÏĢÎµÏģ": 5267,
      "ĠÏĥÎºÎµÏĢ": 5268,
      "ĠÎ»ÎŃÎ³Î¿Î½ÏĦÎµÏĤ": 5269,
      "ĠÎ¸ÏħÎ¼Î¹á½±": 5270,
      "Ġgen": 5271,
      "ÏĢá½³Î¼ÏĢ": 5272,
      "ĠÏĦÎ±ÏįÏĦÎ·Î½": 5273,
      "Î¿á½ºÎ»": 5274,
      "ĠÎºÎµÎºÎ±ÏħÎ¼á½³Î½Î¿Ïħ": 5275,
      "not": 5276,
      "uc": 5277,
      "Î½Î±ÏĦÎ¿ÏĤ": 5278,
      "Ġá¼ĶÏĩÎ¿Î½ÏĦÎ¿ÏĤ": 5279,
      "ĠÎ¼ÎµÎ³Î¬": 5280,
      "Ïģá½¹ÏĦÎ·ÏĦÎ¹": 5281,
      "Ġá¼ĢÎ¼ÏĨá½¹ÏĦÎµÏģÎ±": 5282,
      "ĠÎ¿á½ĲÎ´ÎµÎ¼á½·Î±Î½": 5283,
      "Ġá¼ĳÎºÎ±ÏĦá½³ÏģÎ¿Ïħ": 5284,
      "Ġá¿¥Î·ÏĦá½·Î½Î·ÏĤ": 5285,
      "Ġpass": 5286,
      "ãĢĪ": 5287,
      "ÏĩÏħ": 5288,
      "á¿¶Ï²": 5289,
      "Ġá¼ĲÎ½á½½": 5290,
      "ĠÎ´Î¹á½±ÏģÎ¸ÏģÏī": 5291,
      "Îµá¿ĸÏĦÎ¿": 5292,
      "ĠÏĩÏİ": 5293,
      "Î¿á¿ĸÏĥÎ¹": 5294,
      "á½½ÏĦÎµÏģÎ±": 5295,
      "Ġá¿¥Îµ": 5296,
      "Ġá¼¸ÏīÎ½": 5297,
      "ĠÏħÎ¹Î¿Î¹": 5298,
      "Ġá¼ĢÎ½Î¸Ïģá½½ÏĢÎ¿Î¹ÏĤ": 5299,
      "Î´Î·Î¼Î¹á¿¶Î½": 5300,
      "ĠÎ¸á¾¶ÏĦÏĦÎ¿Î½": 5301,
      "Ġá¼Ģá½³ÏģÎ¿ÏĤ": 5302,
      "ÎŃÎ±": 5303,
      "ĠÏĨÎ¬": 5304,
      "ÏĥÎ¹ÏĢ": 5305,
      "Ġá¼ĢÎ½Î±Î»Î¿Î³": 5306,
      "ĠÏĥÎºÎµá½»": 5307,
      "ĠÏĢÏģÎ¿ÏĥÎŃ": 5308,
      "Î¼Î¹Î¿Î½": 5309,
      "ĠÎ»á½¹Î³Î¿Î¹ÏĤ": 5310,
      "ĠÎĵÎ±": 5311,
      "ĠÏĢÎµÏĨÏħÎº": 5312,
      "Ġá¼ĲÎ´á½µÎ»": 5313,
      "Ġá¼ĢÎ¾Î¹á½¹": 5314,
      "ĠÂ¶": 5315,
      "ĠÎ³á½·Î³Î½Î¿Î½ÏĦÎ±Î¹": 5316,
      "ÏīÎ²": 5317,
      "Ġá¼ĢÏĥÎ¹": 5318,
      "ÏģÎ±Î¹Î½": 5319,
      "Ġá½ĳÏĢÎ¿Î»": 5320,
      "Ġá¼ĢÏĢÎ¿Î»Îµá½·": 5321,
      "ÏĢÎ¿Î´": 5322,
      "ĠÎºÎ±ÏĦÎ±Îº": 5323,
      "Ġá½ĦÏĩ": 5324,
      "ĠÎ§Î±Î»": 5325,
      "Ġá¼°Î´á½·Î±Î½": 5326,
      "ĠÎµá¼°ÎºÎ¿ÏĥÏĦ": 5327,
      "Ġá¼Ħá¿¤á¿¥": 5328,
      "Ġá¼ĲÏĢÎ¹Î´Î·Î¼Î¹á¿¶Î½": 5329,
      "Î»Î¹Î²": 5330,
      "Ġman": 5331,
      "Ġá¼ĢÏĨÎ±Î¹Ïģ": 5332,
      "ĠÎ¼Î¿Ïģá½·á¿³": 5333,
      "ĠÏĩÎ¹ÏĦ": 5334,
      "Î¸á½³Î½ÏĦÎ±": 5335,
      "ĠÎ»ÎµÏħÎºá½¸Î½": 5336,
      "ĠÏĢÎ»Î±ÏĦ": 5337,
      "ĠÎ³ÏħÎ¼Î½á½±": 5338,
      "ĠÎ´Î¹Î±á½·ÏĦÎ·ÏĤ": 5339,
      "Ġagain": 5340,
      "Ġtrans": 5341,
      "Ġá¼ĲÎ²Î±": 5342,
      "Ïĩá½¹": 5343,
      "ĠÎ±á½ĲÏĦá½±": 5344,
      "Ġá¼ĢÏĢÎ±": 5345,
      "Ġá¼ĳÏĦÎ¿Î¹": 5346,
      "ĠÏĩÏģÎ·Ïĥ": 5347,
      "Ġá¼ĲÎ³Î½": 5348,
      "ĠÎ´Î±ÎºÏĦá½»Î»ÏīÎ½": 5349,
      "Ġexp": 5350,
      "Ġmeaning": 5351,
      "Ġá¼ĢÎ½Î±Î»á½±Î¼Î²Î±Î½Îµ": 5352,
      "Ġ,": 5353,
      "ĠÎºÎ±Î¹Î½": 5354,
      "Î»Î»á½±": 5355,
      "á¿ĩÏĤ": 5356,
      "Î¿Î»Ïħ": 5357,
      "ÏĥÏĥÏīÎ½": 5358,
      "Î¼ÎŃÎ½Î±": 5359,
      "hras": 5360,
      "ness": 5361,
      "ĠÏĦÏģÎµ": 5362,
      "Î·ÏĥÎµ": 5363,
      "á¿ĸÎ±": 5364,
      "ĠÎ¸Î·Ïģ": 5365,
      "ĠÎĳÎ²": 5366,
      "Ġá¿¥á¾·": 5367,
      "Ġá¼ĪÏĥÏĥ": 5368,
      "ĠÏĦÏģá½·Î±": 5369,
      "ĠÎ±ÏħÏĦÎ·": 5370,
      "Î´ÏīÎºÎµÎ½": 5371,
      "ĠÎ¸ÎµÏģÎ¼Î±á½·Î½ÎµÎ¹Î½": 5372,
      "Ïģá½³ÏĥÎµÏīÏĤ": 5373,
      "ĠÏĦÎ¿Î¹Î±á½»ÏĦÎ±ÏĤ": 5374,
      "Î»Ïį": 5375,
      "ĠÏĥá½µ": 5376,
      "ĠÎ´Î¹ÏĢÎ»": 5377,
      "ÏĦÏīÏģ": 5378,
      "ĠQa": 5379,
      "Ġá¼ĲÎ¼ÏĢÎ»á½±": 5380,
      "Ġá¼ĲÎ»Î¬Î»": 5381,
      "ĠÏĢÎ»Îµá¿ĸÏĥÏĦÎ±": 5382,
      "ĠÎ»ÏĮÎ³Î¿ÏħÏĤ": 5383,
      "Ġperhaps": 5384,
      "á¼Ķ": 5385,
      "ÏīÎ¼á½³Î½ÏīÎ½": 5386,
      "ĠÎ´ÎµÎ¹Î½": 5387,
      "Ġá¼ĦÎ¾Î¹": 5388,
      "Î½Î±ÏĦÎ¿": 5389,
      "Ġother": 5390,
      "ĠÎ¸ÎµÎ¿ÏĤ": 5391,
      "Ġá½ĦÏĢÎ¹ÏĥÎ¸ÎµÎ½": 5392,
      "ĠÎ·Î½": 5393,
      "ĠÎ¼á½µÏĦÏģÎ±ÏĤ": 5394,
      "ĠÎ¼Î±ÏģÏĦÏħ": 5395,
      "ĠÏĢÎ»á½µÎ¸ÎµÎ¹": 5396,
      "ĠÏĥÎ·Î¼Î±á½·Î½ÎµÎ¹": 5397,
      "ĠÎ¸á½³ÏĥÎ¹Î½": 5398,
      "Î½ÎµÎ³ÎºÎµÎ½": 5399,
      "Ġá¼Ģá¿¤á¿¥á½½": 5400,
      "ĠÏĦÎµÏĦÎ±ÏģÏĦÎ±": 5401,
      "ĠÎ¿á½ĲÎ³Î³á½·Î±ÏĤ": 5402,
      "ĠÎ³ÎµÎ³ÎµÎ½Î·": 5403,
      "ip": 5404,
      "Î½á½±": 5405,
      "Î±Î½ÏĦÎ¿": 5406,
      "ÎŃÎ¿Î½": 5407,
      "á½°ÏģÎ¾": 5408,
      "Î®ÏĥÎ¿ÏħÏĥÎ¹Î½": 5409,
      "ĠÏĩÏģá¿Ħ": 5410,
      "ĠÎµá¼¶ÏĢÎµ": 5411,
      "ĠÎµá¼´Ïī": 5412,
      "ĠÎ¼á½¹Î½Î¿Ïħ": 5413,
      "Ġ38": 5414,
      "Î²Î±ÏĦÎ±": 5415,
      "Î¿ÏģÎ¸": 5416,
      "ĠÎ¼ÎŃÏĥá¿³": 5417,
      "Ġá¼ĦÏģÏĩÎ¿Î½ÏĦÎµÏĤ": 5418,
      "Ġá½ĢÎ´á½»Î½Î·ÏĤ": 5419,
      "ĠÎĳá¼°Î³Ïį": 5420,
      "ĠÏĥÏĦÎµÎ½Î¿Ïĩ": 5421,
      "ĠÏĦá½µÎ½Î´Îµ": 5422,
      "Î½Î±Î½ÏĦá½·Î¿Î½": 5423,
      "ac": 5424,
      "ÏĢÎ»Î·": 5425,
      "ÎºÎ½Î±": 5426,
      "ĠÎºÎ±ÏĦÊ¼": 5427,
      "ĠÏĢÏģÎ¿ÏĬ": 5428,
      "ĠÏĢÏģÎ¿ÎºÎµá½·Î¼ÎµÎ½Î¿Î½": 5429,
      "ĠÎ¼Î·ÏĦÏģ": 5430,
      "ĠÎ²Î¿Î·Î¸Î·": 5431,
      "ÎĳÎĽ": 5432,
      "Î³Î½ÏħÏĦÎ±Î¹": 5433,
      "oll": 5434,
      "Ġá¼ĲÎ¼Î±": 5435,
      "ĠÏĢÎ½": 5436,
      "ĠÎ±á½ĲÏĥÏĦÎ·Ïģ": 5437,
      "ĠÏĢÎ¿Î»Î»á¿ĨÏĤ": 5438,
      "Ġá½ħÎ»á¿³": 5439,
      "ĠÎ¿á¼¶ÎºÎ¿ÏĤ": 5440,
      "ÏĩÎ¸Î·ÏĥÎ±Î½": 5441,
      "ard": 5442,
      "Ġform": 5443,
      "ĠÎŁá½ĲÎº": 5444,
      "ĠÎ´Î±ÎºÏĦá½»Î»Î¿ÏħÏĤ": 5445,
      "ĠÏĢÎµÏģÎ¹á½³ÏĩÎ¿Î½ÏĦÎ¿ÏĤ": 5446,
      "ĠÏĦÎ¿á½ĲÎ½Î±Î½ÏĦá½·Î¿Î½": 5447,
      "á½µÎ¼ÎµÏģÎ¿Î½": 5448,
      "Ġlitt": 5449,
      "ÎĹÎĿ": 5450,
      "ĠÎ¸ÏħÎ¼Î¹á½±Î¼Î±ÏĦÎ¿ÏĤ": 5451,
      "ÏĥÎ¿ÏħÏĤ": 5452,
      "ĠÎºÎŃ": 5453,
      "ĠÎºÎ±Î¼ÏĢ": 5454,
      "ÏĩÎµÎ½": 5455,
      "ÏĦÎ·ÏĥÎ±Î½": 5456,
      "ĠÏĦÎ±ÏģÎ±Ïĩ": 5457,
      "Î®Ïģ": 5458,
      "ÎºÎ±Î¼ÎµÎ½": 5459,
      "ĠÎºÎ±Î¸á½°": 5460,
      "ĠÎ¼ÎµÎ³á½±Î»Î¿Ïħ": 5461,
      "ĠÏĦÎ¿ÏįÏĦÎ¿Î¹ÏĤ": 5462,
      "Ġhim": 5463,
      "ĠÏĢÎ±Î»Î±Î¹Î¿á¿¦": 5464,
      "ĠÏĥÏİÎ¼Î±ÏĦÎ¿ÏĤ": 5465,
      "ĠÎ¼á½³Î³Î±Î½": 5466,
      "Ġá½ģÎ¼Î¹Î»": 5467,
      "ÏĢÎ·Î½": 5468,
      "Ġá¼ĢÎ²": 5469,
      "ĠÎµÎºÎ±": 5470,
      "Î±Î¹Î±": 5471,
      "á½µÏĥÎ¿Î¼ÎµÎ½": 5472,
      "ĠÎ»Ïį": 5473,
      "ÏĥÎ¸á½µÏĥÎµÏĦÎ±Î¹": 5474,
      "ÏĥÎºÎ±Î¹": 5475,
      "ĠÎ¼ÎµÏĦá½±": 5476,
      "ĠÏĪÏħÏĩá½´": 5477,
      "ĠÎ»Î±á¿·": 5478,
      "ĠÎłÎ¿": 5479,
      "Ġá¼ĢÎ¼á½³ÏĦÏģ": 5480,
      "ĠÎºá½»ÏĥÏĦÎ¹Î½": 5481,
      "Ġá¼ĲÎ¼á½²": 5482,
      "ĠÎ»ÎµÏĢÏĦá½°": 5483,
      "ĠÎ»Î±Î²Îµá¿ĸÎ½": 5484,
      "Ġá¼ĢÎºÎ¿á½»ÎµÎ¹Î½": 5485,
      "ok": 5486,
      "ÎĽ": 5487,
      "ÏħÏĢÏĦ": 5488,
      "ÎºÎ¿Î¼": 5489,
      "Ġá¼ĲÎ»ÎŃ": 5490,
      "ÏĦÎ¹Î´Î¿ÏĤ": 5491,
      "ĠÎ²Î»Î±Î²": 5492,
      "ĠÎ¿á½ĸÏĥÎ±Î½": 5493,
      "ĠÏĪÏħÏĩÏģá½°": 5494,
      "ĠÎłÎ±": 5495,
      "ĠÏĢá½±ÏĥÎ·ÏĤ": 5496,
      "ĠÏĢá½±Î¸Î¿ÏħÏĤ": 5497,
      "Î¯Î½ÎµÎ¹": 5498,
      "Ġsupp": 5499,
      "ĠÎ§Ïģá½»": 5500,
      "Ïĥá½·ÏĤ": 5501,
      "ĠÏĦÎ¿Î¹Î¿á½»ÏĦÎ¿Ïħ": 5502,
      "ĠÎ£Î±Î¿á½ºÎ»": 5503,
      "ĠÎ³Ïģá½±ÏĨÎµÎ¹": 5504,
      "ĠÏĢÎ¿Î»ÎµÎ¼": 5505,
      "Ġá½łÎ¼Î¿ÏĢÎ»á½±": 5506,
      "ĠÏĦÎ±ÏħÏĦá½¶": 5507,
      "ÏĩÎ¼Î±": 5508,
      "ÏĨÎ½Î·ÏĤ": 5509,
      "ĠÎµÏģ": 5510,
      "ÎŃÎ½Î±Î¹": 5511,
      "Ġá½ħÏĥá¿³": 5512,
      "Ġá¼°Î¿á¿¦": 5513,
      "ĠÎºÎ±ÏĦÎ±ÏĥÏĦ": 5514,
      "ÏĢÎ±Ïħ": 5515,
      "ĠÎ±á¼°á¿¶Î½Î¿ÏĤ": 5516,
      "Ġá½ĦÎ½ÏĦÎµÏĤ": 5517,
      "ĠÏĢÏģá½½ÏĦÎ·": 5518,
      "ÏĩÎ¸á¿ĨÎ½Î±Î¹": 5519,
      "ĠÏĨÎ»á½³Î²Î±": 5520,
      "ives": 5521,
      "ĠÏĨÏħÎ»á¿ĨÏĤ": 5522,
      "Ġused": 5523,
      "Î½Ïħ": 5524,
      "ĠÎºá½±Ïģ": 5525,
      "á¿¶ÏĥÎ¸Î±Î¹": 5526,
      "ĠÏĦÎµÏĦÏĦ": 5527,
      "Ġá½ĢÎºÏĦ": 5528,
      "Ġá¼ĪÏĥ": 5529,
      "ĠÎ´á½»Ïĥ": 5530,
      "Ġcl": 5531,
      "ĠÎºÏģÎ¹Î½": 5532,
      "Ġá¼ĳÏĦá½³ÏģÎ¿Î¹ÏĤ": 5533,
      "ĠÎ³Î½ÏīÏģá½·ÏĥÎ¼Î±ÏĦÎ±": 5534,
      "mpv": 5535,
      "ÏĩÎ±Î½": 5536,
      "Î¿ÏħÎ²": 5537,
      "á¿ĨÏĦÎ±Î¹": 5538,
      "ĠÏĨá½±ÏĥÎº": 5539,
      "ÏĥÎ¸Î®ÏĥÎµÏĦÎ±Î¹": 5540,
      "Î®ÏĥÎµÎ¹ÏĤ": 5541,
      "red": 5542,
      "Î¸ÏģÎ¿Ïħ": 5543,
      "ĠÎĶÎ±Î½Î¹": 5544,
      "ĠÎ¼Î¹ÎºÏģá½°": 5545,
      "Ġá¼ĲÎºÎµá½·Î½Î·ÏĤ": 5546,
      "ĠÎ´Î¹á½±Î³Î½ÏīÏĥÎ¹Î½": 5547,
      "Ġá¼¡Î¼ÎŃÏģÎ±Î¹ÏĤ": 5548,
      "ĠÏĢÎµÏģÎ¹ÏĦÏĦá½¸Î½": 5549,
      "Ġá¼°Î´á½³Î±Î½": 5550,
      "Ġá¼ĲÏĢÎ¹Î¼ÎµÎ»á¿¶ÏĤ": 5551,
      "te": 5552,
      "ĠÎµÏīÏĤ": 5553,
      "ÏĥÏĦÎ·Î½": 5554,
      "ÏİÎ¸Î·": 5555,
      "Ġá¼ĪÏģ": 5556,
      "ĠÏħÏĢÎ¿": 5557,
      "ĠÏĪÏħÏĩÏģÎ¿": 5558,
      "ÎºÏģÎ¿Ïħ": 5559,
      "ĠÎºá½±ÏĦÏīÎ¸ÎµÎ½": 5560,
      "Ġá¼ĢÎ»á½¹": 5561,
      "ĠÏĨÏīÎ½á½´": 5562,
      "Î¬ÎºÎ¹ÏĤ": 5563,
      "ĠÏĦÏģÏĮÏĢÎ¿Î½": 5564,
      "ix": 5565,
      "ĠÎ¼Îµá¿ĸ": 5566,
      "ÏĥÏĦÎ·ÏĥÎ±Î½": 5567,
      "Ġá¼ĲÏĢÎ¬": 5568,
      "ĠÏĨÎ¯": 5569,
      "Ġá½ĢÎ³": 5570,
      "ĠÎ¿á½ĸÏģÎ¿Î½": 5571,
      "ĠÎ¼ÎµÏĦá½³": 5572,
      "Ġwe": 5573,
      "á½±Î¶ÎµÎ¹": 5574,
      "ĠÏĩÏħÎ»á½¸Î½": 5575,
      "ĠÏĥá½»Î½Î¸Îµ": 5576,
      "ĠÏĢÎµá½·ÏģÎ±ÏĤ": 5577,
      "ĠÎ±á½ĲÏĦá½±ÏģÎºÏīÏĤ": 5578,
      "ĠãĢĪ": 5579,
      "Î´ÏģÎ¿Î½": 5580,
      "á½½ÏĥÎ±ÏĤ": 5581,
      "Î»ÎµÎ¿ÏĤ": 5582,
      "ÏįÎ½Î·ÏĤ": 5583,
      "ĠÏĨÎ±ÏĥÎ¹": 5584,
      "ĠÎºÎ±Î»Î¿á¿¦ÏĥÎ¹Î½": 5585,
      "ĠÎ±ÏħÏĦÎ·Î½": 5586,
      "ĠÎ¼Î·Î´ÎµÎ¼á½·Î±Î½": 5587,
      "Ġprobably": 5588,
      "ĠÎ§Ïģá½»ÏĥÎ¹ÏĢ": 5589,
      "ĠÏĢÎµá¿ĸ": 5590,
      "ĠÏĥÎ¹Îº": 5591,
      "Ġá¼ĲÎ½Î´á½³ÏĩÎµÏĦÎ±Î¹": 5592,
      "ÏĮÎ¼ÎµÎ¸Î±": 5593,
      "ĠAC": 5594,
      "ĠâĢľ": 5595,
      "ĠÏĩÏħÎ¼á½¸ÏĤ": 5596,
      "ÏĥÏĦá½±ÏĥÎµÏīÏĤ": 5597,
      "ĠÎ»ÎµÏĢÏĦÏħÎ½": 5598,
      "ĠÎ¾Î·ÏģÎ±á½·Î½ÎµÎ¹Î½": 5599,
      "Ġá¼ĲÎ¼ÏĢÎµÎ¹ÏģÎ¹Îº": 5600,
      "Î½ÏĦÎ±Î¹": 5601,
      "Î»á½³Î³": 5602,
      "ĠÎºÎ»Î±": 5603,
      "Ġá¼ĲÏģÎµ": 5604,
      "ĠÏĢÏĦÎµÏģ": 5605,
      "ĠÎ¼Î±ÏĥÏĦ": 5606,
      "ĠÎµÏĢÎ¿Î¹": 5607,
      "ĠÎ¸Ïģá½³": 5608,
      "Ġá¼ĢÏĢÎµÎ¹": 5609,
      "Ġá½ĳÏĢÎŃÏģ": 5610,
      "ĠÎ¿á½ĸÏĥÎ±": 5611,
      "Ġá¿¥á½µÏĥÎµÏīÏĤ": 5612,
      "Î³Î±Î³Î¿Î½": 5613,
      "ĠÎ£ÎµÎ¹": 5614,
      "ĠÎ³ÎµÎ½ÎŃ": 5615,
      "ĠÎºá½»ÏģÎ¹Î¿Î½": 5616,
      "Î²Î¿Î»Î¿Î½": 5617,
      "ĠÏĥÏĦá½¹Î¼Î±ÏĦÎ¹": 5618,
      "Ġá¼ĢÎ¸Ïģá½¹ÏīÏĤ": 5619,
      "ĠÏĦÏģá½±ÏĩÎ·Î»Î¿Î½": 5620,
      "Ġá½ĢÎ´á½»Î½Î·Î½": 5621,
      "ĠÎºá¿¶Î»Î¿Î½": 5622,
      "ian": 5623,
      "Ġear": 5624,
      "ÏĢÎ¬": 5625,
      "Î´á½²": 5626,
      "ĠÏĥÎµÎ»": 5627,
      "ĠÏĥÏĢÎ±Î½": 5628,
      "ĠÎ³ÏģÎ±": 5629,
      "ĠÏĨá½±Î½Î±Î¹": 5630,
      "ĠÎ½Î¹Îº": 5631,
      "á½·Î½á¿ĥ": 5632,
      "á½±Î¶ÎµÏĥÎ¸Î±Î¹": 5633,
      "ĠÎºÎµÏĨÎ±Î»á¿ĩ": 5634,
      "ĠÎ»ÎŃÎ³Ïī": 5635,
      "ĠÎ²Î¿ÏħÎ»Î·Î¸": 5636,
      "Ġá¼±ÎµÏģÎµá½ºÏĤ": 5637,
      "Ġá¿¥á½·Î¶Î·ÏĤ": 5638,
      "Î³Î¹Î½á½½ÏĥÎºÎµÎ¹Î½": 5639,
      "Ġá½ħÎ¼Î¿Î¹Î¿Î½": 5640,
      "Ġá¼ĶÎ»Î±ÏĦÏĦÎ¿Î½": 5641,
      "ĠÏĥÏħÎ¼Î²ÎµÎ²Î·Îº": 5642,
      "Ġá¼ĳÎ±ÏħÏĦÎ¿á½ºÏĤ": 5643,
      "Î¿Î¹Î±": 5644,
      "ÏįÎ½Î·": 5645,
      "Î»Î·ÏĨ": 5646,
      "Î¿Î¼ÏĨÎ±": 5647,
      "ÏģÎ·Î¼Î±": 5648,
      "Ġá¼¸Î¿á½»": 5649,
      "ÏĦá½·Î¸ÎµÎ¹": 5650,
      "ĠÎ³Î½á¿¶Î½Î±Î¹": 5651,
      "ÏīÎ¸á¿ĩ": 5652,
      "ĠÏĦÎŃÏĩÎ½": 5653,
      "ĠÎºÏģÎ¹Ïĥá½·": 5654,
      "ĠÎµá½ĳÏģá½µÏĥÎµÎ¹ÏĤ": 5655,
      "ĠÏĢÏģÎ¿ÏĥÎ¸Îµá¿ĸÎ½Î±Î¹": 5656,
      "ÏĦÏģá½·Î²": 5657,
      "ĠÏĥÏħÎ»Î»Î¿Î³": 5658,
      "ĠÏĩÎµÎ¹Î¼á¿¶Î½Î¿ÏĤ": 5659,
      "ĠÏĦÎ¿á½ĶÎ½Î¿Î¼Î±": 5660,
      "Ġáµĥ": 5661,
      "ÏĥÎ·Î½": 5662,
      "Ġá¼ĲÏĥÎº": 5663,
      "Î´Î¯": 5664,
      "ĠÏĢÎ¿ÏģÎµÏį": 5665,
      "Î»Î±Îº": 5666,
      "Ġá¼ķÏĪÎµ": 5667,
      "ÏħÎ¼Î¿Î½": 5668,
      "ÏĥÎ±Î½ÏĦÎ±ÏĤ": 5669,
      "ĠÎºÎ±ÏĦÎ±ÏĥÏĩ": 5670,
      "ĠÏĢÎ±ÏģÎ±Î´Îµá½·": 5671,
      "ĠÎµá¼°Ïĥá¿ĨÎ»Î¸ÎµÎ½": 5672,
      "ĠÎ´á½·ÎºÎ±Î¹": 5673,
      "ĠÏĦÎ¿á¿ĸÏĥÎ¹Î½": 5674,
      "ĠÎºÎ±ÎºÎ¿ÏĩÏħÎ¼": 5675,
      "Î¸Îµá½·Î·": 5676,
      "á½±ÏĥÎ±ÏĤ": 5677,
      "Î¿á¿¦Î¼Î±Î¹": 5678,
      "ĠÏĨÎ¬Ïģ": 5679,
      "Î¹Îºá½°": 5680,
      "Ġacc": 5681,
      "Ġá¼ķÎ¾ÎµÎ¹": 5682,
      "Ġá¼ĲÎ³ÎŃÎ½": 5683,
      "Ġá½§Î´Îµ": 5684,
      "ĠÎ¤á½°": 5685,
      "ĠÏĦÎ¿Î¹Î±á¿¦": 5686,
      "Ġá½¦ÏĦÎ±": 5687,
      "ĠÎ¼á½³Î»Î¹ÏĦÎ¹": 5688,
      "Ġá¼ĲÏĢÎ¿ÏģÎµÏį": 5689,
      "ĠÎĳá¼°Î³á½»ÏĢÏĦÎ¿Ïħ": 5690,
      "oc": 5691,
      "Î¦": 5692,
      "ĠÏĢÏħÎ»": 5693,
      "Ġá¼ĢÏĥÎ±ÏĨ": 5694,
      "á½¹ÏĦÎµÏģÎ¿ÏĤ": 5695,
      "ÏĪÏħÏĩ": 5696,
      "ĠÎ½Î·": 5697,
      "Ġsense": 5698,
      "ĠÎºÎµÏģÎ±": 5699,
      "ĠÏĨÎ»ÎµÏĪ": 5700,
      "ĠÎĵÎ±Î»Î±": 5701,
      "Ġno": 5702,
      "ĠÎµá¼°ÏģÎ·Î¼á½³Î½Î¿Î½": 5703,
      "Î¿Î¼ÎŃÎ½Î¿Ïħ": 5704,
      "Î²Î¿Î»á½´Î½": 5705,
      "Ġá¼ĳÎºÎ±ÏĦá½¸Î½": 5706,
      "Ġá¼¸ÏīÏĥ": 5707,
      "Ġá½ģÎ¼Î¿Î¹Î¿Î¼": 5708,
      "ĠÏĢá½µÏĩ": 5709,
      "ĠÏĢÎ¿Î»ÏħÎµÎ¹Î´": 5710,
      "ĠÎ²Î±ÏĥÎ¹Î»á½³Î±": 5711,
      "ÏĩÎ¼Î±Î»Ïī": 5712,
      "Î½Î·ÏĥÎµÎ½": 5713,
      "ĠÎºÎ±á½»": 5714,
      "ĠÎ¿ÏħÏĦ": 5715,
      "á½»ÏĦÎ·ÏĤ": 5716,
      "Ġá¼ĶÏĢ": 5717,
      "ÏĥÎ¸á½³Î½": 5718,
      "ĠÏĢÎ¿ÏģÎµá½»": 5719,
      "Ġá¼ĲÎ¾Î¹": 5720,
      "ĠÎ¼á½³ÏĥÎ¿Ïħ": 5721,
      "Î¸Î±á½·": 5722,
      "Ġá¼ģÏĢÎ±Î»": 5723,
      "Ġá¼°ÏĥÏĩÏį": 5724,
      "ÏīÏģá½·Î±Î½": 5725,
      "ĠÎ»Î¹Î²Î±Î½Ïī": 5726,
      "ĠKings": 5727,
      "Ġlike": 5728,
      "Î¼á½µÎ½": 5729,
      "ĠÏĥÏĢÎµÏģ": 5730,
      "ĠÏĥá½°ÏģÎ¾": 5731,
      "Î¿Î¹ÎµÎ½": 5732,
      "Ġá¼ĲÎ½á½³": 5733,
      "Ġá¼ĲÎ½ÎŃ": 5734,
      "Î²Î·ÏĥÎ±Î½": 5735,
      "Ġá¼ĢÎ½á½µ": 5736,
      "Ġá¼ĢÎ½Î±ÏĦÎµ": 5737,
      "ĠÏĦá½±Î´Îµ": 5738,
      "Î¿Î²Î¿": 5739,
      "ĠGod": 5740,
      "ĠÏĢÏģÎ¿Ïĥá½³ÏĦÎ¹": 5741,
      "ĠÏĢÏģÎ¿Îµá½·ÏģÎ·ÏĦÎ±Î¹": 5742,
      "ÎĳÎĽÎĹÎĿ": 5743,
      "ÎĳÎĽÎĹÎĿÎŁÎ¥": 5744,
      "ue": 5745,
      "ĠÎ±Î³Î±": 5746,
      "ĠÏĥá½·": 5747,
      "ÎŃÎ½Î±": 5748,
      "ĠÏĨá¿¶ÏĤ": 5749,
      "á½¹Î½Î¿ÏĤ": 5750,
      "Ġá¼ĲÏĢÎ¹ÏĦÏģá½³": 5751,
      "ĠÎ¾Ïį": 5752,
      "ition": 5753,
      "ĠÎ¿á¼¶Î½Î¿ÏĤ": 5754,
      "Î¼ÎŃÎ½Î¿Î¹ÏĤ": 5755,
      "ĠÏĢÏģá½½ÏĦÏīÎ½": 5756,
      "ĠÏĢÏģá½½ÏĦá¿ĥ": 5757,
      "ĠÎ¼ÏħÎµÎ»": 5758,
      "á½µÏĥÎµÏĥÎ¹Î½": 5759,
      "ĠBáµĥáµĩU": 5760,
      "ĠÎ´ÏĮÎ¾Î±Î½": 5761,
      "ĠÎ¶Ïīá¿ĨÏĤ": 5762,
      "á½½Î´ÎµÏĥÎ¹": 5763,
      "ĠÎ´ÎµÏħÏĦá½³ÏģÎ¿Ïħ": 5764,
      "Ġá¼ĲÎ´ÎµÏĥÎ¼á½±ÏĦÏīÎ½": 5765,
      "ĠÎ£Î±Î»ÏīÎ¼á½¼Î½": 5766,
      "ÏĦÎ¿á¿ĸÏĤ": 5767,
      "Î·Î½Îµ": 5768,
      "ĠÎ´ÏģÎ±": 5769,
      "ĠÎµÎ±Î½": 5770,
      "ĠÎ±á½ĲÎ»": 5771,
      "Ġá¼ĶÎ¾": 5772,
      "ĠÎ²Îµ": 5773,
      "ĠÏĢÏģÎ¿ÏĥÏī": 5774,
      "ĠÎ¼á½¹Î½Î¿Î¹ÏĤ": 5775,
      "ĠÏĢá½¹Î»Îµ": 5776,
      "Ġá½ĢÎ½Î¿Î¼Î¬Î¶": 5777,
      "ĠÏĦÏģÎ¹Î±Îº": 5778,
      "Ġá¼ĲÎ½Î±Î½ÏĦÎ¯Î¿Î½": 5779,
      "Ġá¼ĢÎ»Î·Î¸á½²ÏĤ": 5780,
      "ĠÎ¼á½³Î³Î±ÏĤ": 5781,
      "Î¼Î¿á½ºÏĤ": 5782,
      "ĠÎºÎ±ÏĢÎ½": 5783,
      "Ġá¼Ģá½³ÏģÎ±": 5784,
      "Î¿ÏħÎ¼á½³Î½Î¿Ïħ": 5785,
      "Ġá¼ĶÏĦÎµ": 5786,
      "á½µÎ¼Î±ÏĥÎ¹": 5787,
      "ĠÏĨÎ¹": 5788,
      "ĠÎ¸ÏĤ": 5789,
      "ÏĪÎ¿Î½ÏĦÎ±Î¹": 5790,
      "Ġá½¡ÏĥÎµá½¶": 5791,
      "Î¹Îºá½´Î½": 5792,
      "ĠÎ´Î¹Î±Î¸Î®": 5793,
      "Î»Î±á¿ĸÏĤ": 5794,
      "Ġá¼¡Î¼Îµ": 5795,
      "Ġá¿¥Î·Î¸": 5796,
      "Ïģá½¹ÏĦÎµÏģÎ¿ÏĤ": 5797,
      "ĠÎ±á¼°ÏĥÏĩ": 5798,
      "ĠÎ¸ÎµÏģÎ¼á½°": 5799,
      "Ġmore": 5800,
      "right": 5801,
      "ĠÏĥÏĦÏģÏħÏĨ": 5802,
      "ÏĦÎµÎ½": 5803,
      "Î·Î´": 5804,
      "á½±Î½ÎµÏĦÎ±Î¹": 5805,
      "ÎºÎ±ÏĦÎµ": 5806,
      "Ġá¼ĢÎ½ÏĦá½·": 5807,
      "Ġá¼¡Î¼Î¹": 5808,
      "Ġpla": 5809,
      "ĠÏĦÎ¹Î½á¿¶Î½": 5810,
      "ÏĥÎ¼á½¸Î½": 5811,
      "á½±Î¶ÎµÏĦÎ±Î¹": 5812,
      "ĠÏĢÏģá½¹ÎºÎµÎ¹ÏĦÎ±Î¹": 5813,
      "ĠÎ¸ÎµÏģÎ¼á½¹ÏĦÎ·ÏĦÎ±": 5814,
      "ĠÎ³á½³Î½Î·": 5815,
      "Î´á½³ÏĤ": 5816,
      "ĠÎ³Î¹Î½á½½ÏĥÎºÎµÎ¹Î½": 5817,
      "ĠÏĩÎµá¿ĸÏģÎ¿Î½": 5818,
      "á½»Î½Î·Î½": 5819,
      "ĠÏĥá½»Î½Î´Îµ": 5820,
      "Ġá¼¡Î»Î¹Îºá½·Î±ÏĤ": 5821,
      "Ġá¼ĢÎ½Î±ÏĦÎ¿Î¼á¿ĨÏĤ": 5822,
      "Ġá¼±Î´Ïģá¿¶": 5823,
      "Ġá¼¸Î±Îºá½¼Î²": 5824,
      "ĠÎºÎ¹Î²Ïī": 5825,
      "ĠÎµÎ³ÎºÎ±": 5826,
      "Î®ÏĥÎ¿Î¼Î±Î¹": 5827,
      "Î¿Î¼ÎŃÎ½Î·": 5828,
      "Ġxl": 5829,
      "ĠÎ³ÎµÎ³ÏģÎ±Î¼Î¼á½³Î½ÏīÎ½": 5830,
      "ĠÏĦÎµÏĦÎ±Î³": 5831,
      "ĠÏĢÎ»á½±ÏĦÎ¿ÏĤ": 5832,
      "Î¹ÏĥÏĦÎ¹Îº": 5833,
      "ÎµÏĥÎ¸Î±á½·": 5834,
      "ĠÏĢÏĦá½»": 5835,
      "á½ºÏ²": 5836,
      "Ġtext": 5837,
      "ĠÎºÎ±Î¸á½±Ïģ": 5838,
      "Ġá¼ĲÏģÎµá¿ĸ": 5839,
      "Î·ÏĦá¿¶Î½": 5840,
      "ĠÎµá½ĶÎ»Î¿Î³Î¿Î½": 5841,
      "ĠâĦµB": 5842,
      "ĠÏĥÎ¼Î¹ÎºÏģá½¸Î½": 5843,
      "Ġone": 5844,
      "ĠÎ¸ÎµÏģÎ±ÏĢÎµá½·Î±Î½": 5845,
      "ĠÎ¸á½³ÏģÎ¿ÏħÏĤ": 5846,
      "ĠÎ²Î±ÏĥÎ¹Î»Îµá¿ĸÏĤ": 5847,
      "ĠÏĥá½±ÏģÎºÎ±": 5848,
      "Ïĭ": 5849,
      "ÏĢÏĦÎ¿": 5850,
      "Î³Î±Ïģ": 5851,
      "ĠÎ±Î³": 5852,
      "ĠÏĥá½µÎ¼ÎµÏģÎ¿Î½": 5853,
      "Î¶ÏīÎ½": 5854,
      "ÏĢÎµÏģÎ¹": 5855,
      "á½¼Î¸": 5856,
      "ĠÎºÎ±ÏģÎ´Î¯Î±ÏĤ": 5857,
      "ĠÎ¿á¼°ÎºÎµá¿ĸÎ¿Î½": 5858,
      "ÎµÏĥÏĦá¿¶": 5859,
      "ĠÎ¸Î±Î»á½±": 5860,
      "Î½Î±Î½ÏĦá½·Î±": 5861,
      "ĠÏĢÏģÎ¿Î½Î¿": 5862,
      "Ġgener": 5863,
      "Î»ÏīÏĤ": 5864,
      "ÏīÎ´": 5865,
      "ÏīÏĥÎ±Î½": 5866,
      "ĠÎ¼á½±Î½": 5867,
      "Ġá¼ĲÏĢá½±": 5868,
      "á½µÏģÎ¹Î¿Î½": 5869,
      "Ġá¼ĲÏĢÎ¹ÏĥÏĢ": 5870,
      "ĠÎ¼á½³Î»Î±": 5871,
      "Ġá½ĦÏģÎ¿ÏĤ": 5872,
      "Ġá¼ĢÎºÎ¿Ïħ": 5873,
      "ĠÎºÎµÏĨá½±Î»": 5874,
      "Ġá½ĳÎ³ÏģÎ¿": 5875,
      "ĠÏĥÏĨÏħÎ³Î¼Î¿á¿¦": 5876,
      "ĠÎºÎ±Îºá½¸Î½": 5877,
      "Ġá¼ĲÎ»Î¬": 5878,
      "ĠÎĿÎ±": 5879,
      "ĠÎºÏģÎ¹Î¸": 5880,
      "Ġá½łÏĨÎµ": 5881,
      "ĠÏĥÎºá½³Î»Î¿ÏĤ": 5882,
      "Ġexc": 5883,
      "ĠÏĦá¼ĢÎ½Î±Î½ÏĦá½·Î±": 5884,
      "Ġá¼ĶÏĥÏĩÎ±": 5885,
      "Ġá¼ĢÏģÏĦÎ·Ïģá½·Î±Î¹ÏĤ": 5886,
      "ĠÎ²ÎµÎ»ÏĦá½·": 5887,
      "ĠIsai": 5888,
      "ĠÏĢÏģá¾¶Î³Î¼Î±": 5889,
      "Ġá¼ĢÎ¾": 5890,
      "Î²Î¿ÏĤ": 5891,
      "Î¯ÏĥÏī": 5892,
      "á½µÎº": 5893,
      "Î¬ÏģÎ¹": 5894,
      "ĠÎ½á½³": 5895,
      "á½·Î¶ÎµÏĥÎ¸Î±Î¹": 5896,
      "ĠÏĢÎ½ÎµÏħÎ¼Î±": 5897,
      "ĠÏĢÎµÏĥ": 5898,
      "ĠÎºá½»ÏĥÏĦÎµÏīÏĤ": 5899,
      "ĠÎ±á¼°ÏĥÎ¸á½µÏĥÎµÏīÏĤ": 5900,
      "ĠÏĢÏĮÎ»ÎµÏīÏĤ": 5901,
      "ĠÎ´Î¹Î±Î¸á½³ÏĥÎµÏīÎ½": 5902,
      "Î»Î±Î¼Î²Î±Î½": 5903,
      "ĠÎ²Î¹Î²Î»á½·á¿³": 5904,
      "resent": 5905,
      "ĠÎºÎ½á½µÎ¼Î·ÏĤ": 5906,
      "ĠÏĩÎ±Î»Î²á½±Î½Î·ÏĤ": 5907,
      "vii": 5908,
      "ÏģÎ¹Î½": 5909,
      "ÏĢÎ±ÏĤ": 5910,
      "Î¼á½¼Î½": 5911,
      "á½±Ïĥá¿ĥ": 5912,
      "Î¿á¿ĸÎ¿Î½": 5913,
      "Ġá¼ĦÎ³Î³ÎµÎ»": 5914,
      "ĠÎ²Î»Î¬": 5915,
      "Ġá½ĳÏĢá½³": 5916,
      "Ġá¼ĲÏĢÎ¹Ïĥ": 5917,
      "Ïģá½¹ÏĦÎ±": 5918,
      "ÏħÏĥá½·": 5919,
      "ĠÏĥÏĦá½³Î±": 5920,
      "ĠÏĨÎ±Î³": 5921,
      "ĠÎ»á½¹Î³Î¿ÏħÏĤ": 5922,
      "ĠÎ³Î±ÏĥÏĦá½´Ïģ": 5923,
      "ÎµÎ¯Î´": 5924,
      "ĠÎ´ÏħÏĥÏĢÎ½Î¿": 5925,
      "ĠÏĢÏħÏģÎµÏĦÎ¿á¿ĸÏĤ": 5926,
      "ĠÎ½ÏħÎºÏĦá½¸ÏĤ": 5927,
      "Î¼ÎµÏģ": 5928,
      "ĠÎºÎ½": 5929,
      "ĠÏĢá¿ĨÏĩ": 5930,
      "ÏĨÏģÎ±": 5931,
      "ĠÎ»á½±": 5932,
      "ĠÏĨá½±": 5933,
      "ĠÏĨá½¹": 5934,
      "Ġá¼ĲÎºÎ¸": 5935,
      "Ġá¼ĢÎ½á½½Î¼Î±": 5936,
      "Ġá¿¥Îµá½»": 5937,
      "Ġá¼ĢÏĢÎ¿ÏĦÎµ": 5938,
      "Ġá½ĳÎ³ÏģÎ¿á¿¦": 5939,
      "one": 5940,
      "ĠFor": 5941,
      "Ġá½ĢÎ»á½·Î³Î±": 5942,
      "sel": 5943,
      "Ġá¼ĲÎ»ÏĢ": 5944,
      "Î»ÏħÎ¸": 5945,
      "ĠÎ´á¿¶": 5946,
      "Î¸Î¿Î¹ÏĤ": 5947,
      "Ġá¼ĲÎ½Î¯": 5948,
      "á½½Î´ÎµÎ¹": 5949,
      "Ġá¼°ÏĩÎ¸": 5950,
      "ĠÏĦá¿ĩÎ´Îµ": 5951,
      "Ġá¿¥Î±ÏĨ": 5952,
      "Ġscr": 5953,
      "Î»á½·ÏĥÎº": 5954,
      "ĠÎºÎ¿ÏģÏħ": 5955,
      "ence": 5956,
      "Ġá½ĳÏĢÎ¿ÏĥÏĦ": 5957,
      "Ġá¼ĲÎºÎµá½·Î½á¿ĥ": 5958,
      "Ġá¼ĵÎ¾": 5959,
      "ĠÏĢÏģÎ¿ÏĥÎµÏħÏĩ": 5960,
      "ÎķÎ¡": 5961,
      "Ġá¼ĲÏĢÎ¹ÏĦÎ·Î´Îµ": 5962,
      "ĠThis": 5963,
      "ĠÎ½ÏīÏĦÎ¹Î±á½·Î¿Ïħ": 5964,
      "postea": 5965,
      "ÏģÎ¯": 5966,
      "ĠÎºÎ·Îº": 5967,
      "Î¿á¿¶Î½": 5968,
      "ÎµÎ¹Î¿Î½": 5969,
      "ĠÏĢÎ¿Î¹á½µÏĥÎµÎ¹ÏĤ": 5970,
      "ÏĥÎ¼Î¿Ïħ": 5971,
      "Ġá¼ĲÏģÎ¿á¿¦Î¼ÎµÎ½": 5972,
      "ĠÎ³á½³Î½ÎµÏĥÎ¹ÏĤ": 5973,
      "ĠÎ»á½³Î³Î¿ÏħÏĥÎ¹Î½": 5974,
      "Ġá¼ĦÏģÏĦÎ¹": 5975,
      "ĠÎ³Î¹Î½á½¹Î¼ÎµÎ½Î¿Î½": 5976,
      "ĠÎĿÎµ": 5977,
      "ĠÎ³ÎµÎ³ÏģÎ±Î¼Î¼á½³Î½Î±": 5978,
      "ĠÏĢÎ±Î¼ÏĢá½¹Î»Î»": 5979,
      "ĠÏĥÏĩÎ¹ÏĥÏĦá¿ĨÏĤ": 5980,
      "ĠÎ²Î¿Î·Î¸Î·Î¼á½±ÏĦÏīÎ½": 5981,
      "Ġá½ĢÎºÏĦá½¼": 5982,
      "Îµá¼°": 5983,
      "ÏīÎ½Î±": 5984,
      "Î¶Ïī": 5985,
      "ĠÎ´Î¹Î±Î»Îµá½·": 5986,
      "ĠÎ´Î¹Î±Î¸á½µ": 5987,
      "Ġá¼ĲÎ¾Î±Ïģ": 5988,
      "Î¿á¿¦Î½ÏĦÎ¹": 5989,
      "item": 5990,
      "ÎºÎ¿Î½ÏĦÎ¿ÏĤ": 5991,
      "ÏħÎ»Î¿Î³": 5992,
      "ĠAQÎĵ": 5993,
      "ĠÏĢá½³ÏĪÎµÏīÏĤ": 5994,
      "ĠÏĢÎ»Î·ÏĥÎ¹": 5995,
      "Î½Î±Î½ÏĦÎ±Î¹": 5996,
      "ĠÎ³ÏħÎ½Î±Î¹Îºá½¸ÏĤ": 5997,
      "ĠÏĥÏĦÏģÎ¿Î³Î³": 5998,
      "Ġra": 5999,
      "Î¿Î¹Î¼": 6000,
      "ĠÎ¼ÎµÏĥ": 6001,
      "ĠÏĢÏģÎ¿Î³Î½": 6002,
      "Ġaf": 6003,
      "Î»Î·Î¼": 6004,
      "ĠÎºÎ±ÏĦÎ±ÏĢ": 6005,
      "Î¸ÎµÏĥÎ¸Î±Î¹": 6006,
      "Î¬Î½Î¿Ïħ": 6007,
      "ĠÎ²Î±ÏĥÎ¹Î»á½³ÏīÏĤ": 6008,
      "ĠÎ»ÎµÏĢá½·Î´Î¿ÏĤ": 6009,
      "ĠÎ»Î±Î¼Î²á½±Î½": 6010,
      "Ġá¼ĢÎ½Î´Ïģá½¸ÏĤ": 6011,
      "ĠÏĥÎºÎ¹á¿¤á¿¥": 6012,
      "Ġá¼ĲÎºÎºÎ»Î·Ïĥ": 6013,
      "ose": 6014,
      "Î¿ÏĥÎ¹": 6015,
      "Î¾Î¬": 6016,
      "Ġá¼ĦÎ»": 6017,
      "ĠÏĦÎ¿Î»": 6018,
      "Ġá¼ĢÎ½Î±ÏĨÎµÏģ": 6019,
      "ĠÏĢÎµÏģÎ¹Î²": 6020,
      "ĠÎ±á¼°Î³": 6021,
      "á½·Î¶ÎµÏĦÎ±Î¹": 6022,
      "Î¼ÎŃÎ½Î¿ÏĤ": 6023,
      "ĠÏĥÏħÎ½ÎµÎº": 6024,
      "â¸ĥ,": 6025,
      "ÎŁÎĿ": 6026,
      "ĠÎ¶á¿¶Î±": 6027,
      "ĠÏĢÎµÏģÎ¹ÏĦÏĦá½½Î¼Î±ÏĦÎ±": 6028,
      "ĠÏĢÎ»ÎµÎ¿Î½ÎµÎº": 6029,
      "ĠÏĦá½³ÏĦÎ±ÏģÏĦÎ¿Î½": 6030,
      "ĠÎ´Î¹á½±ÏģÎ¸ÏģÏīÏĥÎ¹Î½": 6031,
      "ĠÏĦÎµÏĦÏĦá½±ÏģÏīÎ½": 6032,
      "máµį": 6033,
      "ÎµÎ¹Ïĥ": 6034,
      "á½µÏĥÎ¿Î¼Î±Î¹": 6035,
      "ĠÏĩÏģÎµ": 6036,
      "Ġá¼ĶÎ½Î¹": 6037,
      "ĠÎºá½±Î»Î»Î¹": 6038,
      "ĠÎºÎ¹Î½Îµá¿ĸÏĥÎ¸Î±Î¹": 6039,
      "ĠÏĢá½¹Î»Î¹Î½": 6040,
      "ĠÎºÎ±ÏģÎ´Î¯Î±": 6041,
      "ĠÎ¼ÎµÎ³á½±Î»Î·ÏĤ": 6042,
      "ĠÎ¼ÎµÎ¸á½¹Î´Î¿Ïħ": 6043,
      "ĠÏĢÎ¿Î½Î·": 6044,
      "ĠÏĢÎ±ÏģÎ±ÎºÎ±Î»": 6045,
      "ĠÎµá½ĲÏĨÏģÎ¿Ïĥ": 6046,
      "ĠÎ³á½±Î»Î±Îº": 6047,
      "ĠÎ¼ÎŃÏģÎ¿ÏĤ": 6048,
      "Îļ": 6049,
      "ÎµÏĥÎ¸Îµ": 6050,
      "ÏĥÎ·ÏĦÎ±Î¹": 6051,
      "ÏĢÎµÎ¹Î´": 6052,
      "Î¼Î¹Îº": 6053,
      "Îºá½¼ÏĤ": 6054,
      "Î¸á½±": 6055,
      "ĠÎ±ÏĢ": 6056,
      "ÏĥÏĦá½¹Î½": 6057,
      "ĠÎ±á½ĲÎ¾Î±Î½": 6058,
      "Ġá¼ĢÎ½ÏĦÎ±": 6059,
      "ĠÎ´Î¹Î±ÏĢÎ»á½±": 6060,
      "ĠÎ¸ÎµÏīÏģ": 6061,
      "á½·Î½ÎµÏĦÎ¿": 6062,
      "Ġá¼ĶÎ½Î¸ÎµÎ½": 6063,
      "ĠÎ½ÎµÏī": 6064,
      "ĠÎ¸ÎµÏģÎ¼á½¹ÏĦÎµÏģÎ¿Î½": 6065,
      "Î¯Î½ÏīÎ½": 6066,
      "ĠÏĢá½¹Î»ÎµÎ¹ÏĤ": 6067,
      "Ġá¼ĳÎ±ÏħÏĦá¿ĨÏĤ": 6068,
      "ĠÎ½á½¹ÏĥÎ¿Ïħ": 6069,
      "ĠÎ´á½·Î±Î¹": 6070,
      "ĠÎ´Î¹Î±ÏĨÎ¿Ïģá½°Î½": 6071,
      "III": 6072,
      "Ġá¼ĢÎ¼ÏħÎ´": 6073,
      "Ġá¼ĢÎ½ÏīÎ¼Î±Î»": 6074,
      "Ġá½ķÏĪÎ¿ÏĤ": 6075,
      "ĠÏĥÏĦÏħÏĢÏĦÎ·Ïģá½·Î±ÏĤ": 6076,
      "ever": 6077,
      "Ġáµĩ": 6078,
      "á½·ÏĥÎ¸Î·": 6079,
      "ÎµÎ½Î¹Î±": 6080,
      "á¿ĨÎ½Î±á½·": 6081,
      "Ġá¼ĲÎ½ÏĦÎ¿Î»": 6082,
      "Î²Î¿Î½": 6083,
      "Ġá¼¤Î½": 6084,
      "ĠÏĥÏĦÏĮ": 6085,
      "ĠÎ¼á½¹Î½Î¿ÏĤ": 6086,
      "Ġfoll": 6087,
      "ĠÎ¼Î·Î´ÎµÎ½á½¸ÏĤ": 6088,
      "ĠÏĢÎµÏĨÎ¸": 6089,
      "ĠÏĥÏīÏĦÎ·Ïģ": 6090,
      "Ġá¼ĲÎ½á½·Î¿Î¹ÏĤ": 6091,
      "Ġá¼ĲÏĢÎ¹ÏĥÎºÎ¿ÏĢ": 6092,
      "ĠÎ³Î¯Î½ÎµÏĦÎ±Î¹": 6093,
      "ĠÎ´Î¹Î±ÏĥÏĦá½³Î»Î»": 6094,
      "ÏĥÎ±Ïģ": 6095,
      "ÏĩÎµÏĥÎ¸Î±Î¹": 6096,
      "ĠÎ±Ïģ": 6097,
      "ÏĮÎ³": 6098,
      "ĠÎ²Î»Î±": 6099,
      "ÏĥÎ±ÏĥÎ±": 6100,
      "Ġá¼ĢÎ½Î¸": 6101,
      "á½±Î½Î¿Î¹ÏĤ": 6102,
      "Ġá¿¥á½³": 6103,
      "ĠÏĢÎ¿Î¹á½¹ÏĦÎ·ÏĦÎ¿ÏĤ": 6104,
      "Î´Î·Î»": 6105,
      "Ġá¼ĪÏĢÎ¿": 6106,
      "ÏĥÏīÏĥÎ¹Î½": 6107,
      "Ġfa": 6108,
      "ĠÏĦÎ±á½»ÏĦÎ±Î¹ÏĤ": 6109,
      "Ġá¼ĲÏĩÎ¸": 6110,
      "ĠÎ¾Î·Ïģá¿¶Î½": 6111,
      "Ġá½ģÎ´á¿·": 6112,
      "ĠÎ³Î¹Î³Î½á½¹Î¼ÎµÎ½Î¿Î½": 6113,
      "ĠÎĶÎ±ÏħÎµÎ¯Î´": 6114,
      "ÏĦÎ¹Î½Î±": 6115,
      "ĠÏĢÏģÎ±Î³Î¼Î±ÏĦÎµá½·á¾³": 6116,
      "Ġá¼ĦÎ»Î»Î·Î»Î±": 6117,
      "ĠÏĢÏģÎ¿ÏĥÎºÏħÎ½": 6118,
      "ĠÎ´Î¹Î±ÏĨÎ¸Îµá½·": 6119,
      "ĠÏĢÎ±Î½ÏĦÎµÎ»á¿¶ÏĤ": 6120,
      "ĠÎ´Îµá¿ĸÏĥÎ¸Î±Î¹": 6121,
      "ĠÎ±Î»Î»": 6122,
      "ĠÏĥÏĢÎµ": 6123,
      "ĠÎ³Î¿Î½": 6124,
      "ÎµÏģÎ³Î±": 6125,
      "Ġá½ĢÎ¸Î¿Î½": 6126,
      "Ġout": 6127,
      "Ġá¼ĲÎ¾Î¿Î¼": 6128,
      "á½·Î½Î·Î½": 6129,
      "Ġá¼ķÏĪ": 6130,
      "ĠÏĦÎ¿Î¹Î¿Ïį": 6131,
      "ÏĦÎ¿ÏħÏģÎ³": 6132,
      "ÎµÎ»á¿¶Î½": 6133,
      "ĠÎĻÎµ": 6134,
      "ĠÎ»Î±Î¼ÏĢ": 6135,
      "ĠÎºÎ±Î»Î¿á¿¦ÏĥÎ¹": 6136,
      "Ġá½łÏĩ": 6137,
      "Ġá¼ĳÎ±ÏħÏĦá½¸": 6138,
      "ĠÏĩÎ±Î»Î±Ïģ": 6139,
      "ĠÏĢÎ±Î¹Î´Îµ": 6140,
      "ĠÏĢÏħÎºÎ½á½¸Î½": 6141,
      "ĠÏĦÎ¿Î¹Î¿á¿¦ÏĦÎ¿Î¹": 6142,
      "Ġreading": 6143,
      "á½³ÏģÏĩÎµÏĥÎ¸Î±Î¹": 6144,
      "Ġá¼ĲÏĥÏĩá½±ÏĦÏīÏĤ": 6145,
      "Ġá¼ĢÏģÏĦÎ·Ïģá½·Î±Î¹": 6146,
      "Ġá¼ħÎ³Î¹Î¿Î½": 6147,
      "ĠÏĢá½µÏĩÎµÏīÏĤ": 6148,
      "ĠÎ³Î·Î½": 6149,
      "ĠÎ²á½¹": 6150,
      "Ġá½ĳÏĢÎ·ÏģÎµ": 6151,
      "ÏħÏĦá½±": 6152,
      "ĠÎ¿á½ĶÎºÎ¿ÏħÎ½": 6153,
      "ĠÎ·á½Ĳ": 6154,
      "ĠÏĨÎ±á½·Î½Î¿Î½ÏĦÎ±Î¹": 6155,
      "ĠÎ¸ÎµÏģÎ¼á½¹Î½": 6156,
      "ĠÎ¼ÎµÎ³á½±Î»Î±": 6157,
      "ÏħÎ»Î¿Î¹": 6158,
      "Ġá¼ĲÏģá¿¶": 6159,
      "Î¼ÎŃÎ½Î¿Î¹": 6160,
      "ĠÎµÎ¹ÏĢÎµÎ½": 6161,
      "ĠÎ¼Î¹Ïĥ": 6162,
      "ĠÎ¼Î¹á¾·": 6163,
      "Ġá¼ĶÎ¸Î½ÎµÏĥÎ¹Î½": 6164,
      "ĠÎľÏīÏħÏĥá¿ĨÎ½": 6165,
      "Ġá¼ĢÏħÏĦá¿¶": 6166,
      "ĠÏĢá½±ÏĥÏĩÎµÎ¹Î½": 6167,
      "ĠÎ¸Î±Î»Î¬": 6168,
      "ĠÎ²Î»á½±Î²Î·Î½": 6169,
      "ĠÎ´ÏħÎ½Î¬Î¼ÎµÏīÏĤ": 6170,
      "Ġá½ĳÏĢÎ¿Ïĩá½¹Î½Î´": 6171,
      "ĠÏĥÏĦá½³Î±Ïģ": 6172,
      "Î¸á½³Î½Î±Î¹": 6173,
      "Î¹Î½Îµ": 6174,
      "Ġá¼ĲÎ½Î½": 6175,
      "á½¹Î½Î±Î¹": 6176,
      "á¿¦ÏĥÎ¹Î½": 6177,
      "ĠÎ´Î¹Î±Ïĥ": 6178,
      "ress": 6179,
      "ĠÏĥÎºá½·": 6180,
      "Ġá¼ĪÏĦ": 6181,
      "Ġ39": 6182,
      "ĠÎ²Î±ÏĥÎ¹Î»ÎµÏħÏĤ": 6183,
      "ĠÎ¼Î±ÏĥÏĩ": 6184,
      "Ġhow": 6185,
      "ĠÎ´ÎŃÎºÎ±": 6186,
      "ĠÎ¼Îµá½·Î¶ÏīÎ½": 6187,
      "ĠÏĥÏĦÎ¿Î¹ÏĩÎµá¿ĸÎ±": 6188,
      "ĠÎ¼ÎµÎ³á½³Î¸Î¿ÏħÏĤ": 6189,
      "ĠÎ¼Î¬Î»Î¹ÏĥÏĦÎ±": 6190,
      "ĠÏĦÎ±Î¹ÏĤ": 6191,
      "ÏħÎ³Î³Î¿ÏĤ": 6192,
      "Î·Îºá½¹": 6193,
      "ĠÎµÏĥÏĦÎ±Î¹": 6194,
      "Î±Î¹ÏģÎµ": 6195,
      "ÎŃÎ»": 6196,
      "ĠÏĩÎµÎ¯": 6197,
      "Ġá¼ĢÎ»Î»Î¿á½·": 6198,
      "Ġá¼ĢÎ½ÏĦ": 6199,
      "Ï²Î±": 6200,
      "ĠÏĢÎ»Î±Î½": 6201,
      "Î»Î±Î²á½¼Î½": 6202,
      "ĠÎ¿á¼°ÎºÎµá½·Î±ÏĤ": 6203,
      "ÏĦÎŃÏģÎ±ÏĤ": 6204,
      "Ġá¼ĲÏģÎ³á½±ÏĥÎ±ÏĥÎ¸Î±Î¹": 6205,
      "ĠÎ´ÎµÏħÏĦá½³ÏģÎ±ÏĤ": 6206,
      "Ġá¼ĲÎºÎµá¿ĸÎ¸ÎµÎ½": 6207,
      "Ġá¼ĲÎºÎµá¿ĸÎ½Î¿Î¹": 6208,
      "Ġá¼ķÎ»ÎºÎ·": 6209,
      "ĠÎºÎ±ÏģÏĢÎ¿á¿¦": 6210,
      "ĠÏĥÏĦÎ±ÏĨ": 6211,
      "Ġá½įÏĦÎ¹": 6212,
      "ĠÎµá¼°Îºá½¸ÏĤ": 6213,
      "ĠÎ´ÎµÎ¹ÎºÎ½": 6214,
      "Ġá½ĢÎ²Î¿Î»Î¿á½ºÏĤ": 6215,
      "Ġtaken": 6216,
      "Ġá¼ĲÎ½á½½ÏĢÎ¹Î¿Î½": 6217,
      "ÏĦá½°ÏĤ": 6218,
      "ĠÎºÎ¿Î¼": 6219,
      "á½·ÏĥÏĦÎ·": 6220,
      "Î´Î±Ïģ": 6221,
      "á½½ÏĦÏīÎ½": 6222,
      "ĠÎ¸Ïį": 6223,
      "Ġá¼Ħá¿¤á¿¥Ïī": 6224,
      "ĠÎ¼ÎµÎ¼Î½": 6225,
      "ÏĥÎ±ÏĥÎ¸Îµ": 6226,
      "Î®ÏģÎ¹Î¿Î½": 6227,
      "ÏģÎ·ÏĥÎ¹Î½": 6228,
      "Ġdo": 6229,
      "ÏĩÏģÎ¹Îµ": 6230,
      "ĠÎºÎµÎ½á½½ÏĥÎµÏīÏĤ": 6231,
      "ÏĥÎºÎµÏħÎ±Ïĥ": 6232,
      "ĠÏĥÎ·Î¼Îµá½·ÏīÎ½": 6233,
      "ĠÎ¸ÎµÏģÎ±ÏĢÎµá½»": 6234,
      "ÏĦÏĦÏīÎ¼Î±": 6235,
      "ÎºÏģÎ¹ÏĥÎ¹Î½": 6236,
      "ÏĥÏĥÎ±ÏģÎµÏĤ": 6237,
      "ĠÎ¼Îµá¿ĸÎ¶Î¿Î½": 6238,
      "ĠÏĨÎ¬ÏģÎ¼Î±": 6239,
      "'s": 6240,
      "ap": 6241,
      "á½¹ÏĦÎµÏģÎ¿Î¹": 6242,
      "Ġá¼ĲÎ½Î´": 6243,
      "á½µÎ¸ÎµÎ¹Î±Î½": 6244,
      "ĠÏĢÎ¿á½·": 6245,
      "á½±Î½Î±ÏĤ": 6246,
      "Ġá¼ĲÎ³á½½": 6247,
      "ĠÎºÎ±ÏĦÎ±Î½": 6248,
      "Ġá½ķÎ»Î·Î½": 6249,
      "Ġinf": 6250,
      "Ġá¼ĦÏģÏĦÎ¿Î½": 6251,
      "ĠÏĦá½±ÏĩÎ¹ÏĥÏĦÎ±": 6252,
      "Ġá¼ĲÎ³á½³Î½Î¿Î½ÏĦÎ¿": 6253,
      "Ġá¼ĲÎ´á½·Î´Î±": 6254,
      "ĠÏĦÎ¿ÏħÏĦá½³ÏĥÏĦÎ¹Î½": 6255,
      "ĠÏĩÏģá¿ĨÏĥÎ¹ÏĤ": 6256,
      "Ġá¼ĶÎ¿Î¹ÎºÎµÎ½": 6257,
      "á¿ĨÎ½Î±": 6258,
      "ÏĥÏĦÎ·ÏĥÎµÎ½": 6259,
      "ÏįÏīÎ½": 6260,
      "Ïģá½·á¾³": 6261,
      "ĠÏĩÏģá¿ĨÎ½Î±Î¹": 6262,
      "Ïģá½±ÏĦÎ¿Ïħ": 6263,
      "ÏĥÎ¼Î¿ÏĤ": 6264,
      "Ġince": 6265,
      "ĠÎĶÎ±": 6266,
      "ĠÎ¤Î±": 6267,
      "Ġbefore": 6268,
      "ĠÎļÏįÏģÎ¹Î¿Î½": 6269,
      "ĠÎ½á½¹ÏĥÎ¿Î½": 6270,
      "ĠÎ´Î¹Î´Î¬": 6271,
      "ĠÏĪá½»Î¾Î¹Î½": 6272,
      "ĠÏĥÏĨÎ¿Î´ÏģÎ¿": 6273,
      "Ġá¼ĶÎ»ÎµÎ¿ÏĤ": 6274,
      "ĠÏĥá½»Î¼Î¼ÎµÏĦÏģÎ¿ÏĤ": 6275,
      "ĠÎ¼Î·Îºá½³ÏĦÎ¹": 6276,
      "ĠÏĢÏĦÏīÏĩ": 6277,
      "ne": 6278,
      "Î½ÏīÎ½": 6279,
      "ĠÎ´Î¿Î³": 6280,
      "á½»ÏĤ": 6281,
      "ĠÎ¼ÎµÎ»Î¹Îº": 6282,
      "Î¿ÏįÎ½ÏĦÏīÎ½": 6283,
      "Ġá½ĦÎ½Î¿Î¼": 6284,
      "Ġá¼łÎ³": 6285,
      "ÏĦá½³ÏĤ": 6286,
      "ĠÎ¿á½ĲÏĥá½·Î±": 6287,
      "ĠÎ²Î¿ÏħÎ²": 6288,
      "ÏĥÏĦÎ¿Î»Î¿Ïĩ": 6289,
      "ĠÏĢÎ»Î·Î¼Î¼Îµ": 6290,
      "ĠÏĨÎ»ÎµÎ²Î¿ÏĦÎ¿Î¼á½·Î±ÏĤ": 6291,
      "Ġpara": 6292,
      "ĠÎºÎµÏģÎº": 6293,
      "ĠÎ²ÎµÎ²Î±": 6294,
      "Î¼á½³": 6295,
      "Î¼Ïİ": 6296,
      "Î¼Î¼Î±ÏĦÎ±": 6297,
      "ĠÎºÎ¿Î½": 6298,
      "ĠÎºÎ´": 6299,
      "Îºá½·Î±ÏĤ": 6300,
      "Ïĩá¿³": 6301,
      "Î½Î±ÎºÎ¿ÏĤ": 6302,
      "Ġá¼ķÎ¾Î¹Î½": 6303,
      "ĠÏĪÎ¹Î¼": 6304,
      "ÏĦÎ¹Îºá½¸ÏĤ": 6305,
      "ĠÎ¶á¿´": 6306,
      "ĠÎ¼á½¹Î½ÏīÎ½": 6307,
      "ĠÎĻÎ¿ÏħÎ´Î±": 6308,
      "Î»á½³Î¸": 6309,
      "Ġ40": 6310,
      "ĠÎºÎµÏĨÎ±Î»á½´": 6311,
      "ĠÏĢÏħÏģÎµÏĦÎ¿á½¶": 6312,
      "Ġá¼ĲÎ¼ÏĢá½·": 6313,
      "Ïĥá½·á¾³": 6314,
      "ĠÎ¿ÏħÎ´Îµ": 6315,
      "Ġá¼ĲÎ½Î±Î½ÏĦá½·Î±": 6316,
      "Î²Î±Î»ÎµÎ½": 6317,
      "Ġá½ĢÎ»á½·Î³á¿³": 6318,
      "ĠÎ´ÎµÏħÏĦá½³Ïģá¿³": 6319,
      "ĠÏĥÏħÎ¼Î¼á½³ÏĦÏģÏīÏĤ": 6320,
      "Ġright": 6321,
      "Î¿Î»ÎµÎ¸": 6322,
      "ÏĥÎ¼Î±ÏĦÎ¿ÏĤ": 6323,
      "Î¼á¿·": 6324,
      "ĠÎºÎ±Î½": 6325,
      "ĠÎºÎ±ÏĦÎ¿": 6326,
      "á½µÏĥÎ±ÏĥÎ¸Î±Î¹": 6327,
      "ÏģÎ¹ÏĥÎ¼Î±": 6328,
      "ÏĥÎµÎ»": 6329,
      "Ġá½ĳÏĢÎ¿Î³": 6330,
      "ĠÏĢÎ±Ïģá½¹Î½ÏĦÎ±": 6331,
      "Ġá¼¸Î¿ÏģÎ´": 6332,
      "ÏĨÎ¿Î²": 6333,
      "Ġá¼¦Î»Î¸Î¿Î½": 6334,
      "Ġá¼¥Î½": 6335,
      "ĠÏĦÎŃÎ»Î¿ÏĤ": 6336,
      "ĠÎ»ÏĮÎ³á¿³": 6337,
      "Ġá¼ĢÎ¼ÏĨÎ¿ÏĦá½³ÏģÎ±ÏĤ": 6338,
      "ÏĦÏĦÎµÏĦÎ±Î¹": 6339,
      "ĠÏħÎ¹Î¿ÏĤ": 6340,
      "ĠÎ´Î¿á¿¦Î½Î±Î¹": 6341,
      "Ġá¼ĦÏģÎ¹ÏĥÏĦÎ¿Î½": 6342,
      "ĠÏĦÎ¿ÏĥÎ¿á½»ÏĦá¿³": 6343,
      "ĠÎĴÎ±Î¹Î¸": 6344,
      ",'": 6345,
      "Ġ:": 6346,
      "ÏĦá¿ĩ": 6347,
      "Î¼á½¹Î½": 6348,
      "ÏħÏĥÎ±Î½": 6349,
      "ÏĥÎ¸Î±": 6350,
      "ĠÎ´Î¹Î±ÏĨÎµÏģ": 6351,
      "ÏħÎ½ÏĦÎ±Î¹": 6352,
      "ÏĥÏĦÎ±Î»": 6353,
      "ĠÏĢÏģÎ¿Ïĥá½³Ïĩ": 6354,
      "ĠÎ¼á½¹Î½Î·": 6355,
      "ĠÎľÎ±Ïģ": 6356,
      "Î·ÏĦá½³Î¿Î½": 6357,
      "Ġá¼ĢÏģÏĦÎ·Ïģá½·Î±": 6358,
      "ĠÎ¼Î®ÏĦÎµ": 6359,
      "ĠÏĥÏħÎ¼ÏĨá½»": 6360,
      "Ġá¼ĦÏģÎ¸ÏģÏīÎ½": 6361,
      "Ġá¼ĶÎ¼ÎµÎ»Î»": 6362,
      "ĠÎºá¾ĦÏĢÎµÎ¹ÏĦÎ±": 6363,
      "Ġá¼ĺÏģÎ±Ïĥá½·ÏĥÏĦÏģÎ±ÏĦÎ¿ÏĤ": 6364,
      "Î¿á½Ĳ": 6365,
      "Î¿ÏħÏĩ": 6366,
      "ÎµÎ¹ÏĢ": 6367,
      "ÎŃÏĦÎ¹": 6368,
      "Îµá¿ĸÎ±Î¹": 6369,
      "ĠÎ¼ÎµÎ¼Î½Î·": 6370,
      "Ġá¼ĢÎ½á½·": 6371,
      "Ġá¼ĲÎ¾Î¿ÏħÏĥ": 6372,
      "Ġam": 6373,
      "ĠÎºÎ±ÏĦÎ±ÏĢÎ±": 6374,
      "Î¸Î·ÏĥÎµÏĦÎ±Î¹": 6375,
      "ĠÎµá½ĲÏĩ": 6376,
      "Î´ÎµÎ¹Î³": 6377,
      "Î»ÎµÎ¹Î±": 6378,
      "ÏĥÏĦÎ·Î¼Î±": 6379,
      "ĠÎ³Î»á½½": 6380,
      "ĠÎºÎ±ÏĦá½±ÏĥÏĦÎ±ÏĥÎ¹Î½": 6381,
      "ĠÎ²Î¹Î²Î»Î¯": 6382,
      "ĠÎ´á½¹Î¾Î±Î½": 6383,
      "ĠÏĦÎ±á¿¦ÏĦá½±": 6384,
      "ĠÏĢÏģÎ¿ÎµÎ¹ÏģÎ·Î¼á½³Î½ÏīÎ½": 6385,
      "Ġá¼ĢÏĢÎŃÏĥÏĦÎµÎ¹Î»ÎµÎ½": 6386,
      "ĠÎ±á½ĶÎ¾": 6387,
      "ĠÎ´Î±ÏĪ": 6388,
      "ĠÎ§ÏģÎ¹ÏĥÏĦÎ¿á¿¦": 6389,
      "ĠÏĨÎ»á½³Î³Î¼Î±": 6390,
      "ĠÎĹ": 6391,
      "á½±Î»Î·": 6392,
      "ÎµÎ½á½¶": 6393,
      "Ġá¼ĲÎ½Î½Î¿": 6394,
      "Î¬Î¼": 6395,
      "Ġá½¥Ï²": 6396,
      "ÏīÏģÎ¿Î½": 6397,
      "Î¼Î¿Î¯": 6398,
      "Î¼Î¹Î±": 6399,
      "Ġá¼ĢÏĨÏģÎ¿": 6400,
      "ice": 6401,
      "ĠÏĪá½»Î¾ÎµÏīÏĤ": 6402,
      "ĠÎ»ÎµÎ¹ÏĦÎ¿ÏħÏģÎ³": 6403,
      "ult": 6404,
      "ĠÎ´ÏħÏĥÎºÏģÎ±Ïĥá½·Î±Î½": 6405,
      "Ġá¼ĢÎ½ÏīÎ¼á½±": 6406,
      "fort": 6407,
      "Î¹ÏĥÏĦÎ±": 6408,
      "Ïģá½°ÏĤ": 6409,
      "ÏħÎ¿ÏĤ": 6410,
      "ĠÎ´á½½": 6411,
      "á½±ÏĥÎµÎ¹": 6412,
      "Î¼Î±á¿ĸÏĤ": 6413,
      "á½³ÏģÏīÎ½": 6414,
      "Ġá¼ĦÎ»Î»Î¿Î½": 6415,
      "Î³Î¿Î½ÏĦÎ±Î¹": 6416,
      "ĠÏĢÎ»Îµá¿ĸÎ¿Î½": 6417,
      "Î¼Î¿Ïĥ": 6418,
      "ĠÎľÎ±Îº": 6419,
      "ĠÏĢÏģá½¹Ïĥ": 6420,
      "Ġá¼±ÏĥÏĦ": 6421,
      "ĠÎ¼Î¹ÎºÏģÎ¿": 6422,
      "á½½Î´ÏħÎ½": 6423,
      "ĠÏĥÏħÎ¼ÏĢá½±": 6424,
      "ĠÏĦÎ¿ÏħÏĦá½³ÏĥÏĦÎ¹": 6425,
      "ĠÏĥÏĦÎ¿Î¹ÏĩÎµá½·ÏīÎ½": 6426,
      "ations": 6427,
      "Ġadd": 6428,
      "ĠÏĢÎµÎ¹ÏģÎ±": 6429,
      "Ġá¿¥Î¹Î½á¿¶Î½": 6430,
      "ĠÏĦÏģÎ±Ïĩá½µÎ»Î¿Ïħ": 6431,
      "Ġá¼ģÎ¼Î±ÏģÏĦÏīÎ»": 6432,
      "ÏĦÏĦÎ·ÏĤ": 6433,
      "Î¼á½´": 6434,
      "ÎºÏĦÎµÎ¹Î½": 6435,
      "á½³ÏĦÏī": 6436,
      "á¿¶Î´á½³ÏĤ": 6437,
      "ĠÎ´Î¹ÎŃ": 6438,
      "Ġá¼ĶÎ´Î¿": 6439,
      "Ġá¼ĲÏĢÎ¹Î´Îµá½·": 6440,
      "ĠÎµá¼¶ÏĢÎ±": 6441,
      "ĠÎºÎ±Î¸á½¹ÏĦÎ¹": 6442,
      "Î»Î¹ÏĢÎ¿Î½": 6443,
      "Î»Î¹ÏĢÎµÎ½": 6444,
      "ÏģÎ·Î¼á½±ÏĦÏīÎ½": 6445,
      "ĠÎºÎ±ÏĦÎ±Î»ÎµÎ¹": 6446,
      "ĠÏĢÏģÎ¿Ïĥá¿Ĩ": 6447,
      "ĠÎ¼á½³ÏģÎµÏĥÎ¹Î½": 6448,
      "Ġvi": 6449,
      "Ġde": 6450,
      "ĠÎ§Î±Î½": 6451,
      "ĠÎ¼Î±Î¸Îµá¿ĸÎ½": 6452,
      "ĠÎ¾Î·ÏģÎ±á½·Î½ÎµÎ¹": 6453,
      "Ġá½ĦÎ¾Î¿ÏĤ": 6454,
      "Ġá¼ģÎ¼Î±ÏģÏĦÎ¯Î±ÏĤ": 6455,
      "ĠÎ¼á½³Î¸Î¿Î´Î¿Î½": 6456,
      "Ġá¼Ħá¿¤á¿¥ÎµÎ½": 6457,
      "Î»ÎµÎ½": 6458,
      "Î¼á½³Î½Î±Î¹": 6459,
      "Î¶á½¹Î½ÏĦÏīÎ½": 6460,
      "Ġá¼ĢÎ»Î»Î¿ÏĨ": 6461,
      "ĠÏĥÏĢÎ¿ÏħÎ´": 6462,
      "ĠÎ¼á½¹Î½Î±": 6463,
      "ĠÎ¶á½½á¿³": 6464,
      "Î»Î±Î¼Î²á½±Î½ÎµÎ¹Î½": 6465,
      "ĠÏĢÎ¬ÏĥÎ·ÏĤ": 6466,
      "ssib": 6467,
      "ĠÏĢÎµÏģá½·ÏĦÏĦÏīÎ¼Î±": 6468,
      "ĠÎ½Î±Ïģ": 6469,
      "ĠÏĥÏĢÎ¿Î½Î´á½»Î»ÏīÎ½": 6470,
      "á½µÎ³Î·ÏĥÎ¹Î½": 6471,
      "ÏĥÎ¯Î½": 6472,
      "Î´Î±Î½": 6473,
      "Î±Î»ÎµÏģ": 6474,
      "Ġá½¡Ïģá¿¶Î½": 6475,
      "ĠÏĩÏģá½µÏĥÎµÏīÏĤ": 6476,
      "Ġá¼ĲÏĢÎ¹ÏĨÎ±Î½": 6477,
      "ĠÎ¼ÎŃÏĥÎ¿Î½": 6478,
      "ÏĦÏħÎ»Î¿Î½": 6479,
      "ĠÎ³ÎµÎ³ÏģÎ±Î¼Î¼á½³Î½Î¿Î½": 6480,
      "ĠÎ´Î¹Î¿Ïģá½·Î¶": 6481,
      "Ġá½ĳÏĢÎ¿Î¼Î½Î·": 6482,
      "ĠÏĩÏģÎ·ÏĥÏĦá½¸Î½": 6483,
      "ĠÏĩÎµÏģÏĥá½¶Î½": 6484,
      "Ġá¼¤ÎºÎ¿ÏħÏĥÎµÎ½": 6485,
      "ĠÎ³ÎµÎ³ÏħÎ¼": 6486,
      "Î½Î¿Î¼": 6487,
      "ÎºÏĦÎ¿Î½": 6488,
      "Î´Î·Î½": 6489,
      "á½¹Î½Î±": 6490,
      "ĠÏĩÎµá½¶Ïģ": 6491,
      "Î¿Î»á½¹Î³": 6492,
      "ÏĦÎ¹Îºá¿·": 6493,
      "ĠÏĢÎ±ÏģÎ±Î³": 6494,
      "ity": 6495,
      "ÏģÎ³á½±": 6496,
      "ĠÎºá½±ÏĦÎ±": 6497,
      "Î»ÎµÎ¹Î±Î½": 6498,
      "ĠÏĦÏģá½·ÏĦÎ·": 6499,
      "Ġá¼ĲÏĩÎ¿á½»ÏĥÎ·ÏĤ": 6500,
      "ĠÎ´Î¹Î±ÏĨÎ¿Ïģá½°": 6501,
      "Î¿ÏħÏĥá½·": 6502,
      "ĠÎ±á¼µÎ¼Î±ÏĦÎ¹": 6503,
      "ĠDE": 6504,
      "ÏĪÎ±Î½ÏĦÎµÏĤ": 6505,
      "á½½ÏĦÎ±ÏĦÎ±": 6506,
      "Ġá½ĳÏĢÎ¿Î¼Î½á½µÎ¼Î±ÏĥÎ¹Î½": 6507,
      "ĠÏĥÏĦÏģÏħÏĨÎ½": 6508,
      "un": 6509,
      "Ġá½ģÎºá½¹": 6510,
      "Î´ÎµÎ¯": 6511,
      "Ġá¿¥Î¿Î¼ÏĨÎ±": 6512,
      "ĠÎĴÎµÎ½Î¹Î±": 6513,
      "ÎºÎ¿ÏĢ": 6514,
      "ount": 6515,
      "Ġne": 6516,
      "ĠÎºÏģÎ¬": 6517,
      "ÏħÎ¸á½·Î¿Ïħ": 6518,
      "Ġá¼ĢÎ»Î»á½µÎ»Î±Î¹ÏĤ": 6519,
      "ulg": 6520,
      "ĠÎ²ÏģÎ±Ïĩá½·Î¿Î½Î±": 6521,
      "Ġá¼ĨÏģ": 6522,
      "ĠÎµá¼°ÏĥÎµÎ»Î¸": 6523,
      "ven": 6524,
      "ĠÏĦÏħÎ³Ïĩ": 6525,
      "Ġá¼Ĳá¿¤á¿¥": 6526,
      "Î³ÎµÎ¹Î½": 6527,
      "ÏĩÎµá½·": 6528,
      "á½µÏģ": 6529,
      "ĠÎ»Ïħ": 6530,
      "ĠÏĨÎ»Î¿Î¹": 6531,
      "Î¬Î´Îµ": 6532,
      "Ġá¼ĢÏĢÏİ": 6533,
      "ÎĦ,": 6534,
      "Ġá¼ķÎ¾": 6535,
      "ĠÏĢÏģÎ¿ÏĥÏĨÎµÏģ": 6536,
      "ĠÎ±á¼°Î½": 6537,
      "Ġ3âģ°": 6538,
      "Ġá¼¥Î´Îµ": 6539,
      "ĠÏĥÏħÎ¼ÏĢá½·": 6540,
      "ĠÏĥÏĦÎ¿Î¼Î±": 6541,
      "Î±Î¸á½°Î½": 6542,
      "ĠÏĩÎ¹Î»Î¹Î¬": 6543,
      "ĠÎ³á½³Î³Î¿Î½ÎµÎ½": 6544,
      "Ïģá½½": 6545,
      "ĠÎºÝ²": 6546,
      "Ġá¼ĢÏĦÎ¿Î½": 6547,
      "ĠÎµÏĦÎ¹": 6548,
      "á½¹ÏĦÎ¿ÏĤ": 6549,
      "ÎºÎ±ÏĥÎ¹": 6550,
      "ĠÏĢÎ¿Î»Î¹": 6551,
      "ÏĥÎºá½³": 6552,
      "ÏģÎ·Î³": 6553,
      "ÏħÎ³Î³Î±": 6554,
      "Î¼Î¹Î³": 6555,
      "Î¿ÏįÏĥÎ·ÏĤ": 6556,
      "ĠÎºÎ±ÏģÎ´Î¯á¾³": 6557,
      "ĠÎ²Î±ÏĥÎ¹Î»ÎµÏīÏĤ": 6558,
      "ÏħÏĢÏĦÎ¿Î½": 6559,
      "Î¿Î¼ÎŃÎ½Î·ÏĤ": 6560,
      "ĠÎºÏģá½·ÏĥÎµÏīÏĤ": 6561,
      "ĠÏĨÎ±Î½ÏĦÎ±": 6562,
      "ĠÏĦÎ±á½ĲÏĦá½¸": 6563,
      "ĠÏĢÎµÎ½ÏĦÎ±": 6564,
      "Ġá¼¡Î»Î¹Îºá½·Î±Î½": 6565,
      "ĠÏĢá¿¦Î¿Î½": 6566,
      "Î³Î¹Î½á½½ÏĥÎº": 6567,
      "old": 6568,
      "Ġá¼ĲÎ´Îµá½·ÎºÎ½Ïħ": 6569,
      "Ġá¼ĺÏģÎ±ÏĥÎ¹": 6570,
      "ĠÏĢÎ±ÏģÎ±ÏĢÎ»á½µÏĥÎ¹Î¿Î½": 6571,
      "á½¹ÏĦÏīÎ½": 6572,
      "Ġá¼ĶÏĦÏħÏĩ": 6573,
      "ÏĮÏģ": 6574,
      "ĠÎ²Î»ÎŃ": 6575,
      "Î®Ï²": 6576,
      "Î¹Îºá¿¶ÏĤ": 6577,
      "ÏĥÎºÎµ": 6578,
      "Ġá¼ĳÎ±ÏħÏĦá½´Î½": 6579,
      "ĠÏĥÏĨÏħÎ³Î¼Î¿á½¶": 6580,
      "ĠIt": 6581,
      "ĠÏĢÏħÏģá½¶": 6582,
      "ĠÎ¿á½ĲÎ´ÎµÎ¼": 6583,
      "Î¿á¿ĨÏĥÎ±Î¹": 6584,
      "ĠÎ³Ïģá½±ÏĨÎµÎ¹Î½": 6585,
      "ĠÎ¶Î·ÏĦÎµá¿ĸÎ½": 6586,
      "ĠÏĨÏįÏĥÎ¹Î½": 6587,
      "Ġá¼ĲÎºÎµÎ¯Î½á¿ĥ": 6588,
      "Ġwhere": 6589,
      "ĠÎ³Î¯Î³Î½ÎµÏĦÎ±Î¹": 6590,
      "ĠÎºÎ¿ÏģÏħÏĨ": 6591,
      "ÏīÎ´á½³": 6592,
      "ĠÎµá¼µ": 6593,
      "Î¼Î±ÏĦá½·": 6594,
      "ÏģÎ¹Î±Îº": 6595,
      "Ġá¼°á¾¶ÏĥÎ¸Î±Î¹": 6596,
      "ĠÏĢÎ¿Î»Î»Î¬ÎºÎ¹ÏĤ": 6597,
      "Î¼Î¿Ïģ": 6598,
      "ĠÏĢÎ±Î½ÏĦÎµÏĤ": 6599,
      "Ġá¼°ÏĥÏĩá½»": 6600,
      "ĠÏĥá½»ÏĥÏĦÎ±ÏĥÎ¹Î½": 6601,
      "ĠÏĢá½¹ÏģÎ¿ÏħÏĤ": 6602,
      "ĠÎºÎµÏĨÎ±Î»Î±Î»Î³": 6603,
      "ÎºÏģÏħ": 6604,
      "ĠÏĢÏħÏģÎµÏĦÎ¿á½ºÏĤ": 6605,
      "Ïĥá½·Î±Î¹ÏĤ": 6606,
      "ĠÏĦÏģÎ¿ÏĨá½´": 6607,
      "ĠÏĢÎ±Î»Î±Î¹á¿¶Î½": 6608,
      "Ġá¼ĢÏĢá½¹Î´ÎµÎ¹": 6609,
      "ĠÎ½Îµá½»ÏģÎ¿Ïħ": 6610,
      "ĠÏĦÎ¿Î¹Î¿á¿¦ÏĦÎ¿": 6611,
      "ĠÏĢÎµÏĢÎ¿Î½Î¸á½¸ÏĤ": 6612,
      "á¼ĲÎ½": 6613,
      "Ġá¼ĲÏĢÎ¹ÏĥÏĦÏģÎŃ": 6614,
      "ĠÏĥÎ¹ÏĦá½·Î±": 6615,
      "Ġá¿¥á½±ÏĩÎ¹Î½": 6616,
      "Ġá¼ĪÎ²ÏģÎ±á½°Î¼": 6617,
      "hrase": 6618,
      "ĠÎ¼ÎµÎ¼Î½á¿ĨÏĥÎ¸Î±Î¹": 6619,
      "ĠÏĦÏħÏĨ": 6620,
      "ĠÎºÎ¿á¿ĸ": 6621,
      "Ġá¼ĶÎ¼ÏĨÏħÏĦÎ¿Î½": 6622,
      "ĠÏĨá½·": 6623,
      "ĠÎ¸Î»Î¯": 6624,
      "ĠÎ¸ÏģÏĮÎ½": 6625,
      "ĠÎ¼ÎµÎ»Î»": 6626,
      "Ġar": 6627,
      "Ġpart": 6628,
      "ÏĦÎ¹Îºá½°ÏĤ": 6629,
      "ÏĦÎ¹ÎºÎ¿á½ºÏĤ": 6630,
      "ĠÎºÎµÏĩ": 6631,
      "Ġcome": 6632,
      "ĠÎľÎ±Î½Î±": 6633,
      "Ġá½ĳÏĢÎ¿ÏĩÎ¿Î½": 6634,
      "ĠVulg": 6635,
      "ĠÏĦÏģá½¹ÏĢÎ¿ÏĤ": 6636,
      "á½µÏĥÎµÎ¹ÎµÎ½": 6637,
      "Ġá¼ĢÏģÎ¹ÏĥÏĦÎ¿Î»Î¿Ïĩ": 6638,
      "ÏĨÏħÎ»á½±": 6639,
      "Ġá¼ĶÎ¸Î½Î¿ÏĤ": 6640,
      "ĠÎ¸Î±ÏĦá½³ÏģÎ¿Ïħ": 6641,
      "ĠÎ»ÎµÎ³á½¹Î¼ÎµÎ½Î¿Î½": 6642,
      "ĠÎ½ÎµÏĨÏģá¿¶Î½": 6643,
      "ĠÏĨÎ±Î¹Î½Î¿Î¼á½³Î½ÏīÎ½": 6644,
      "Ġá¼ģÏĢá½±ÏĥÎ·ÏĤ": 6645,
      "Ġá¼¥ÏĢÎ±ÏĦÎ¹": 6646,
      "ÏĦÎŃÏģÏīÎ½": 6647,
      "Ġá¼ĲÏĢÎ¹Î´á½³ÏĥÎµÏīÏĤ": 6648,
      "Ġthough": 6649,
      "ĠÎ¼ÎµÎ³á½³Î¸ÎµÎ¹": 6650,
      "ĠÎµá½ĹÏģÎ¿Î½": 6651,
      "ĠÎĶÎ±Î½Î¹á½´Î»": 6652,
      "ĠÏĥÏĦÏģÎ¿Î³Î³á½»": 6653,
      "á½ģ": 6654,
      "ĠÎ´Î¿Ïį": 6655,
      "á¿ĨÏĦÎµ": 6656,
      "Î¯Î½ÎµÏĦÎ±Î¹": 6657,
      "Ġá½ĳÏĥÏĦ": 6658,
      "Î´ÎµÏĩ": 6659,
      "ĠÎ´Î¹Î±ÏĦÎµ": 6660,
      "Î³Î¿Î½ÏĦÎ¿ÏĤ": 6661,
      "ÏĦÏģÎ¯": 6662,
      "ĠÏĢÎ¿Î¹Î·Ïĥ": 6663,
      "Î³Î½á½»": 6664,
      "han": 6665,
      "ĠÏĦÎ¿Î¹Î±Ïį": 6666,
      "ĠÏĢá½¹Î»ÎµÏīÏĤ": 6667,
      "Î·Î¼Î¬ÏĦÏīÎ½": 6668,
      "ĠÏĦá½±Î¾Î¹Î½": 6669,
      "Ïģá½³ÏĨ": 6670,
      "Ġwho": 6671,
      "ĠÎ´ÏħÏĥÎºÏģÎ±": 6672,
      "Ġá¼ģÏĢá½±ÏĥÎ±Î¹ÏĤ": 6673,
      "ĠÏĥÏĦá½»ÏĨ": 6674,
      "Ġá¼ĶÏģÎ³Î¿Î¹ÏĤ": 6675,
      "ĠÏĢÎ»Îµá½·Î¿Î½Î¿ÏĤ": 6676,
      "ĠÎ´Î¹Î±Î½Î¿": 6677,
      "ĠÏĥÎºÎ·Î½á¿ĨÏĤ": 6678,
      "ĠÎ´Î¹Î´Î±ÏĥÎºÎ±Î»á½·Î±ÏĤ": 6679,
      "Ġá¼ĢÎ´ÎµÎ»ÏĨÎ¿á½¶": 6680,
      "ĠÎºÎ±ÏĦÎ±Î¹": 6681,
      "ÏīÏĦÎ±Î¹": 6682,
      "Ġá¼ĲÎ´á½³": 6683,
      "Î¸Î¿Î¹": 6684,
      "Î¬ÏĢ": 6685,
      "ĠART": 6686,
      "Ïģá½·Î½Î¿Ïħ": 6687,
      "Ġá¼ĳÏĥÏĢ": 6688,
      "Ġá¼ĢÎ½Î±ÏĦÏģá½³": 6689,
      "Ġá½¥ÏĤ": 6690,
      "Ġins": 6691,
      "ÏīÎ¸Î¹": 6692,
      "Ġá½ĢÏģÎ³á½±Î½Î¿Î¹ÏĤ": 6693,
      "ĠÎ£Î±Î¼Î±": 6694,
      "ĠÏĥÏĦÎ±Î¸Î¼": 6695,
      "Ġá¼ĶÎ½Î´ÎµÎ¹Î¾Î¹Î½": 6696,
      "ĠÎĴÎ±Î²ÏħÎ»á¿¶Î½Î¿ÏĤ": 6697,
      "ĠÎºá½·Î½Î´ÏħÎ½Î¿ÏĤ": 6698,
      "Î¿ÏĥÎ±Î½": 6699,
      "ĠÎµÎ¼ÏĢ": 6700,
      "ÏīÎ½Î¿ÏĤ": 6701,
      "ÎµÎ½Î½": 6702,
      "Ġá¼ĶÏģÎ·": 6703,
      "á½µÎºÎ¿Î½ÏĦÎ±": 6704,
      "á½½Î¸Î·": 6705,
      "ÏĥÎ¹Î±ÏĤ": 6706,
      "Ġtw": 6707,
      "Î¸ÏģÎ¿Î½": 6708,
      "ĠÎ¸ÎµÏģÎ¼á½´Î½": 6709,
      "ĠÎºÎ±ÏģÎ´Î¹": 6710,
      "ĠÏĢÎ±Î½ÏĦÎ¿": 6711,
      "Ġá¼°ÏĥÏĩá½ºÎ½": 6712,
      "Î·Î¸Î¹": 6713,
      "ĠÎ¿á¼¶Î´": 6714,
      "Î³ÎµÏĦÎµ": 6715,
      "Î¯Î±Ï²": 6716,
      "ĠSt": 6717,
      "Î»Î±Î²ÎµÎ½": 6718,
      "ĠÏĢÎ±Ïĩá½º": 6719,
      "ĠÏĩÎµÎ¹ÏģÎ¿ÏħÏģÎ³": 6720,
      "Ġá¼ĢÏĥÏĨá½±Î»": 6721,
      "Ġá½ĢÎ»á½·Î³Î¿Ïħ": 6722,
      "ĠÎ½ÏĮÎ¼Î¿Î½": 6723,
      "ĠÏĢÎµÏĢÎ¿Î½Î¸á½¹ÏĦÎ¿ÏĤ": 6724,
      "ÏĥÎ¼á½³Î½Î¿Î½": 6725,
      "ĠÎºÎ¿Ïħ": 6726,
      "ĠÎ±á½ĲÏĦÏĮ": 6727,
      "ĠÎ»Î®Î¼": 6728,
      "ĠÏĨÎ»ÎŃ": 6729,
      "Î½ÎµÏħÏĥÎµÎ½": 6730,
      "ĠÏĢÏģÎ¿Ï²": 6731,
      "ÏħÎ¼ÎŃÎ½": 6732,
      "ĠÎºÎ±Î»á½¸Î½": 6733,
      "á½³ÏĩÎµÏĥÎ¸Î±Î¹": 6734,
      "ĠÎ¼á½¹ÏĥÏĩ": 6735,
      "ĠÏĢá½³ÏģÎ¹": 6736,
      "Ġá¼°Î´á½·ÏīÏĤ": 6737,
      "Ġá¼ķÎ»ÎºÎ¿ÏħÏĤ": 6738,
      "Ġá¼ĢÏĢÎµÏĪ": 6739,
      "ĠPs": 6740,
      "ÏĦÎµÏĦÎ±Î³": 6741,
      "Ġá¼ķÎ»ÎºÎµ": 6742,
      "Î¸ÎµÏģÎ¼Î±": 6743,
      "Î´ÎµÎ¹ÎºÎ½á½»": 6744,
      "Ġá¼ĲÎ¼ÏĢÎ»á½±ÏĥÏĦ": 6745,
      "Î·Ïĩ": 6746,
      "ĠÎµÏĢÎ±": 6747,
      "ÏĥÎ¸Î·Ïĥ": 6748,
      "Î»ÎµÏĦÎ¿": 6749,
      "Ġá¼ĢÏĢÎµÎº": 6750,
      "ÏĥÎµÎ¹Î½": 6751,
      "ĠÏĦÎ¹ÏĥÎ¹": 6752,
      "ĠÏĢÎ±ÏģÎµÎ½": 6753,
      "Ġá¼ĲÎ³ÏĩÎµÎ¹Ïģ": 6754,
      "ĠÎ£Î±Î²": 6755,
      "ĠÎ´á½»Î½Î±Î½ÏĦÎ±Î¹": 6756,
      "ÏĦá½³ÏģÎ±Î¹ÏĤ": 6757,
      "Ġá¼ĲÎ¼ÎŃ": 6758,
      "ĠÎ²Î±ÏĥÎ¹Î»ÎµÎ¯Î±ÏĤ": 6759,
      "ĠÎ¾Î·ÏģÎ¿": 6760,
      "ĠSee": 6761,
      "ĠÎ¼ÎŃÎ³": 6762,
      "ĠÎ¼ÎµÎ³á½±Î»ÏīÏĤ": 6763,
      "ĠÏĨÎ±ÏģÎ¼Î±Îº": 6764,
      "ment": 6765,
      "Ġid": 6766,
      "Ġut": 6767,
      "ĠÎ¼á½»Ïģ": 6768,
      "ĠÎµÏĨ": 6769,
      "á½µÏĥÎ±Î½ÏĦÎµÏĤ": 6770,
      "ĠÏĦÎµÏĥÏĥÎ±": 6771,
      "Ġá¼ĢÏĢá½½": 6772,
      "á½±Î½Î·": 6773,
      "ĠÏĩÏģá¿¶Î½ÏĦÎ±Î¹": 6774,
      "Ġá¿¥á½µ": 6775,
      "ĠÎ¿á½ĶÏĢÏī": 6776,
      "Ġá¼ĢÏĨÎµÎ»": 6777,
      "ĠÏĦÏģá½·Ïĩ": 6778,
      "ĠÎ¾Î·Ïģá½¹ÏĦÎ·ÏĦÎ±": 6779,
      "ĠÏĩÏģá½¹Î½Î¿ÏĤ": 6780,
      "ĠÎ¾Î·Ïģá¾¶ÏĤ": 6781,
      "ĠÏĦÎ¿Î¹Î±á½»ÏĦÎ±Î¹ÏĤ": 6782,
      "ĠÎ±á¼´ÏĥÎ¸Î·": 6783,
      "ĠÏĦÎµÏĦÏģá½±": 6784,
      "Î²Î±Î»Î¿Î½": 6785,
      "Ġá¼ģÎ»á¿¶Î½": 6786,
      "Î¿ÎµÎ¹Î´á½²ÏĤ": 6787,
      "ÏĦÎ¿á½»ÏĥÎ·ÏĤ": 6788,
      "Ġá¼ĲÏģÏħÏĥÎ¹": 6789,
      "ÏĢÎ½ÎµÏħÎ¼Î¿Î½": 6790,
      "ĠÏĦá½¹Î½Î´Îµ": 6791,
      "Ġá¼ĲÎ»Î¸Îµá¿ĸÎ½": 6792,
      "ĠÎ¦Î±ÏģÎ±á½¼": 6793,
      "ĠÎĳá¼°Î³ÏįÏĢÏĦÎ¿Ïħ": 6794,
      "ĠÎ¼Î±ÏĥÏĩá½±Î»": 6795,
      "Ġá¼¼": 6796,
      "ĠÎ±Î¼Î±Ïģ": 6797,
      "Î¯Î·": 6798,
      "Ġá¼¡Î´Î¿Î½": 6799,
      "ÏĪÎ·": 6800,
      "ĠÎ²Ïģá½¹": 6801,
      "ÎºÎ±Î¼": 6802,
      "Ġá¼ĢÎ½ÏĦÎ¹Îº": 6803,
      "ĠÎ´Î¹Î±ÏĥÏĢ": 6804,
      "ĠÏĢÏģÎ¿ÏĥÎ·Îº": 6805,
      "ĠÎ¼Î·Îº": 6806,
      "ÎµÎ»Î¸Îµá¿ĸÎ½": 6807,
      "Î½Î·ÏĦÎ±Î¹": 6808,
      "ĠÏĦá½³Î¼Î½": 6809,
      "Ġá¼ĲÏĢá½·ÏĥÏĦÎ±ÏĥÎ¸Î±Î¹": 6810,
      "Ġá¼ĳÎºá½±ÏĥÏĦÎ·ÏĤ": 6811,
      "Î¿Î¼ÎŃÎ½Î¿ÏħÏĤ": 6812,
      "ĠÎºá½¹Î¼Î¼ÎµÏīÏĤ": 6813,
      "ĠÏĢÎ»Î±Î³": 6814,
      "ĠÏĨÏħÎ»á½±ÏĦÏĦÎµÏĥÎ¸Î±Î¹": 6815,
      "ĠÏĥÎºÎ¿ÏĢá½¸ÏĤ": 6816,
      "Ġá¼ĲÏĢÎ±Î½Î¿ÏģÎ¸": 6817,
      "Ġá¼ĶÎ»ÎµÎ³ÎµÎ½": 6818,
      "Ġá¼ĲÏĢÎ¹ÏĦÎ·Î´ÎµÎ¹": 6819,
      "ĠÎ´á½±ÎºÏĦÏħÎ»Î¿Î½": 6820,
      "ĠÏĢá½³ÏģÎ±ÏĦÎ±": 6821,
      "ĠÎºá½³Î½ÏīÏĥÎ¹Î½": 6822,
      "Ġá¼ĦÎ¾Î¹Î¿Î½": 6823,
      "Ġá¼ĲÎ¼Î±ÏħÏĦ": 6824,
      "ÎķÎ¡ÎĻ": 6825,
      "ÏĦÏĦÎ±Î½": 6826,
      "ĠÏĢÏĦá½³Ïģ": 6827,
      "ĠÎ¼ÏħÎº": 6828,
      "Î´Î¼": 6829,
      "Ġá¼ĢÏĩ": 6830,
      "Ġá¼ĢÎ¸ÏģÎ¿Î¹": 6831,
      "á½±ÏĥÏĦ": 6832,
      "á½±Î¼Î¿Ïħ": 6833,
      "ĠÎµÏĩ": 6834,
      "á½³Î½Î±": 6835,
      "Î»ÎµÏĩ": 6836,
      "Ġá½ĳÏĢÎ±": 6837,
      "Î®ÏĥÎ±ÏĤ": 6838,
      "ĠÏĦÎ¹ÏĥÎ¹Î½": 6839,
      "Î»Î¹Î¿ÏĤ": 6840,
      "ĠÏĢÎµÏģÎ¹ÏĢÎ±": 6841,
      "Ġwould": 6842,
      "ĠÎłÎķÎ¡ÎĻ": 6843,
      "ĠÏĢÎ»ÎµÏħ": 6844,
      "Ġá¼ĲÏģÎµá¿ĸÏĤ": 6845,
      "ĠÎ´Î¹Î±ÏĨÎ¿ÏģÎ±á½¶": 6846,
      "ĠÏĥÏĨÏħÎ³Î¼Î¿á¿ĸÏĤ": 6847,
      "ĠÏĢÎ¹Î¼ÎµÎ»": 6848,
      "ĠÎ¾Î·ÏģÎ¿á¿¦": 6849,
      "ĠÏĥÏħÎ¼Î²Î¿Ïħ": 6850,
      "Ġá¼ĲÎ»á½±ÏĦÏĦÎ¿Î½": 6851,
      "ĠÏĥÎºÎ¿ÏĢá½¸Î½": 6852,
      "ĠÎ³ÏħÎ½Î±Î¹Îºá¿¶Î½": 6853,
      "á½»ÏĦÎ·ÏĦÎ±": 6854,
      "ĠÎ¸Î¬Î»Î±": 6855,
      "Ġá¼¤ÏģÎ¾Î±ÏĦÎ¿": 6856,
      "ĠÎ½á½»ÎºÏĦÎ±": 6857,
      "ĠÏĦÏģÎµÏĨ": 6858,
      "ĠÎ±á¼´ÏĥÎ¸Î·ÏĥÎ¹ÏĤ": 6859,
      "Î§": 6860,
      "ĠÎ¥": 6861,
      "ĠÏĦÏħÏĩ": 6862,
      "ÎºÎ»ÎµÎ¹": 6863,
      "Ġá¼ĲÎ»Î»Î¹": 6864,
      "Î¹Î½Î±Î½": 6865,
      "ĠÏĥÎ±Î½": 6866,
      "á¾´": 6867,
      "ÏįÏģÎ¹Î¿Î½": 6868,
      "Ġá¼ĢÎ½Î±ÏĦÎ¿": 6869,
      "Ġpostea": 6870,
      "Ġá½ĦÏĪÎµÎ¹": 6871,
      "ĠÏĢÎµÏģÎ¹ÏĢÎ½ÎµÏħÎ¼Î¿Î½": 6872,
      "ĠÏħÏĢÎµÏģ": 6873,
      "Ġá¾Ķ": 6874,
      "á¿ĸÎ½Î¿ÏĤ": 6875,
      "Î¿ÏįÎ¼ÎµÎ½Î¿ÏĤ": 6876,
      "ĠÏĦá½³Î¼Î½ÎµÎ¹Î½": 6877,
      "ĠÎ¼Î±Î»á½±": 6878,
      "ĠÎµá¼°Ïģá½µ": 6879,
      "Ġá¼ĲÎ¼ÏĨÎ±": 6880,
      "ĠÎºÎ±ÏĦÎ±ÏĥÎºÎµÏħá¿ĨÏĤ": 6881,
      "ÏĦÏĦÎ¿ÏħÏĥÎ¹Î½": 6882,
      "Ġá¼ĦÎºÏģÏīÏĤ": 6883,
      "ĠÏĩÎ±Î»ÎµÏĢá½¸Î½": 6884,
      "Ġá¿¥á½±ÏĩÎµÏīÏĤ": 6885,
      "ĠIsaiah": 6886,
      "ĠÏĦÎ±Ïģ": 6887,
      "Î¼á½°": 6888,
      "ÏĨÎ¿ÏĤ": 6889,
      "á¿¶Î½ÏĦÎµÏĤ": 6890,
      "á½¸Ï²": 6891,
      "ĠÎ´Î¹á½½": 6892,
      "Ġá½ģÏģá¿¶Î½": 6893,
      "int": 6894,
      "ÎŃÎ½ÏĦÎµÏĤ": 6895,
      "ĠÏĢÎ¿Î¹Îµá¿ĸÏĦÎ±Î¹": 6896,
      "ĠÎ£Ïī": 6897,
      "Ġá½ĢÎ¾á½»": 6898,
      "Ġá¼ĻÎ»Î»": 6899,
      "ĠÎºÎ¿ÏĦá½»Î»Î±ÏĤ": 6900,
      "ĠÎ¸Î»á½·Î²": 6901,
      "ĠÏĢÎ±Î½ÏĦÎ±Ïĩá½¹": 6902,
      "Ġá¼ĲÎ»Î¬Î»Î·ÏĥÎµÎ½": 6903,
      "ĠÎµá¼´ÏīÎ¸Îµ": 6904,
      "Ġá¼¸Î¿á½»Î´Î±": 6905,
      "ĠÏĥÏĦá½³Î±ÏĦÎ¿ÏĤ": 6906,
      "ĠÏĦÏį": 6907,
      "Î¼á½±Ïģ": 6908,
      "Î¿á¿¦ÏĦÎ¿": 6909,
      "Ġá¼¡Î´": 6910,
      "Î®Î¼Î±ÏĦÎ¿ÏĤ": 6911,
      "Ġá¼ĦÎ»Î»Î±Î¹ÏĤ": 6912,
      "Ġá¼¸Î½": 6913,
      "ĠÏĦÎ¿Î¹Î³Î±Ïģ": 6914,
      "ĠQmáµį": 6915,
      "Î³Î³ÎµÎ¹": 6916,
      "ĠIn": 6917,
      "ĠÎ³Î¹Î½Î¿Î¼á½³Î½ÏīÎ½": 6918,
      "Ġá½ĢÏĨÎ¸Î±Î»Î¼Î¿á½¶": 6919,
      "ĠÏĦÎ¿Î¹Î¿á½»ÏĦÎ¿ÏħÏĤ": 6920,
      "ĠÏĢÏĮÎ»ÎµÎ¹ÏĤ": 6921,
      "Î¸á½³Î½ÏĦÎµÏĤ": 6922,
      "Ġá¼ĶÎºÏĨÏħÏĥÎ¹Î½": 6923,
      "ĠÏĥÏĦá½¹Î¼Î±ÏĩÎ¿Î½": 6924,
      "Ġá¼ģÎ¼Î±ÏģÏĦá½·Î±ÏĤ": 6925,
      "ĠÏĦÏģÎ¿Ïĩá½·ÏĥÎº": 6926,
      "Ġá¼ĲÎ¾ÎµÏħÏģÎµá¿ĸÎ½": 6927,
      "Î·Î¼ÎµÏģÎ¹Î½": 6928,
      "Ġrendering": 6929,
      "Ġá¼ĢÎ½Î´Ïģá½±": 6930,
      "bis": 6931,
      "Î¯Ï²": 6932,
      "ÎŃÏģÎ±": 6933,
      "Ġá¼ĲÎºÎ»á½»": 6934,
      "ind": 6935,
      "Ġá¼ĦÎ»Î»Î±Î¹": 6936,
      "Î³Î³ÎŃ": 6937,
      "ÏĥÎ¼Î¿á¿¦": 6938,
      "Î´ÏīÏĥÎ¹Î½": 6939,
      "Ġá½ĢÎ¾á½³ÏīÎ½": 6940,
      "ĠÎ´ÎµÏħÏĦá½³ÏģÎ±": 6941,
      "ĠÏĩÎ±Î»Îºá½·": 6942,
      "ĠÏĩÏģÎ·ÏĥÏĦá½³Î¿Î½": 6943,
      "ĠÏĦá½³ÏĦÏĦÎ±ÏģÎ±ÏĤ": 6944,
      "Ġdiffere": 6945,
      "we": 6946,
      "ÏĥÎ¿á¿¦Î½": 6947,
      "Î¸Î·Ïĥ": 6948,
      "ĠÎ±ÎºÎ¿Ïħ": 6949,
      "ÎµÎ¹Î¼á½³Î½ÏīÎ½": 6950,
      "Î¯Î´Î±": 6951,
      "Ġá½ĳÏĥÏĦÎµÏģ": 6952,
      "Ġá½ģÎ»Îº": 6953,
      "ÏĮÏĦÎµÏģÎ¿Î½": 6954,
      "Î¶Î±": 6955,
      "Ġá½ĳÏĢÎ±Î»Î»á½±": 6956,
      "Î®ÏĥÎ±ÏĦÎµ": 6957,
      "ĠÎµá¼¶ÏĩÎµÎ½": 6958,
      "ĠÎµá¼´Î´Î·": 6959,
      "reat": 6960,
      "ĠÎ±á¼°ÏİÎ½": 6961,
      "ĠÎºÎµÎºÏģÎ±": 6962,
      "ĠÏĪÏħÏĩÏģá¿·": 6963,
      "Î´ÎµÎ¹Îº": 6964,
      "ĠÎ¼ÎµÎ³á½±Î»Î·": 6965,
      "ĠÏĢÎ¿Î»ÏħÏĩ": 6966,
      "ĠÎĵÎ±Î»": 6967,
      "ĠÏĢÏģá½½ÏĦÏīÏĤ": 6968,
      "ĠÎ¸ÎµÏģÎ¼Î±Î¹Î½á½¹Î½ÏĦÏīÎ½": 6969,
      "ĠÎ´ÏħÎ½Î±ÏĦá½¹Î½": 6970,
      "á½µÏĥÎµÎ¹Î½": 6971,
      "Ġá½ģÎ´Î¿á¿¦": 6972,
      "Ġá½ģÎ´Î¿á½ºÏĤ": 6973,
      "ĠÏĦÏĮÏĢÎ¿Î½": 6974,
      "ĠÏĢÎ¬Ïĥá¿ĥ": 6975,
      "Î²á½±Î»Î»ÎµÎ¹": 6976,
      "Ġá½ģÎ¼Î¿á¿¦": 6977,
      "ĠBabAF": 6978,
      "ĠÏĨÎ¿Î²Î·Î¸": 6979,
      "ĠÎ³ÏħÎ½Î±á¿ĸÎºÎµÏĤ": 6980,
      "ĠÏĩÏģá¿ĨÏĥÎ¹Î½": 6981,
      "Ġá¼ĳÏĢÏĦÎ±": 6982,
      "ĠÏĩÏģÏĮÎ½Î¿Î½": 6983,
      "Ġincep": 6984,
      "Î¥": 6985,
      "Î¹ÏĥÎ¸": 6986,
      "ÏĥÎ²": 6987,
      "Î¿ÏħÎ¼á½³Î½Î¿Î¹ÏĤ": 6988,
      "ĠÎµÎ»Îµ": 6989,
      "á½»ÏģÎ¹Î¿Î½": 6990,
      "ĠÏĩÎ»Î¹": 6991,
      "Î¬ÎºÎ¿Î½ÏĦÎ±": 6992,
      "Ġá½ģÏĢÏī": 6993,
      "ĠÏĦÎµÏĦÏģ": 6994,
      "ĠÎ²Î¹": 6995,
      "ÏįÎµÎ¹Î½": 6996,
      "Ġá½ĢÏĢÏĦ": 6997,
      "Î±Î»Î±Î¹": 6998,
      "ĠÎµá¼¶Î´ÎµÎ½": 6999,
      "Ġá¼ĢÏģÏĦá½·": 7000,
      "Ġá¼ĢÏģÎ¾á½±": 7001,
      "ÏĢÎ¿ÏĥÏĦ": 7002,
      "Ġá½ĳÎ³Ïģá½°Î½": 7003,
      "Ġá¼¥ÎºÎµÎ¹": 7004,
      "ĠÎłÎµÏģ": 7005,
      "ĠÎºÎ±ÏģÎ´Î¯Î±Î½": 7006,
      "Î¿ÏĢÎ¿Î¹": 7007,
      "ĠÎ³Î¹Î½ÏİÏĥÎº": 7008,
      "ĠÏĦÏģá½¹ÏĢá¿³": 7009,
      "á½µÏĥÎµÏĦÎµ": 7010,
      "ĠÎºá½¹Î»": 7011,
      "Î³Î½ÏīÏĥÎ¹ÏĤ": 7012,
      "ĠÏĥÏħÎ½ÎµÏĩá½²ÏĤ": 7013,
      "ÏĢÏĦÎ¿ÏħÏĥÎ¹Î½": 7014,
      "Ġá¼ĢÎ´ÏħÎ½Î±": 7015,
      "ĠÏĢÎ±ÏģÎ¿Î¾ÏħÏĥÎ¼Î¿á¿¦": 7016,
      "ĠÏĥÎ·ÏĢ": 7017,
      "ĠÎ´Î¹Î±ÏģÎ¸Ïģá½½ÏĥÎµÏīÏĤ": 7018,
      "Ġá¼ĶÎ½ÎµÏĥÏĦÎ¹": 7019,
      "ĠÏĢÎ»ÎµÎ¹á½¹Î½ÏīÎ½": 7020,
      "Ġá¼ĪÏģÏĩÎ¹Î³á½³Î½Î·ÏĤ": 7021,
      "ĠÏĦÎ¿Î¹Î³Î±ÏģÎ¿á¿¦Î½": 7022,
      "lat": 7023,
      "Ġea": 7024,
      "ĠÏĦÎ·Îº": 7025,
      "Î¼Î¼Î±ÏĦÎ¿ÏĤ": 7026,
      "Ġá¼ĲÎ´Ïī": 7027,
      "á½°Îº": 7028,
      "á½°Î´": 7029,
      "Î¼Î±á½·": 7030,
      "á½µÏĥÎ¿ÏħÏĥÎ¹Î½": 7031,
      "ÏĦÎ¹á¿¶Î½": 7032,
      "Î¶ÎµÎº": 7033,
      "Ġá¼ĳÎ¿Ïģ": 7034,
      "Ġá¼ĲÎ¾ÎµÏħ": 7035,
      "á½±ÏģÎ³": 7036,
      "ÏĢÎ¿á½¶": 7037,
      "ĠÏĥÏĦÏħÏĨ": 7038,
      "ĠÏĢÎ±ÏģÎ±Î»Îµ": 7039,
      "Ġá½ĳÎ³Ïģá¾¶ÏĤ": 7040,
      "ĠÏĪÏħÏĩá¿ĩ": 7041,
      "ĠÎ³ÎµÎ½á½µÏĥÎµÏĦÎ±Î¹": 7042,
      "ĠÎ³ÎµÎ½Î¿Î¼á½³Î½Î·ÏĤ": 7043,
      "Ġá¼ĶÎ½Î´Î¿": 7044,
      "Ġinter": 7045,
      "ĠÎĻÏĥ": 7046,
      "Ġá¼ĺá½°Î½": 7047,
      "ĠÎ¼ÎŃÎ»Î¹": 7048,
      "Î¾Î±Î½ÏĦÎ¿": 7049,
      "Î¿Î¼ÎŃÎ½Î·Î½": 7050,
      "Ġá½ģÎ´Î¿Î¹": 7051,
      "ĠÏĦÎŃÎºÎ½Î±": 7052,
      "Ġá¼ķÎ»ÎºÎµÎ¹Î½": 7053,
      "ĠÏĨÏħÎ»á½±ÏĦÏĦÎµÎ¹Î½": 7054,
      "Ġá½ĢÏĢÎ¯ÏĥÏī": 7055,
      "Ġadnot": 7056,
      "Ġá½ĢÎ»Î¯Î³Î¿Î½": 7057,
      "ĠÏĥÏħÏĥÏĦÎ¿Î»á¿ĨÏĤ": 7058,
      "ĠÏĥÏĢÎŃÏģÎ¼Î±ÏĦÎ¿ÏĤ": 7059,
      "Ġá¼ĢÏģÏĩÎ¹ÎµÏģ": 7060,
      "ĠÏĥÏħÎ¼Î²ÎµÎ²Î·Îºá½¸ÏĤ": 7061,
      "ĠÎ´Î¹á¿ĨÎ»Î¸Î¿Î½": 7062,
      "ĠÏĦá¿¶Î½Î´Îµ": 7063,
      "Î¯Î±Î¹": 7064,
      "ÏĦÎ·Î¼Î±": 7065,
      "Î¶Î·": 7066,
      "ĠÎ´Î¹Î±ÎºÏģá½·": 7067,
      "Ġá¼ĲÏĢÎ¹ÏĥÏĩ": 7068,
      "Ġá¼°Ïĩ": 7069,
      "ĠÎºÎ±ÏĦÎ±Î³": 7070,
      "ĠÎºÎ±ÏĦÎ±ÏĨ": 7071,
      "Ïģá½¹ÏĦÎ±ÏĦÎ¿Î½": 7072,
      "ĠÏĢÎ¿Î¹á¿¶Î½": 7073,
      "ĠÎ´ÎµÎ´": 7074,
      "ĠÏĦá½³Î»Î¿ÏĤ": 7075,
      "ÏĦá½±ÏĤ": 7076,
      "ĠÎ»ÎµÏĢÏĦá½»": 7077,
      "ĠÎ¸ÎµÏģÎ¼Î±á½·Î½ÎµÎ¹": 7078,
      "Ġá½ĢÎ½Î¿Î¼á½±Î¶ÎµÎ¹": 7079,
      "ĠÏĢÎ±ÏĩÏħÎ¼": 7080,
      "Ġá¼ĢÎ¾Î¹Î¿á¿ĸ": 7081,
      "Ġá¼ĢÏĢÎ¿ÎºÏģá½·": 7082,
      "Ġconf": 7083,
      "Ġá¼ĶÎ»ÎµÎ³Î¿Î½": 7084,
      "ĠÎ»Î±Î²á½¼Î½": 7085,
      "Ġá¼ĲÏĥÎ¸á½·": 7086,
      "Ġá¼ĶÏĨÎ±Î¼ÎµÎ½": 7087,
      "ĠÏĢÎ»á½±Î³Î¹Î±": 7088,
      "Ġhowever": 7089,
      "ÏĢÏĮ": 7090,
      "ÎºÎ¿Î»": 7091,
      "ĠÏĥÎ±Ïģ": 7092,
      "ĠÏĢÏģÎ¬": 7093,
      "ÏĦÎµá¿ĸÏĤ": 7094,
      "ĠÎ¿á½ĲÏģÎ·": 7095,
      "Ġá½ĢÎ»á½³Î¸": 7096,
      "ĠÏĥÏħÎ³ÎºÎ±": 7097,
      "á¿¦Î½Î±Î¹": 7098,
      "ĠÏĢÎ¿ÏģÎµÏħÎ¸": 7099,
      "Ġá¼ĢÎ½á½½Î´ÏħÎ½": 7100,
      "ĠÎ´Î¹Î±á¿¤á¿¥": 7101,
      "Ġá¼ĲÎ¾Î®": 7102,
      "á½·Î½Î±ÏĤ": 7103,
      "Ġá¿¥Î¯Î¶": 7104,
      "Ġá¼ĢÎ½Î±Î¼Î¹": 7105,
      "ÏĢÎ¿ÏģÎµá½»": 7106,
      "Ġá½¥ÏĥÎ¸": 7107,
      "ĠÎ¾Îµ": 7108,
      "Î²Î±á½·Î½ÎµÎ¹Î½": 7109,
      "ĠÏĦÎ¿ÏħÏĦá½¶": 7110,
      "ĠÏĦá½±ÏĩÎµÎ¹": 7111,
      "Ġfort": 7112,
      "ĠÏĨÎ»ÎµÎ³Î¼Î¿Î½á½°ÏĤ": 7113,
      "ĠÏĥÎ¹Î´": 7114,
      "ĠÎ´ÏĮÎ¾Î·ÏĤ": 7115,
      "ĠÏĢÎ±ÏĦÎŃÏģÏīÎ½": 7116,
      "ĠÏĢÏģÏīÏĦÎ¿": 7117,
      "ĠÏĢÏģÎµÏĥÎ²ÏħÏĦ": 7118,
      "Ġcomp": 7119,
      "ĠÏĨÎ¸Î¹Î½Î¿ÏĢ": 7120,
      "Ġá¼ĢÏĢÎ¿ÏĨá½»ÏĥÎµÎ¹ÏĤ": 7121,
      "ĠÎ¼Î·Î´á½³ÏĢÏī": 7122,
      "ĠÏĦÎ¿Î¹Î±á¿¦ÏĦÎ±Î¹": 7123,
      "ĠÎ´Î±ÏĪÎ¹Î»": 7124,
      "ĠÎ¼Î½á½µ": 7125,
      "ÏĨá½·": 7126,
      "ĠÎ³Î±Ï²": 7127,
      "Ġá¼ĶÎ¾Îµ": 7128,
      "ĠÏĦÎµÎ»ÎµÎ¹": 7129,
      "ĠÎ²Î¿Ïį": 7130,
      "Î¶ÎµÏĥÎ¸Î±Î¹": 7131,
      "Ġá¼ĳÏĨÎ¸": 7132,
      "ĠÎ´Î¹Î±ÏĢ": 7133,
      "Ġob": 7134,
      "á½·Î½Î¿Î½ÏĦÎ¿ÏĤ": 7135,
      "ÏİÎ´Î·": 7136,
      "Ġá¼ĶÏĩÎ¿Î¹": 7137,
      "Ġá¼ĶÏĩÎ¿Î¼ÎµÎ½": 7138,
      "Î¼Î¿á½·": 7139,
      "ĠÎ¼á½±ÏĦÎ·Î½": 7140,
      "ead": 7141,
      "ĠÎ¹ÏĥÏĩ": 7142,
      "Ġbeing": 7143,
      "ĠÎ±ÏħÏĦÎ¿": 7144,
      "ĠSo": 7145,
      "Ġá½ĳÏĢá½¹Î»Î¿Î¹": 7146,
      "Ġá¼ĢÏĢÎµÎºÏģÎ¯": 7147,
      "ĠÎ»Î¿Î¹ÏĢá½°": 7148,
      "ĠÎºá¼ĢÎº": 7149,
      "Ġá¼ĲÏĢÎ¹ÏĦÎ·Î´Îµá½·": 7150,
      "ÏĦÏĦÎ¿ÏħÏĥÎ¹": 7151,
      "Ġá¼ĢÎ¼ÎµÏĦ": 7152,
      "á½³Î»ÎµÎ¹Î±Î½": 7153,
      "Ġá¼ĲÏĩÎ¸Ïģá¿¶Î½": 7154,
      "ĠÎ½ÎµÎ±Î½á½·ÏĥÎº": 7155,
      "ĠÎ½á½±ÏģÎ´Î¿Ïħ": 7156,
      "Ġá¿¥á¿ĸÎ³Î¿ÏĤ": 7157,
      "Ġá¼ĲÎ¼Î½Î·Î¼á½¹Î½ÎµÏħ": 7158,
      "Î±ÏĥÎ±": 7159,
      "ĠÏĢÏĦ": 7160,
      "á½½Î¼ÎµÎ½Î¿Î½": 7161,
      "á½½Î²Î¿Î»Î¿Î½": 7162,
      "Îµá½·á¿³": 7163,
      "ÎºÎ±Î»Îµ": 7164,
      "ĠÏĢÎ¿Î´á¿¶Î½": 7165,
      "á½±Î½Î·Î½": 7166,
      "Ġ(?": 7167,
      "Ġá¼ĢÏĢÎ¿Î´á½³": 7168,
      "Ġá½ĳÏĢÎ¿Î¸á½³": 7169,
      "ĠÎ¹Î´": 7170,
      "ĠÎºÏģÏħ": 7171,
      "oth": 7172,
      "ĠÎŁá¼±": 7173,
      "ÏĢá½·ÏĢÏĦÎµÎ¹": 7174,
      "Ġá¼ĲÎ»Î±Ïĩ": 7175,
      "ĠÎ£Î±Î¼Î¿Ïħ": 7176,
      "ĠÎ¸ÏħÎ¼Î¿á¿¦": 7177,
      "ĠÏĨÎ»ÎµÎ³Î¼Î±ÏĦ": 7178,
      "ĠÏĨá½³ÏģÎµÏĦÎ±Î¹": 7179,
      "Ġá¼ĲÏĢÎ¿á½·Î·ÏĥÎ±Î½": 7180,
      "ĠÏĢÎ»ÎµÏħÏģá¿¶Î½": 7181,
      "ĠÏĦÎ±ÏįÏĦÎ·ÏĤ": 7182,
      "ĠÏĩÏģá½½Î¼ÎµÎ¸Î±": 7183,
      "ĠÎ¸ÎµÏģÎ±ÏĢÎµÏħÏĦÎ¹Îºá¿ĨÏĤ": 7184,
      "Ġá¼ĶÏģÏĩÎµÏĦÎ±Î¹": 7185,
      "ĠÏĢÎµÏĢÎ¿Î¹Î¸": 7186,
      "]+": 7187,
      "ces": 7188,
      "á½²ÏĪ": 7189,
      "ÏĥÏĦÎµÎ¹Î»": 7190,
      "ĠÎ´Î¹Î±Î¹Ïģ": 7191,
      "Ġá¼ĶÎ¼ÏĨ": 7192,
      "Ġá½ĳÎ¼ÎµÎ½": 7193,
      "Ġá¼ĲÎ¾Î±ÏģÎº": 7194,
      "Ġá¼ĲÏĢÎ¹Î¸": 7195,
      "Ġá¼ĢÎ½Î±ÏĢÎ½": 7196,
      "ĠÏĢÎ±ÏģÊ¼": 7197,
      "ĠÎ¶á½µ": 7198,
      "ĠÏĨá½»Î»Î»Î±": 7199,
      "ĠÎµÎ¹Ïĥ": 7200,
      "Ġá¼ĢÎ½Î¸Ïģá½½ÏĢá¿³": 7201,
      "ĠÏĢÎ¬ÏĥÎ±ÏĤ": 7202,
      "ĠÏĥÎºÎ»Î·Ïģá½°": 7203,
      "Ġá¼´Î´Î¹Î±": 7204,
      "ĠÏĨÎ»á½²ÏĪ": 7205,
      "á½·ÏĥÏĦÎ±ÏĦÎ±Î¹": 7206,
      "ĠÏĦÏģÎ±á½»": 7207,
      "ĠÎ½Î¿Î¼á½·Î¶ÎµÎ¹Î½": 7208,
      "ĠÏĥÎ·ÏĢÎµÎ´": 7209,
      "ĠÏĥÏħÎ¼Î¼ÎµÏĦÏģá½·Î±Î½": 7210,
      "Ġá½ģÎ»Î¿ÎºÎ±ÏħÏĦ": 7211,
      "ĠÏĢÎŃÎ½ÏĦÎµ": 7212,
      "ĠÏĢÎ·Î»": 7213,
      "ĠÎ»Î¿á½»": 7214,
      "ÏĥÎ¸Î·Î½": 7215,
      "Î¬ÏĥÎµÎ¹": 7216,
      "Ġá¼ĲÎºÏĩ": 7217,
      "Ġ(?)": 7218,
      "Ġá¼ĢÎ½Î±Î¼Î½Î·": 7219,
      "Ġá¼ĢÎ½Î±ÏĦÎ¿Î»": 7220,
      "Ġá¼ĢÏĢÎ¿ÏĩÏīÏģ": 7221,
      "Ġá¼¸Îµ": 7222,
      "Ġá¼ħÎ³Î¹": 7223,
      "Ġá½ĦÏģÎ¿ÏħÏĤ": 7224,
      "ĠÎ±á¼°ÏĩÎ¼Î±Î»Ïī": 7225,
      "ĠÏĢá½±Î½Î¸": 7226,
      "ÏĦá½µÏĦÏīÎ½": 7227,
      "Ġá¼ĢÎ³ÏīÎ³": 7228,
      "ÏĢá½·ÏĢÏĦÎµÎ¹Î½": 7229,
      "ĠÏĨÏīÎ½á¿ĩ": 7230,
      "Ġits": 7231,
      "ĠÎļÏħÏģÎ¹Î¿Ïħ": 7232,
      "Ġá¼ĢÎ³Î³Îµá½·Î¿Î¹ÏĤ": 7233,
      "ĠÎºÎ±Î¸Î±Ïģá½¸Î½": 7234,
      "Î»ÎµÏįÏĥÎµÏĦÎ±Î¹": 7235,
      "ĠÎ³Î½á½½ÏģÎ¹ÏĥÎ¼Î±": 7236,
      "á½¹Î´á¿³": 7237,
      "ĠÏĥÏħÎ¼Î¼á½³ÏĦÏģÎ¿Ïħ": 7238,
      "ĠÎºÎµÎ»Îµá½»ÎµÎ¹": 7239,
      "Ġá¼ĢÎ³Îºá¿¶Î½Î±": 7240,
      "ĠÏĦá½·Î½Î¿ÏĤ": 7241,
      "Ġá½ģÏĢÏīÏĥÎ¿á¿¦Î½": 7242,
      "11": 7243,
      "ure": 7244,
      "Ġii": 7245,
      "ÏĨÎ¿Ïħ": 7246,
      "ĠÎµÎ±Ïħ": 7247,
      "Î¯Î¼ÏīÎ½": 7248,
      "Ġá¼ĲÎ¾Î±Î¹": 7249,
      "Ġá¼°Îº": 7250,
      "ĠÎºÎ±Î¸Ê¼": 7251,
      "Ġá¼ĢÏĢÎ¿ÎºÎµ": 7252,
      "ĠÎ´ÎµÎºÎ±": 7253,
      "ĠÏĢá½±Î½ÏĦ": 7254,
      "ĠÎ¸ÎµÏģÎ¼á¿¶Î½": 7255,
      "ĠÎµá½ĲÎ¸á½º": 7256,
      "ĠÎ¼ÎµÎ³á½±Î»ÏīÎ½": 7257,
      "ÏĥÏĦÎ¹Îºá¿¶Î½": 7258,
      "ÎĳÎ¤": 7259,
      "Î¿ÎµÎ¹Î´Î¿á¿¦ÏĤ": 7260,
      "Î²Î±Î»Î»Îµ": 7261,
      "ĠÏĢÎ»Îµá½·Î¿Î½Î±": 7262,
      "ÎłÎµÏģá½¶": 7263,
      "Ġá¼ĢÎ¾Î¹á½¹Î»Î¿Î³Î¿Î½": 7264,
      "Ġá½ĳÏĢÎ¿Î¼Î½Î·Î¼á½±ÏĦÏīÎ½": 7265,
      "Ġá½ĳÏĢÎ¿ÏĩÎ¿Î½Î´": 7266,
      "ÎµÏĥÎºÎ±Î¹": 7267,
      "ÏģÎ·ÏĥÎµÎ½": 7268,
      "Î»ÎµÏħÏĥ": 7269,
      "ĠÎ¼ÎµÎ»": 7270,
      "ĠÎĳá¼´": 7271,
      "ĠÏĦÎ¹ÏĦ": 7272,
      "Ġá¼ĢÎºÎ¹Î½": 7273,
      "Ġá¼ĪÎ»Î»": 7274,
      "Ġá¼ĢÎºÏģÎ¹Î²á¿Ĩ": 7275,
      "á¿ĨÎ½Î±ÏĤ": 7276,
      "ĠÎ¸ÎµÏģÎ¼Î±Î¹Î½": 7277,
      "â¸ĥ.": 7278,
      "Ġá½ģÏģÎ¼á½´Î½": 7279,
      "Ġá¼ĲÎ¼ÏĨÏģá½±": 7280,
      "Ġá¼ĲÎ¼Î²Î±Î»": 7281,
      "Ġá½¦Î½": 7282,
      "ĠÎ¸á½³ÏĥÎµÏīÏĤ": 7283,
      "Ġá¼°Î±ÏĦÏģÎ¿á½¶": 7284,
      "ĠÏĨÏģÎµÎ½á¿¶Î½": 7285,
      "Ġá¼ĲÎ¾Î±á½·ÏĨÎ½Î·ÏĤ": 7286,
      "age": 7287,
      "ĠÎ²Î¿ÏģÏģ": 7288,
      "ĠÎŁá½ķ": 7289,
      "ĠÎľÎ±Î½Î±ÏĥÏĥ": 7290,
      "*)]": 7291,
      "mit": 7292,
      "ÏħÎ¾": 7293,
      "ĠÏĢÎ¿á¿¦": 7294,
      "Î¸ÎµÏĦÎ±Î¹": 7295,
      "ĠÏĥÎ¹Î½": 7296,
      "Î±Î¹Î¼": 7297,
      "ÏĦÎµÏīÏĤ": 7298,
      "ĠÏĨÎ»Î¿Î³": 7299,
      "ĠÎ¸Î·ÏĥÎ±": 7300,
      "Ġá¼ĦÏĦÎ¿": 7301,
      "Ġá¼ĲÏĢÎ¹Î»Î·": 7302,
      "Î¿á½»Î¼ÎµÎ¸Î±": 7303,
      "ĠBQ": 7304,
      "Ġá½¥Ïģá¾³": 7305,
      "ĠÎ±á¼°á¿¶Î½Î±ÏĤ": 7306,
      "Ġá½ĳÎ³Ïģ": 7307,
      "ĠÎ³ÎµÎ½á½¹Î¼ÎµÎ½Î¿Î½": 7308,
      "Ġá¼ĲÏģÏĩ": 7309,
      "ĠÏĦá½¹Î´Îµ": 7310,
      "ÏīÎ¸Î®ÏĥÎµÏĦÎ±Î¹": 7311,
      "ÎºÏīÎ½Î¿ÏĤ": 7312,
      "Î´ÏīÎºÎ±": 7313,
      "ÏĦÎŃÏģÎ±Î½": 7314,
      "ĠÎµá¼°ÏģÎ®": 7315,
      "ĠÏĦÎµÏĦÏģÎ±": 7316,
      "ĠÎºÏģá½±ÏĥÎµÎ¹": 7317,
      "ĠÏĢÏģÎ±Î³Î¼Î±ÏĦÎµá½·Î±Î½": 7318,
      "ĠÎ³ÏħÎ¼Î½Î±Ïĥá½·ÏīÎ½": 7319,
      "ĠÏĦÏģÎ¿ÏĢ": 7320,
      "ĠÏĢÏģá½±ÏĦÏĦÎµÎ¹Î½": 7321,
      "ĠÏĨÏħÏĥÎ¹Îºá¿¶Î½": 7322,
      "Ġá¼ĲÎ¼ÏĨá½»ÏĦÎ¿Ïħ": 7323,
      "Ġá¼ĲÏĢÎ¹ÏĦá½µÎ´ÎµÎ¹Î¿Î½": 7324,
      "Ġagainst": 7325,
      "Î±ÏĢÎ¿": 7326,
      "ÏģÎ±ÏĢÎµ": 7327,
      "ÎµÎ¹Îº": 7328,
      "Ġá¼ĢÏĢÎ¿Î½": 7329,
      "Ġá¼ĢÎ½Î±Î¹Ïģ": 7330,
      "ĠÎ´Î¹Î±ÏĨÏīÎ½": 7331,
      "Î»Î¹Î´": 7332,
      "ĠÎµá¼´ÏīÎ¸ÎµÎ½": 7333,
      "ĠÏĢÏģÎ¿Ïĥá½³ÏĩÎµÎ¹Î½": 7334,
      "ĠÏĢÎµÏģÎ¹Îµ": 7335,
      "ÏĢÎµÏĨÏħÎº": 7336,
      "Î¿Î³ÎµÎ½": 7337,
      "ĠÏĨÎ±á½·Î½Î¿Î¹ÏĦÎ¿": 7338,
      "ĠÎłÎŃ": 7339,
      "ÏĦÏĦá½¹Î½ÏĦÏīÎ½": 7340,
      "Ġref": 7341,
      "Ġdes": 7342,
      "Ġá¼ĲÎ³ÎµÎ½Î®Î¸Î·": 7343,
      "Ġá¼¸Î±ÎºÏİ": 7344,
      "Ġá¼ĦÏģÎ¹ÏĥÏĦÎ±": 7345,
      "Ġá¼ĢÏĨÎ¹ÎºÎ½Îµá¿ĸÏĦÎ±Î¹": 7346,
      "ĠÎ½á½·ÏĦÏģÎ¿Ïħ": 7347,
      "ĠÎ§Ïģá½»ÏĥÎ¹ÏĢÏĢÎ¿ÏĤ": 7348,
      "Ġro": 7349,
      "ĠÎºÏĦá½µ": 7350,
      "ĠÎ¼Î¿á¿ĸ": 7351,
      "ÏĩÎ½Î·": 7352,
      "Î²Î»Îµ": 7353,
      "ĠÎ»á½µÎ¼": 7354,
      "ĠÏĦÎ¿ÏĥÎ±á½»": 7355,
      "Ġá¼ĳÏĥÏĦ": 7356,
      "ĠÏĥÏħÎ½á¿Ĩ": 7357,
      "Ġá¼ĢÎºÎ¼á¿ĨÏĤ": 7358,
      "ĠÏĢÎ±ÏģÎ±Î²": 7359,
      "ĠÎ±á¼°Î´": 7360,
      "Ġbr": 7361,
      "Ġ44": 7362,
      "Ġrescr": 7363,
      "ĠÎ§Ïģ": 7364,
      "Ġá¼ģÏĢÎ»Î¿á¿¦Î½": 7365,
      "ĠÎºá½¹ÏĢ": 7366,
      "Ġá¼ĢÎ½Î¸Ïģá½½ÏĢÎ¿ÏħÏĤ": 7367,
      "ĠÏĥÎºá½³Î»Î·": 7368,
      "ĠÏĨá½³ÏģÎµÏĥÎ¸Î±Î¹": 7369,
      "Ġá½ĢÎ´á½»Î½Î·": 7370,
      "Ġá¼°Î±ÏĦÏģÎ¹Îºá¿ĨÏĤ": 7371,
      "Ġfollow": 7372,
      "ĠÏĢÎ±ÏĩÏħÎ¼ÎµÏģ": 7373,
      "ten": 7374,
      "ĠZ": 7375,
      "ÏħÏĥÎ±": 7376,
      "á½·Î´Î¹": 7377,
      "ÏĦÎ±ÏĥÎ¹Î½": 7378,
      "ÏģÎ±Î²": 7379,
      "Î¾Î·ÏĦÎ±Î¹": 7380,
      "Ġá¼ĶÎ±Î½": 7381,
      "Ġá¼ĶÏĦÎµÎ¹": 7382,
      "Ġá¼ĦÏĨ": 7383,
      "Ġá½ĢÎ»ÎµÎ¸": 7384,
      "Ġá¿¥Î±Î³": 7385,
      "Ġá¼ĲÎ³ÎºÎ±": 7386,
      "ÏĢÎ¿á½ºÏĤ": 7387,
      "ÏĢÎ¿ÏģÎµÏį": 7388,
      "ĠÎ¼á½³ÏĥÎ·ÏĤ": 7389,
      "ĠÎ¸Îµá½±ÏĥÎ±ÏĥÎ¸Î±Î¹": 7390,
      "ĠÏĢÎ»Î®": 7391,
      "Ġâģ": 7392,
      "ÏĦÏģá¿³": 7393,
      "ĠÏĥÏħÎ½Î±Î½": 7394,
      "ĠÎłÎ¿Î½": 7395,
      "Ġ62": 7396,
      "ĠÏĢÎ»Îµá¿ĸÏĥÏĦÎ¿Î¹": 7397,
      "ĠÎ¼á½·ÏĥÏħ": 7398,
      "ĠÎ¿á½ĲÏģÎ±Î½á½¸Î½": 7399,
      "Ġá¼ĢÏĢÎ¿ÏĥÏĦÏģÎŃ": 7400,
      "ĠÎ»Î±Î¼Î²Î±Î½": 7401,
      "ĠÎ¸Î±Î½Î¬ÏĦÎ¿Ïħ": 7402,
      "Ġá¼ĶÏĥÏīÎ¸ÎµÎ½": 7403,
      "Ġá¼ĲÎ³ÎµÎ½á½µÎ¸Î·": 7404,
      "ĠÎºá½±Î»Î»Î¹Î¿Î½": 7405,
      "Ġá½ĢÎ½ÏĮÎ¼Î±ÏĦÎ¹": 7406,
      "Ġclause": 7407,
      "ĠÎ¼Î±ÏģÏĦÏħÏģá½·Î¿Ïħ": 7408,
      "ÏģÎ·ÏĤ": 7409,
      "ÏħÏĪ": 7410,
      "ÏīÏĥÎ±": 7411,
      "ĠÏĥÎ¬Ïģ": 7412,
      "Ġá¼ĲÎ½á½·ÏīÎ½": 7413,
      "Î¾Î¿Î¼Î±Î¹": 7414,
      "Ġá¼ĲÏĢá½±Î½": 7415,
      "Ġá¼ĦÏĩÏģÎ·": 7416,
      "ÏĦÎ·ÏĦÎ±": 7417,
      "Ġá¼ĲÎºÎµá½·": 7418,
      "ĠÏĦÎ¹Ïĥá½¶": 7419,
      "Ġá¼ĦÎ»Î»Î·ÏĤ": 7420,
      "Î¿Î¼á½³Î½Î±Î¹ÏĤ": 7421,
      "Ġá¼ĲÎ³ÎºÎ±ÏĦÎ±": 7422,
      "Î¸Î·ÎºÎµ": 7423,
      "Ġá¼¤ÏĢÎµÏģ": 7424,
      "Ġá¼´Î´Îµ": 7425,
      "ĠÏĢá½¹ÏģÏīÎ½": 7426,
      "ÏĥÏĥÎ¿Ïħ": 7427,
      "Ġá½ĢÏĥÏĦÎ¿á¿ĸÏĤ": 7428,
      "ĠÎºÎ±Îºá½°": 7429,
      "ĠÎºÏģá½·ÏĥÎ¹ÏĤ": 7430,
      "ĠÏĦÎ±á¿¦Î¸": 7431,
      "ĠÏĥÏĦÎ¿Î¼á½±ÏĩÎ¿Ïħ": 7432,
      "Ġif": 7433,
      "ĠÏĥÏĨÎ¿Î´Ïģá½¹ÏĦÎµÏģÎ¿Î½": 7434,
      "ĠÏĨÎ±Î¹Î½á½¹Î¼ÎµÎ½Î¿Î½": 7435,
      "ĠÎºÎ±ÏĦÎ±ÏĥÎºÎµÏħá½´Î½": 7436,
      "ĠÎ´ÏħÏĥÎºÏģÎ±Ïĥá½·Î±ÏĤ": 7437,
      "Ġá¼ĲÎ³ÎºÎ±Ïģ": 7438,
      "Ġimprob": 7439,
      "ÏĥÎ¯Î±ÏĤ": 7440,
      "ĠÎºÎ»ÎµÎ¹": 7441,
      "ÏħÏģÎµ": 7442,
      "á¿ĸÏ²": 7443,
      "ĠÎ¸ÏħÎ³": 7444,
      "Ġá½¡Î¼": 7445,
      "Ġá¼ĢÎ»Î»Î®Î»": 7446,
      "á½±Î½Î¸Î·ÏĤ": 7447,
      "á½·Î½Î¿Î½ÏĦÎµÏĤ": 7448,
      "Ġá¼ĢÎ½Î±Î¼Î½": 7449,
      "Ġsame": 7450,
      "Ġá¼ĶÏĩÎ¿ÏħÏĥÎ±Î½": 7451,
      "ĠÎ²Î±Ïĥ": 7452,
      "Ġá¼´ÏģÎµÏīÏĤ": 7453,
      "á½³Î¿Î½ÏĦÎ±": 7454,
      "ĠÏĦÏģÎŃ": 7455,
      "Ġá¼łÏģ": 7456,
      "Ġhand": 7457,
      "ÏĥÏĦá½±ÏĥÎµÎ¹ÏĤ": 7458,
      "ĠÏĦÎ¿Î¹Î¿á½»ÏĦá¿³": 7459,
      "ĠÎ¿á¼´Î´Î±": 7460,
      "Ġá¼ĢÏĥÏĨÎ±": 7461,
      "ĠÏĪá½»Ïĩ": 7462,
      "Ġá½łÏĨÎµÎ»Îµá¿ĸ": 7463,
      "ĠÏĦÎ¬Î´Îµ": 7464,
      "ĠÏĩÎ¹ÏĦá¿¶Î½Î±": 7465,
      "Ġá¼ĪÏĥÎºÎ»Î·ÏĢÎ¹á½±Î´Î·ÏĤ": 7466,
      "ĠÎ·Î¼ÎµÏģÎ±": 7467,
      "Ġá¼ĲÎ»á½³Î³Î¿Î¼ÎµÎ½": 7468,
      "Ġá¼ĲÏĢÎ¹ÏĢÎ»á½³Î¿Î½": 7469,
      "Ġá½¥Ï²ÏĢÎµÏģ": 7470,
      "ast": 7471,
      "ĠáµĽâģ±áµĪ": 7472,
      "Ġá¼ĲÎ¼Îµ": 7473,
      "ÎµÎ½á½¹": 7474,
      "á½»ÎµÏĥÎ¸Î±Î¹": 7475,
      "Î¯ÏĥÏĦ": 7476,
      "Ġá¼ĲÏĢÎ¹ÏĦá½·Î¸ÎµÎ¹": 7477,
      "ĠÎµá¼´ÏĢÎ¿Î¼ÎµÎ½": 7478,
      "Ġá¼ĶÏĩÎ¿Î½ÏĦÎ±ÏĤ": 7479,
      "ĠÎ¸ÎµÎ¿Ïħ": 7480,
      "ĠÏĢÎ¿Î»Î»á½´": 7481,
      "ĠÎ´Îµá¿¦": 7482,
      "ĠÎ´á½»Î½Î±Î¹": 7483,
      "Ġá¼ĢÏĨÎ±Î½": 7484,
      "âģ½": 7485,
      "ĠÏĦÏģá½·ÏĦá¿³": 7486,
      "ĠRT": 7487,
      "ĠÎ¼Î±Ïĩ": 7488,
      "ĠÎ´Î¹Î´á½¹Î½Î±Î¹": 7489,
      "Î¸Îµá¿ĸÏĥÎ±": 7490,
      "Ġá½ģÏĢá½¹ÏĦÎµ": 7491,
      "Ġá½ĢÎ»Î¯Î³": 7492,
      "Ġá¼¨ÏĥÎ±": 7493,
      "Ġá¾łÎºÎ¿": 7494,
      "ĠÏĦÎµÏĥÏĥÎ±ÏģÎµÏĥÎºÎ±Î¹": 7495,
      "nce": 7496,
      "ĠÏĦÎµÎ½": 7497,
      "Ġá¼ĲÎ»á½³": 7498,
      "ĠÎ´á½³Î½": 7499,
      "Ġá¼ĶÎ¼Î²": 7500,
      "ÎŃÏĦÏī": 7501,
      "Î¶Î·ÏĦ": 7502,
      "Î»Î±á½¶": 7503,
      "ĠÎ¼á½³ÏĥÎ·Î½": 7504,
      "ĠÎºÎ±Î¹ÏģÎ¿á¿¦": 7505,
      "ĠÎ¿á¼·Î±": 7506,
      "ĠÎ¹Î´Î¿Ïħ": 7507,
      "Ġá¼¹ÏĢÏĢÎ¿ÎºÏģá½±ÏĦÎµÎ¹": 7508,
      "ĠÏ²Îº": 7509,
      "ĠÎ¼Î±Î»Î±Îºá½¸Î½": 7510,
      "ĠÏĥÎºÎµÏħÎ±Ïĥ": 7511,
      "ĠÏĢÎµá½·Ïģá¾³": 7512,
      "ĠÎ¼ÎŃÎ½ÏĦÎ¿Î¹": 7513,
      "ĠÎ¿á½ĲÎ´á½³ÏĢÏī": 7514,
      "ĠÏĥÎµÎ±ÏħÏĦá¿·": 7515,
      "Ġá¼ĢÎ½Î±ÏĢÎ½ÎµÏħ": 7516,
      "Ġá¼ĢÎ»á½¹Î·ÏĤ": 7517,
      "Ġ]": 7518,
      "ĠÂ°]": 7519,
      "Ġá½©": 7520,
      "Ġá¼ĢÏĦÏģá½³": 7521,
      "Î¿ÏħÎ¼á½³Î½Î·ÏĤ": 7522,
      "ĠÎ¿á½ĲÏģ": 7523,
      "á½½Î¼Î±ÏĦÎ¿ÏĤ": 7524,
      "ĠÎ¸á¿Ĩ": 7525,
      "Î½Î±ÏĥÎ¸Î±Î¹": 7526,
      "ÏĪÎ¿ÏħÏĥÎ¹Î½": 7527,
      "Ġá¼ĲÎºÏĦÎµÏĦÎ±": 7528,
      "ĠÏĢÏģÎ¿ÏĢÎµ": 7529,
      "Î®Î¸Î·ÏĥÎ±Î½": 7530,
      "á¿ĥÏĥÎ¹": 7531,
      "Ġá¼ĲÏĢÎ¹ÏĢ": 7532,
      "Ġá¿¥Ïħ": 7533,
      "Ġá¼ģÏĢÎ¬Î½ÏĦÏīÎ½": 7534,
      "ĠÎ²Î±ÏĥÎ¹Î»ÎµÎ¹": 7535,
      "Ġmight": 7536,
      "ĠÏĦÎ¿ÏħÏĦÎŃ": 7537,
      "Ġ42": 7538,
      "ÏīÎ¸á½³Î½": 7539,
      "Ġá¼¹ÏĢÏĢÎ¿ÎºÏģá½±ÏĦÎ·Î½": 7540,
      "Ġá¼ĢÎ³Î±Î¸á¿¶Î½": 7541,
      "ĠÎºÏģá½±ÏĥÎµÏīÎ½": 7542,
      "ĠÏĢÎ¿Î¹á½µÏĥÎ±ÏĥÎ¸Î±Î¹": 7543,
      "ĠÏĢÎ»Îµá½·Î¿Î½Î¹": 7544,
      "ĠÏĥÏħÎ³Î³Ïģá½±": 7545,
      "ĠÎ³Î»á½·ÏĥÏĩÏģÎ¿Î½": 7546,
      "Ġá¼ĲÏĢÎ¿ÏģÎµá½»Î¸Î·": 7547,
      "Ġá¿¥Îµá¿¦Î¼Î±": 7548,
      "ĠÎ´á½·ÎºÎ±Î¹Î¿Î½": 7549,
      "Ġgenerally": 7550,
      "ĠÎ´ÏħÏĥÏĢÎ½Î¿á½·Î±ÏĤ": 7551,
      "ĠÏĪÎ¹Î¼ÏħÎ¸á½·Î¿Ïħ": 7552,
      "ob": 7553,
      "Ġimp": 7554,
      "ÏĦÏģÎ±ÏĤ": 7555,
      "ĠÏĥÎ±Î²": 7556,
      "á¿ĸÏĦÎ¹ÏĤ": 7557,
      "ĠÎ´Î¹ÎµÎº": 7558,
      "Ġá¼ĶÏĦÎ¿ÏħÏĤ": 7559,
      "ĠÏĦá½°Ï²": 7560,
      "Ġocc": 7561,
      "Î¿á½»ÏĥÎ±Î¹ÏĤ": 7562,
      "Ġá¿¥á½·Î³": 7563,
      "ĠÎµá½ĲÎºÏģÎ±": 7564,
      "ĠÎ£Ïħ": 7565,
      "Ġá¼¦ÏģÎ¿ÏĤ": 7566,
      "Ġá¼ĢÏĨá½³": 7567,
      "ĠÎºÎ¹Î½Î½Î±": 7568,
      "ĠÎ¤Î¬Î´Îµ": 7569,
      "ĠÎ´ÏħÎ½á½±Î¼ÎµÎ½Î¿Î½": 7570,
      "Ġ43": 7571,
      "ĠÎ»ÎµÏĢÏĦÎ¿": 7572,
      "ĠÎ³Î½á¿¶ÏĥÎ¹Î½": 7573,
      "Ġrest": 7574,
      "Ġlo": 7575,
      "Ġ51": 7576,
      "ĠÎ±á¼°ÏĥÎ¸Î±Î½": 7577,
      "ĠÎ´Î¿ÎºÎµá¿ĸÎ½": 7578,
      "á½½Î½ÏīÎ½": 7579,
      "Ġá¼ĢÎ½ÎµÎ»": 7580,
      "Ġá¼ĢÏģÎ±Î¹á½¸Î½": 7581,
      "ĠÏĢÎ»Î·ÏĥÎ¯Î¿Î½": 7582,
      "ĠÎ³ÏħÎ½Î±á¿ĸÎºÎ±ÏĤ": 7583,
      "Î·Ïĥá½±Î¼ÎµÎ½Î¿ÏĤ": 7584,
      "ĠÎĶÎ¹á½°": 7585,
      "Ġá¼ĢÎ»Î·Î¸á½³": 7586,
      "ĠÎ´ÏİÏĥÏī": 7587,
      "ĠÏĥÎ¹Îºá½»": 7588,
      "rong": 7589,
      "Î½Î¿ÏħÏĤ": 7590,
      "Î´Î±Î»": 7591,
      "ÏĨÎ¿ÏħÏĤ": 7592,
      "Î¿Î¹ÏĦ": 7593,
      "ĠÎ´Î¹á½±Î½": 7594,
      "Î²Î·ÏĤ": 7595,
      "ĠÎ¸á½µ": 7596,
      "Ġá¼ĲÎ¾Î¿Î»ÎµÎ¸": 7597,
      "ĠÎºÎ±Î¸á½µ": 7598,
      "Ġá½ĦÏģÎµÎ¹": 7599,
      "á½·Î¶ÎµÎ¹": 7600,
      "Î³Î¼Î±ÏĥÎ¹Î½": 7601,
      "Ġá½ĳÏĢá½±ÏģÏĩá¿ĥ": 7602,
      "ĠII": 7603,
      "ĠLuc": 7604,
      "ÏĦÎŃÏģÎµÏĤ": 7605,
      "ĠÎ´ÏħÎ½Î±Î¼á½³Î½ÏīÎ½": 7606,
      "Ġá¼ĢÎ¼ÏĨÎ·Î¼ÎµÏģÎ¹Î½": 7607,
      "Ġitem": 7608,
      "ĠÎ´Î¹Î´á½±": 7609,
      "ĠÎ½Îµá½»ÏģÎ¿Î¹ÏĤ": 7610,
      "ĠÏĥÎºÎ¿ÏĢÎµá¿ĸÏĥÎ¸Î±Î¹": 7611,
      "áµĽi": 7612,
      "ĠÏĢÎ»ÎµÏħÏģá½°ÏĤ": 7613,
      "Ġunt": 7614,
      "Ġá¼ĢÏĢÎ¿Î¸Î±Î½Îµá¿ĸÎ½": 7615,
      "Ġá¼¸Î½Î´Î¹Îº": 7616,
      "ĠÎºÎ»Î·": 7617,
      "Ġá¼ĲÏĦÎ±": 7618,
      "á½³Î²": 7619,
      "ÏĩÎ·ÏĤ": 7620,
      "ĠÎ¿ÏħÏĩ": 7621,
      "ĠÏĥÎµÎ¹": 7622,
      "Î¾á½·Î±Î½": 7623,
      "Î¯Î½ÎµÎ¹Î½": 7624,
      "ĠÎµá¼°á½½": 7625,
      "Îµá¿ĸÏĥÎ¸Îµ": 7626,
      "ÏĥÎ¹ÎµÏĤ": 7627,
      "ÏĪÎ¿Î¼Î±Î¹": 7628,
      "Ġá¼ĲÏĥÏĦÎ¯Î½": 7629,
      "ĠÎ´Î¹Î±Î¼á½³Î½": 7630,
      "ĠÎ³ÎµÏħ": 7631,
      "Ïģá½±ÏĤ": 7632,
      "ÏĦÎ¹Îºá½µÎ½": 7633,
      "ĠÏĥÎºÎµÏį": 7634,
      "Ġá¼ĢÏģÏĩÎ±": 7635,
      "á½³Î¿Î½ÏĦÎ¿ÏĤ": 7636,
      "Î¼ÎŃÎ½Î·ÏĤ": 7637,
      "ĠÎ¿á¼°ÎºÎµá½·ÏīÎ½": 7638,
      "Ġá¼°ÏĥÏĩÏħÏģá½¸Î½": 7639,
      "ĠÎ´ÏģÎ¹Î¼á½º": 7640,
      "ĠÏĦÎ¿á½ĲÏĢá½·": 7641,
      "Î¿Î´Î¿Î½Î¿Ïĥ": 7642,
      "Ġá½ģÏĢÎ¿á¿ĸá½¹Î½": 7643,
      "Ġrendered": 7644,
      "ĠÏĢÏĦÎ¹ÏĥÎ¬Î½": 7645,
      "ĠÏĩÏģá½¹Î±Î½": 7646,
      "ĠÏĦÎµÏĥÏĥÎµÏģ": 7647,
      "ÏĦÏģÎ±Î½": 7648,
      "ÎµÏģÎ±": 7649,
      "Î¼Î¿á¿ĸÏĤ": 7650,
      "Î¼ÎµÎ¹ÏĤ": 7651,
      "Î¼Î·ÏĥÎ±Î½": 7652,
      "ÎºÏī": 7653,
      "Ġá¼ĲÏĦÎµ": 7654,
      "Ġá¼ĢÏĦÎ¹": 7655,
      "ĠÏĢÏģá½³": 7656,
      "ĠÎ´Î¹Î¿Î¹Îº": 7657,
      "ÏģÎ¹Î³": 7658,
      "á½¹Î½ÏīÏĤ": 7659,
      "Î¶ÎµÏĦÎ±Î¹": 7660,
      "Ġá½¡Î´á½·": 7661,
      "Ġá¼ĢÎ»Î»á½±": 7662,
      "Ġá¿¥á½¹Î´ÏīÎ½": 7663,
      "ĠÎ¸ÎµÏĮÎ½": 7664,
      "ĠÏĢÎ¿Î»Î»Î±Ïĩ": 7665,
      "ÏĢÎ¿Î½ÏĦÎ±Î¹": 7666,
      "Î¸ÎµÎ½ÏĦÎ¿": 7667,
      "ĠÏĪÏħÏĩÏģá½¹ÏĦÎµÏģÎ¿Î½": 7668,
      "ĠÏĦá½¹ÏĢÎ¿Ïħ": 7669,
      "ĠÏĢÎµÏĢÎ»Ïħ": 7670,
      "Ġnear": 7671,
      "ĠÏĢÎµÏģÎ±": 7672,
      "Ġá¼łÎ¾": 7673,
      "Ġá½ĢÎ¾ÏħÎ¼": 7674,
      "ĠÏĢÏģá½¸Ï²": 7675,
      "Ġá½ģÏģá¾¶ÏĦÎ±Î¹": 7676,
      "ĠÏĢÎ±Î»Î±Î¹Î¿á½¶": 7677,
      "Ġali": 7678,
      "ÏįÎ½á¿ĥ": 7679,
      "ĠÎºÏįÎºÎ»á¿³": 7680,
      "urn": 7681,
      "own": 7682,
      "ĠÎ¼á½·Î¾Î±ÏĤ": 7683,
      "ÏĢÎ»Î±ÏĥÏĥÎµ": 7684,
      "Ġá¼´ÏĥÎ¼ÎµÎ½": 7685,
      "ĠÎºÎ¬Î¼Î½": 7686,
      "Ġá½ĢÎ½á½¹Î¼Î±ÏĦÎ±": 7687,
      "ĠÏĨÏģÎµÎ½Î¹": 7688,
      "ĠÎ³Ïģá½±Î¼Î¼Î±ÏĦÎ¹": 7689,
      "ĠÎĿÎ±Î²Î¿ÏħÏĩ": 7690,
      "gg": 7691,
      "mm": 7692,
      "Ġiii": 7693,
      "á½ħ": 7694,
      "Î¹Î¸": 7695,
      "ÎµÏīÎ½": 7696,
      "Î³ÏħÏĢÏĦÎ¿Î½": 7697,
      "ÏĨÎµÎ»": 7698,
      "ĠÎ¿Î½": 7699,
      "á½»Î½Î·": 7700,
      "ĠÎ³Î±": 7701,
      "ĠÎ³á½³Ïģ": 7702,
      "á½½Î½ÏĦÏīÎ½": 7703,
      "ĠÎ²Î»Îµ": 7704,
      "Ġá¼ķÏĢÎµÏĥÎ¸Î±Î¹": 7705,
      "Î»Î¹Î¼": 7706,
      "ĠÏĥÏħÎ½ÏĦÎ¹": 7707,
      "Î´Î¿Î¼Î±": 7708,
      "Ġ48": 7709,
      "ĠÎºÏħÏĢ": 7710,
      "Î±á½·ÏģÎµÏĥÎ¹Î½": 7711,
      "Ġá¼§ÏĥÏĥÎ¿Î½": 7712,
      "Ġname": 7713,
      "ĠÎ´Î¿ÎºÎ¹": 7714,
      "ĠÎµá½ĶÎºÏģÎ±ÏĦÎ¿Î½": 7715,
      "ĠÎ»ÏĮÎ³Î¿Ïħ": 7716,
      "Ġá¼ĦÏģÏĩÎµÏĦÎ±Î¹": 7717,
      "ĠÏĢÎ±ÏģÎ¿Î¾ÏħÎ½": 7718,
      "ĠÎºÎ±ÏģÏĢá½¸ÏĤ": 7719,
      "ĠÏĢÎ½Îµá½»Î¼Î¿Î½Î¹": 7720,
      "ĠÎ´Î¹Î±ÏĥÏĦÎ¿Î»á½´Î½": 7721,
      "ĠÏĩÏīÏģá½·ÏīÎ½": 7722,
      "ĠÏĢÎ±á¿ĸÎ´ÎµÏĤ": 7723,
      "ĠÏĢÎ¿Î´á½¸ÏĤ": 7724,
      "Ġchil": 7725,
      "Ġá¼ĲÎ½Î¯Î¿ÏĦÎµ": 7726,
      "Ġá¼ĺÏģÎ±ÏĥÎ¹ÏĥÏĦ": 7727,
      "lic": 7728,
      "Î¿ÏĦá½µÏĦÏīÎ½": 7729,
      "ĠÏĦá¿¶": 7730,
      "ĠÏĦÏģÎ¹Î²": 7731,
      "ÎºÎ¿Î¹": 7732,
      "ĠÏĢÎµÎ¹Î½": 7733,
      "Ġá¼ĢÎ¼Î²": 7734,
      "ĠÎ±ÏĢÏī": 7735,
      "Î¹Î½ÎµÎ½": 7736,
      "ĠÎ³Î¬": 7737,
      "Ġá¼ĲÎ½Î¿Ïĩ": 7738,
      "Ġá¼ĲÏĢÎµÎ¹": 7739,
      "Ġá½ĳÎ¿ÏĥÎº": 7740,
      "Ġá¼ĲÎºá½³": 7741,
      "Ġá½Ģá¿¤á¿¥": 7742,
      "Î®ÎºÎµÎ¹": 7743,
      "Ġá¼ĳÏĦÎŃÏģ": 7744,
      "ÏĦÎ¹Îºá¿¶ÏĤ": 7745,
      "ĠÎµá½ĲÎ±": 7746,
      "Ġá¼ĢÎºá½±": 7747,
      "Î¼Î¹á¾¶ÏĤ": 7748,
      "ĠÎºÎ¿á½¶": 7749,
      "ÎŃÏģÎµÎ¹": 7750,
      "Ġá½ģÎ¼Î¿Î³ÎµÎ½": 7751,
      "Ġá½ģÎ¼Î¿Î¯ÏīÏĤ": 7752,
      "ĠÎ¼Î±ÏģÎ±": 7753,
      "ari": 7754,
      "ĠÎ»á½³Î¾ÎµÏīÏĤ": 7755,
      "Î¾Î±Î½ÏĦÎµÏĤ": 7756,
      "Î³ÏĩÎ½Î±": 7757,
      "Ġgl": 7758,
      "ĠÏĪá½»ÏĩÎµÎ¹Î½": 7759,
      "Ġá¼¸Î·ÏĥÎ¿á¿¦Î½": 7760,
      "Ġá¼ķÎ»ÎºÎµÎ¹": 7761,
      "ĠÎµá½ĳÏģá½·ÏĥÎºÎµÏĦÎ±Î¹": 7762,
      "Ġá¼Ģá¿¤á¿¥ÏīÏĥÏĦá½·Î±Î½": 7763,
      "Ġá¼ĢÏĢÎ¿Î´Îµá½·Î¾ÎµÏīÏĤ": 7764,
      "ĠÏĢá½³ÏĨÏħÎºÎµ": 7765,
      "ĠÏĨÏģÎ¿Î½ÏĦá½·": 7766,
      "Ġrepresent": 7767,
      "Ġá¼ķÎ´ÏģÎ±ÏĤ": 7768,
      "Ġá¼ĦÎ³Î³ÎµÎ»Î¿ÏĤ": 7769,
      "ĠÏĢÎ±Î½ÏĦÎ±Ïĩá½¹Î¸ÎµÎ½": 7770,
      "Ġá¼¸Î±ÎºÏİÎ²": 7771,
      ",)": 7772,
      "Î±Î¶Îµ": 7773,
      "á¼¡": 7774,
      "ÏĤÝ²": 7775,
      "Ġá¼ĢÏĥÏĢ": 7776,
      "ĠÎ³ÎµÏģ": 7777,
      "ĠÎ³á½¹Î½": 7778,
      "Î±Î½ÏĦÎ±": 7779,
      "ĠÏĨÎµá½»": 7780,
      "ÏģÎ¹ÏĥÎµÎ½": 7781,
      "ĠÎºÎ±ÏĦÎ¿Î¹": 7782,
      "ĠÏĢÏģÎ¿ÏĥÏĦÎµ": 7783,
      "Î®ÎºÎ¿Î½ÏĦÎ±": 7784,
      "Ġthan": 7785,
      "Ġá¼ķÏĦÎ¿Î¹": 7786,
      "Î»Î¹Î¿Î¹": 7787,
      "ĠÏĢÎ±Ïģá½¹Î½ÏĦÎ¹": 7788,
      "Ġá¼ĶÏĩÏī": 7789,
      "ĠÏĪÏħÏĩÏģá½¹Î½": 7790,
      "ĠÏĨÎ±Ïĥá½¶Î½": 7791,
      "ĠÏĨÎ±Ïĥá½¶": 7792,
      "ĠÎ¼á½µÎ½Î¹": 7793,
      "ĠÎ»á½³Î³Î¿Î¼ÎµÎ½": 7794,
      "ĠÎķá¼´": 7795,
      "Ġlx": 7796,
      "ĠÎºÎµÎ½Î¿á¿¦Î½": 7797,
      "ĠÏĢÎ±ÏĩÎµá¿ĸÏĤ": 7798,
      "ĠÏĢÎ¿Î»á½ºÎ½": 7799,
      "ĠÎ²Î¿ÏĦ": 7800,
      "Ġá¼°Î±ÏĦÏģá½¸ÏĤ": 7801,
      "ĠÎ¸ÎµÏģÎ±ÏĢÎµá½»ÎµÎ¹Î½": 7802,
      "ĠÏĢÏģÎ¿ÏĥÎµÎº": 7803,
      "Ġá¼ĢÏĥÎ¸ÎµÎ½ÎµÏĥÏĦ": 7804,
      "ĠÎ½ÎµÏĨÏģÎ¿á½ºÏĤ": 7805,
      "ĠÏĢÎ»ÎµÎ¿Î½á½±Î¶": 7806,
      "Ġá¼ĲÏ²ÏĦÎ¹": 7807,
      "ĠÏĥÏĢÎ»á½±Î³ÏĩÎ½Î¿Î½": 7808,
      "Ġá½ĦÏģÎ³Î±Î½Î±": 7809,
      "Ġafter": 7810,
      "ĠÎ´á½·Î±Î¹ÏĦÎ±Î½": 7811,
      "ĠÏĦÎ¿á½ĲÏĢá½·ÏĢÎ±Î½": 7812,
      "rd": 7813,
      "ÏīÏģÎ¹Îº": 7814,
      "Î´Î±Îº": 7815,
      "á½±ÏĥÎµÎ¹ÏĤ": 7816,
      "á½±ÏģÎ¹Î¿Î½": 7817,
      "Ġá¼ĶÏĦ": 7818,
      "ÏĦÎµÏħ": 7819,
      "ĠÏĩÎ¬ÏģÎ¹": 7820,
      "Î¼á½³Î½ÏīÏĤ": 7821,
      "ĠÏĦÎ¿á½ºÏ²": 7822,
      "ĠÏĢÎ±ÏĦÎŃÏģÎ±": 7823,
      "ĠÏĥÏħÎ½Î®": 7824,
      "ĠÏĢá½±Î½ÏĦÎ·": 7825,
      "Ġinc": 7826,
      "Ġá¼ĢÏĨÎµÏĪ": 7827,
      "ÎºÎ¿ÏħÏĥÎ±Î½": 7828,
      "ĠÎ¿á¼°ÎºÎµÎ¹": 7829,
      "ĠÏĢá½¹Î´Î±": 7830,
      "Î¸ÏģÏīÏĢ": 7831,
      "Ġá½ĢÎ¾á½º": 7832,
      "ĠÎ¼Î±ÎºÏģÎ¿á¿¦": 7833,
      "ÎĻÎĴ": 7834,
      "ÎĻÎŁÎĿ": 7835,
      "ĠÎ£Î±Î¼": 7836,
      "á½¹ÏĦÎ±ÏĦÎ±": 7837,
      "Ġá½ĳÏĢÎ¿Î¼Î½": 7838,
      "á½½Î´ÎµÎµÏĤ": 7839,
      "Ġprop": 7840,
      "ĠÏĥÏħÏĥÏĦá½³Î»Î»": 7841,
      "Ġá¼ĦÎºÏģÏīÎ½": 7842,
      "ĠÏĥÏħÎ½Î¸á½³ÏĥÎµÏīÏĤ": 7843,
      "Ġpossib": 7844,
      "ĠÏĨÎ±ÏģÎ¼Î¬ÎºÏīÎ½": 7845,
      "Ġá¿¥Î¿Î´á½·Î½Î¿Ïħ": 7846,
      "Ġá¼ĲÎ½ÎµÏĦÎµá½·": 7847,
      "Ġearth": 7848,
      "Ġá¼¸ÏīÏĥá½´": 7849,
      "ĠÏĩÎ»Î¹Î±Ïģ": 7850,
      "of": 7851,
      "ÏĦÏģá½±": 7852,
      "ĠÎºÎ±ÏĦÎ¹": 7853,
      "ĠÎ¼Î¯Î±Î½": 7854,
      "á½±ÏĥÎµÏīÏĤ": 7855,
      "ĠÎµÎ²": 7856,
      "á¿ĸÎ½Î±Î¹": 7857,
      "ĠÎ»á½±Î²": 7858,
      "Ġá¼ĲÎºÏĨÏħ": 7859,
      "Îµá½·ÏĤ": 7860,
      "Ġá¼ĲÎ¾á½µ": 7861,
      "Ġá¼ĲÏĢÎ¹ÏĨ": 7862,
      "Ġá¼ĢÏģÏĥÎµÎ½": 7863,
      "Ġá¼¸ÏĥÎ±": 7864,
      "ĠÏĢÎ¿Î¹Î·": 7865,
      "ĠÏĢÏģÎ¿Ïĥá½±": 7866,
      "Ġá¼ĢÎºÏģÎ¿": 7867,
      "Ġá¼ĢÎºÎ¿á¿¦ÏĥÎ±Î¹": 7868,
      "Î»á½±Î²": 7869,
      "ĠÎ¼á½¹Î½Î±ÏĤ": 7870,
      "Ġcurs": 7871,
      "ĠÎ»á½³Î³ÎµÏĥÎ¸Î±Î¹": 7872,
      "Î¼ÎŃÎ½á¿³": 7873,
      "ĠÎ¼Î¹ÎºÏģÎ¿á¿¦": 7874,
      "Ġday": 7875,
      "Ġá½ģÏģÎ¼": 7876,
      "ÏĥÎ¸ÏīÏĥÎ±Î½": 7877,
      "Î»Îµá½»ÏĥÎµÏĦÎ±Î¹": 7878,
      "Ġá¼ĲÏĢÎ¿Î¯Î·ÏĥÎ±Î½": 7879,
      "Ġá¼ĶÎ»Î±Î²Î¿Î½": 7880,
      "ĠÏĢá½±Î¸Î·Î¼Î±": 7881,
      "Î½ÎµÎ³ÎºÎ±Î½": 7882,
      "ĠÎµÎ±ÏħÏĦÎ¿Ïħ": 7883,
      "ĠÏĩÏģÎ·Ïĥá½·": 7884,
      "Ġá½ĦÎ½Î¿Î¼Î¬": 7885,
      "Ġá¼ĲÎ¾ÎµÏħÏģá½·ÏĥÎº": 7886,
      "ĠÏĦÎµÎ½á½¹Î½ÏĦÏīÎ½": 7887,
      "Ġá¼ĢÏĦÏģá½³Î¼Î±": 7888,
      "ĠÎ±á½ĲÏĦÎ¬": 7889,
      "Ġá¼ĲÏĢÎµá½·": 7890,
      "ĠÎ»Î·Î¼": 7891,
      "ĠÎ¸á½±Î»Î±": 7892,
      "ĠÎ¿á½ĳ": 7893,
      "ĠAT": 7894,
      "Î±Î»Î¼Î±": 7895,
      "ĠÏĢÏģÎ¿Îµ": 7896,
      "ĠÎ´Î¹Î±ÏĥÏĦÎµÎ»Î»": 7897,
      "ÏĢÎ±Î¸": 7898,
      "ĠÎµá½ĲÎµÎ¾": 7899,
      "ÏĮÎ½ÏĦÎ±": 7900,
      "ÏĢÎ¿Î½ÏĦÎ±": 7901,
      "Î³Î³ÎµÎ¹Î»": 7902,
      "Î¿ÏįÎ¼ÎµÎ½Î¿Î½": 7903,
      "Ġá¼±Î¼á½±": 7904,
      "ĠÎĴÎĻÎĴ": 7905,
      "Ġá¼ĺÎ»ÎµÎ¹": 7906,
      "ĠÎ³Î½á¿¶": 7907,
      "ĠÎ¼ÎŃÏĩÏģÎ¹": 7908,
      "ĠÎ³Î¹Î½Î¿Î¼á½³Î½Î·ÏĤ": 7909,
      "ĠÏĩÎ¿Î»á½´": 7910,
      "ĠBáµĥáµĩA": 7911,
      "Ġá¼ĢÎ³Î³ÎŃ": 7912,
      "ĠÎ±Î½Î¸ÏģÏī": 7913,
      "ĠÏĩÏģÎ·ÏĥÎ¹": 7914,
      "Ġá¼ĢÏĢá½³Î¸Î±Î½ÎµÎ½": 7915,
      "ĠPro": 7916,
      "Ġá½ĢÎ½á½¹Î¼Î±ÏĦÎ¹": 7917,
      "ĠÏĦÎµÏĦá½±ÏģÏĦÎ·Î½": 7918,
      "Ġá½ħÎ¼Î¿Î¹Î±": 7919,
      "ĠÎ´Î¹Î±ÏĨÏģá½±": 7920,
      "ĠÏĦá½»ÏĩÎ¿Î¹": 7921,
      "ĠÎ¼á½±Î½Î½Î·ÏĤ": 7922,
      "ĠÏĨÎ¬ÏģÎ¼Î±ÎºÎ¿Î½": 7923,
      "ĠÎ´Î¹Î´Î¬ÏĥÎº": 7924,
      "Ġá¼ĢÏĨÏģÎ¿Î´Î¹": 7925,
      "ĠÏĩÎ±Î»Îºá½·ÏĦÎµÏīÏĤ": 7926,
      "áµĽiáµĪ": 7927,
      "ĠÎĴÎĻÎĴÎĽ": 7928,
      "ÏħÏģá½·Î¿Ïħ": 7929,
      "Î¸Î¿Î¼ÎµÎ½": 7930,
      "ÏĥÏĦá½¸Î½": 7931,
      "ĠÎ±á½ĲÏĦá½¹ÏĤ": 7932,
      "Ġá¼ĢÎ½Î±ÏĢÎ±": 7933,
      "ĠÏĪÎ¹Î»": 7934,
      "ĠÎºÎ±ÏĦÎ±Î»": 7935,
      "ĠÎĻÎ·Î»": 7936,
      "ĠâĢł": 7937,
      "Ġá¼°ÏĥÏĩÏħ": 7938,
      "Ġá¼°ÏĥÏĩá½·Î¿Î½": 7939,
      "ÏĦÏĦá¿ĥ": 7940,
      "oun": 7941,
      "Ġrev": 7942,
      "á½µÎ½ÏīÎ½": 7943,
      "ĠÎ»á½·Î¸Î¿Ïħ": 7944,
      "Ġá¼ĢÎ»Î®": 7945,
      "Ġá¼ĢÎ»á½µÎ¸ÎµÎ¹Î±Î½": 7946,
      "Ġá¼ĲÏģÎ³Î¬Î¶": 7947,
      "Î¾ÎµÏīÎ½": 7948,
      "ĠÎ¾Î·ÏģÎ±Î¹Î½á½¹Î½ÏĦÏīÎ½": 7949,
      "Ġá½ĢÏĢÎ¿á¿¦": 7950,
      "ĠÏĩÏħÎ»á½¸ÏĤ": 7951,
      "Ġá¼ĲÎ½á½³ÏģÎ³ÎµÎ¹Î±": 7952,
      "ĠÎµá½ķÏģÎµÏĥÎ¹Î½": 7953,
      "Ġá¼´ÏĥÏĩÎµÎ¹": 7954,
      "ĠÏĢÎµÏģÎ¹ÎµÏĩá½¹Î¼ÎµÎ½Î¿Î½": 7955,
      "ĠÎĺÎµÏĥÏĥÎ±Î»": 7956,
      "ĠÎ³ÎµÎ½ÎŃÏĥÎ¸Î±Î¹": 7957,
      "ĠÎºÏģÎ¹Ïĥá½·Î¼ÏīÎ½": 7958,
      "ÏģÎ³á½±ÏĥÎ±ÏĦÎ¿": 7959,
      "ĠÏĦÏħÏĨÎ»": 7960,
      "Ġá¼ĲÎ»Î»Î¹ÏĢ": 7961,
      "ĠÏĦÎ¹ÏĦÎ¸": 7962,
      "))": 7963,
      "ĠÎºÎ±Î»Î»": 7964,
      "ĠÎ¼Î¯": 7965,
      "ÏĥÏĦá½³Î¿Î½": 7966,
      "ĠÎ²Î¬": 7967,
      "Ġá¼ķÏĦÎµÏģá½¹Î½": 7968,
      "Ġá¼ĢÎ½Î±Î²Î±": 7969,
      "ĠÎ³ÎµÎ³Ïģá½±": 7970,
      "ÏĥÏĩÎ·": 7971,
      "ĠÏĢÎ±ÏģÏī": 7972,
      "ĠÏĢÎ¿Î¹Î®ÏĥÏī": 7973,
      "ĠÎ¶ÏħÎ³": 7974,
      "Ġá¼ĪÎ½Î±": 7975,
      "ĠÎ¾ÏħÎ½": 7976,
      "ĠÏĢá½±Ïĥá¿ĥ": 7977,
      "ĠÎ¼Î¿Ïģ": 7978,
      "ĠÎºÎµÏĨÎ±Î»Î±á½·": 7979,
      "Ġland": 7980,
      "ĠÏĦÏģÎ¹Ïĩá¿¶Î½": 7981,
      "ark": 7982,
      "Ġá¼ĲÎ»ÏĢá½·": 7983,
      "Ġá½ĳÏĢÎµÏģÎ²": 7984,
      "ĠÏĥÎºÎ»Î·ÏģÎ¿": 7985,
      "Ġá¼ĲÏĢÎ¹ÏĥÏĦá½µ": 7986,
      "ÏĥÏĥÎµÎ¹Î½": 7987,
      "ĠÎ¼ÎµÎ»Î±á½·Î½Î·ÏĤ": 7988,
      "ĠÎºÏģÎ¯Î¼Î±": 7989,
      "ĠÎ¾Î±Î½Î¸á¿ĨÏĤ": 7990,
      "ĠÎ¼ÏħÏĥá½¶Î½": 7991,
      "ĠâĦµBQ": 7992,
      "ĠÏĦÎ¿Î»Î¼": 7993,
      "á½±ÏĥÏĦÏģÎ¹Î¿Î½": 7994,
      "Ġá¼ĲÎ´ÏīÎ´": 7995,
      "ĠÎµá¼°á½½Î¸Î±": 7996,
      "ĠÎĿÎ±Î²Î¿ÏħÏĩÎ¿Î´Î¿Î½Î¿Ïĥ": 7997,
      "Ġá¼´Î½": 7998,
      "ÏĥÏĥá¿ĥ": 7999,
      "ÏĥÎ¿ÏħÏĥÎ¹": 8000,
      "ĠÎºÎ±ÏĥÏĥ": 8001,
      "Î³Î·": 8002,
      "á½¹Î¼Î·Î½": 8003,
      "Î¯ÏĥÎ¸Î·": 8004,
      "Îµá¿ĸÏĥÎ¹Î½": 8005,
      "ÏĮÏĦÎ±": 8006,
      "ĠÎ²Î´ÎµÎ»": 8007,
      "Ġá¼ĢÏĢÎ·": 8008,
      "Ġá½ĢÏĨÎ¸": 8009,
      "ĠÏĥÏħÎ¼": 8010,
      "Î¹ÎºÎ¿á½ºÏĤ": 8011,
      "Ġá¼ĲÏĢÎ¹Î³Î½": 8012,
      "Ġá¼ĲÏĢÎ¹ÏĥÏĦÎ·": 8013,
      "ĠÎ¿á½ĸÏĤ": 8014,
      "Ġá¿¥á½µÏĥÎµÎ¹": 8015,
      "Ġthese": 8016,
      "ĠÏĥÏĦá½µ": 8017,
      "ither": 8018,
      "ĠÎ¼á½¹Î½á¿ĥ": 8019,
      "Î³ÎºÎµÎ¹ÏĦÎ±Î¹": 8020,
      "Ġá¼ĺÏĢá½¶": 8021,
      "Ġá¼ĲÏģÏī": 8022,
      "ĠÏĥÏĩá½µÎ¼Î±ÏĦÎ¹": 8023,
      "ÏĦá½³ÏĦÎ±": 8024,
      "ĠÏĦá¿ĨÏĥÎ´Îµ": 8025,
      "ĠÎ»ÎµÎ³Î¿Î¼á½³Î½ÏīÎ½": 8026,
      "ĠÏĢÎµÎ½ÏĦÎµ": 8027,
      "Ġá¿¥á½·Î¶Î±Î½": 8028,
      "ÏĥÏĥÎ±ÏģÎ±ÏĤ": 8029,
      "ĠÎ´Î¹ÏĦÏĦá½¸Î½": 8030,
      "ĠÏĥÎ±Î²Î±": 8031,
      "ĠÎ³Î½á½½Î¼Î·Î½": 8032,
      "ĠÏĥÏħÎ³Î³ÎµÎ½": 8033,
      "Ġá¼ĲÏĥÎ¸Î¹": 8034,
      "ĠÎ²Î»á½±Î²Î·ÏĤ": 8035,
      "ĠÎ´Î¹Î´á½±ÏĥÎºÎµÎ¹": 8036,
      "Ġá¼ĲÎºÎ¸Î»á½·": 8037,
      "ĠÎĴÎµÎ½Î¹Î±Î¼Îµ": 8038,
      "ĠÎºÎ±ÏħÏĥ": 8039,
[...]
