#version: 0.2
á ½
Î ½
Ï Ħ
Ġ Î
Î ±
Î ¿
á ¼
Î ¹
Î µ
Ġ á¼
Ï ģ
Ï Ĥ
á ¿
Ï ĥ
Ġ ÏĦ
Ï Ģ
Î »
Î ¼
Ï ħ
ĠÎ º
Î º
á½ ¶
ĠÎº Î±
Ï ī
Î ·
Ġá¼ Ĳ
Ġ ÏĢ
ĠÎ ´
Î ¸
Ġ á½
á½ ·
Î¿ Î½
á½ ³
Î ³
á½ ¸
ĠÎºÎ± á½¶
ĠÎ ¼
Ï ĩ
Î¿ á¿
ÏĦ Î±
Î ´
á½ °
á¿ ¶
á½ ±
Î¿ Ïħ
Ġá¼ Ģ
á½ Ĳ
Ï Ĩ
Î¿á¿ ¦
ĠÎ ±
Î¹ Î½
á½ ¹
á¿¶ Î½
ĠÎ ¿
ĠÎ µ
Ġ Ïĥ
á½ ²
Ïī Î½
á½ ´
á½ »
Îµ Î½
Î¿ Î¹
á¿ Ĩ
Ïģ Î±
Îµ Î¹
Î¿ ÏĤ
ĠÎ ³
Î± Î¹
Ïĥ ÏĦ
Îµ Ïģ
â Ģ
ĠÎ± á½Ĳ
Î± Î½
ĠÏĦ á½¸
ĠÎ±á½Ĳ ÏĦ
âĢ Ļ
ĠÎµ á¼
Î¼ Î±
á¿ ĸ
á½´ Î½
á¿Ĩ ÏĤ
Î ¾
Ġá¼Ĳ Î½
Î» Î»
ÏĦÎ± Î¹
ĠÏĢ Ïģ
Î ²
ĠÏĦ á¿¶Î½
Î ¯
ĠÏĦ Î¿á¿¦
ÏĦ Îµ
ĠÎ´ Î¹
Ġá¼Ĳ ÏĢ
á½³ Î½
á½ µ
ĠÎ´ á½²
Ġá¼ Ķ
Îº Î±
ÏĦ Î¹
Ïī ÏĤ
Î Ń
Ïĥ Î¸
Îµ á¿ĸ
á ¾
Ġ ÏĨ
ĠÎ »
ĠÏĦ á½´Î½
ĠÎµá¼ °
Î± ÏĤ
Î ¬
Ġ Ïĩ
Ïģ Î¹
ĠÎ¿ á½Ĳ
á½² Î½
Î¿á¿ ĸ
Ïĥ Î¹Î½
á½¸ ÏĤ
ĠÏĦ á¿ĨÏĤ
á¿ ·
Ġá½ ĳ
ĠÏĦ á½°
á½ ½
Ïĥ Î¹
Ġá¼ ¡
ĠÎ ¸
Î½ Îµ
ÏĦ Î¿
á½ º
Î¼ á½³Î½
ĠÏĦ Îµ
ĠÎ¼ á½²Î½
ÏĦ Î·
Ï Į
Î¿á¿ĸ ÏĤ
Î½ Î±
ÏĦ á½°
Ġá¼ Ħ
Ġá½ ģ
Î¼ ÎµÎ½
á½¸ Î½
ÏĦ ÏīÎ½
á½¹ Î½
ĠÎ¿ á½
Î» Îµ
Ġá½ ħ
Ï Ī
Î± Ïģ
ÏĢ Î¿
Ġ |
ĠÎ ²
Ï į
ÏĦ Î¿ÏĤ
ĠÏĦ Î¿
Ïĥ Îµ
Ġá¼Ĳ Îº
ĠÎ¿ á¼
Ġ A
Ġá½ Ģ
Î· ÏĤ
ĠÎ¼ Îµ
Î ¶
á¿ ³
á½º ÏĤ
Î ĩ
Ïģ á½·
ÏĥÎ¸ Î±Î¹
á½° Ïģ
Î¿Ïħ ÏĤ
Î± Î»
0 5
ĠÎ³ á½°Ïģ
ĠÏĦ á¿·
ĠÏĦá½¸ Î½
ĠÏĥ Ïħ
á¿ ĩ
ÎºÎ± á½¶
ĠÏĢÏģ Î¿
á½³ Ïģ
á¿ ¦
Îµ á½·
Ïĥ Î±
ĠÎºÎ± ÏĦá½°
Î¿Î¹ ÏĤ
Î ®
Î· Î½
Ġ U
Ġá¼ ¢
ĠÎµá¼° ÏĤ
ĠÏĦ Î±
Ġá¼ ĳ
ĠÏĦ Î¿á¿ĸÏĤ
á¾ ¶
ĠÏĢ ÎµÏģ
Îµ Î¹Î½
ĠÏĢ Î¿
Ġá¼Ĳ ÏĥÏĦ
ÏĦ Î¿Î½
Î¹ Îº
ĠÎ± á¼
Ġ t
Ġá¼Ģ ÏĢ
Ġá½ ¡
á½± Î½
Î´ Îµ
Ġá¼ĲÏĢ á½¶
á¿ ¥
Ġá¼Ģ Î½
Î· Ïĥ
Î» Î±
ĠÎ´Î¹ Î±
Ġ o
Ġá½ĳ ÏĢ
Ġ Î½
ĠÏĩ Ïģ
Ïģ Î¿
ĠÏĢ Î±
á¿ ĥ
Ġá½¡ ÏĤ
Ïģ Îµ
Ï ²
Ġ (
Ġá¼Ĳ Î¾
Ġá¼ĲÏĢ Î¹
ĠÎ ĳ
Ïĥ ÎµÎ¹
Ġ 1
h e
ĠÎ±á½ĲÏĦ Î¿á¿¦
ĠÏĦ Î¹
Ġ a
ĠÎµá¼ ¶
Î» Î·
Ġá¼Ģ Î»Î»
ÏĦ ÎµÏģ
Ġá¼¡ Î¼
Ïħ Î½
á½· Î½
ĠÏĢÏģ á½¸ÏĤ
á¿¶ ÏĤ
Ïħ ÏĦ
Ïĥ Îº
Î¼ á½±
Â ·
Ġá¼ °
á µ
ĠÎ¿á½ ĸ
Ġá¼ ķ
ÏĦÎµ ÏĤ
ÏĢ ÎµÏģ
á¼ Ĳ
Î» Î¹
ĠÏĦá½° ÏĤ
Î½ Î±Î¹
ĠÏĦ á¿ĩ
ĠÎ±á½ĲÏĦ á¿¶Î½
ĠÎ´Î¹ á½°
Î¼ Îµ
ÏĦ Ïī
á½± Ïģ
i n
Î¿ á½»
Îµá¿ĸ Î½
ĠÎºÎ± Î¸
ĠÎ¿á½ĸ Î½
Ïģ Î·
Ïĥ Ïĩ
Ġ á¿¥
ÏģÎ± Ïĩ
Ġá¼Ģ Î½Î±
ĠÎ³ Îµ
Ġ p
Î¼ ÏĢ
ĠÎ¿á¼ ±
ĠÏĦÎ¿ á½ºÏĤ
ĠÎ¿á½Ĳ Îº
ĠÏĢ Î±Ïģ
Ï İ
á½· Î±ÏĤ
Ġá¼Ģ ÏĢÎ¿
Ġá¼Ģ Ïģ
Ġ 2
Ïĥ Î±Î½
Ïħ Î¼
Ġ s
ĠÎµá¼ ´
Ïħ Ïģ
Î¿ Î¼á½³Î½
á¼ Ģ
Ġá¼ ¸
ĠÎ¼ á½´
á¿ĸ ÏĤ
Ġá¼Ħ Î»Î»
á½³ ÏģÎ±
Î¿á¿¦ Î½
ĠÎ¿á½Ĳ Î´
Ïģ á½±
ÏĦ Î¿Î¹
Ġá¼ ģ
r e
Ïģ á½¹
ĠÏĢÎµÏģ á½¶
ÏĥÎµ ÏīÏĤ
Î¸ Î·
á½ ¼
ÏĢ Îµ
á½¹ Î¼ÎµÎ½
Î¿ Î¼
Ġt he
Ġ ÏĪ
á½· Î±Î½
Ġ B
Ġá¼Ķ Ïĩ
Î¼Î± ÏĦÎ¿ÏĤ
Ĥ Î½
Î¿ Î»
Î³ Î¿Î½
ĠÎºÎ± ÏĦÎ±
Ġá¼Ĳ Î³
Ġá¼ ħ
ĠÎ¸ Îµ
ÏĢ Î±
ÏĦ ÏīÏĤ
ÏĦ Ïģ
Ïĥ ÏĦÎ±
ĠÏĦ Î¿Î¹
ĠÎ¼ á½³
Ïĥ Î±Î¹
ĠÏĢ Î»
ÎŃ Î½
Ïħ Ïĩ
Ġo m
Ġá½ Ħ
ÏĦÎ¹ Îº
ĠÎ ļ
ĠÏĦ Î¹Î½
ĠÏĦÎ¿á¿¦ ÏĦÎ¿
Î¹ ÏĤ
ÏĢ Î¿Î½
Î´ Î¹
ÏĦÎµÏģ Î¿Î½
Î¸ Ïģ
Ġá¼ ¤
ĠÏĦÎ¿ á½»
Ïħ Ïĥ
Î³ Î±
Ġá½ħ ÏĦÎ¹
ÏĦ Î¿Ïħ
ÏĨ Î¿
ĠÏĥ Îº
â ¸
ĠÎºÎ± ÏĦ
Î´ Î±
á¼ °
ĠÏĢ Î¿Î¹
Î Ħ
Î´ Î·
ĠÏĥÏħ Î½
ÏĮ Î½
e r
á¾ ³
Î½ Î¿
á½· Î½Îµ
Ġá¼ ĤÎ½
ĠÏĢÏģÎ¿ Ïĥ
h a
ĠÎµ á½Ĳ
Î± Îº
ÏĦÎ± ÏĤ
ĠÎ¸ ÎµÏģ
Îµ ÏĦÎ±Î¹
ĠÏĢÎ¿ Î»Î»
ĠÏĢÎµÏģ Î¹
Ġá¼Ģ Îº
á¼ ±
ĠÏĥ Î¿Ïħ
ĠÎ¿á½ ķ
Ïĥ Î¿Î½
Î¸ Îµ
ÏĦÎ· ÏĤ
Î¼ Î¿
Î¸ ÎµÎ½
á½° ÏĤ
Ġá½ ¥
ĠÎ ¶
Î³ Î½
Ïħ Îº
Ġp r
Ġ Ïħ
n d
ĠÏĢÎ± ÏģÎ±
ĠÎ±á¼ °
ÏĢ Î»
ĠÎ ¾
ÏĦ á½·
ĠÎ´ Îµ
ĠÎ¼ Î·
Ġá¼Ħ Î½
ĠÎºÎ± Î¹
Î» Î¿Î½
á¿¦ ÏĦÎ±
ĠÏĢ á½±Î½
Î¼ Î²
Ġá¼ĢÏĢ á½¸
ĠÎ» Îµ
á½± Î»
ĠÏĥ ÏĦ
Î» á½·
ĠÎ´ ÏģÎ±Ïĩ
Ġá¼ Ī
Î¼ Î¿Î½
Î³ Î³
ĠÏĨ á½»
Ïģ Î³
Ïĥ Ïī
ÏĢ Î¹
ÏĥÎ¹ ÏĤ
ĠÎº Îµ
á¾¶ ÏĤ
Î¸ Î±
á½° Î½
Î¿Ïħ ÏĥÎ¹Î½
Ġ Q
Î¼Î± ÏĦÎ±
ĠÎ £
Ïī Ïģ
ĠÏĦÎ± á¿ĸÏĤ
i t
ÏĦ á½³Ïģ
ÏģÎ± Î½
ĠÎ² Î±
Î¬ Î½
Ġá¼ĲÏĥÏĦ Î¹Î½
Ïħ Î³
ÏģÎ± ÏĤ
ĠÎ´ á½»
Ġ â¸
Ġá½ĳ Î³
ĠÎ¼ Î¿Ïħ
Î· Ïģ
Îµ Î»
ĠÎ¼ á½¹Î½
ĠÏĪ ÏħÏĩ
ÏĥÎµÎ¹ ÏĤ
Î¿ á½ºÏĤ
á½³ Î³
ĠÎ» á½¹
i s
Ġá¼ĢÎ»Î» á½°
o r
ĠÏĢ Îµ
ĠÎ¿á½ Ķ
ĠÎ³ ÎµÎ½
Ïĥ Î¼
ĠÎ±á½ĲÏĦ á¿·
ÏĥÎµ ÏĦÎ±Î¹
Ïģ Î¿Î½
Ġ c
ĠÎµá¼¶ Î½Î±Î¹
Ġ +
á½¶ Î½
Ġ b
Î¼á½± ÏĦÏīÎ½
Ġá½ ķ
Îµ ÏĥÎ¸Î±Î¹
ĠÏĦÎ¹ ÏĤ
Î¼ ÏĨ
Ġá¼ĲÏĥÏĦ Î¹
ÎµÎ¹ ÏĤ
ĠÎ±á¼ ±
Î¿ Î³
¤ á¿¥
Î¼ Î½
áµ ĥ
Ġ w
ÏĦÎ· Î½
Ġ á¾
Î» á½±
Îµá¿ĸ ÏĤ
Îº Î¿Î½
Î¼á½³Î½ ÏīÎ½
Îµ á¼°
Ġ in
Ġá½ĳ Î¼
Ġ 3
ĠÎ±á½ĲÏĦ á½¸Î½
ÏĦÎ± Î½
ĠÏĥ ÏĨ
ĠÎ±á½ĲÏĦ Î¿á¿ĸÏĤ
ĠÎ²Î± ÏĥÎ¹
ĠÎ Ļ
á½¹ ÏĤ
Ġá¼ ¦
ÏĨ Î¸
Î´ Î¿
Ġá½ĳ ÏĢÎ¿
Îº Î¿
Ġ Î½Îµ
Î¼ Î¹
Ġá¼ĢÏģ Ïĩ
á½¹Î½ ÏĦÏīÎ½
ĠÎ» Î±
ĠÎ¼Îµ ÏĦá½°
r a
ÏĢ ÏĦ
Ġá¼ ´
á¿ĸ Î½
ĠÏħ á¼±
Ġá¼Ĳ ÏĨ
ĠÎ ľ
Ïĥ ÏĢÎµÏģ
ÏĦ á½±
Ġá¼Ķ Î½
ĠÎ ·
ĠÎ±á½ĲÏĦ á¿ĨÏĤ
ĠÎ¿á¼ ·
Ïĥ Î±ÏĤ
ĠÎ¸ÎµÏģ Î¼
Ïĥ Î·ÏĤ
Î»Î» Î¿Î½
á½³ Ïĩ
ĠÏĨ Î±
ĠÎºÎ± Ïģ
Î¯ Î±ÏĤ
o n
á½ ħ
ĠÎµ á½
Îµ Ïħ
ĠÎ´ ÏħÎ½
Ġá¼ ±
ĠÎº Î¿
ÏĨ Î±Î»
Î± ÏħÏĦ
ĠÎ¿á½ķ ÏĦÏīÏĤ
Ġâ¸ Ģ
Î¿ Ïĥ
á½³ Î¿Î½
ĠÏĢÏģ á½¹
ÏĥÎ¸ ÎµÎ½
ÏģÎ¹ Î¿ÏĤ
Îº Î¿Ïħ
Î´ ÎµÎ¹
Î¸ á½³
Ġá¼ ¥
á½¶ ÏĤ
Ġo f
Î² Î±
ÏĢ ÎµÎ½
ĠÎºÎ± Î»
âĢ ĺ
ÎĦ .
ĠÏĢ á½±
Ġ m
ĠÏĨ Î»Îµ
ÏĢ Î±Î½
Îµ ÏĤ
Îº ÎµÎ¹
ĠÏĢ Î±Î½
Ġ f
ĠÎ¼ á½µ
ĠÎ Ĵ
ÏģÎ¹ Î¿Î½
á¿ ¤á¿¥
Î» á½³
Î±Î¹ ÏĤ
ĠÏĦÎ± á¿¦ÏĦÎ±
á¿¦ Î½
ÏĥÏĦ Îµ
Î» ÎµÎ¹
Îº á½±
Ġá¼Ģ ÏĨ
Î¿ Ïį
Î´ Ïģ
Î¿ á½¶
Ê ¼
Î· Î»
Î¸ Î¿ÏĤ
Î´ á½·
Î¿ á½Ĳ
á½·Î½Îµ ÏĦÎ±Î¹
Î¼Î± ÏĦÎ¹
Ïĥ ÎµÎ½
ĠÎ¼Î· Î´
ÏĦ á½³ÏģÎ±
Î¿Î½ ÏĦÎ±Î¹
á½± Î³
e n
á¼ Ķ
ĠÎ¼Îµ Î³
Î¼ÎµÎ½ Î¿Î½
Î¹ Î±
á¼Ģ Î»Î»
á½¹Î¼ÎµÎ½ Î¿Î½
Ġá½ĳÏĢ á½¸
Î·Ïĥ Î±Î½
ĠÎ»á½¹ Î³
ĠÎ´ Ïħ
Ġá½ ĥ
ĠÏĢ Î»Îµ
ĠÎ´ á½´
á½» Î½
Ïģ á½¸Î½
Î·Ïĥ ÎµÎ½
Ïĥ á¿ĥ
ĠÎº á½±
Î¿Ïħ ÏĥÎ¹
Î· Î¸
e s
Ġa nd
ÏĦ á¿³
ĠÎº Î¹Î½
ĠÏĦ Î¿Ïħ
Ġá½ħ Î»
u p
Ġá½¥ ÏĥÏĢÎµÏģ
Î¯ Î±Î½
l l
ÏĦ á½¸ÏĤ
ĠÎ¼Îµ ÏĦÎ±
Ïħ Î»
ĠÎ¼ á¾¶
ĠÎ± á½
Î· Î¼
á½¼ Î½
Î¯ Î½
á¿Ĩ Î½Î±Î¹
ÏĥÏĦ Î¿Î½
Ġá¼° ÏĥÏĩ
Ġá½ §
á¾ ¿
ĠÎ±á½ĲÏĦ á½¸
ÏĢ Î¿Ïħ
â ģ
ĠÏĢ á¾¶
ÎµÎ¹ Î´
ĠÎ¼ Î¿
Î± á½·
ĠÏĥ á½½
ÏĦ á¿¶Î½
Îº ÎµÎ½
Ïģ Ïĩ
á½µ Î½
Ïĥ á½·
ĠÎ¿á½ Ĺ
ĠÎ¼Îµ ÏĦ
Î¯ Î¿Ïħ
ĠÎº á¾
Î¼ÎµÎ½ Î¿ÏĤ
ĠÎ½ á¿¦Î½
ĠÎ³ á½³Î½
e d
Ġá¼Ķ ÏĦÎ¹
Ïģ Î¿Ïħ
in g
ĠÎ¼ á½³Ïģ
ÏĦ á½¸
Îº Îµ
Î³ ÏģÎ±
á½· Î¶
ĠÎ¿á¼ °
Ïģ ÏīÎ½
Ġá½ ł
ĠÎ¼á½¹Î½ Î¿Î½
ĠÏĦ Ïģ
ĠÎ¼á¾¶ Î»Î»Î¿Î½
á½¹ ÏĦÎ·
ĠÏĦÎ¿á½» ÏĦÏīÎ½
Ġá¼Ĳ Ïģ
ĠÏĦÎ¿Î¹ Î±
ĠÎ´ÏħÎ½ á½±
ĠÎ Ķ
ĠÎ¼ á½±
ĠÏĢ Ïħ
ĠÎ¿á¼ ¶
Ġ âĢĺ
ĠÎ±á½ĲÏĦ á½´Î½
Î· Î³
Ïĥ Ïĥ
ĠÎµá¼¶ ÏĢÎµÎ½
Ïĥ ÏĦÎ±Î¹
ĠÎ» á½³Î³
Ġá½§ Î½
o m
Î± Ïħ
Ġá¼¤ Î´Î·
Î¿ Ïģ
Ġá¼¦ Î½
ĠÏĢ Î½Îµ
ĠÎ´á½» Î½Î±
á½±Ïģ Ïĩ
Î¿Î½ ÏĦÎ±
Ġá½ħ ÏĦÎ±Î½
ĠÏĩÏģ á½´
Î± ÏĥÏĦ
ĠÏĢ á½¹
Ġá¼ĳ Î±ÏħÏĦ
ĠÎº Ïħ
ĠÎºÎµ ÏĨÎ±Î»
ÏĦ Î¿Î¹ÏĤ
Ġ F
ÏģÎ¹ Î²
Î³ Îµ
ĠÏĨ Î±Ïģ
Â °
ĠÎ¼ á½³Î½
ĠÎµ Î½
Î´ á½³
ÎµÎ¹ Ïģ
Ġ V
Îµá½· Î±ÏĤ
áµ ĩ
ÏĨ Î±
ĠÏĢÎ¿ Î»
ĠÎ ł
ĠÎ¿á½ĲÎ´ á½²
ĠÏĦÎ± á½»
o u
á½· Î¿Ïħ
Ġá½Ģ Î½Î¿
ÏĦ ÏĦ
ĠÎ´ á½³
Î¿ á½
Î³ Î¼Î±
á½± Îº
ÏĥÏĦ Î¹
Ġá½ĳÏĢ á½±ÏģÏĩ
Îµá½· Î½
Ïĥ ÏģÎ±
Îµá¿ĸ ÏĦÎ±Î¹
ĠÎ¼ Î¿Î¹
Ġá¼ §
Ġá¼ģ ÏĢ
Î· ÏĦÎ±Î¹
á½µ Î»
á¼Ĳ Î½
Îµ ÏīÏĤ
ra s
ÏĦ ÎŃ
ĠÎ¿á¼ ´
ĠÎ¿á½Ĳ Ïĩ
Î¿Î¼á½³Î½ ÏīÎ½
ÏĦ Î¿á¿¦
Ġá¼ħ Î¼Î±
Î¾ Î±
Î¼ ÎŃÎ½
ĠÏĥÏħ Î½Îµ
Ġ n
ĠÎ±á½ĲÏĦ Î¿á½ºÏĤ
ĠÎ± ÏħÏĦ
Î¿Î½ ÏĦÎµÏĤ
ĠÎ¼ Î¹Îº
e a
ĠÎ¿á½ĲÎ´ á½²Î½
Î¸Ïģ Ïī
Îµ Î¾
ĠÎ½ Î¿Ïĥ
ĠÏĨá½» ÏĥÎ¹Î½
ĠÎµá¼° Ïĥ
ĠÏĦ á½³
Ïī Î¸
ĠÏĥ Îµ
ÏĦÎ· Ïģá½·
ÏĦ Î¿ÏħÏĤ
Ġt o
á½· Î±
ĠÎ³ Î½
Î´ Îµá½·
á½½ Î´
Î¿ Î¼ÎµÎ½
á½ ģ
ĠÏĢ Î¬Î½
Î» ÎŃ
Ġá¼Ģ Î³
Ġá¼¡Î¼ á¿¶Î½
ĠÎµá¼° ÏģÎ·
v i
ĠÏĢÎ±Ïģ á½°
Ïħ ÏĢ
ĠÏĦ Ïģá½·
s t
á½± Î¶
Î´ Î¿ÏĤ
Îµ á½¶
Î» Îº
ĠA F
ÏĥÏĦ Î¹Î½
Î± á½¶
Ġ 4
Ġá¼ ł
Îº Ïģ
á½» Î»
ĠÎ¿á½ķ ÏĦÏī
ĠÎ ĵ
á¾ ·
Î¼ Î¹Î½
Î¾ Ïī
i c
ÏĥÎ¸ Î·
á½² ÏĤ
Ġ re
ĠÏĥ Î¿Î¹
ĠÎº á½»
Ïĩ Î¸
ĠÎ² ÏģÎ±Ïĩ
ĠÏĥÏĨ ÏħÎ³
Î¼Îµ Î¸Î±
Î¯ Î±
ĠÏĥ á½»
ĠÏĩ ÏħÎ¼
ĠÎ¼á½± Î»Î¹
âģ °
Î¿ á½·
Î ļ
Ġá¼Ģ Î¼
ĠÏĢÏģ á½½
ĠÎº Ïģ
ĠÎ¼ á½´Î½
ÏĥÏĦ ÎµÏģ
Ġá¼ĶÏĩ ÎµÎ¹
Ġá¼° Î±
Î³ ÎµÎ¹
Îº ÏīÎ½
Î´ Î¿Î½
ÏĮ ÏĤ
ÏĦÎµ Î¹Î½
ĠÏĢÏħ ÏģÎµ
Î´Îµ ÏĤ
á½± ÏĢÎµÏģ
Îº á½¹
á¿¶ Î¼Î±
ĠÎ» ÎŃ
Ġá¼ĢÎº ÏģÎ¹Î²
Î¹ Î²
ĠÏĦ á½±
Ïĩ ÏģÎ¹
Î± ÏĨ
Ġá¼ĲÏĥÏĦ á½¶
ĠÎ´Î¹Î± ÏĨÎ¿
ĠÏĦ á½¹
Ġá¼ĲÎº Îµá½·Î½
ĠÎ¼ á½¹
á¿Ĩ Î½
Ġ d
ÏĢ Î¿Î¹
ĠÎ¿á½Ķ ÏĦÎµ
ÏģÎ¿ ÏĨ
Ġá¼ĳ Îºá½±
ÏĦ ÏĦÎ¿Î½
Ġ l
Ġá¼ ĺ
Ġá¼¸ ÏĥÏģÎ±
Ġs up
ĠÎ²Î±ÏĥÎ¹ Î»Îµ
Î¼ ÏīÎ½
ĠÏĨ Ïħ
ĠÏĨÎ±Ïģ Î¼á½±
Î¾ Î¹
Î½ Î·
á½µ ÏĥÎµÏĦÎ±Î¹
Ġá¼ħ ÏĢÎ±Î½
Ġá¼Ĳ Ïĩ
Ġ ras
Ïħ Î¸
ÏĦ á½³
. .
Î¼ á¿¶Î½
a t
Îµá¿ĸ ÏĥÎ¸Î±Î¹
ĠÏĢÏģ á¿¶
á¼ ¡
Î» Î¸
Ġb e
Î¿á¿¦ ÏĦÎ¿Î½
ĠÎ¾ Î·
ĠÎ´Î¹ á½±
ÏĥÏĦ Î·
Îº Î±Î½
ĠÎ¼ ÎŃ
ÏģÎ· ÏĦÎ±Î¹
Ġá¼ ¹
ĠÎºá¾ Ģ
Î»Î· Î¸
Î´ Ïī
Î¼á½± Î¶
Ġá¼ µ
ÏĢ á½·
ĠÏĩÏģ á½¹Î½
Ġá½Ģ ÏĥÏĦ
Îº Î±Î¹
Ġ H
ĠÎºÎ±Î¸ á½±ÏĢÎµÏģ
Î¼Î± Ïģ
Ġá¼Ĳ Î¼
Î ĳ
ÏĥÎ¸ Îµ
Î¼ Î·Î½
ÏĦ á½µ
Ġá½Ħ Î½
ÏĦ á½¸Î½
ÏĢ ÏĢÎ¿
ÏģÎ¹ Î±
ÏĦÎµ ÏģÎ±
Ġá½Ģ Î»á½·
ĠÎ¼ Ïħ
ĠÏĦ á½·
Îº Ïģá½±
ĠÎļ Ïį
ĠÎ± Ïħ
ĠÏĦ ÏģÎ¹
ĠÎ¼Î¿ Ïģá½·
Ïģ á½¸ÏĤ
Ġá½ħ ÏĥÎ±
Ġá¼ĲÏĥÏĦ á½¶Î½
ĠÎ ķ
Ġ is
ĠÏĢá½±Î½ ÏĦÎ±
Ġá¼ĢÎ½ Î¸Ïģ
s e
Ġá¼¹ ÏĢÏĢÎ¿
o t
Îº Î½
Ġá½ģ Î¼Î¿
ĠA Q
Ġá¼Ķ Î¼ÏĢ
ĠÏĥ á¿¶Î¼Î±
Î¼á½³Î½ Î¿Ïħ
ĠÏĥ Ïĩ
ĠÎº Î¿Î¹
Î¼á½³Î½ Î¿Î½
ÏĢ Î½
á½· ÏīÏĤ
Ġá¼Ķ ÏĥÏĦÎ±Î¹
á¼ Ħ
á½±Î½ ÏĦÏīÎ½
Î¾ ÎµÎ¹
ĠÏĥ ÏĢ
ÏĦ á¿ĥ
Î¼ Î¿Ïħ
Î½Îµ ÏĦÎ±Î¹
. ]
Îº Î¿ÏĤ
Ïī Ïģá½·
Î³ ÎµÎ½
Ġá¼¡Î¼ á½³ÏģÎ±
Î¹ Î¿Î½
Ġá¼¡Î¼ á¿ĸÎ½
Ġá¼ĦÎ»Î» ÏīÎ½
Ġá½ĳÎ¼ á¿¶Î½
Ïī ÏĥÎ¹Î½
Ġá¼Ħ Ïģ
Î´ Î¿Ïħ
ĠÎ¼á½±Î»Î¹ ÏĥÏĦÎ±
Î¸ ÎµÎ¹
ĠÎ´ Î¿
ĠÎ¸ÎµÏģ Î¼Î±
ĠÎºÎ±Ïģ Î´
Ġ e
Î¿Ïħ Ïĥ
ĠÎ³ Î±ÏĥÏĦ
ĠÏĢ á½³
ĠÎ ¤
Î»Î± Î²
Î¾ Î¹Î½
á½º Î½
ÏĨ á½³Ïģ
Î¹ Î»
Ïģá½¹ ÏĦÎ·
ĠÎ³ Î¹Î½
Î¼ÎµÎ½ Î¿Î¹
Î¿ ÏĨ
Î ¤
á¿Ĩ ÏĥÎ±Î¹
á½· Î¿Î½
ĠÎ´ÏħÎ½á½± Î¼Îµ
Ġá¼ĢÎ½Î± Î³
ÏĦÎ¿ Î¼
ĠÏĨ á½±Ïģ
Î· Î¼Î±
Î½ Î·ÏĤ
ÏĨÎ¸ Î±Î»
ĠÏĦ Ïģá½¹
ÏĥÏĦ á½±
ĠÎ §
á½· Î³
Ġá¼Ĳ Î»
Î¼ Î¿Î¹
Î¿Î½ ÏĦÎ¿ÏĤ
ĠÎ±á½ĲÏĦ á½¸ÏĤ
ĠÎ ¹
Î ł
Ġá¼ĢÏģ ÏĦÎ·Ïģá½·
á½±Îº Î¹ÏĤ
Î· ÏĥÎ¹Î½
Îµ ÏĦÎ¿
ĠÎµá½ ĳ
ÏĦ Î¯
Î¹ Î³Î½
Î» Î¿Ïħ
ĠÎ¿á¼° Îº
Ġá¼ĦÎ½ Î¸ÏģÏī
á½¹ ÏĦÎ¹
Î¿ ÏĢ
ĠÏĦÎ¹Î½ Î±
Ġá¼ £
á½´ Î»
Ġá¼ĲÏĢ á½·
Î¿á¿¦ ÏĤ
v er
ÏĥÎ¿Î½ ÏĦÎ±Î¹
Ġ ï
Î± Î²
á½· ÏīÎ½
Îµ Î²
ĠÏĢ Î¹
á½µ ÏĥÎµÏīÏĤ
ĠH e
ÎŃ Ïģ
Îµ á¼
Ġá¼¹ÏĢÏĢÎ¿ ÎºÏģá½±
l y
ĠÎ´á½» Î¿
á½² Ïģ
Î¬ Ïģ
ĠÎ¼ Î±
Ġá¼Ķ Î¾Ïī
ĠÏĥÏħ Î¼ÏĢ
Ïģ Î¿á¿¦
ĠÎµ Î¹
Ġá¼Ĳ Î¼ÏĢ
Ïģ á¿¶Î½
ĠÏĥÎº Î»Î·
a r
Ġ 5
Ġá¼ħ ÏĢÎ±
Ġá¼¤ ÏĦÎ¿Î¹
Ġ L
Ġá¼Ģ Î³Î±
Ġt h
á½¹Î¼ÎµÎ½ Î¿ÏĤ
ĠÎ¿ Ïħ
á½µ ÏĥÎµÎ¹
Î¼á½³Î½ Î¿Î¹ÏĤ
ÏĢ ÎµÎ¹
Ġ R
ĠÎ³ Î»
ÏĢ Î¿ÏĤ
Î¿Î¼ Î±Î¹
ĠÎ¾ Î·Ïģ
ĠÎ¶ á½½
á½¹Î¼ÎµÎ½ Î±
Ïģá½· Î¿Ïħ
Î½Îµ Î¹Î½
Ġá¼ĲÎ½ Î±Î½
Îº Î»
Ġá½Ģ Î¾
ÏģÎ¿ ÏĥÎ¸ÎµÎ½
ĠÏĨá½±Ïģ Î¼Î±
ĠÏĥ Ïī
Ġá½Ģ ÏĨÎ¸Î±Î»
ĠÎ³ á½·Î½ÎµÏĦÎ±Î¹
ĠÏĥá½½ Î¼Î±ÏĦÎ¿ÏĤ
Ġá¼£ Î½
Ġá¼ģ ÏĢÎ»
ĠÎ´Ïħ Î½Î±
ĠÎ¼ Î±Î»
Ġá½ĳÏĢ á½²Ïģ
Î¼ Î·
Ġá½Ģ Î´
ĠÎ»á½¹ Î³Î¿Î½
ĠÎºÎ¿ Î¹Î½
x x
Ġá¼ ĥ
ĠÎ±á½ĲÏĦ á½°
ĠÎº ÎµÎ½
ĠÎ¼á½³Ïģ Î¿ÏĤ
Î¼á½³Î½ Î·ÏĤ
Ġá¼ķ ÎºÎ±
ĠHe b
ĠÏĢ Î»Î·
ÏĦÎ± á½·
Î¾ Î±Î½
Î¿á¿¦ ÏĥÎ¹Î½
á¼Ĳ ÏĢ
ĠÏĥ ÏĨÎ¿
ĠÎºÎ± Îº
Ġa s
Ïģ á½°
ĠÏĢÎ± Ïĩ
m g
u t
ÎµÎ¾ á¿ĨÏĤ
Ġá¼ĶÎ¼ÏĢ ÏģÎ¿ÏĥÎ¸ÎµÎ½
Ġá¼ĢÎºÏģÎ¹Î² á¿¶ÏĤ
ĠÎ» ÏĮ
Ġá¼ĳÎºá½± ÏĥÏĦ
ĠÎ¸Îµ ÏģÎ±
á¼ĢÎ»Î» á½°
Ġ( -
Îļ Î±á½¶
Î Ł
Ġf or
Î¬ Î»
a n
á½±Î» Î¹Î½
v e
á½³Î½ Î±Î¹
ĠÏĦÎ¿Î¹ Î¿á½»
Îµ á½»
ĠÏĥ Î±ÏĨ
ÏĢ ÏīÏĤ
Ïĥ ÏĢ
ĠÎ¿á¼· Î¿Î½
ĠÏĦÎ¿á¿¦ ÏĦ
ÏĦÎ± á¿¦
ĠÎµá¼´ Î·
ĠÎ±á½ĲÏĦ á¿ĩ
Ġ S
ĠÎºÎ±ÏĦ á½±
i on
Ġá½ĢÎ½Î¿ Î¼á½±Î¶
ĠÎ±á¼ ·
ĠÎ Ľ
ĠÎ±á¼ µ
Ġ ha
Î³ Ïĩ
Ġá½Ģ Î½
ÎµÏģ Î³
Ġá¼ķ ÏīÏĤ
» ¿
á½µ ÏĥÎµ
áµ į
ĠÎ» á½³
Î¸ Î¿ÏħÏĤ
ĠÎ» á½·
Ïģ á½³
Ġá¼± ÎºÎ±Î½
ĠÏĢ ÏĮ
ÏģÎ± Î¹
Ïģ Ïī
ĠÏĦ ÏģÎ¿ÏĨ
Îº Î¹
R E
ÏħÏģ Î¯Î¿Ïħ
ĠÎ»Îµ ÏĢÏĦ
RE V
ĠÏĥÏħ Î¼Î²
Î» Î¿Î³
ĠÎ³ á¿ĨÏĤ
ĠB áµĥ
ĠÎ±á½ ĸ
ÏĥÎ± ÏĥÎ¸Î±Î¹
Î¿á½ ķ
Ġ1 0
á½µ ÏĥÎµÎ¹ÏĤ
Î² Î¿Î»
vi d
ĠÏĢÏģá¿¶ ÏĦÎ¿Î½
Î¼Î± ÏĥÎ¹Î½
Î¼ Î±Î¹
ĠÎµá¼° ÏĢ
ĠÎ½ á½¹
ÏĦá½³Ïģ ÏīÎ½
B B
Ïĥ á½·Î±ÏĤ
ĠÎºá½± ÏĦÏī
ÏĨ Ïħ
Î± Î³
Î´Îµ Î»
BB REV
Ġ 6
Î¿ Î¯
á½± Î»Î»
i m
Î¹ Î¿Î¹
Î¼ÎµÎ½ Î±
ĠÎ¸Îµ Î¿á¿¦
Ġá¼ģÏĢ á½±Î½ÏĦÏīÎ½
Î»Îµ á½·
ĠÏĢ Î±Î¹
Î¯ ÏīÎ½
á½ħ ÏĦÎ¹
Ġá½ĳÏĢ ÎµÏģ
ĠÎ´ Î·
ĠÏĢÎ¿ ÏĦ
ĠÎµá¼´ ÏģÎ·ÏĦÎ±Î¹
Î¸ Î±Î½
Îµá¿ĸ Î¿Î½
Î¿Î¼ ÎŃÎ½
Î® Î»
Ïģ Î¿ÏĤ
Ġá¼Ģ Î´
Ġ C
ĠÏĦÎ¿á½» ÏĦÎ¿Î¹ÏĤ
Ġá¼¡Î¼ á¾¶ÏĤ
ĠÏĩ Îµá¿ĸ
Ġ T
Ġá¾ ĸ
Ġá¼°Î± ÏĦÏģ
Î½ Î¿Ïħ
ĠÏĩ ÏīÏģ
Â° ]
ĠÏĢ á½±Î»Î¹Î½
á¿¶ Î´ÎµÏĤ
ĠÎļÏį ÏģÎ¹Î¿ÏĤ
ÏģÎ¹ Î¸
ĠÎ² Î¿
â¸ ĥ
Î Ļ
Î¿ ÏĦÎµ
ĠÎ ¦
á½·Î½Îµ ÏĥÎ¸Î±Î¹
ĠÏĨÎ»Îµ Î²
Ġ 8
ĠÏĨÎ»Îµ Î³
Ġá¼ĲÎ³ á½¼
Ïĩ ÎµÎ¹
Ġá¼°ÏĥÏĩ ÏħÏģ
ĠÏĢÎ±Ïģ Îµ
ĠÏĦÎ¿Î¹Î± á½»
ĠÏĥ Î¼
Ġá¼Ĳ ÏģÎ³
ÎµÏģ á¿¶Î½
Ġï »¿
ĠÏĢÎ¿Î»Î» á½±ÎºÎ¹ÏĤ
ĠÎ´ÏħÎ½á½±Î¼Îµ ÏīÏĤ
ĠÎµ ÏĢÎ¹
ĠÎ¼ÎµÎ³ á½±Î»
Î ĵ
á¿Ĩ ÏĥÎ¸Î±Î¹
Ġ âĢĻ
Ġ I
ĠÏĢ ÏħÏģ
Ġ ?
á½·Î½ ÎµÎ¹
á½ ¥
ÏĢ Ïī
ĠÏĢ Î±Î»
Î¼á½³Î½ Î±
Î³ÏģÎ± Î¼
ĠÏĢ ÏģÎ±
ĠÏĩ ÎµÎ¹
ĠA BBREV
u s
ĠÏĨ ÏīÎ½
Î¯ á¾³
Ġá½ķ Î´Î±
ĠÎµá½Ĳ Î¸
Ġá¼ĲÏĨ ÎµÎ¾á¿ĨÏĤ
ĠÎºÎ± ÏĦÎµ
Î¿Î¹ ÏĦÎ¿
Î´ ÏģÎ±
ĠÎ³ Ïģá½±
ĠÎ³ á½±Ïģ
ÏĢ ÏīÎ½
Ġá¼ĳ ÎºÎ±
ÏĪ ÎµÎ½
Ïģ Î¬
Î´ ÏīÎ½
Î· ÏĦ
Ġá½ħ ÏĥÎ¿Î½
ĠÎ¸ Ïħ
Î½Îµ Ïħ
ÏĦÎµÏģ Î¿ÏĤ
ĠÏĢÎ½Îµ á½»
ĠÎ² Î¿Ïħ
áµ Ĳ
ĠÏĨÎ»ÎµÎ³ Î¼Î¿Î½
ĠÎ³ á½·Î³
ĠÎ³ Î¿á¿¦Î½
ÏĥÎº ÎµÏħ
ha t
ĠÎ³ÎµÎ½ á½³
Ġá¼Ģ Î»
ĠÎ¼á½µ ÏĦÎµ
Ġ D
Ïĥ Î¿Î¹
Ġá¼Ĳ á½°Î½
A Q
ĠÎ Ŀ
Î¼ Î¬
ĠÎ¼ Î±Îº
ĠÏĩ Î¿Î»
ĠÎ±ÏħÏĦ Î¿Ïħ
Î¼ á½³
Î³ Ïī
Ġâ¸ Ĥ
ĠÏĥÏĨÏħÎ³ Î¼
Ïģ Î¸
Î³Î½ Ïī
ĠÎº Ïģá½·
ĠÏĩ ÎµÎ¹Ïģ
Ġá½ģ Î´
ĠÏĦÎ¿ Ïį
Ġ h
ĠÎ´á½»Î½Î± Î¼Î¹Î½
ĠÏĩ Î±Î»
ÏģÎ¹ ÏĥÏĦ
â Ļ
Î¿á½» ÏĥÎ·ÏĤ
âĻ ĥ
ĠÎ´ ÏħÏĥ
Ïĩ Î¸Î·
Î¾ Îµ
ÏĢ Î±Ïģ
Ġá¼ĦÎ½ Ïī
it h
ĠÏĥ Î¹
Ġá¼ģ Î¼Î±Ïģ
ĠÎ£ Î±
Î±Ïģ Îº
ÏĥÏĦÎµÏģ Î¿Î½
Î¼ Î¼Îµ
ÎºÎ± Î»
Ġá¼µ Î½Î±
Ġá½Ģ ÏģÎ³
ĠÎ¼á½³Î½ ÏĦÎ¿Î¹
á½» Ïĩ
Îµ Î¯
Î® Î½
ĠÎ´Î¹Î± Î¸á½³
Ġá½¥ ÏĥÏĦÎµ
ÏĦ á½¶
ĠÏĨÎ±ÏģÎ¼á½± ÎºÏīÎ½
ĠÎ±á¼ ´
á½·Î½Îµ Î¹Î½
ĠÎ´ á½³Ïģ
a b
áµĲ áµį
á½´ ÏĤ
ÏĦ ÏģÎ¹
ĠÏĢÏģ á½¸
Ġs ha
Ġá¼Ĳ Î»Î±
Î±Ïģ Î³
ĠÎ³ ÏħÎ¼
ĠÏĢÎ¿Î» á½º
á½½ Î½
ĠÏĦÎ¿ Ïĥ
ĠÎ¿á¼· ÏĤ
ÏĥÏĦ Î¹Îº
Î¸ Î¹
ĠÎ² Î¹Î²
Î® ÏĥÎµÏĦÎ±Î¹
ĠÎºÎ¿Î¹ Î»
Ġá¼ĲÎ½ á½·
or d
Ïĥ á½·Î±Î½
Î¿ Ïĩ
Î¼á½³Î½ Î·Î½
Ġ Ï²
Ġá¼ķ ÏĦÎµÏģÎ¿Î½
ĠÎ¼Î·Î´ á½²Î½
Î» Î¿ÏĤ
Ġá¼Ģ Î¼ÏĨ
Ġá¼Ģ Î³Î³
ĠÎ» Î¿Î³
ĠÎļ Ïħ
Ġá¼ĢÎ½Î±Î³ ÎºÎ±
Ġá¾ §
Ġ? ?
Ġá¼ĢÎ½ ÏĦÎ¹
ĠÎ±á¼° ÏĦ
ĠÎ±á¼· Î¼Î±
Ġá½ħ ÏĢÏīÏĤ
r o
Î½Î¿ Î¼Î±
Î³ Î¹
ÏĨ á½»
a l
Ġá¼ĲÎ½ ÎµÏģÎ³
Ġá¼Ķ ÏĥÏĦÎ¹Î½
Î¿Ïħ ÏĥÎ±
Î½Îµ ÏĥÎ¸Î±Î¹
ĠÎ¼ Î¹
Î´ Î±ÏĤ
ĠÏĦÎ¿Î¹Î± á¿¦ÏĦÎ±
ĠÎ´ á½·
á½µ Î¼Î±ÏĦÎ±
á½½ ÏģÎ±
á½¹ÏĦÎ· ÏĦÎ±
ÏĥÎ± ÏĦÎ¿
ÏĦ á½¹Î½
ĠÎºÎ± á½·
Ġ it
ĠÎµ Îº
ĠÎ¸Îµ á½¸ÏĤ
ĠÎ´Î¹Î±ÏĨÎ¿ Ïģ
ĠÏĦ Î·Î½
ĠÏĦÎ¿á½» ÏĦÎ¿Ïħ
á½´ Ïģ
ĠÎ¼Î¿Ïģá½· ÏīÎ½
Ġ 9
Îº ÏĦÎ±Î¹
ĠÏĢÎ¿ ÏĦÎµ
ÏģÎµ á½»
á½½ ÏĥÎº
ĠÎ¼Î±Î» Î±Îº
Î² Î·
ÏĦÎ±á¿¦ Î¸Î±
Ġá¼¡Î¼ ÎŃ
ĠÏĥÏĦ á½¹
Ïį Î½
ĠÏĢÎ» á½³Î¿Î½
Î¿ Î¾
ĠQ mg
á¿ĸ Î¿Î½
c e
ÏĦ Ïģá½·
ha b
ÏĦá½³ÏģÎ± ÏĤ
ĠÏĦÏģá½¹ ÏĢÎ¿Î½
Ġá¼ĢÎ»Î» á½µÎ»
ĠÏĦ Î¿á¿ĸ
á¿¦ Î¼Î±
Ġá¼ĶÏĩ ÎµÎ¹Î½
Ġá¼ĦÎ»Î» Î±
Ġá¼ĢÎ³Î± Î¸
ÎµÎ¹ Î»
ĠÎ¸ ÏħÎ¼
Î¿Î¼á½³Î½ Î·ÏĤ
ĠÏĩÏīÏģ á½¶ÏĤ
Îº á½³
Î¾ ÎµÎ½
Îµ Ïĥ
Îº Îµá¿ĸ
ĠÎ± Î½
Ġá¼Ķ ÏĨ
Î» Ïħ
Î»Î» Î±
ĠÎº á½¹
ĠBáµĥ áµĩ
e m
Îµ Îº
ĠÎ´ Î±Îº
ĠÎ» Î¹
ĠÎµá¼° Ïģ
ĠÎµá½ Ķ
Î» Î¸ÎµÎ½
Î¿Î½ ÏĦÎ±ÏĤ
Î³ ÏīÎ½
i i
Î¼Î¿ á½¶
ĠÏĦÎ¿Î¹ Î¿á¿¦ÏĦÎ¿Î½
ÎºÎ± ÏĦá½°
Ïĥ Î·
ĠÎ³ Î¹Î³Î½
ĠÎ»á½¹Î³ á¿³
ĠÏĦ ÎŃ
Ġá¼ĲÏĢ ÎµÎ¹Î´
ÏĦá½³ÏģÎ± Î½
Î» Î¹Îº
Ġá¼ķÎºÎ± ÏĥÏĦÎ¿Î½
Ïģ Î¼
Î±Î½ Î±
ĠÎ´Î¹ Î´
á½½ Î´Î·
ĠÏĩ Î¹
Ġá¼ĢÎ½Î¸Ïģ á½½
Ġ E
ĠÎľ Ïī
ĠÎºá¾Ģ Î½
Î¿ á¼±
ĠÎ³ á¿ĨÎ½
á½·Î½ ÏħÎ½
ĠÏĨá½±ÏģÎ¼Î± ÎºÎ¿Î½
ÏĦÎ¹ Î¿Î½
ĠÏĦÎ¿ á½·Î½ÏħÎ½
ĠÏĢá½±Î½ ÏĦÏīÎ½
ÏĦ Î¬
Ġsha ll
Ġá¼Ģ Î´ÎµÎ»
Ġá½ħÎ» ÏīÏĤ
i l
Ġá¼ĲÎ³ á½³Î½
ĠÏĢÎ±Î½ ÏĦá½¸ÏĤ
ĠÏĢÎ»Îµ á½·
Îº ÏģÎ±
Î´Î¹ á½°
ĠÏĦÎµ Î»Îµ
Ïĩ Î½
Ġá¼ ĵ
ĠÎº á½·Î½
Ġá½ĥ Î½
Ġá¼Ģ Ïĥ
ĠÏĢÎ±Î» Î±Î¹
t h
er s
Î´ á½¹
Ïħ ÏĨ
ĠÎ´ Ïį
Î¼Î¿ á½ºÏĤ
ĠÎ³ ÏħÎ½
c r
Ïĥ Î¿Ïħ
Ġá¼ĲÎº Îµá¿ĸ
ĠÎ¿ Î¹
á½¼ ÏĤ
ĠÎ´Îµ ÏħÏĦ
Ïĩ Ïģ
Ġá¼ĦÎ»Î» Î¿
Î¿Î¼á½³Î½ Î¿Ïħ
Î»Îµ á½»
ĠÏĦÎ± Ïĩ
Ġá¼¸ÏĥÏģÎ± á½´Î»
ĠÎ Ł
Î» Î¿
Ġn ot
Î· Îº
Ġá¼ĲÎ¾ Îµ
ĠÏĢá¾¶ Î½
Ġá½ģÎ¼Î¿ á½·ÏīÏĤ
ĠÏĦÎ¿á½» ÏĦá¿³
ĠÏĢÎ¿ÏĦ á½²
Îµá½· ÏīÎ½
ĠÏĢÎ» Îµá¿ĸ
ĠÏĦÎµ ÏĦ
Ġ1 4
) ]
Ġ he
Î¿ Î²
Ġá¼ĳ ÏĦá½³Ïģ
Ġ g
Ġt hat
ĠÏĥá½» Î¼ÏĢ
ÏĦÎµ Î»
ĠÏĥ ÏĢÎ»
ÏĦÎ¹Îº á½¸Î½
a d
ĠÏĢÎ» á¿Ĩ
Ġá¼Ķ Ïģ
Ġá¼± ÎµÏģ
Î´ ÏīÏģ
Î¿á¿ĸ Î½
Ïĩ Î±
á¼Ģ Î½
á½ ¡
Ġ 7
á½ ĳ
Îµá¿ĸ Î±
ÏĥÎ¸ Ïī
Îµá½· Î±Î½
ĠÎ½ Î¿Î¼
Ïħ Î½Î±
, âĢĻ
Ïĩ Îµ
Ġ1 1
ĠÏĦ á¿Ĩ
Ġá¼ĢÎ½ á½°
Ġá¼¸ ÎµÏģ
Ġá½ĳÎ¼ á¿ĸÎ½
Ġá¼ĶÎ¾Ïī Î¸ÎµÎ½
á½µ Î¼
ÏĦ á½»Î»
á½» Ïģ
Î±Î½ Î¸
Ġa l
ÏĢ á½¹
ĠÏĥÏħ Î½Î±
á½½ ÏĥÎµÏīÏĤ
ĠÏĥ á½ºÎ½
ĠÎ´ á½¹
Ġá¼ĳ Î½
ÏħÏĥ ÎµÎ½
ĠÏĨÎ± á½·Î½ÎµÏĦÎ±Î¹
ĠÏĥ Î·Î¼
ÎºÎ± ÏĦÎ±
Ġá¼ĢÏĢ á½¹
Ïĩ ÏīÏģ
ĠÎ± ÏĢÎ¿
ÏĪ Îµ
Ġ2 âģ°
Î´Î¿ á½º
Î¾ ÎµÏīÏĤ
ÏĥÎ¸ Î±á½·
Ġs e
Ġá½ħ Î»Î¿Î½
ĠÏĦ Î¿Î½
ĠÏĢ ÏħÎº
ĠÏħá¼± Î¿á½¶
á¼ ĺ
ĠÎ¼Îµ Î¸
ÎºÎ¿Î½ ÏĦÎ±
Ġá¼Ķ Î³ÏģÎ±
Î¸ ÏħÎ¼
Ġá¼Ķ Îº
á½¹ ÏĦÎ±
ÏĦ Î¹Î½
ĠÎ´Î¹Î± ÏĥÏĦ
Î»Î± Î¼Î²
Ġ ver
ÏĦ á½¹ÏĤ
ĠÎ¿á½Ĺ ÏĦÎ¿ÏĤ
Î» Î¿Î¹
en t
ĠÎ´ ÎŃ
ĠÎļ ÏħÏģÎ¯Î¿Ïħ
Î¿á¿¦Î½ ÏĦÎµÏĤ
ĠÎ»Îµ ÏħÎº
Ġw ith
ÏģÎ± ÏĨ
ĠÎ±á¼µ Î¼Î±ÏĦÎ¿ÏĤ
ĠÏĥÏħÎ½Îµ Ïĩ
á¿Ĩ Î¼Î±
Î¯ Î¶
ĠÎ² Î»á½±
ÏĢ ÎµÎ¹Î½
ĠÎº Ïį
ÏĦÎ¿ á½»
Ġá¼ĲÎº Îµá¿ĸÎ½
ÏģÎµ Ïħ
Îµ ÏĥÏĦ
ĠÎ¸ á½½ÏģÎ±
Î¼á½³Î½ Î·
Î½ ÏĦÏīÎ½
á½ Ģ
? )
ķ ÏĦÎ·
Ġá¼ķ Î»Îº
ĠÎ¼Ïħ á¿¶Î½
a y
Î» Ïī
Ġá¼ĢÏģÏĩ á½´Î½
Î¾ Î±Î¹
Ġá¼§ ÏĦÏĦÎ¿Î½
Î Ŀ
ĠÎ ĺ
ĠÏĢÏģá½¹ ÏĥÎ¸ÎµÎ½
ÏĥÎ± ÏĦÎµ
Î¬ Î¶
Î» á½»
ÏģÎµ ÏĤ
ĠÏĢÎ¿Î»Î» á½°
ĠÎ¸ÎµÏģÎ± ÏĢÎµ
Ġá¼Ķ Î¸
Ġá½ĢÎ»á½· Î³Î¿Î½
ĠÎ»á½¹Î³ Î¿ÏĤ
Ïĩ Î¿ÏĤ
ÎµÏģ á½¶
Î¸Îµ ÏĥÎ¹Î½
ĠÏĦÎ¹Î½ Î¿ÏĤ
ĠÏĥÏĢ á½³Ïģ
ĠÎ»ÏĮ Î³
Î¼ Î¿ÏĤ
Ġá¼° Î´
ĠÎĶ Î±Ïħ
ÏĦ Ïħ
á¼ ¢
ÏĥÎµ ÏīÎ½
Î» Î¯
â Ħ
ĠÎ»Îµ ÏĢ
ĠÎ¸ÎµÏģÎ¼ á½¸Î½
âĦ µ
Î¿á¿ ¤á¿¥
ĠÏĢÏģ ÏĮ
ĠÎ» Î¿Î¹
g h
Î ķ
ĠÏĨá½» ÏĥÎµÏīÏĤ
ĠÏĢÎ»á¿Ĩ Î¸Î¿ÏĤ
ÏĪ Î±Î½
Î¸ á½³Î½
Î¼ ÎµÎ¹Î½
á½³ Î»
Î¿á¿¦ ÏĥÎ¹
ĠÎ³Îµ Î³ÏģÎ±Î¼
ÏĦ á½´Î½
ĠÎ±á¼° ÏĥÎ¸
ĠÏĢÏģÎ¿ ÏĥÎµ
Ġ1 3
á½·Î½ Î¿Î½ÏĦÎ±Î¹
ÏĦ ÎµÎ¹
Ġá¼ķ Î½Îµ
Î¿Î¼á½³Î½ Î·
Ġá½ł ÏĨ
Î± Ïĥ
Ġá½ĳÏĢá½±ÏģÏĩ ÎµÎ¹Î½
ĠÏĢÎ¬Î½ ÏĦÎ±
t he
ĠÎ² á½±
ĠÏĦ Ïī
Î¸ Î¹ÏĤ
Ġá¼ĢÏģÏĩ á¿ĨÏĤ
ĠÎ´ á½µ
ÏĪ Î±
ĠÏĥÎ¼ Î¹Îº
Îº Î·ÏĤ
ÏĨ ÎµÏģ
á½µ Î¼Î±ÏĦÎ¿ÏĤ
á½¹ ÏĦÎµÏģÎ¿Î½
Ġá¼ĲÎ½Î±Î½ ÏĦá½·
Ġá¼Ĳ Î¼ÏĨ
Ġá½ħ ÏĢÎµÏģ
Ġá¼ĲÎ¾ Î·Î³
a nd
Î¿á½ķ ÏĦÏī
Î¸ Îµá¿ĸÎ½
Î¼Î± ÏĥÎ¹
Ġá¼ĲÎ½á½· Î¿ÏĦÎµ
ĠÎ´ ÏģÎ¹
ĠÏĥ Î±ÏģÎº
ĠÏĦÎ¹Î½ á½°
ĠÎ¼á½¹ ÏģÎ¹Î±
Î¼ á½°ÏĤ
l e
ĠÎµá¼´ ÏĦÎµ
Ġá¼ĢÏģÏĦÎ·Ïģá½· Î±ÏĤ
ĠÎ¿á½Ķ ÏĦ
Ïģ á¿·
Ġá½ķ Î´ÏīÏģ
ĠÎ¿á½Ĳ Î´Îµ
Ġá¼Ģ Îµá½¶
ĠÎ¼á½³ ÏĩÏģÎ¹
ĠÏĨ Î¸
Ġá¼¡Î¼á½³ÏģÎ± ÏĤ
ĠÎ¸ Î±Ïħ
Â ¹
ĠÎ¼á½µ ÏĦ
ÏĨ ÏħÎº
ĠÎ³ÎµÎ½á½³ ÏĥÎ¸Î±Î¹
á¼ ´
ĠÎ¾Î· ÏģÎ±
Ġ1 2
ÏĨ Î±Î½
Ġá¼ĵ Î½
ÏĪ ÎµÎ¹
Î¼ á½¸Î½
u r
ÏĢ á½³
Î± á½Ĳ
Ġá¼Ģ Î¾Î¹
ĠÎ²Î±ÏĥÎ¹ Î»ÎŃ
á¿¶ ÏĥÎ¹Î½
ĠÏĥ Î¿ÏĨ
ÎºÎ± Î¸
ÏĢ Î»Î±
Ġ âĦµ
ÏĨ á½±Î»
Î¼á½³Î½ Î¿ÏħÏĤ
ĠÏĦ Î¯
Î¼Î± Î¶
Ġá¼ħÏĢÎ±Î½ ÏĦÎ±
ĠÎ´Î· Î»Î¿Î½
Îł ÎµÏģá½¶
Ġá¼¸ Î·Ïĥ
ĠÎºÎ±Î» á¿¶ÏĤ
Ġá¼¹ÏĢÏĢÎ¿ÎºÏģá½± ÏĦÎ·ÏĤ
ĠÎ´ Îµá¿ĸ
Ġá¼ĢÎ½ á½±Î³
âĢĻ ,
Ġá½Ģ ÏģÎ¸
ÏĦ á½¹
ĠÎ²Î¹Î² Î»á½·
ÏĦÎ¹Îº á¿ĨÏĤ
Ġá½ĳÎ¼ á¾¶ÏĤ
á½· á¾³
Ġá¼ĲÏĢ Îµ
ÎºÎ± ÏĤ
á¼ĲÏĢ á½¶
Ïĥ Î¿ÏħÏĥÎ¹Î½
á½µ ÏĥÎ¹
o w
Î² Î±Î»
ĠÏĢÏħÎº Î½
ÏģÎ¿ Ïĥ
Ġá¼ĳ Î»Îº
á½¹Î¼ÎµÎ½ Î¿Î¹
Ïĥ á¿³
á¼Ķ ÏĥÏĦÎ¹
ĠÎµ Î¹ÏĤ
ĠÏĩÏģ Î·
Î¿Î» Î¿Î³
Îµá¼ ¶
Î¸ Î·ÏĥÎ±Î½
Î¹ ÏĥÏĦ
Î³ Îº
Ġá¼ĲÏĢ Î¹Îº
Î² á½±Î»Î»
.. .
Ġá¼ĳ Î¾
ĠÎĳ á¼°
Ġ1 5
Ġá¼ģÏĢÎ» á¿¶ÏĤ
ĠÎ´ Î·Î»
Ġá½ĳ ÏĪ
ĠÎ±á½ĸ Î¸Î¹ÏĤ
n t
ÏĨ ÏīÎ½
ĠÏĢÏģÎ¿ ÎµÎ¹
Ġá¼ĲÏģÎ³ á½±Î¶
á½³ ÏīÎ½
Ġá½Ħ Î½Î¿Î¼Î±
Ġá¼ĢÎ½Î¸Ïģ Ïİ
ÎºÎ½ Ïħ
ÎºÎ± á½·
ĠÎ³ÎµÎ½ Î½
ĠÎµá¼°ÏĢ Îµá¿ĸÎ½
Ġá¼Ģ Î½Îµ
Ġ1 âģ°
Î¿Î¼á½³Î½ Î¿Î¹ÏĤ
Ġá¼¸ Ïī
Ġá¼Ĳ Î¼Î²
á½³ Î±
Î® Î¼
Ġ1 6
Ġ2 2
á½ Ķ
Î³ á½¼
ĠÏĦÎ¿á¿¦ ÏĦÎ¿Î½
a s
ĠÎ³ Î¿
á¿ĥ ÏĤ
ĠÎ½Îµ á½»
ÏĦ ÏĦÎµÎ¹Î½
ĠÏĥÎ±ÏĨ á¿¶ÏĤ
Ġá½ ¦
Ïģ ÎµÎ¹
Ïĥ Î¿Î¼Î±Î¹
á¿¤á¿¥ Ïī
Î¿ÏħÏĥ Î±Î»
Î¹ Î³
Î¯ á¿³
Ġo r
ĠÎ»Îµ Î³
ĠÏĢ Î¬
ÏĪ Î±Î¹
ĠÎµá½ĳ Ïģ
Î» Î±Î¹
Ġá¼ĲÎ³á½³Î½ ÎµÏĦÎ¿
Ġá¼ĲÏĢ Î±
ĠÏĩ Î±
c t
ĠÎ»á½· ÏĦ
Ġá¼ĲÎ½ Î±ÏģÎ³
ÏĦ Î®
Ġá¼Ģ Î¸
ĠÏĥÏĨÎ¿ Î´Ïģ
Î £
á½» ÎµÎ¹Î½
Î· Î¼á½±ÏĦÏīÎ½
ĠÏĢÎ½Îµ á¿¦Î¼Î±
Ï Ĭ
ÏģÎ± Î¼
ĠÏĨ Î»á½³
ĠÏĢ Î¿Î½
ÏģÎ¹ Îµ
á½¹ÏĦÎ· ÏĦÎ¿ÏĤ
ĠÎµá¼°ÏģÎ· Î¼á½³Î½ÏīÎ½
Ġ1 7
. ,
Ġ á¿
Ïĥ Î¼Î±
r om
ĠÏĦ ÏīÎ½
Î´ Î¹Îº
ĠÎº ÏģÎ±
Ġ1 9
Ïĥ Ïħ
Ġá¼Ħ ÏģÏĩ
Ġá¼Ģ ÏĥÎ¸ÎµÎ½
ÏĥÏĦ ÏģÎµ
ÏĦÎ· ÏģÎ¹
ĠÏĩÏħÎ¼ á¿¶Î½
Ïģ á½¹Î½
ĠÎ´Î¹ Îµ
ÏĥÎ± á½»
ÏĢ ÏĦÎ¿Ïħ
á½» ÏĦÎµÏģÎ¿Î½
ĠÎ´ á¿Ĩ
ÏĦÎ±Î¹ ÏĤ
ĠÎ¶ á¿¶
Ġá¼Ħ ÏĩÏģÎ¹
Î¼ ÏīÏĤ
á½½Î´ Î·ÏĤ
ĠÏĦ á½³Ïĩ
ĠÎº Î·Ïģ
ĠÏĢ Î»Î±
ÏģÎ¹ Îº
á¼Ĳ Îº
Î» ÏīÎ½
ĠÎº Ïī
ÏĦÎ± á¿ĸÏĤ
ĠÎºÎµÏĨÎ±Î» á¿ĨÏĤ
Ġá¼±ÎºÎ±Î½ á¿¶ÏĤ
Ġ G
Ïģ Î¿ÏħÏĤ
ĠÎºÎµÏĨÎ±Î» á½´Î½
Ïĩ Î¿Î½
ĠÏĦÎ±á½» ÏĦÎ·Î½
Ïģá½¹ÏĦÎ· ÏĦÎ±
Ġw h
á½¹ Î¼ÎµÎ¸Î±
ĠÏĩ ÏħÎ»
Ġá½ĳÏĢ á½¹
ĠÎ´Î·Î»Î¿Î½ á½¹ÏĦÎ¹
Îµ ÏĦÎµ
ÏĢ ÏĦÎµ
ĠÎ²Î±ÏĥÎ¹Î»Îµ á½ºÏĤ
á½·Î½ Î¿Ïħ
ĠÏĢÎ±Ïģ Î¿Î¾
Î´Î· Î»Î¿Î½
Î¿á¿¦Î½ ÏĦÎ±Î¹
Î»á½³ ÏīÏĤ
i d
Ġá¼ĦÎ»Î» Î¿Î¹ÏĤ
ĠÎ¼Î·Î´ á½²
ĠÏĨ Î¹Î»
Î¿á½» ÏĤ
ĠÎ½Îµ á¿¦
ĠÏĢÏģá½¹ ÏĦÎµÏģÎ¿Î½
ĠÏĦÎ¿Ïĥ Î¿á¿¦ÏĦÎ¿Î½
á¾¶ ÏĥÎ¸Î±Î¹
ĠÎº ÏģÎ¹
ĠÎº Ïģá½±
ÏģÎ¿ á½ºÏĤ
Î¿á½» Î¼ÎµÎ½Î¿Î½
á½¡ ÏĤ
ĠÎ¿á½Ĳ ÏģÎ±Î½
ÏĢ á¿³
ÏĪ ÎµÏīÏĤ
Ġá¼¢ Î½
Ġá¼ĢÏĢ á½³
Ïĥ á¿¶Î½
ĠÎ´ÏģÎ±Ïĩ Î¼á½°ÏĤ
ĠÏĨÏħ Î»á½±
ĠÎ¶ Î·
ĠÏĢÎµ ÏĢÎ¿Î½
ÏĦ á½½
Î¼ á½´
Ġá¼ĢÏĢ Îµ
ĠÏĦÎ¿Î¹ Î¿á¿¦
Ġá¼ĶÎ½ Î¹Î¿Î¹
ÏĦÎ± Ïģ
ĠÏĢÎ± Î¸
á½·Î½ Î·ÏĤ
Ïģ á½°Î½
Ġá½ĳÎ³ Î¹
Ġá¼ĲÏĢ Ê¼
ĠÏĥ ÏĦÎ¿
a m
Ġ1 8
Î¼ Î¿á¿¦
ĠÏĩ ÏīÏģá½·
X X
Ġá¼ĢÏĢÎ¿ Îº
o d
Ġá¼Ħ Î½ÎµÏħ
ĠÏĢÎµÏĢÎ¿Î½ Î¸
á½· á¿³
Îµá½· Î·
ÏģÎµ Ïį
Î´Î¹ Î±
ĠÎºá½» ÏģÎ¹Î¿ÏĤ
Îµá¼ ´
o st
âĢ Ķ
ÏĦÎ¿ á½ºÏĤ
Ġ2 0
ĠÎ±á¼° ÏĦá½·
Ïģ Ïħ
Ġá¼ĢÎ¼ ÏĨÎ¿
ĠÎ´Î¹ ÎºÎ±Î¹
Îº Î¬
ĠÏĥ á½º
ÏĦ Î¿á¿ĸÏĤ
á¿Ĩ Î»Î¸ÎµÎ½
Î¼á½³Î½ á¿³
Ý ²
á¼Ĳ á½°Î½
ĠÏħá¼± á½¸ÏĤ
Î¹ ÏĥÎ¼
ĠÏĢÏģÎ¿ÎµÎ¹ ÏģÎ·
á½³ÏģÎ± ÏĤ
ĠÏĦÎ¿Î¹Î¿á½» ÏĦÏīÎ½
Ġá¼Ģ ÏģÎ¹Î¸
ĠÎ± Î¹
ĠÎ¼á½¹ ÏģÎ¹Î¿Î½
ÏĪ Î±ÏĤ
ĠÏĩ á½½
ĠÎ´ ÏĮ
Î³Îµ Î¸Î¿ÏĤ
ÏĥÏĦ Î¿ÏĤ
Ġá½ĢÎ»á½· Î³
Îº Îµá½·
ÏĢÎ» á½±
Ġá¼Ĳ Î´
Ġá¼ĢÏĢ ÎŃ
ĠÎ³á½·Î³ Î½ÎµÏĦÎ±Î¹
Î¿Î½ ÏĦÎ¿
ĠÎµ Î¾
Î¿ Ïģá½·
Ġá¼Ģ Î»Î·Î¸
ĠÏĥ á½»Î½
ĠÏĦÎ± á½Ĳ
á¾¶ ÏĦÎ±Î¹
ĠÏĨÎ»Îµ Î³Î¼Î±
Ġá¼¸ÎµÏģ Î¿ÏħÏĥÎ±Î»
ĠÎºÎ±Ïģ ÏĢ
Ġá¼Ĳ ÏĥÏĩ
ÏĥÏĦ Î¿Ïħ
ĠÏĥÎº á½³
ĠÏĢá½±Î½ ÏĦÏīÏĤ
ĠÎºá¾ ĤÎ½
ĠÎºá½± Î¼Î½
ÏĢ ÏĦÎ¿Î½
ĠÎ¼ á½·
e re
Î³ Ïģá½±
ÏĥÎ±Î½ ÏĦÎµÏĤ
ÏĮÎ½ ÏĦÏīÎ½
Î¹ Î¶
ĠÎ¼ÎµÏĦÎ± Î¾
á½½Î´ Î¿ÏħÏĤ
ÏĪ Î¹Î½
ĠÎ´Îµ Î¾Î¹
Îº Î·
Îº á¿³
ĠÎºÎ±Î¸ Î±Ïģ
Ġá¾ Ĺ
ĠÏĢÎµ ÏĢ
Ġá¼ĦÎ½Î¸ÏģÏī ÏĢÎ¿ÏĤ
ĠÏĦ Î·
ĠÏĦ Î·ÏĤ
ĠÏĨ Î±Î½
Ġo n
ĠÏĨá½» ÏĥÎ¹ÏĤ
Îµ Î´
ĠÎ½Îµ ÏĨ
ĠÎ³ÏħÎ½ Î±Î¹
Ġá¼§ ÏĤ
ic h
Î¿Î¼á½³Î½ Î·Î½
Ïī Î´
ÏĦÎµÏģ Î¿Î¹
á½± Î»Î±
Ġá¼ĢÏģ Î³
ĠÏĦÎ±á½» ÏĦÎ·ÏĤ
ÏĦ á¿·
ÏĦÎ¹Îº á¿¶Î½
ĠÎ³Î» ÏħÎº
Ġá¼ĢÎ´ÎµÎ» ÏĨ
ĠÏĥÏħ ÏĥÏĦ
ĠÎ³Îµ Î³Î¿Î½
ĠÏĨá½» ÏĥÎµÎ¹
Î¸Îµ á½¶ÏĤ
ÏĦ á¿ĨÏĤ
Ġá¼ĲÏĢÎ¹ ÏĥÏĦ
Ïī Î¼Î±
á½¹ Î³
ĠÎ² ÏģÎ±
Ïģá½¹ ÏĦÎµÏģÎ¿Î½
ĠÎ´ÏģÎ¹ Î¼
á½µ Î¸Î·
ĠÏĢÏģÎ¿ ÏĨ
á½±Î½ ÏīÎ½
ĠÏĢá½±Î½ Ïħ
ĠÏĩÏģá½¹Î½ á¿³
ĠÏĦ ÏĮ
ĠÎ» ÎµÎ¹
ÏĦÏģ Î¿Î½
Ġf rom
ĠÎ»ÎŃ Î³ÎµÎ¹
ĠÎºÎ± ÏĦÎ¿Î¹
ĠÏĢÎ» á½µ
T he
Ïģ ÎŃ
Î± Î¸
Ïĥ á½¶
ĠÏĦ ÏģÎ±Ïĩ
ÏĢ Î·
ĠÏĥÎº Î¿ÏĢ
Î¿á¿ Ĩ
ĠÎ¼ Î±Ïģ
Ġá¼¡Î¼ Îµá¿ĸÏĤ
ĠÎ¼á½³ Î³ÎµÎ¸Î¿ÏĤ
Î® ÏĥÎµÎ¹
ĠÏĢÏģÎ¿ ÏĥÎ¸
Ġá¼ĢÏĢÎ¿ ÏĥÏĦ
á¾· Î½
Î´á½· ÏīÏĤ
Î½Îµ ÏĦÎ¿
ÏĦÏģ á½³
ĠÎ´ÏħÎ½á½± Î¼
ÏĢ Î½Î¿
Ġá¿ ¬
ÏĦÎ· Ïģ
ĠÏĦÎ¹Î½ ÎµÏĤ
á¼ Ī
k e
Ïĩ Î¹
ĠÏĢÎ±ÏģÎ± ÏĢÎ»
ĠB áµĩ
ÏĥÎ±Î¹ ÏĤ
ĠÏĢÎ½Îµá½» Î¼Î¿Î½
Î½ Î±Î½
ĠÎ»Î± Î¼Î²
ea r
ĠÏĢÏģÎ± Î³Î¼Î±
ĠÏĢ Î¹Îº
á¿¦ ÏĤ
Ġá¼ĦÎ½Î¸ÏģÏī ÏĢÎ¿Î½
ĠÎºÎ± ÎºÎ¿
ĠÎ»á½³Î³ ÎµÎ¹Î½
ĠÎ¼ÎµÏĦÎ±Î¾ á½º
Î¾ ÎµÎ¹ÏĤ
ĠÎµá¼° ÏĥÎ¹Î½
Ġc on
Î¿Î½ ÏĦÎ¹
Ġá½ħ ÏĦÎµ
i f
ĠÎ¿á½Ĺ ÏĦÎ¿Î¹
Ġá¼ĲÏģ Î³Î±
Î¸ Î½
Î² Îµ
á½±Î½ Î¿Ïħ
á½½Î´ ÎµÎ¹ÏĤ
ÏĢ ÏĦÎ±Î¹
Ġá¼°Î±ÏĦÏģ á¿¶Î½
Îº ÏĮ
ĠÎ¼ ÏĮÎ½
Î¶ Îµ
Ġ M
ÏģÎ¿ á½¶
Î´ Î¿Î¼
· ÏĤ
Ġá¼ĲÏĢ Î¿á½·
Ġá½ĳ ÏĨ
Ġá½ĳÏĢá½±ÏģÏĩ ÎµÎ¹
Ġá¼¸ÏĥÏģÎ± Î®Î»
á¿¶Î½ Î±
ĠÎ±á½ĲÏĦ ÏĮÎ½
ĠÎ¶ Ïī
ĠÏĥÏī Î¼á½±ÏĦÏīÎ½
ĠÎ±á½ ķÏĦÎ·
Ġá¼Ķ Î´Ïī
Î» Î·ÏĤ
ĠÎ¿á¼· á½¹Î½
Ġá½ĥ ÏĤ
Ġá¼ĳÎ¾ á¿ĨÏĤ
ĠÏĥ Î·Î¼Î±
ĠÎ¿á¼ µ
ĠÏĪÏħÏĩ Ïģá½¸Î½
ĠÎ´Ïħ ÏĥÎº
ÏĦá½³Ïģ Î¿Ïħ
Î¿á½» Î½ÏĦÏīÎ½
Ġá¿¥ á¾³
ÏģÎ¹ ÏĥÎ¼
ĠÏĢÏģÎ¿Ïĥ á½µ
Î» á½³Î³
Î¼á½³Î½ Î±ÏĤ
ĠÎ½Îµá½» ÏģÏīÎ½
ĠÎ´Î¹ Î±Î»
á½½ ÏĦÎ±
ĠÏĢÏģá½¹ ÏĥÏī
ĠÎ¼Î¿ ÏĩÎ¸Î·
ĠÎºÎ±ÏģÎ´ á½·Î±ÏĤ
ÏĦÎµ á¿ĸ
ĠÏĨ á½³Ïģ
ĠÎĳá¼° Î³
Î ľ
ĠÎ¸ á½³
a ll
ĠÎ³ á½·Î½ÎµÏĥÎ¸Î±Î¹
Ġá¼ĲÏĢ Î¿Î¯
ĠÎļ á½»
Ġb y
Îµ ÏĥÎ¹Î½
ĠÏĢÏģÎ±Î³Î¼Î± ÏĦÎµ
Î´ ÎµÎ½
Ġá¼ĳ ÏĢ
ĠÎ¼á½³ Î»Î¹
Î¸ á½µ
ÎµÎ¹ Î±Î½
á½ħ ÏĦÎ±Î½
ÏĥÎ±á½» ÏĦÏīÏĤ
e l
ĠÎ±á½ĲÏĦ á½°ÏĤ
Ġá¼¡ Î³
Î¹ Î¼
ÏĢ Î¿ÏħÏĤ
Ġá¼ĲÏĢÎ¹ ÏĥÎº
Ġá¼´ Ïĥ
ÏĦ á½³Î¿Î½
ĠÎ ĸ
Î´Î¹ Î¿Î½
Ġá¼ķÎ½Îµ ÎºÎ±
Ġá¼ĢÎ½ Î´Ïģ
Ïħ Î¼Î±
ĠÏĢ ÏīÏĤ
ÏĦ ÏĦÎµ
ĠÎ¼Î¹Îº Ïģá½¸Î½
Ġá¼ĲÎ½ ÏĦÎ±á¿¦Î¸Î±
ĠÎ´Î±Îº ÏĦá½»Î»
ĠÎľÏī ÏħÏĥ
Î± Î»Î»
ĠÏĦ ÏģÎ¿
ĠÏĨ Î·Ïĥ
ĠÏĦÏģ Îµá¿ĸÏĤ
Î¼ ÎŃ
Î¾ Î¹ÏĤ
Ġá¼ĳÎºá½±ÏĥÏĦ Î¿Ïħ
Î¿Ïħ Î´Î±
á½½ Î´Îµ
Ġ2 3
ĠÎ´Î¹ Î±Î¹
Ġá¼ĲÎ³ Î³
Ġá½ķÎ´Î± ÏĦÎ¿ÏĤ
gh t
Ġá¼Ĳ Ïĥ
ÏĢÎµ á½¶
ĠÏĥÏĨÎ¿ Î´
ĠÏĢ ÎµÎ½
Î½Î± á½·
ĠÏĦÎµÎ»Îµ ÏħÏĦ
Î³ Î¿
Î»Îµ Ïį
Ġá¼¡Î¼ ÎµÏģá¿¶Î½
Ġá¼ĳÎ±ÏħÏĦ Î¿á¿¦
ĠÎ³ÏħÎ¼ Î½
ĠÎ´Î¹ Î´Î±
Ġá½ĢÎ´ á½»Î½
ĠÎ´Î¹Î± ÏĨá½³Ïģ
Ïĥ á½¶Î½
ĠÎ² Î¿á½»
Ġ3 0
Î¼á½³Î½ Î¿ÏĤ
ÏĢ á½±
Î¾ Î±ÏĤ
Î¿á¿¦Î½ ÏĦÎ±
ĠÏĨÎ± Î¹Î½
Î½ á½·
ĠÏĢÎµÏģÎ¹ ÏĦÏĦ
Ġ Ïī
Ïİ Î½
Ġ2 1
Ġá¼ĢÏģ ÏĦÎ·ÏģÎ¹
ĠÎ±á¼° ÏĥÎ¸Î·
ÏĢÎ¹ Î¿Î½
ĠÎ¼ á½·Î±Î½
Ġá½ĢÎ½Î¿ Î¼Î±Î¶
im p
Ïģ á½»
ĠÎ¼ á¿¦ÏĤ
ĠÎ» á½»
Î¿Ïį ÏĤ
ĠÎºÎ¹Î½ á½µÏĥÎµÏīÏĤ
Ġá½ĳÏĪ Î·Î»
ĠÏħá¼± á¿¶Î½
ĠÎ½á½¹ Ïĥ
ĠÎ²Î¿Ïħ Î»
ĠÏĥÏħ Î¼
Î´ ÏħÎ½
Ġá¼ĲÏĢ Î±Î½
Ġp l
ĠÏĢá½± Î¸Î¿ÏĤ
Î¿á½Ĳ Î´
om e
o s
Ïģ ÎµÎ½
c h
ÏĦ ÏĦÏī
Î¸ Î¿Î½
Î· ÏĥÎ±
Ġá¼Ĳ ÏĤ
Ġá¼Ķ ÏĥÏĦÎ¹
t er
á½· ÏĥÏĦÎ±
á½³Ïģ Î³ÎµÎ¹
ĠÏĢÎµÏģÎ¹ á½³Ïĩ
Î» Î¬
a in
Î±Î» Î±
ĠÎ¼ÎµÏĦ Ïģá½·
Ġá¼¡ Î»Î¹Îº
áµ Ī
Î¹ Ïĥ
ĠÎ»Î¿Î¹ ÏĢ
Î¿Î» Î¿Ïħ
Î´Îµá½· ÎºÎ½Ïħ
á½³Î½ ÏĦÎ¿ÏĤ
ĠÎ²ÏģÎ± Î´
ÎºÎ± Ïħ
Ġá¼ħÏĢÎ± ÏĥÎ¹
Ïī Î¼ÎµÎ½
Ġá¼ĲÎ½ á½³ÏģÎ³ÎµÎ¹
Ġá¼ĲÎ¼ Î¿á¿¦
i r
ĠÎ¿á½Ĳ Ïĥá½·Î±ÏĤ
ĠÎºÎ±ÏĦÎ± ÏĥÎºÎµÏħ
Ġá¼ģÏĢ á½±
á½½ ÏĦÎµÏģÎ¿Î½
Ġá½ģ Ïģ
ĠÎ½ ÏĮ
Îº Ïģá½·
Î¯ Î¿Î½
Ġá¼ĳ Î²
ĠÎµá½ĲÎ¸ á½ºÏĤ
ĠÎµá¼¶ ÏĦÎ±
ĠÏĩÎ±Î» Îº
ĠÏĩÏģÎ· ÏĥÏĦ
ÏĦ ÏĦÎ±
á½½ ÏĤ
Î»Îµ ÏīÏĤ
ĠÏĦÎ± á¿¦
ĠÏĪÏħÏĩ á¿ĨÏĤ
u b
á½± ÏĥÎº
ĠÏĢÏģÎ¿ ÏĥÎ±
ÏĢÎµ ÏĦÎ±Î¹
Î»Î¸ Î¿Î½
ĠÏĢÏģ Ïī
ĠÎ´á½³Ïģ Î¼Î±
ÏĥÏĦÎ± ÏĥÎ¹Î½
q u
ÏĢÎ¿ Î»Î»
ĠÎµá¼´ ÏĢÎµÏģ
ĠÏĥá½»Î¼ÏĢ Î±Î½
ĠÏĨÎ»á½³ Î²
Î¼ á½·
Î¸ Î¿Ïħ
ÏĦÏģ Î¿Ïħ
ÏĢÎµÎ¹ ÏĦÎ±
Ïģ á¾³
Î» á½µ
Ġe x
i v
ĠÏĢá½± ÏĥÏĩ
Î¼ÎµÎ¹Î½ Î¿Î½
Î¶ ÎµÎ¹Î½
ĠÏĩÏģ ÏħÏĥ
Ġ2 4
ĠÏĪ á½»
Ġá¼ĲÏĢÎµÎ¹Î´ á½´
ĠÏĢÎ»Îµ Î¿Î½
ÏĦÎ¿á¿¦ ÏĦÎ¿
ĠÏĢÎ»Îµá¿ĸ ÏĥÏĦÎ¿Î½
ĠÎ¼ á½»
á½» Î½Î±
re s
Ġá¼ĦÎ½ Î´
ĠÏĥÏĦá½¹ Î¼Î±
Î»Îµ Ïħ
ĠÎ´ÏħÎ½ Î¬
ĠÎ´ Î¯
Ġá½Ģ ÏĢ
ĠÎ¼Îµ á½·Î¶
ÏĦÎ¹Îº á½´Î½
Ġá½ĳÎ³ Ïģá½¸Î½
Î¼Î½ á½µ
Ïģá½¹ÏĦÎ· ÏĦÎ¿ÏĤ
ĠÏĦÎ¿ á½Ĳ
Ġá¼¡Î¼á½³ÏģÎ± Î½
Ġá¼Ķ Î»Îµ
I I
Î³Î¿Î½ ÏĦÎµÏĤ
Ġha ve
u l
ĠÏĢ á¿¦
ĠÏĦ á½µÎ½
Ġá½ ¤
Î¿Ïħ ÏĥÎ±Î½
ĠÏĨ ÏħÎ»
ĠÏĥÏĦ ÎµÎ½
Ġá¼¥ ÏĢÎ±
ÏĮ ÏĦÎ·
Ġá¼ĶÏĨ Î·Î½
ĠÎ¿ Î¹Îº
ĠÎ¼á½³ ÏĥÎ¿Î½
ĠÎľ Î±
ĠÏĩÏģá½¹Î½ Î¿Î½
ĠÎ¼ Î½Î·
Ġá¼Ī Î½
ĠÎ¶á½½ Î¿Ïħ
ĠÎ¸ á½±
ĠB ab
r i
ĠÎ¼ á¿Ĩ
Î¼Î± ÏĥÏĦ
ĠÎ» Î±Î»
ĠÏĦÎµ Î»á½³ÏīÏĤ
ÏĦá½³Ïģ Ïī
ĠÎ»á½¹Î³ Î¿Ïħ
áµ Ľ
ĠÏĥÏĨÏħÎ³ Î¼á¿¶Î½
ers cr
ÏĢ ÏĦÎµÎ¹Î½
ĠQ áµĲáµį
ĠÎ³ á¿Ĩ
Ġá¿¥ á½·Î¶
ĠÎº ÏħÏģ
ĠÎ³á½³Î½ Î¿ÏĤ
Ġá¼ģÎ¼Î±Ïģ ÏĦ
Î» á¿¶Î½
ÏĥÎ¹ Îº
á¿¦ ÏĥÎ±Î¹
Ġá¼° Î´Î¿á½º
á½½ ÏĥÎµÎ¹ÏĤ
Îµá½¶ Î´
Î¿á½ Ķ
o l
á¼ ķ
ĠÎ³Î±ÏĥÏĦ Ïģá½¸ÏĤ
ĠÎ´Ïį Î½Î±
ĠÎ¿á¼¶ ÎºÎ¿Î½
ĠÎ»Î± Î²
Î´ÎµÎ¹ ÎºÏĦÎ±Î¹
ĠÏĢÎ»Îµ ÏħÏģ
Î¼ Î¹ÏĤ
Ġ2 6
ÏħÎ½Î± á¿ĸ
Ġá¼ĲÎ½Î±ÏģÎ³ á¿¶ÏĤ
Ġre ad
ĠÏĨÏħ Î»Î±
Ïĥ ÏĥÎ±
Ġá¼Ķ ÏģÎ³
Ġá¼ĢÎ½Î±Î³ÎºÎ± á¿ĸÎ¿Î½
ĠÎĶÎ±Ïħ Îµá½¶Î´
Îµá½· Î±
Î³Î³ ÎµÎ»
Ïĥ ÏĥÎµ
ĠÏĢ ÎŃ
Ġá¼Ģ ÏģÎ±Î¹
Ġá¼ĲÏĩ Ïģ
á¿¶ ÏĥÎ±Î¹
á¼Ĳ ÏĢÎµá½¶
Ġá¼ĢÏĨ Î¹Îº
ĠÏĢÎ± ÏĦÏģ
Ġa n
Ġá¼Ĳ Î»á½±
ĠÎ² Î±Ïģ
Ġá¼Ī Î²
ĠÎ¶á¿¶ Î¿Î½
Î¼ á½¸ÏĤ
Ġá½ģ Î¼
Ġá½ħ ÏĥÎ¿Î¹
ĠÎ½ Î¿
Î¿ ÏĦÎ¿Î¼
ĠÎ¼ Î®
ĠÎ¼ ÎµÏģá¿¶Î½
Î¿á¿¦ Î¼ÎµÎ½
ĠÏĢÎ» á½´Î½
Î¸ Îµá¿ĸ
Ġá¼ĢÎ½ á½±
ĠÎ³Î±ÏĥÏĦ á½³ÏģÎ±
ĠÎ³ÏħÎ¼ Î½Î±
ĠÏĥ ÏĦÎ¿Î¹
ĠÎ±á½ĲÏĦ Î¿á½¶
Ġá¼ĲÎ³ ÎºÎµ
Ġá¼ĢÎ»Î» Î¿Î¹
ĠÏĢÎ» Î·Ïĥ
Ġá½ģ Î¼Î¿Î¹
ÏĥÎµ ÏĥÎ¹Î½
ĠÏĦ ÏģÎ±
Îµá½· Î¿Ïħ
Ġá¼ģ Î³
ĠÎ¿á¼´ Î½Î¿Ïħ
Ġ vid
Î¿ Î´
ÏĢ Ïģ
ĠÏĢÎµÏģ á½·
Î»Î· ÏģÎ¿Î½
ĠÏĥÎº ÎµÏħ
ĠÏĥ ÏĦÎ±
Î¿ Î´Î¿Î½
Ġá¼ĢÎ½Î± ÏĦÎ¿Î¼
ÏĦá½° ÏĤ
Î¿á¿¦Î½ ÏĦÎ±ÏĤ
ĠÏĥÏħÎ¼Î² Î±
á½· ÏĥÏĦ
Ġá¼Ģ ÏĨÎ¿
Î½ Î¿Î½
á¼Ķ Î½
Î· ÏĥÎ¹ÏĤ
Î¹Î½ Î¿Î½
ĠÏĢÏģ á½¶Î½
Ġá¼ĢÎº Î¿á½»
ĠÏĢÎ±ÏģÎ¿Î¾ ÏħÏĥ
Î±Î½ ÏĦÎ¹
ÎŃ Î½ÎµÏĦÎ¿
Ġá¼Ħ Îº
ĠÏĢÎµÏģÎ¹ Îµ
ĠÎµ ÏĢ
ÎµÎ¹Î» ÎµÎ½
Î¸ Î®
Î¹Î½ á½¹Î½ÏĦÏīÎ½
á½¹ ÏĦÎ·ÏĤ
ĠÎ³ Î¯
ĠÎ¸ Î±
ĠÏĥÏħ Î¼ÏĨ
ĠÏĩÏģ á¿ĨÏĥÎ¸Î±Î¹
ÏĮ Î¼ÎµÎ½Î¿ÏĤ
ĠÎ± Î½Î±
ĠÎ»á½³Î³ ÏīÎ½
Ġá¼ķ Î½Î±
ÏĢÏĦ ÎµÎ¹
es t
ĠÏĥá½½ Î¼Î±ÏĦÎ¹
Î¼ Ïī
ĠÎ³ ÏħÎ½Î±á¿ĸ
Ġ ;
ĠÏĢÎ¿Î¹ á½µ
á½¥ ÏĥÏĢÎµÏģ
ÏģÎ± Îº
ĠÏĢ á¾¶ÏĤ
Ġá½ĢÏĥÏĦ á¿¶Î½
Ġá½ĢÎ½ á½¹
Î ¡
Î» Î¿ÏħÏĤ
ÏĥÎµ Î²
ĠÎ¼Îµ Î»Î±
Ġá¼ĢÏģÏĦÎ·ÏģÎ¹ á¿¶Î½
Î¸ ÎµÏģ
ĠÏĦÎ±á½» ÏĦá¿ĥ
Ġth is
Î Ĵ
ÏĢ Î¿Î¹ÏĤ
á½³ÏģÎ± Î½
Î¿Î» á¿ĨÏĤ
ĠÏĦá½· ÏĤ
ĠÎ´Î¿ ÎºÎµá¿ĸ
Ġá¼¹ÏĢÏĢÎ¿ÎºÏģá½± ÏĦÎ¿ÏħÏĤ
á½³ ÏīÏĤ
Ïĥ ÏħÎ½
Ġá¼Ģ ÏĦ
Ġb ut
Ïģá½· ÏĥÎº
á¼Ģ ÏĢ
ÏĦÎµ ÏĦÎ±
Î·Ïĥ á½±
Î¼Îµ Î»
ĠÎº Î½
ĠÎ³ á½·Î½Î¿Î½ÏĦÎ±Î¹
ĠÎºÏħ Ïģá½·Î¿Ïħ
ĠÎ³Ïģá½± ÏĨ
á¿¶ Î¼ÎµÎ½
ĠÏĢá¾¶ ÏĥÎ±Î½
Î Ľ
Î± á¼±
á¼ ĳ
Î±Î¹ Ïģ
ĠÏĦÎ¹Î½ á½¸ÏĤ
ĠÎºÎ±Ïģ Î´á½·
Ïĥ Î¼Î±ÏĦÎ±
Î¿á½Ĳ Îº
ĠÏĢá½±Î½ ÏĦÎµÏĤ
Ïĥ á½±
ĠÏĨ Î¿Î²
ĠÏĢÎ¿ Ïĥ
Ïĥá¿ĥ ÏĤ
ĠÎ²Î±ÏĥÎ¹Î»ÎŃ ÏīÏĤ
á½° Î¼
Î³ Î¹Î½
Ġá¼ĲÎ¾ Î±
Ġá½ħÎ» Î·Î½
Ġá¼Ģ ÏħÏĦ
ĠÎµá¼ ·ÏĤ
Ïģá½¹ ÏĤ
ĠÎļá½» ÏģÎ¹Î¿ÏĤ
ÏĦÎ± á¿¦ÏĦÎ±
ÏĥÏĦ Ïī
ĠÏĢÎ¿Î»Î» á¿¶Î½
ĠÏĨ Ïį
Ġá½Ħ Î³
ÏĢÎµÏģ á½¶
ĠÎ¸ÎµÏģÎ± ÏĢ
ĠÎ±á¼°ÏĦ á½·Î±Î½
ĠÎºÎ±ÏĦÎ¿Î¹ Îº
Ġwh ich
á½½ ÏĥÎµÎ¹
á½³Î³ ÏģÎ±
ĠÎ²ÏģÎ±Ïĩ á½º
Ġá¿¥á¾³ Î´á½·ÏīÏĤ
Î» Î¹Î½
ĠÎ²Î¿ Î·Î¸
Î¿ ÎµÎ¹Î´
ĠÎµá¼° ÏĥÎ¹
ĠÎº Î¬
ÏĦÎ¹ ÏĤ
Ġá½ħÎ» Î·ÏĤ
Ġá¼ĦÏģ Î¸Ïģ
Ïģ á¾¶ÏĤ
ÏĥÎ¹ Î±
á½¹Î½ ÏĦÎµÏĤ
Ġá¼ĶÎ½ Î´Î¿Î½
ĠÎ´Ïħ Î¿á¿ĸÎ½
es s
ĠÎºÏģ Î¯
ĠÎºá½·Î½ Î·ÏĥÎ¹Î½
ĵ ÏĤ
Î¿á½ķ ÏĦÏīÏĤ
á½³ Î»Î»
Ï² Î¹Î½
Ïĥ Î¿Î¼ÎµÎ½
Î¿ á½º
Ġá¼¸ Î¿Ïį
ro b
ĠÎ´ÏħÏĥÎº ÏģÎ±
á½³Î½ ÏĦÏīÎ½
ÏĢÎµ ÏĢ
o re
ĠÏĢ Î¿Ïħ
Î² á½±
ĠÎ¼ Î¬
ĠÎµá¼¶ Î´Î¿ÏĤ
ĠÎµá¼°Ïĥ á½¶Î½
Ġá½ĢÏģÎ¸ á¿¶ÏĤ
Ïĩ ÎµÎ¹Ïģ
ĠÏĦÎ± Ïį
ĠÎ¿á¼¶ Î¼Î±Î¹
ĠÎ´Î¿ Îº
ĠÎ½Î¿Î¼ á½·Î¶
ĠÏĨÎ»ÎµÎ² Î¿ÏĦÎ¿Î¼
Î¸ Î±Î¹
Ġá¼ĲÎ½ÎµÏģÎ³ Îµá½·Î±ÏĤ
ĠÎ´á¿Ĩ Î»Î¿Î½
s ic
Ġw ord
Î± á¿ĸÏĤ
Îº ÏģÎ¹
Îµ Ïį
ĠÎ²ÏģÎ±Ïĩ á½·Î¿Î½
ÏĢá½· ÏĥÏī
Ġ u
Ġ x
ĠÎ±á½ĲÏĦ á½¹Î½
ĠÏĢÎ¬Î½ ÏĦÎµÏĤ
ĠÎ´Î¹Î±Î¸á½³ ÏĥÎµÎ¹ÏĤ
ÏĢ ÏģÎ¿
Ġá¿¥ á½±
Ġá½Ħ Î¾
á¼Ħ Î»Î»
ĠÎ±á¼°ÏĦ á½·Î±ÏĤ
ÏĥÏĦ ÏģÎ±
Î»Î» Î¹
Ġm g
Ġá¼ĲÎºÎµá½·Î½ ÏīÎ½
ÏĦ ÏĮ
ĠÎ±á½ĲÏĦ á½¹
ĠÎ¶á½½ ÏīÎ½
ĠÎ³ÏħÎ½Î±Î¹ Îº
Ġ v
ĠÎ¿á½Ĳ Ïĥá½·Î±Î½
Ġá¼ĶÏĩ Î¿Î½ÏĦÎ±
Ġá¼ĶÎ³ÏģÎ± ÏĪÎµÎ½
Î¿á¿Ĩ ÏĤ
Ġ y
ĠÏĩÏģ á¿¶
Ïĥá½· Î±
á½³Ïģ Ïĩ
Ġá¼¡Î¼ á½³Ïģ
Ġá¼ĥ ÏĤ
ÎµÏĥ Î²
Î´ ÏĮ
á½¹Î½ ÏĦÎ±
ĠÎµá½ ķ
Î¿á¿¦ ÏĥÎ±
Ġá¼Ķ Î»Î±Î²
Î¬ ÏĦÏīÎ½
Î¹Îº á¿¶Î½
á½½ÏĥÎº ÎµÎ¹Î½
Ġá½łÏĨ ÎµÎ»
á¼Ĳ Î³á½¼
Î¼ á½·Î±Î½
ĠÏĥ Î·
ĠÎ¼ Î½
ÎºÎµÎ¹ ÏĦÎ±Î¹
Î¬ Îº
Î® ÏĥÏī
Î¿Î¼á½³Î½ Î¿ÏħÏĤ
ĠÏĢÏģÎ¿Ïĥ á½³
ĠÎ³ á½³
Ġá¼ĲÏĢÎ¹ Î´á½³
ĠÏĥÏĦ á½»
ĠÎ³á½³Î½ Î·ÏĦÎ±Î¹
ĠÎ²Î±ÏĥÎ¹ Î»
Î²Î± Î»Î»
ĠÏĦÎ¿Ïħ ÏĦá½³
Îµá¿ĸ ÏĦÎµ
ĠÎ´á½»Î½Î± ÏĦÎ±Î¹
Ġá¼ĲÎ³ÎºÎµ ÏĨá½±Î»
Ġ P
Ïģ Î¿Î¹ÏĤ
á¿¶Î½ Î¿ÏĤ
ÎºÏģ Î¬
Ġá½ķÎ´Î± ÏĦÎ¹
Îµ Î¯Î½
ĠÎ¿á½ ĵÏĤ
Ġá½ĢÏĨÎ¸Î±Î» Î¼
Ġá¼¡Î¼ÎŃ ÏģÎ±ÏĤ
Ġ xx
Ġá¼Ĳ Ï²
Î¿á¿¦ ÏĦÎ±Î¹
á½¹ ÏĦÎµÏģÎ±
ĠÏĥ Ïİ
ĠÎ±á½Ĳ ÏĦÎ±á¿ĸÏĤ
ĠÏĢÏģ ÎµÏĥÎ²
Ġá¼Ħ Î³
Ġá¼´ ÏĥÎ¿Î½
Ġa b
Îµ Î¼
Î» Î±Î½
Î¸ á¿ĨÎ½Î±Î¹
ĠÏĢÏģÎ¿ ÎºÎµÎ¹
ĠÎºÏħ Ïģá½·
Ïĥ ÏĨ
Ġá½ģ ÏģÎ¼
ĠA áµĥ
ĠÏĦÏģ á½³
ĠÎ¿Ïħ ÏĦÏīÎ½
ĠÏĩÎµá¿ĸ ÏģÎ±ÏĤ
á¿ ´
Î· ÏĥÎ¹
ĠÎºÎ±Î» Î¿Ïħ
ĠÎ¸Î±Ïħ Î¼Î±ÏĥÏĦ
ĠÏĥÏĦÎ¿Î¹ Ïĩ
Î¹ ÎºÎ±
á½· Î±Î¹ÏĤ
ĠÏĥ Î±
ĠÏĦÏģÎ¿ÏĨ á¿ĨÏĤ
ĠÏĩÎµÎ¹Ïģ á½¸ÏĤ
ÏĦÎµÏģ á½¹Î½
ÏĥÏĥ Î±Ïģ
ĠÎ³Î½ á½½
ĠÎ¸Ïħ Î³Î±
Ġá¼ĶÏģ Î³Î±
ÏĦÎµ á¿ĸÎ½
at ion
Î±Î½ Î¿Î½
ĠÎºÎ±á½· ÏĦÎ¿Î¹
R T
Î ¥
ĠÎ³ ÏģÎ±ÏĨ
ÏĦÎ¿ á½·
ĠÎ´Î¹á½± Î¸ÎµÏĥÎ¹Î½
Ġá¼ĲÏģÎ³á½±Î¶ ÎµÏĦÎ±Î¹
Ġá½ģÎ¼ Î¿Î»Î¿Î³
ĠÎºÏģ á¾¶
Î³Î½ Ïħ
ĠÏĢÎ±Î½ ÏĦá½¶
ĠÎ³á½·Î³ Î½ÎµÏĥÎ¸Î±Î¹
Ġá¼ĲÎ½ Îµ
Î»Îµ Î³
Ġá¼ĲÎ³ ÎŃÎ½ÎµÏĦÎ¿
ĠÏĢÏģá½½ ÏĦÎ·Î½
ĠÎ¸Ïħ ÏĥÎ¹
ĠÎ¼ÎµÏĦÏģá½· ÏīÏĤ
Ïĩ Î¿Ïħ
ĠÏĦÎ± ÏĢÎµÎ¹Î½
ÏģÎ¿ á½»
ĠÏĨá½±ÏģÎ¼Î± ÎºÎ±
Ġá¼ĶÏģ Î³Î¿Î½
ÏĮ Î¼ÎµÎ½Î¿Î½
Ġá¼¸ Î¿ÏħÎ´Î±
Î¿ á¼
ĠÎ´Î¹ Î¿
Ġs t
Ġá¼ĲÎº ÎµÎ¯Î½
Îºá½³ ÏĨÎ±Î»
ĠÏĦÎµÏĦ á½±Ïģ
Ġá¼ĲÏĥÏĩ á½±
Ġá¼ ©
Î¼ Î¿á¿¤á¿¥
Î¿Î¹ Î±Î½
Î»Î·ÏģÎ¿Î½ Î¿Î¼
á½» ÏĦÎ·
Ġá½¡ ÏĥÎ±á½»ÏĦÏīÏĤ
ĠQ áµĥ
ĠÏĢÏħÏģÎµ ÏĦá¿¶Î½
Î»Î±Î¹ Î¿Î½
Î Ĳ
ĠÎ±á½ĲÏĦ Î¿ÏįÏĤ
ĠÎ´Î¹ ÎµÎ»
ĠÎ»Î± Î¿á¿¦
ÏĦá½± ÏĢÎ±
ĠÎ´Îµ á½»ÏĦÎµÏģÎ¿Î½
ĠT he
ĠÏĢÎ±Î¹ Î´
ĠÎ´ÎµÏħÏĦ á½³Ïģ
Î´ á½»Î»
Î² Î¿Ïħ
ĠÏĩ ÎµÏģ
Ġá½ķ ÏĥÏĦÎµÏģÎ¿Î½
Ġá¿¥ á¿Ĩ
Î¿á¿¦ ÏĥÎ¸Î±Î¹
Ġá¼ĢÎ½ á½³
ĠÎ³Î½ ÏīÏģá½·
Ġá½ĳÎ³Î¹ ÎµÎ¹Î½
ĠÎ´ Îµá¿ĸÏĦÎ±Î¹
á¾¶ Î½
ĠÏĩÏģ á½µÏĥÎ¹
Ġá¼ĲÎ³ Îºá½³ÏĨÎ±Î»
ÏĦÎ¹Îº á½°
Î¸á½³ ÏīÏĤ
ĠÏĥÎ¹ ÏĦá½·
Ġá½ĢÏģÎ³ á½±Î½ÏīÎ½
ĠÏĥÏĢÎ» á½±Î³
. âĢĻ
Î½ Î¿ÏĤ
Î´ Ïħ
Î¿Î¹ Îº
Î»Îµ Îº
Ġá½ħ Î¼Î¿Î¹
ĠÏĢÎ»Îµ á½·Î¿Î½
Ġ Î½Î±
Ïĩ Î·
ĠÏĢ á½¹Î½
Ġá¼¡ Ïĥ
ĠÏĢá¾¶ ÏĥÎ¹Î½
ĠÎºÎ±ÏģÎ´ á½·Î±Î½
Î³Ïī Î³
Ġá¼¸Î·Ïĥ Î¿á¿¦ÏĤ
Ġá¼ĳ ÏĦá½³ÏģÎ±Î½
ĠÎµá¼¶ ÏĢÎ¿Î½
ĠÎ½Î¿Ïĥ Î·Î¼á½±ÏĦÏīÎ½
Î¸ÎµÎ¹ Î±Î½
ĠÏĢÎ¿Î½ Î·Ïģ
Ï² Î¹
ĠÏĥÏħÎ½ á½³
Î¼ á½´Î½
ĠÎº ÏĮ
ÏģÎ± Î¹ÏĤ
ĠÎ¼á½³ Î³Î¹
ĠÎ¿á¼´ Î½
ĠÏĩÏģ á¿Ĩ
ĠÎ¼á½³Ïģ Î·
Ġá¼ĲÏģÎ³Î± Î¶
á½¹ Î»Î¿Ïħ
Ġ2 5
ĠÏħ Î¹
ĠÏĨÎ»ÎµÎ² á¿¶Î½
Ġá¼ĳÎ±ÏħÏĦ á¿·
i ve
Ïī Î³
á½³ ÏĥÏĦÎµÏģÎ¿Î½
Ġa re
á¿ Ħ
á¿ĸ Î¿ÏĤ
Ġá¼ĲÏĢ Î¿
ÏģÎ¹ Ïĥ
ĠÎ¸ á½³Ïģ
Î¶ ÎµÎ¹
Î¿á¿¦Î½ ÏĦÎ¿ÏĤ
Ġpr o
ĠÏĢÎ±Î½ ÏĦá½±ÏĢÎ±
Ġá¼ĢÎ½á½±Î³ ÎºÎ·ÏĤ
Î¿ Î³Î¿Î½
Ġá¼Ħ ÏģÎ±
á½± ÏĥÎ±ÏĥÎ¸Î±Î¹
ÏĮ ÏĦÎ¹
ĠÎ¿á½Ķ Î¸
Ġá¼ĲÏĢÎµÎ¹Î´ á½°Î½
e t
Ġe t
ĠÎ±á¼´ ÏĥÎ¸Î·
Îº Î·Î½
ĠÏĢÏģ Î¿ÏĤ
Ġá¼ĳ ÏĪ
Ġá¼ķ Î½
Î¿á½ Ĺ
Ġá½ģ ÏĢ
Ġá¼ĢÎ½ á½´Ïģ
á½»Ïģ Î½Î·ÏĤ
Î» ÎµÎ¹ÏĤ
á½³Î½ ÏĦÎ±
ĠÏĦ á½³Î½
Ġá½Ģ Î»Î¹
ĠÏĩÏģ á½½
ĠÎ¼ Î·Î½
ĠÎ±á½Ĳ Î¾
ÏĥÎ¸ á¿ĨÎ½Î±Î¹
Îµ á½Ĳ
ĠÏĦ á½¹Î½
Î»Îµ ÏĢ
ĠÏĢ Î¯
ÏĢÎ¿ Î»
Ġá¼ĢÎ³Î³ Îµá½·ÏīÎ½
ĠÎ´Î¹ÎºÎ±Î¹ Î¿Ïĥ
Î¶ Î¿Î½
Ġá¼ĲÏĢÎ¹ ÏĦÎ·
ĠÎŁ á½Ĳ
the r
i ll
ĠÏĢÏģ á½±
ĠÏĥÏħ Î³
Î¼Î½ Î·
ĠÎĽ ÎµÏħ
ÏĢ Ïģá½¸ÏĤ
ĠÏĨ ÎµÏģ
ĠÎµá½Ĳ ÏĨ
âģ ±
. )
Ġá¼Ģ ÏģÎ¹
ĠÎ¸ Î±Î»
Ïģá½· ÏīÎ½
ĠÎ´á½»Î½Î± Î¼Î¹ÏĤ
ĠÏĦ á½¼
ÏĦÎ¹ Î±
Ġa d
ĠÏĢ á¿¶ÏĤ
Î½Îµ Î³
á½¹Î½ ÏĦÎ¿ÏĤ
Ïģá½· Î±ÏĤ
ĠÏĢÎ±Ïģ á½³
Î¸ ÎŃ
Î¬ Î³
Ġá½ĳÎ³ Î¹Î±
á¼Ħ Î»Î»Î±
ĠÎ½Îµá¿¦ ÏģÎ±
ĠÎ¼á¿Ĩ ÎºÎ¿ÏĤ
ÏĦ á¿ĩ
Ġá¼Ħ Î¼ÎµÎ¹Î½Î¿Î½
Ġ2 7
ĠÏĥ ÏĢÎ¿Î½
ĠÎ´Î¹ á½¹ÏĦÎ¹
á¼Ĳ ÏĢÎ¹
Î¾Î± ÏĦÎ¿
ĠÎµá½Ĳ Î¸á½³ÏīÏĤ
ĠÎ£ Î±Î»
ĠÏĦÏģá½· ÏĦÎ¿Î½
Î¼Î¬ ÏĦÏīÎ½
ĠÏĢá¿¦ Ïģ
ÏĦ ÏģÎ±
Î± Î¶
ĠÏĩÏģ Îµá½·Î±ÏĤ
ĠÎ±á¼± Î¼Î¿á¿¤á¿¥
ĠÏĦÎ¿Ïį ÏĦÏīÎ½
Î± á½
Î» Î±ÏĤ
Îº á½·
Ġá¼ĶÏĩ Î¿Î½
Î¼ÎŃÎ½ ÏīÎ½
u m
Ġ J
Î¬ Î²
Ġá½ĳ Î´
ĠÏĥÏħ Î»Î»
Ġá¼ĢÎ½ ÎŃ
ĠÏĨÏħ ÏĥÎ¹Îº
Ġá¼ĢÎ»Î»á½µÎ» Î¿Î¹ÏĤ
Ġ Â
Î¹ á¿¶Î½
ĠÎ»ÎŃ Î³ÏīÎ½
âģ± áµĪ
ĠÏĢ á½µ
á½± Î½ÎµÎ¹Î½
Ġá¼° Î´á½·
ĠÏĥá½» Î¼Î¼Îµ
ĠÏĢÎ±Î¸ á¿¶Î½
Ġ ÏīÏĤ
Ġ up
Î± Î¼
Ġá¼ĢÎ½Î± ÏĥÏĦ
ĠÏĥÎº Î·Î½
ĠÎ»ÏĮ Î³Î¿Î½
ĠÎ´Î¹ Î±Ïģ
ÏĥÎ¹ Î¿Î½
ĠÎ¾ Î±Î½Î¸
n s
ĠÏĢÏģÎ¿ ÏĥÎº
ÏħÎ½ á½¶
Ġá¼ĶÏĩ Î¿ÏħÏĥÎ¹
Î± ÏģÎ±
Ïģ á¿³
Î¿Î¹ ÏĥÎ¹
ÏĦÎ¹Îº Î¿á¿¦
Î¼ á½µ
ĠÎ¸ Î·
ĠÏĦÏģÎ¿ÏĨ á½´Î½
Ġá¼ĢÏģÎ¹ ÏĥÏĦÎµÏģ
Ïĥ ÏīÎ½
ĠÎ´Î¹Î± ÏĨÎ¸
ÏĥÎº Î»Î·
Î´ á½³Ïĩ
ĠÎ´Î¹ Î±Î½
Ġá¼ĳÎ½ á½¸ÏĤ
ĠÏĥÏĢá½³Ïģ Î¼Î±ÏĦÎ¿ÏĤ
ĠÏĩá½½ ÏģÎ±Î½
t ed
á½· Î³Î½
Ïį ÏĤ
Ġá¼ĶÏĩ ÏīÎ½
ĠÎ¼Î½Î· Î¼Î¿Î½
ÏĦ á½»
ĠÏĢÎ¿Î¹ Îµá¿ĸÎ½
ĠÎºÎµ ÎºÎ±Ïħ
Ġá¼ĲÎ½á½³ÏģÎ³ÎµÎ¹ Î±Î½
Îµ ÏĪ
ĠÏĩÏģ Î¿Î½
Ġá¼´ ÏĥÏĩ
ĠÏĥÏĢá½³Ïģ Î¼Î±
ĠÎ»á½·ÏĦ ÏģÎ±Î½
Ġá¼¡Ïĥ ÏħÏĩ
á½¹ Î´
Î² Î¿
ĠÏĢ á½·
ĠÎ¸ Î±Î½
á¼Ĳ Î¾
imp rob
ĠÏĥ Î¿á¿¦
ĠÎºÎ±ÏĦ á½³
Ġá¼ĲÎº ÏĦá½¸ÏĤ
ĠÏĦÎ¹Î½ Î¹
Ïī ÏĥÎµÎ½
Î¯ Î¿Î¹ÏĤ
Ġá¼ķ Î»
ĠÏĥá½½ Î¼Î±ÏĦÎ±
Ġá¼ĢÎ¼ Ïħ
ĠÎ´ á½±Îº
á½¥ ÏĥÏĦÎµ
Î¼ á¿³
Ġthe y
Î¸Îµ ÏĥÎ¹ÏĤ
Ġá¼§ ÏĢÎ±Ïģ
ÏĢÎ½ Î¿á¿ĨÏĤ
Î´ Î·ÏĤ
ĠÏĥ Ïį
ÏģÎµ ÏĥÎ¹Î½
Ġá¼ĢÎ´ á½»Î½Î±
ã Ģ
ĠÏĦ á¼ĦÎ»Î»Î±
ÏĦÎµ á¿¦
Î¿Î¼á½³Î½ Î±ÏĤ
s up
ĠÏĥ ÏĢÎ±
Ġá¼ĲÏĢÎ¹ Î¸ÏħÎ¼
ĠÎ½Î¿Ïĥ á½µÎ¼Î±ÏĦÎ¿ÏĤ
á¿¤á¿¥Ïī ÏĥÏĦ
ĠÎ¿á¼´ ÎºÎ¿Ïħ
Î» Î·Î½
Î¼ á½¼Î½
ĠÏĥÏħ Î³Î³
Î® ÏĥÎ¿Î½ÏĦÎ±Î¹
ĠÏĢÎ¿Î»Î» Î¿á½¶
ĠÏĢá½± Î¸Î·
Ġá¼ĳÏĢ ÏĦá½°
Ïĥ ÏĥÎ¿Î½
Ġá¼ĲÎ»Î± á½·Î¿Ïħ
áµĽ âģ±áµĪ
Ïĩ ÏħÎ¼
Ġá¼ĢÎº Î¿Î»Î¿Ïħ
ÏĦá½³Ïģ Î¿Î¹ÏĤ
ĠÏĢ Îµá½·
Ġá¼¤ ÎºÎ¿Ïħ
Î Ķ
ÏĦ ÏħÏģ
Î¹ á½±
ÏĥÏĦ ÎµÎ¹Î»ÎµÎ½
ĠÎ² Î±Î»
Îµá½· ÏĥÎ·ÏĤ
Ġá¼ĢÏģÏĩ á½°ÏĤ
ÏĥÎ± Î¼ÎµÎ½
ĠÏĦÎ¹Î½ á½²ÏĤ
Ġá¼ĲÏĩ á½¹Î½ÏĦÏīÎ½
ĠÏĥÏħÎ¼ÏĢ ÏĦá½½
Ġá¼¥ÏĢÎ± ÏĦÎ¿ÏĤ
Î´ ÎŃ
Ġá¼Ĳ Î¸á½³
á½± ÏĤ
ÏĦÎŃ ÏģÎ±
ĠÎ»ÎµÏĢ ÏĦÎ¿Î¼
ÏĢ á½¶
Î³ Î¼á½±ÏĦÏīÎ½
ĠÎ¼ ÎŃÎ½
ĠÎ¸á½½ÏģÎ± ÎºÎ¿ÏĤ
Îº Î¿Î¹ÏĤ
ĠÏĩÎµá¿ĸ ÏģÎ±
1 1
á½±Î½ ÎµÎ¹
Îµá¼° ÏĤ
Ġá¼ĲÏģ Ïħ
ĠÏĢÏģÎ¿Ïĥá½µ ÎºÎµÎ¹
ĠÎ´ Î¿á¿¦
Ġá½Ģ ÏĢá½·ÏĥÏī
Î® Î¸Î·
ĠÎ¸ÎµÏģÎ±ÏĢÎµ Ïħ
Î¿Ïħ Î½
Î² ÎµÎ²
ĠÏĥÏĦ ÏĮ
Ġc l
Ġth ou
Î¼ Î¼Î±
Î² Î¬
Ġá¼ĲÏĢ á½³
Î¶ ÏħÎ³
ĠÏĥÎº Î¿
ĠÏĢÎ±Î½ÏĦá½±ÏĢÎ± ÏĥÎ¹Î½
ĠÎ´Î¹ ÎµÎ¾
á½·Î½ ÏīÎ½
Ġá¼ĦÎ»Î» ÏīÏĤ
Ġá½ħÎ» Î¿Ïħ
ing s
ĠÏĥÏĨÏħÎ³Î¼ á½¸ÏĤ
e k
ÏĦÏĦ ÎµÎ¹
ĠÏĢÎ½Îµá½» Î¼Î±ÏĦÎ¿ÏĤ
á½³Î» ÏĦÎ¹Î¿Î½
ÎºÎ± Ïģ
a h
ÏĦ ÏĦÎ¿Ïħ
Ġá¼ Ļ
Îµá½· á¾³
Ġá¼° Î´á½³
ĠÎ¼ÎµÏĦÎ± Î²Î¿Î»
Ġá¼ĺ ÏģÎ±
ĠÎ´á½µ ÏĢÎ¿Ïħ
ĠÎ´Ïį Î¿
ÏĢ Ïħ
ÏĮ Î¼ÎµÎ½Î¿Î¹
Ġá½ķ ÏĢÎ½
Ġl it
ĠÎºÎ¿Î¹Î½ á½¸Î½
ÏĦ á¿Ĩ
ÏģÎ± á½¶
á½µ ÏĥÎ±ÏĤ
ĠL xx
Ġ us
Ġá¼ĢÎ¼ÏĨ Î¿á¿ĸÎ½
Î ©
Ïĥ Î¬
ĠÎ¼á½³ Î³Î±
á½³Ïĩ ÎµÎ¹Î½
Ġá½ĢÏĥÏĦ Î¿á¿¦Î½
ÏĥÏĦ Î¹ÏĤ
Î»Î¹ Î²
Ġá¼ĦÎ»Î» Î·
ĠÏĢÎ±ÏģÎ± Îº
ĠÏĨÎ±ÏģÎ¼á½± ÎºÎ¿Ïħ
ĠÏĨÏīÎ½ á¿ĨÏĤ
Ġá¼´Ïĥ ÏīÏĤ
ĠÎ¿ ÏĦÎ¹
ĠÏĢÎ¿Î»Î» á¿·
ĠÏĢÎ¿Î»Î» Î¿á¿ĸÏĤ
Ġá¼ĶÎ´Ïī ÎºÎµÎ½
ÎµÏģ Î¿Î½
á½¹Î½ ÏīÎ½
ĠÎ´Î¹Î± ÏĨ
ÏĦÏī ÏĥÎ±Î½
ĠÎµá¼°Ïĥ á½¶
ĠÏĦÏģÎ¹ á¿¶Î½
Î» á½¹Î³
ĠÎº Î»
ĠÎ² ÎµÎ²
ĠÎ±ÏħÏĦ Ïī
ĠÎ»Î¹ Î¸
Ġá½ģÏĢ Î¿á¿ĸ
Î½ Î·Î½
Ïĥ á½·Î½
ĠÎº Î»Î·ÏģÎ¿Î½Î¿Î¼
ÏĨ ÏģÎ¿Î½
Ġá¼Ķ ÏĥÏī
ĠÏĢÎ¿ Î»Îµ
Ġá¼ĢÎ½ ÏĦá½¶
ÎºÏģ Î¹Î½
Î»Î¿ Î³Î¿Î½
Ġá¼ĲÎ³ÎºÎµÏĨá½±Î» Î¿Ïħ
ĠÎ¿ ÏħÎº
ĠÎºÎ±ÏĦ ÎŃ
Îµá¿ĸ Î±Î½
ĠÎ´Î¹Î± á½·
Î¿Î¼á½³Î½ á¿³
ĠÎ¸ÎµÏģÎ¼Î± Ïĥá½·Î±ÏĤ
Ïħ ÏĤ
Ïī ÏĥÎ¹ÏĤ
ĠÎ³ á¿ĩ
ĠÎ¼Î· Î´Îµ
ĠÎļÏį ÏģÎ¹Îµ
á½µÏĥÎµ ÏīÎ½
ĠÎ¸ÏħÏĥÎ¹ Î±ÏĥÏĦ
Ġ X
Ġá¼Ĳ ÏĥÎ¸
ĠÎ²Î»á½± Î²
ÏĥÎµ ÏĥÎ¸Î±Î¹
Î»Î¹ ÏĢ
ÏĥÎ±Î½ ÏĦÎ¿
ĠÎ±á½ ĳ
ĠÎ´Î¹Î´Î± Ïĥ
Î´ á¿¶Î½
Î¼á½³Î½ Î¿Î¹
Î»á½± ÏĦÏīÎ½
ĠÏĦÎ¿Î¹Î±á½» ÏĦÎ·Î½
ĠÎ´Î¹ ÏĦÏĦ
ĠL ord
Î±Ïģ Ïĩ
ĠÏĥÏħ Î³Ïĩ
ĠÏĢÎ±Î¹ Î´á½·
Ġ ÏħÎ¼
ĠÏĦ Î¿ÏħÏĤ
ĠÎ±á½ĲÏĦ á½´
Ġá¼Ķ ÏĥÏĩ
ÏĦÎµá¿¦ Î¸ÎµÎ½
Ġá¼ĲÎ³ ÎµÎ½
Î¸ Î·Î½
á¿¶ ÏĥÎ¹
Ġ2 8
Î³Î³ Î¿ÏĤ
ĠÎļÏħ ÏģÎ¹Î¿ÏĤ
ĠÏĩÎ¹ ÏĦá¿¶Î½
á½µ Ïĥá¿ĥ
ĠÎµá½ĳ Ïģá½·ÏĥÎº
Ġá¼ĦÎ½Ïī Î¸ÎµÎ½
ĠÎ»Î¿Î³ Î¹ÏĥÎ¼
ĠÏĥÏħÎ¼ Î¼á½³
ĠÏĨÎ»á½³Î² Î±ÏĤ
Î¿ Î¹Î½
Ïħ ÏģÎ¿
ÏĪ Î¹ÏĤ
ĠÎ¼ÏĮÎ½ Î¿Î½
ĠÏĢÎµÏģÎ¹Îµ Ïĩ
ĠÎ»ÎµÏĢÏĦÎ¿Î¼ ÎµÏģ
ĠÎ¼á½³ Î³
ĠÎ±á½ Ķ
ĠÎ±Ïħ ÏĦÎ¿Î½
ĠÏĢÎ»Î· Ïģ
á½³Î³ÏģÎ± ÏĢÏĦÎ±Î¹
Ġá¼Ģ á¿¤á¿¥ÏīÏĥÏĦ
Î½Îµ ÏĥÎ¹Î½
ĠÎ¿á½ĲÎº á½³
Ġá¼± Î´Ïģ
ÏĩÏīÏģ Îµá¿ĸ
ĠÎ±á½ĲÏĦ Î¿á½»ÏĤ
ĠS y
ĠÎ»á½·ÏĦ ÏģÎ±ÏĤ
p p
ÏĨ Î·
á¿Ĩ Î»Î¸Î¿Î½
ĠÎ¸Îµ á¿·
Ġá½ĳÎ¼ Îµá¿ĸÏĤ
ÎºÎ¿ ÏĥÎ¹
Ġá¼ĳÎºá½± ÏĦÎµÏģÎ¿Î½
Ġ [
Ġá¼Ĳ Î´Îµ
á½· ÏĥÎº
Î¿á½» ÏĥÎ±ÏĤ
ĠÎ±ÏħÏĦ Î¿ÏħÏĤ
ĠÏĢÎ¬Î½ ÏĦÏīÎ½
ĠÏĩÎµÎ¹ Î¼á¿¶Î½
Ïĥ ÏĥÎ·ÏĤ
ĠÎ»Î± á½¸ÏĤ
ĠÎºÎ¿Î¹Î» á½·Î±ÏĤ
Î½ Î¹
ĠÏĦ á½»Ïĩ
Ġá¼ĲÏĢ Î¿Î¹
á½½ Î¼Î±ÏĦÎ±
ĠÏĩÏģ Îµá½·Î±Î½
Ġm ea
Ĺ ÏĦÎ±Î¹
á¼ ħ
ĠÏĥ á½±Ïģ
ÎµÎ½ á½¸ÏĤ
ĠÏĢÏģ á½±Î³
ĠÎ½ ÏħÎº
Ġá¼ĲÎ¾ ÎµÎ»
á¼Ģ Î½Î±
ÏĦÎ¹Îº Î¿á¿ĸÏĤ
ĠÎ¾Î· ÏģÎ±Î½
ĠÎ´ÏħÎ½á½±Î¼ ÎµÎ¹ÏĤ
Ïī Ï²
Î¯ ÏīÏĤ
ĠÏĨ Î·ÏĥÎ¹Î½
ÏĪ Ïī
Ġá¼¡Î¼ ÎŃÏģ
Ġ2 9
ĠÎºá¾Ģ Îº
Î¹ÎºÎ± á¿¦ÏĦÎ±
s a
Ïĩ Î±Î»
ĠÏĨ Î·ÏĥÎ¹
Î»Î¹ ÏĤ
ÏĦÏī Î¼Î±
ĠÏĦÎ¿á¿ĸ ÏĥÎ¹
ĠÎµ ÏĢÎµ
á¼Ĳ ÏĨ
Î³Î± Î³
ĠÏĩÏģá½¹Î½ Î¿Ïħ
Ġá¼ĢÎ»Î»á½µÎ» ÏīÎ½
f or
Î¸ ÏīÎ½
Î¼Î± ÏĦ
Ïģá½¹ ÏĦÎ·ÏĤ
Î¼ÏĨ Ïī
Ġá¼¸ÏĥÏģÎ± á½µÎ»
ĠÎļÏħ Ïģá½·Î¿Ïħ
ĠÎº ÏĤ
ĠÎ´Î¹ á½³
ÏĦÎ¿ á½¶
ĠÏĢÎ± ÏģÎ±Ïĩ
ĠÏĢá¾¶ ÏĥÎ±
Ġá¼ĲÎºÎµá¿ĸÎ½ Î¿
ĠÏĢÏģÎ¿ÏĥÎ± Î³Î¿
Î± Ïĩ
Î¹Îº á½¸Î½
Î» Î¿Î¹ÏĤ
ĠÏĦá¿· Î´Îµ
Î·Ïĥ Î¿Î½
Î´Î¹ Î´
Ġá¼ĳÎ»Îº á¿¶Î½
c c
Ġ i
ÏĢ Î»Î·
ĠÎ¼ Î¹Î³Î½
ÏģÎ± Î³
Î±Î½ Î¹
Ġá¼ĢÎ³ Î½Î¿
Ġá¼ĲÏĢÎ¿á½· Î·ÏĥÎµÎ½
Î Ĺ
á½ ķ
Ïģ ÏĮÎ½
ĠÎ³ ÏģÎ±Î¼
Î¯ Î¿ÏħÏĤ
Ġá¼Ķ Î»Î±Î¹Î¿Î½
Î»Îµ ÎºÏĦÎ±Î¹
Ġá¼ĶÏĩ Î¿ÏħÏĥÎ¹Î½
á½±Î» Î¿Î³Î¿Î½
ĠÏĢÎ¿Î» Ïħ
Ïģ Î¿á¿ĸÏĤ
á½³Î½ ÏĦÎµÏĤ
ĠÏĢá¾¶ ÏĥÎ¹
0 Â¹
l d
Î± Î´
ĠÏĦ Î¬
ÏĢ Î½Îµ
Ġá¼ĲÎº ÎºÏģá½·
Ġá¼´ Î´Î¹Î¿Î½
Ġá¼ĢÎ» Î³
ÎµÎ¹ Î±
Ġá¼¸ Î±Îº
ĠÎºÎ±Î¹ Ïģá¿·
Ġre nd
Î¿Ïħ ÏģÎ³
Ġá¼Ģ Î»Î·
ÏĥÎµ ÏĥÎ¹
Ġá¼ĲÎº ÏĦÎµ
ÏĥÎ± ÏĨ
Îº Î¿ÏħÏĤ
ĠÏĢ á½³ÏģÎ±
ĠÎ³ á½·Î³Î½
Ġá¼ĲÏĢÎ¹ á¿¤á¿¥
ÎºÎ¿ Î´Î¿Î¼
Î¼ á¿ĨÏĤ
ĠÏĢ Î·
ĠÎ³ ÎŃÎ½
ĠÎ³ Î»á½·
ĠÎ» Î¿Ïħ
Ġá½ģ ÏĢá½¹
Ġ3 1
ĠÎ¿á½ĲÏģÎ±Î½ Î¿á¿¦
Îº Ïħ
Ïĩ á½½
ĠÏĥÏĩ ÎµÎ´
ĠÏĩÎµÎ¹Ïģ á½¶
Î¸ á¿ĩ
Ġá¼ĲÏĢ ÎŃ
Îµá¿ĸ Î½Î±Î¹
Ġá¼ĢÎº Î¿Ïį
Î¸ Î·ÏĤ
á½³ ÏĤ
ĠÎ´á½³Ïģ Î¼Î±ÏĦÎ¿ÏĤ
Ġá¼ĶÏĨ Î·
ĠÏĢÏģÏĮ ÏĥÏī
ĠÎ¿á½ĲÎ´Îµ á½¶ÏĤ
ĠÎ´ Ïİ
á½µ Î¼Î±ÏĦÎ¹
ÏĪ ÎµÏĦÎ±Î¹
Î¼ÏĨ Ïħ
Î³Îµ Î³ÏģÎ±Î¼
ĠÎ²Î¹Î²Î»á½· Î¿Î½
ĠÏĢÎ±ÏģÎ±ÏĢÎ» Î·Ïĥ
Ġá¿¥ Î·ÏĦ
Ġá½Ħ ÏģÎ³
ĠÎºÎ¹Î½ á½µÏĥÎµÎ¹ÏĤ
ĠÎ´á½»Î½Î± ÏĥÎ¸Î±Î¹
Î¾Î± ÏĥÎ¸Î±Î¹
ÏĦÏģÎ¹ Îº
Îº ÎµÏĤ
ĠÎµá¼¶ Î½Î±á½·
Ġthe m
ÎºÎ» á¿³
ĠÏĩÎ¹ Î»Î¹
ĠÎ³Î»á½· ÏĥÏĩ
ĠÎ´ Î±
ĠÏĥÏħ Î¼Î¼Îµ
ĠÏħá¼± Î¿á¿¦
ĠÏĦá¿Ĩ Ï²
Î¼Î± Î»
Ġá¼ĳ Î±Ïħ
ha p
Ġá¼ĢÎ´ÎµÎ» ÏĨÎ¿
Ġá¼¡Î¼ÎŃÏģ á¾³
ĠÏĢÎ¿Î¹ Îµá¿ĸ
ĠÏĥÏħÎ½ ÏĦÎµ
ÎºÎ¿ ÏĥÏĦ
ĠÎ¼ÎµÏĦ Ê¼
ĠÏĥÏĢÎ¿Î½ Î´á½»Î»
g e
ĠÎ¿á½ĲÎ´ á½³
Î¿á½ĲÎ´ á½²
ÏĢÎ¿ ÏģÎµÏħ
Ġá¼ĢÎ¼ á½³
ĠÏĥÎ·Î¼ Îµá¿ĸÎ¿Î½
Î· Î¸Î·
ĠÏĢ ÎµÎ¹
Ġá¼ĲÏĢ Î¯
ÏĢÎ± ÏģÎ±
ĠÎºÎ¿ ÏĦá½»Î»
Ġá¼ĲÏĢÎ¿Î¯ Î·ÏĥÎµÎ½
Îº ÏĦÎ±
ÏĦÎ± Î¾ÎµÎ½
ÏĥÏĦ ÏīÎ½
ĠÏĨ ÏģÎµÎ½
ĠÏĥÏħ Î¶ÏħÎ³
ĠÎ¸ÎµÏģÎ¼ Î¿á¿¦
ĠÎ¼ÎµÎ³ á½³
ĠÎł Î»á½±ÏĦÏīÎ½
ĠL XX
Î´ á¿Ĩ
Ġá¼ĳ Ïģ
Ġá¼ĲÏĥÏĦ á½·Î½
Î´Îµ ÎºÎ±
ĠÎ½ Ïī
ĠÎºá¾ĢÎ½ ÏĦÎ±á¿¦Î¸Î±
á¿ĸ Î¿Î¹
ĠÏĦÎ¿á¿ĸ Ï²
Ġá¼ķÎ»Îº Î¿ÏĤ
all y
Ġá¼ĦÎ½Î´ ÏģÎµÏĤ
ĠÎ³á½³Î½ Î¿ÏħÏĤ
ĠÎ³Î½ Ïī
Îºá½¹ ÏĦÏīÏĤ
ĠÎ±Ïħ ÏĦÎ·ÏĤ
p l
s o
ÏĦ ÏħÏĩ
ĠÎº ÏħÏģÎ¯Î¿Ïħ
ĠÏĢÎ± ÏĦ
á½¹ÏĦÎ· ÏĦÎ¹
Î¼ Î·ÏĤ
Î´ Îµá¿ĸ
ÏĨ ÎµÎ¹
Ġá¼ĲÎ½ ÏĦá½¸ÏĤ
Î»Îµ Î¸
ĠÎ³ÎµÎ½ Îµ
ĠÎ´Î¹Î±ÏĨÎ¿ ÏģÎ·
ĠÎ¼á½» ÎµÏĤ
Î¸ Î±Ïģ
ÏĦÎ± Î¯
ĠÏĥ ÏĦÎµÏģ
ĠÎĴ Î±Î²
ĠÎ³á½³Î½ ÎµÏĥÎ¹Î½
Î³ÏģÎ± ÏĨ
ĠÏĢá½³ ÏĨÏħÎº
Î¾ ÎµÏĦÎ±Î¹
ĠÏĢÎ¿ ÏĦÎ±
ÏĦá½³Ïģ á¿³
Ġá¼¦ ÏĥÎ±Î½
x t
ÏĦ ÏģÎ¿
á¼ ĤÎ½
Îµ á¿¦
Ïģ ÏħÏĢ
ĠÏĢ á½³Î½
ĠÎµá¼´ ÏģÎ·
Ġá¼ĶÎ½ Î´ÎµÎ¹
ĠÎķ á¼°
Î´ ÏģÎ¿
Î±Î¹ Î¿Î½
Ġá½ģÎ´ á½¸Î½
Î½ á½¹
á½» ÏģÎ¿Ïħ
ÏĥÎºÎ»Î· ÏĢÎ¹
á½ Ħ
Ïģ Î¿Î¹
ĠÏĦ Î¿Î¹ÏĤ
á¿¶Î½ Î±Î¹
á½½ ÏĢÎ¿Ïħ
Î¼ÏīÎ½ Î¹
ĠÏĢÎ»Î· Î³
ĠÎ½á½¹Ïĥ Î·Î¼Î±
ÏĢ Î¯
Î¼ Î¿ÏħÏĤ
ÏģÎ¹ Î¶
ĠÎ¸ Î¬
ĠÎ¸ ÏħÏĥ
ĠÎºÎµ Î»Îµá½»
Ġá¼¸ÎµÏģÎ¿ÏħÏĥÎ±Î» Î®Î¼
Ïĩ ÏīÎ½
Ġá¼Ħ Î¼ÏĨÏī
Ġá¼ĲÏĢÎ¹ Î³
ĠÎ¼á½³ Î»Î»
i b
Î¾ á½±
Ġh is
Î¿Î½ Î¿
Î¾ Î¿Î½
Ġá¼°ÏĥÏĩÏħÏģ á¿¶ÏĤ
a A
ĠÎ³ Î¬Ïģ
ÏĢÎ¿ ÏĦÎµ
Î·Ïĥ Î±ÏĤ
Î¿á½» Î¼ÎµÎ½Î¿ÏĤ
Ġï ¬
Ïĩ Ïī
á½´ Î¼
á½µ ÏĥÎ¿Î½ÏĦÎ±Î¹
Ġá½ĢÎ´ ÏħÎ½
Ġá¼ĢÎ´ Î¹Îº
Ġá¼ĢÎ¸ Ïģá½¹
Îº ÎµÎ¹Î½
á¿ĸÎ½ Î¿Î½
ĠÏĦá½³Ïĩ Î½Î·ÏĤ
Î¹Îº Î¿á¿ĸÏĤ
ĠÎ½ Î¿á¿¦Î½
Ġá¼ĦÎ»Î» Î¿Î¹
ĠÏĩÎ± Î»ÎµÏĢ
Ġá¼¡Î¼á½³Ïģ á¾³
ÏĨ Îµ
Îµá½· Î¿Î¹ÏĤ
Î¿Î» á½´Î½
Î³Î± Î³ÎµÎ½
ĠÎĻ Ïī
Ġá¼ĳÎ±ÏħÏĦ á¿¶Î½
ĠÎ»á½³ Î¾Î¹Î½
Î¼ á½¹Î½
ĠÎ± ÏĢÎµ
ĠÎ±á½ĲÏĦ á½µÎ½
ÏĨÎ¸ Î±Î¹
ĠÎ¾Î·Ïģ á½¸Î½
ÏģÎ¼ á½¹
Ġá¼ĶÎ¸ Î½Î·
Ġá¼ĲÏĩÏģ á¿ĨÎ½
Ġá¼¸Î¿Ïį Î´Î±
Ġá½ĦÎ¾ Î¿ÏħÏĤ
) .
a k
ÏĥÎ±Î½ ÏĦÎ±
ÏĦÎ¹Îº á½´
Î¼Î¹ ÏĥÏħ
Ġá¼ĢÏģÏĩ á¿ĩ
ĠÎ»ÎŃ Î³
ĠÏĢÎ»Î·Ïĥ á½·Î¿Î½
ĠÏĢ Î»Î·Î¸
Î¸ ÏģÎ±
Ġá¼ħÏĢÎ± ÏĥÎ¹Î½
ÏĨ ÎµÎ¹Î½
á½µ ÏĥÎ±ÏĦÎ¿
Î»Îµ Î¯
ĠA nd
Ïģá½¹ ÏĦÎ±
ÏĮÎ½ ÏĦÎµÏĤ
Ġá¼ĲÎ¼ÏĢ ÎµÎ¹
ĠÎ´Î¹ Î·Î³
ĠÎ¼ÎµÎ³ Î¬Î»
ou r
ĠÎ±Ïħ ÏĦÏīÎ½
ĠÎ´ÏħÎ½Î± ÏĦá½¸Î½
Ġá¼ĢÏĥ ÏĨÎ±Î»
am e
Ġá¿¥á½± Ïĩ
ĠÎĴÎ±Î² ÏħÎ»
ĠÏĨ ÏģÎ¿Î½
Ġs ome
Ġá½ĢÎ½Î¿Î¼á½±Î¶ ÎµÎ¹Î½
Î´Îµá½·ÎºÎ½Ïħ ÏĦÎ±Î¹
Ġá¼ĶÎ»Î±Î² ÎµÎ½
Ġá¼Ĳ Î¸Îµ
ĠÏĦÎ¿á¿¦ Î´Îµ
Ġá¼Ķ ÏĨÎ±
Ġá¼ĲÎ¾ ÎŃ
ĠÏĪ ÎµÏħ
ĠÏĪ á½»Ïĩ
Ġá½ĦÎ½ ÏĦÏīÎ½
ĠÎ¼Î¿Ïģá½· Î¿Î¹ÏĤ
ĠÎ¸á½½ÏģÎ± ÎºÎ±
ĠÏĩÏģ Îµá½·Î±
ĠÎµá¼¶ ÏĢÎ±Î½
Ïģá½¹ ÎºÎ¿Ïħ
ĠÎºÏħ ÏģÎ¹
ÏĦá½µ Î´ÎµÎ¹
ĠÏĥÏĨÏħÎ³Î¼ á½¸Î½
ĠÎ½Îµá¿¦ ÏģÎ¿Î½
Î± Î¯
Î¹Îº Î¿á¿¦
ĠÎ¸Îµ ÏĮÏĤ
ĠÏĢÏģÎ¿Ïĥ Ïİ
ĠÎºÎ±Î¹ Ïģá½¸Î½
Ġá¼°Î± ÏĦÏģÎ¹Îº
ĠÎºÏģá¾¶ ÏĥÎ¹Î½
ĠÎ±á¼±Î¼Î¿á¿¤á¿¥ Î±Î³
ĠÎ³Îµ Î³
ĠÏĢÎ¿Î¹ á¿ĨÏĥÎ±Î¹
ĠÎ£ Îµ
á½¹ÏĦÎ± ÏĦÎ¿Î½
Ġá¼ĢÎ½Î¸ÏģÏİ ÏĢÎ¿Ïħ
á½ į
Ïĥ Î´Îµ
ÏĢ ÎŃ
Ġá¼ĲÎ½ Ïİ
Î»Îµ ÏĥÎµÎ½
ĠÎ² Ïģ
Ġá¼ĢÏĢÎ¿ Î´Îµá½·
Ġá½ĦÎ½ ÏĦÎ±
ÎºÎ¹ ÏĥÏĦÎ±
ĠÏĦÎ¿Î¹Î¿á¿¦ ÏĦÎ¿ÏĤ
ĠÎ´Î¹Î±Ïģ Î¸Ïģ
ÏĢ á¿¶ÏĤ
ĠÎ´ Ïģ
Î½Îµ ÏĤ
Ġá½ĳÎ³ ÏģÎ±
ĠÏĦá½¹ ÏĢÎ¿Î½
ĠÎ´Î¹Î´ á½±ÏĥÎº
Ġá¼ĢÎ½Î¸Ïģá½½ ÏĢÏīÎ½
ost ea
e ct
ĠÎ´ ÎµÎ¹
á½· ÎºÎ±
Ġá¼ĲÎ³ ÏĩÏīÏģÎµá¿ĸ
ĠÏĥÏħÎ½ Î¹
ĠÏĨÎ»ÎµÎ³Î¼Î¿Î½ á¿ĨÏĤ
ĠÏĥÏĨÎ¿Î´Ïģ á¿¶ÏĤ
ÎºÎµá½· Î¼ÎµÎ½Î¿Î½
ĠÎ£Î±Î» Ïī
ĠÎ´ Î¿Ïħ
ĠÎ³ á½±Î»Î±
ĠÎºÎ±Î¸ á½¼ÏĤ
ĠÏĢÎ±Ïģ á½±
Ġver b
ĠÎ¼á½³Î»Î¹ ÏĦÎ¿ÏĤ
Î¼ Î¿Î¹ÏĤ
ÎºÎ± ÏĦÎµ
Î´Îµ Îºá½±
ÏĦÏģ Î¿ÏĤ
ĠÏĢÎ» á½±
ĠÏĩÎ¿Î» á¿ĨÏĤ
ĠÏĦÎ·Î½ Î¹ÎºÎ±á¿¦ÏĦÎ±
Î¹ Î±ÏĤ
Ġá¼Ģ Î¼Îµ
if f
Ġá¼ĢÏĨÎ¿ ÏģÎ¹ÏĥÎ¼
e c
Ġá¼ ī
ĠÎ±á¼° á¿¶Î½Î±
Ġá¼Ī ÏĥÎºÎ»Î·ÏĢÎ¹
Ġá¼ĶÎ½ Î¸Î±
ĠÏĦÏģ Î¯
Ġá¼ĳ ÏĦá½³ÏģÎ±ÏĤ
ĠÏĦÎ¹Î½ Î±ÏĤ
ĠÏĥÎº Î¹
ĠÎĶ Î¹
Ġá¼°Î±ÏĦÏģ Î¿á¿ĸÏĤ
ĠÏĢÎ±ÏģÎµ Î¼Î²
ĠÏĦÎ±Ïĩ á½³ÏīÏĤ
S S
n ing
Ó Ħ
Ġá½ĳ Î´Î±
ĠÎ´Î¹Î±ÏĨÎ¿Ïģ á½°ÏĤ
Ġá¼ĲÎ½Î±Î½ÏĦá½· Î¿Î½
Î¬ ÏĢÎµÏģ
ÏģÎµ ÏīÏĤ
Ġp er
ĠÎµá½Ĳ Î»Î¿Î³
ÎºÎ¿ Ïį
ĠÏĢÎ½Îµ Ïį
ĠÏĢÎ¬Î½ ÏĦÎ±ÏĤ
á¼ĲÏĢ ÎµÎ¹Î´
ĠÏĢÎµÏĢÎ¿Î½Î¸ á½¹
Ġá¼ĲÎ³Îºá½³ÏĨÎ±Î» Î¿Î½
ĠÏĦ Ïģá½±
Îº ÏĦ
Ġá¼ģ Î»
ĠÏĢÎµÏģÎ¹ ÏĦÏĦÏī
Î¼Î¹Î½ Î¸
A F
he r
ÏħÏĦ á½³Ïģ
Î³Î½ ÏīÏĥÎ¹Î½
ĠÏħá¼± Î¿á¿ĸÏĤ
ĠÎ»á½³Î³ ÎµÎ¹
Ġá½ĢÏĨÎ¸Î±Î» Î¼á¿¶Î½
ĠÏĦÎ±á¿¦ ÏĦ
ĠÏĢÎ±ÏģÎ±Ïĩ Ïģ
ĠÏĥÏĩÎµÎ´ á½¸Î½
1 0
Ġ N
ĠA a
á½±Î½ Î·ÏĤ
Ġá¼ĢÎ½ Î¿Î¼
ĠÎ¿á¼´ Îºá¿³
ĠÎº ÏħÎº
ĠÎ´Î¹ ÎºÎ±
ĠÏĨ Î¿Ïģ
Ġá¼ĢÎ½Î± Î²
Ġl i
t o
Ġ âĻĥ
Î¿ Ï²
Î¿Ïħ Î¼á½³Î½ÏīÎ½
Ġá¼Ģ á¿¤á¿¥
Ġá¼ĲÎ¾ Î±á½·
Ġá¿¥ Î¹Î½
ĠÎºÎ±ÏĦÎ± ÏĥÏĦá½±
ĠÏĢÏħÏģÎµ ÏĦá½¸ÏĤ
ĠÎ§ ÏģÎ¹ÏĥÏĦ
ĠÎ´ÏħÎ½á½±Î¼ ÎµÎ¹
ĠÎ¼ÎµÎ»Î± Î³Ïĩ
Î¼ Î±Î½
Î¼ ÏĢÎ¿
á½» Î½Î±Î¹
ĠÏĩ á½¹Î½
Ġá½Ģ Î»Î¯
Î±Îº Î¿á¿¦
Î¼Î½ Î·Î¼
Î¿Î¼ÎŃÎ½ ÏīÎ½
Ġá¼¸ÎµÏģÎ¿ÏħÏĥÎ±Î» á½´Î¼
Ġá¼ Į
Î¼Î± ÏĤ
Ġá¼Ķ ÏģÏĩ
ĠÎµá¼° Î¼Î¹
Î¶ ÎµÏĥÎ¸Î±Î¹
ĠÎºÎ±Î¸ á½¹Î»Î¿Ïħ
á¼Ģ ÏĢÎ¿
Ġha s
ÏĦ ÏģÎµ
á½³ ÏĥÎ¸Ïī
ÏĥÏĦ Î·Î½
ĠÎ¸ Î»á½·
ĠÎ´Î¹Î± Î³Î½
ĠÏĢÎ± á½»
Ġá¼° á½±
ĠÎº á½½
á½³ Î¿ÏĤ
Ġá¼ĢÏĢ Ê¼
ĠÎµá¼´ Ïī
ÏĢÏĦÎµ ÏĥÎ¸Î±Î¹
Ġá¼Ĳ Î»Îµ
á½· Î·
á¿¶Î½ ÏĦÎ±Î¹
Î»Î» Ïħ
Î»Î± Î¼
Ġá¼ģ ÏĨ
Ġc om
Î¾ Î·
Î¼á½³Î½ á¿ĥ
ĠÏĦÎµ ÏĦÎ±
ĠÎ² á½³Î»ÏĦÎ¹Î¿Î½
ĠÏĦÎ¿ á½Ķ
Ġá¼ĢÎ½ Ïī
á½¹Î¼ÎµÎ½ Î±Î¹
Ġá¼ĲÎ¼ÏĨ á½»
ĠÎµá¼° ÏĥÎµ
Ġá½Ģ Ïģ
Ġá¼° Î´Î¹
ĠÏĪÏħÏĩ á½´Î½
ĠÏĦÎ±á½» ÏĦÎ±ÏĤ
Ġá¼ķÎºÎ± ÏĥÏĦÎ¿ÏĤ
ĠÎ´Î¹Î´Î±Ïĥ ÎºÎ±Î»
p t
ĠÏĦÎ¿á½» ÏĦÎ¿ÏħÏĤ
ĠÏĥÏħÎ½ Î¸á½³
Î´ÎµÎ¹ ÎºÎ½
ĠÎºÏī Î»á½»
ĠÏĦÎ±á½Ĳ ÏĦá½¸Î½
ÏĦÏĦÎµ ÏĥÎ¸Î±Î¹
ĠÏĢÎ±ÏģÎ±ÏĩÏģ á¿ĨÎ¼Î±
Ġá¼ĲÎ½ Î¹
á½µ Î³
ĠÏĩÏģ á½µ
ĠÏĥÏħÎ¼Î²Î± á½·Î½ÎµÎ¹
ĠSy r
á½ ī
ĠÎ ¡
âĢĻ .
ÏĦÎ¹ Ïĥ
ĠÏĦÎµ ÏĩÎ½
Î® Î¼Î±ÏĦÎ±
ĠÏĢÎ± á¿ĸ
Ġá¼ĢÏĢÎ¿ Î¸Î±Î½
Î¸Î· ÎºÎµÎ½
Ġá¼ħÏĢÎ±Î½ ÏĦÎµÏĤ
ĠÎ±á¼´ÏĥÎ¸Î· ÏĥÎ¹Î½
á¼ µ
Îº ÏīÏĤ
ĠÎ¼ ÎµÏģ
ĠÏĩÏģ ÏĮÎ½
Î¸Ïģ Î¿Î¹
ĠÎ¿á½Ķ ÏĥÎ·ÏĤ
Ïĥá½· ÏīÎ½
ĠÎ¼ÎµÎ»Î±Î³Ïĩ Î¿Î»
á¼ ¤
ĠÎº á¿¶
ĠÎº ÎµÏģ
Ïĩ Ïħ
Ġá¼ĦÎ»Î» Î·Î½
ĠÏĦÎ¹Î½ á½¶
ĠÎ¿á¼¶ Î½Î¿Î½
AQ Îĵ
Ïĥ Î¯
ÎŃ ÏīÎ½
ĠÏĢá½± ÏĥÎ±ÏĤ
Î¬Î» Î¹Î½
Ġ âĢ
ĠÏĩ Îµá½·
á½³Ïģ ÎµÏīÏĤ
ĠÎ¿á½Ķ ÏģÏīÎ½
ĠÏĩÏħÎ¼ á½¸Î½
ÏīÎ´ á¿¶Î½
Î ¦
ĠÎº ÏģÎ¹Î¸
ÏĪ ÎµÎ¹ÏĤ
Ġa g
Î¸Îµ ÏĤ
Ġá½¥ ÏĥÏĦ
ĠÏĥÏĦ ÏģÎ±
á½ħ ÏĥÎ±
ĠÎº Î¹
á½¹ Î´Î¿Ïħ
ĠÎ» á½±
ÏĦÎ¿ Ï²
Ġá¿¥ á½»
ĠÏĥÏĦ ÏħÏĢ
Ġw ill
Ġá¼ĳÎ±ÏħÏĦ á½¸Î½
ĠÎ¾Î·Ïģ á½°
ĠÎºÏį ÏģÎ¹Î¿ÏĤ
A C
Ġá¼ĲÎ¾ á½³
Ġá¿¥ ÏħÏĢ
ĠÏĢá½³ Î¼ÏĢ
Ġá¼ħÏĢÎ± Î¾
ÎŁ Î¥
ĠÏĥÏħÎ¼Î¼Îµ ÏĦÏģá½·
a re
Î»Î¹ ÏĦÎ¿ÏĤ
ĠÏĦá½¹ ÏĦÎµ
Ġá¼ĢÎ½Î±Î³ÎºÎ± á¿ĸ
1 3
a ke
Ïģ á½¶
á½· Î±Î¹
Î¸Îµ ÏĦÎ¿
Ġá½ĢÏĨÎ¸Î±Î» Î¼Î¿á½ºÏĤ
ĠÏĢÏħÏģ á½¸ÏĤ
Ġse em
Î¿á½Ķ ÏĦÎµ
Ġá¼Ĳ Î¼Î¿á½¶
á½·Î½ Î·
á½±Ïģ ÏīÎ½
ĠÎºÎ¿Î¹ Î»á½·
Ġá½ĢÎ½ ÏĮ
ĠM SS
ĠÎĳá¼°Î³ á½»
Î¼ á¿·
Ġá¼Ĳ Î»Î¸
ÏĨ Î¿Î½
Ġá¼ĲÎ½ ÎµÏģ
ĠÎµá¼´ ÏĥÏī
ĠÏĥÏħÎ½ á½±
ĠÏĢÏģÎ¿Ïĥ Î·Î³
ĠÏĪÏħÏĩ ÏģÎ¿á¿¦
ĠÎ»Î± á½¸Î½
Ġá¼¥ Î¼Î¹ÏĥÏħ
ĠÎ»ÏĮÎ³ Î¿ÏĤ
Ġ O
ĠÎ² ÎµÎ»
Ġá¼ĢÎ½Î± ÏĦÎ¿
ĠÏĢÎ¿Î¹ Î®
ÏĦá½· Î¿Î½
Ġd iff
Ġá¼µ ÏĢ
ĠÎ´Î±Îº Î½
Ġá¼ģÏĢá½± ÏĥÎ±ÏĤ
Îº Î»Î·
ÎµÎ½ Îµ
Ġá¼ĦÎ»Î» Î±ÏĤ
ÏĨÎ¿ Ïģ
on g
Ġm ay
ĠÏĦÏģ ÏĮ
ou s
á½ ĥ
Î¹ Î¿ÏĤ
ÏĥÏĦ Î¿Î¹
ĠÎ» Î¹Î²
Ġa t
ĠÎºá½·Î½ Î·ÏĥÎ¹ÏĤ
ĠÎ±á¼°ÏĦá½· ÏīÎ½
Î¬ ÏģÏĩ
á½½ Î¼ÎµÎ¸Î±
Ġá¼ĳ ÏĦÎ¿á½·
á½·Î½ Î¿Î½ÏĦÎ±
Ġá¼ģ ÏģÎ¼á½¹
ĠÏĢÏħÏģ á½³
Ġá¼ĢÎ¼ÏĨÎ¿ ÏĦá½³ÏģÏīÎ½
ĠÏĢá½³Î½ ÏĦÎµ
ĠÏĢ Ïį
Î³ Î¼Î±ÏĦÎ¿ÏĤ
ĠÎ¼ Î±Î½
ĠÎ³ÎµÎ³Î¿Î½ á½³Î½Î±Î¹
Î¼ Î·Î¸
Ġá¼ĳÏĦá½³Ïģ Î¿Ïħ
Î» á¿³
ĠÎ±á½Ĳ Ïĩ
á½µ ÏĥÏī
ĠÎµá¼¶ ÏĦ
Î¼Îµ ÏĦá½°
Ġá¼ĲÎºÎµá½·Î½ Î¿Ïħ
Ġá¼ĢÏģÏĦÎ·Ïģá½· Î±Î½
ĠÏĨÎ¸ Î¹Î½
ĠÏĢÏģá½¹ÏĥÏī ÏĢÎ¿Î½
s ub
Îµ ÏĥÎ¹
Ïĩ Î¿ÏħÏĤ
Ġá¼Ģ ÏĥÎº
ĠÎ³ ÎŃ
Ġá¼Ķ ÏĦÎ·
Ġá¼ĲÎº ÎºÎµÎ½
Î±Î» Î¹Î½
Ġá¼ĢÎ½ á½±Î»Î¿Î³Î¿Î½
Ġá¼ĦÎ»Î» Î¿Ïħ
Ġ3 3
ÎŁ á½Ĳ
ĠÏĨ Î»á½³Î³
ĠÎµá¼° Îº
Î¬ ÏĤ
Ġá½ģ Î»Î¿
Ġá¼ĲÏĢÎ¹ ÏĩÎµÎ¹Ïģ
Ġá½ĢÎ½Î¿ Î¼á½±ÏĦÏīÎ½
Ġá¼ĢÏģÎ¹Î¸ Î¼á½¸Î½
Ġá¼ ¨
ĠÏĦ Î±ÏĤ
ĠÎµá¼´ ÏĦ
ĠÏĢá½±Î½ ÏĦÎ±ÏĤ
Î±á½· Î¿Ïħ
ĠÏĦá½³ ÏĦÏĦÎ±
Ġá½ĢÎ»Î¹ Î³
Ġá¼Ķ Î¼Îµ
ĠÎ³Î» á¿¶
ĠÏĦá½³Ïĩ Î½Î·Î½
ĠÎ¼Î½Î·Î¼Î¿Î½ Îµá½»
Ġ K
Î¼ Î¹Îº
Î±Î½ Îµ
á½¹Î½ ÏĦÎ¹
ĠÎ¸Îµ á½¸Î½
ĠÏĢÏģÎ¿Ïĥ ÏĨá½³Ïģ
ĠÏħá¼± Î¿á½ºÏĤ
ĠÎµá¼°ÏģÎ· Î¼á½³Î½Î¿Î¹ÏĤ
ĠÎ´Î¹á½± Î¸ÎµÏĥÎ¹ÏĤ
Ġá¼ĳÎºá½±ÏĥÏĦ Î·Î½
Î³Î½Ïī ÏĥÏĦÎ¹Îº
ĠÎºÏį ÏģÎ¹Î¿Î½
" .
Î½ ÏħÎ½á½¶
Ïĥ Î¿ÏĤ
Ïī ÏĦá½±
á½° Î²
ÏĥÎ¸ Î·ÏĥÎ±Î½
ĠÏĨ Î»
ĠÏĢÎµÏģ Î¹Îº
Î¿á½» Î¼ÎµÎ½Î±
ĠÏĥÏĩ á¿ĨÎ¼Î±
ĠÎ¶á½½ Î¿Î¹ÏĤ
sup erscr
a u
ÏĦ ÏĦÎ¿
Î»Î» Î·
Î»Îµ ÏħÏĥÎµÎ½
ĠÏĢÏģÎ¿ ÏĥÏĦ
Î»Î± ÏĥÏĦ
Ġá¼ĲÏĢÎ¹ ÏĦá½µÎ´ÎµÎ¹
Ġá¼¥ ÎºÎ¹ÏĥÏĦÎ±
Î»ÎµÎ¹ Î±Î½
ĠÎ´Î¹Î±Î¸á½³ ÏĥÎµÏīÏĤ
Ġá¼ĶÎ³ÏģÎ± ÏĪÎµ
Ġá¼ĶÏģÎ³ ÏīÎ½
Ġá¼ĢÎ´á½»Î½Î± ÏĦÎ¿Î½
ĠÎº á½³Î½
ÏĨ Ïģ
ĠÎ» Î¯
ÏĢÎµÏģ Î¹
ĠÏĢÎµ ÏĢÎ¿Î¹
Ġ8 7
ĠÎ´ÏħÎ½Î¬ Î¼Îµ
Ġá¼ĢÏĨÎ¹Îº Î½
Î¿ Îº
Ïĥ ÏĢÎ±
Ġá¼Ĳ Î´Îµá½·
Î´Î¹ á½¸
ĠÎ¿á¼´Î½ á¿³
ĠÏĥ ÏĦÎµ
ĠÏĥ ÏĦÏģ
ĠÎ» Î¿Î¾
ÏĥÎ¹ Î¿Î¹
Ġá¼ķ ÏĦÎµÏģÎ¿ÏĤ
Ġs u
ÏĦÎŃ ÏģÏīÎ½
Ġsup erscr
ÏĦ ÏĮÏĤ
á½· Î¿Î¹ÏĤ
ĠÎµ Ïħ
Î¾ Î·ÏĤ
Î¾ á¿ĥ
Î»Î» ÏīÎ½
ĠÎºÎ±Î¸ Î¬ÏĢÎµÏģ
Î´Î· Î¼Î¹
t e
ÏĦ Ïį
Ġá¼Ĳ Î¸Î½
ĠÏĢ á½³ÏģÎ±ÏĤ
ĠÎ´ á½³Î¿Î½
Ġá¼Ģ Ïģá½·
ÏĥÎ¹ Î¿ÏĤ
ÏĥÏĩ ÏħÎ½
Ġá¼Ī ÏģÏĩ
Î´á½³ ÏĥÎ¼
vi ii
á½±Î¶ ÎµÎ¹Î½
ii i
ĠÎ»Î¿Ïħ ÏĦÏģ
ĠÏĢÏģÎ¿ÏĥÏİ ÏĢÎ¿Ïħ
ÏīÎ½ ÏĦÎ±Î¹
Ġá½ħ Î¸ÎµÎ½
he re
Ġá¼ĢÏģÏĩ á½´
ĠÎºÎ¿ á½·
ĠÎ½Î¿Ïĥ á½µÎ¼Î±ÏĦÎ±
ĠÏĢÎ¹ ÏĥÏĦÎµ
ÏĩÏģ á½´
Î· ÏĦÎµ
ĠÎ¼ ÎµÎ¹
ĠÎ»ÎµÏħÎº Î¿á¿¦
ĠÎºÏħÏģ Î¯á¿³
a c
i g
Î¿á¿¦ ÏĥÎ±Î¹
Î»Î¹ Î±
Ġá½ĳÎ³ Ïģá¿¶Î½
Ġá¼ĢÎ½Î¸Ïģá½½ ÏĢÎ¿Ïħ
ĠÎ±á½ĲÏĦ Î®Î½
ĠÏĨ ÏħÏĦ
Ïģá½· Î±
ÏĦÏģ ÏīÏĤ
ÏĩÎ¸ Î±Î¹
Î¼ á¿ĥ
ĠÏĢÏģ á¾¶
ĠÏĢÏģ á½¹ÏĤ
Ġá¼Ķ ÏĥÎ¿Î½ÏĦÎ±Î¹
¶ Î½
á¿Ĩ Ïĩ
Ġá½ħ Î¼ÏīÏĤ
Ġhe re
ÏĢ á¿ĥ
Î» Î®
Î¼ Î½ÎµÎ¹Î½
ĠÎº á¼Ģ
ÎºÎ± ÏĥÎ¹Î½
Ġá¼ĢÏĢÎ¿ ÏĨá½»
ÏĦá½· Î±
ÏĥÎ¼ ÎŃÎ½
ÏĥÏĦÎµ ÏīÏĤ
ĠÎ¼ÎµÎ³ á½·ÏĥÏĦ
Ġá¼ĲÎºÎµá½·Î½ Î¿Î¹ÏĤ
ĠÏĦÎ¿Î¹Î¿á½» ÏĦÎ¿Î¹ÏĤ
Ġá¼ĢÎºÎ¿Î»Î¿Ïħ Î¸
Ïģ ÎµÎ¹Î½
Î¼ ÎµÎ¹
ĠÎ¿á½ĸ ÏģÎ±
ĠÎ±á¼· ÏĤ
ĠÎ³Ïģá½± Î¼
ĠÏĥÎ·Î¼ Îµá¿ĸÎ±
ĠÏĥÏĢÎ»á½±Î³ ÏĩÎ½
Î¯ Î±Î¹ÏĤ
ÏĢÎµ ÏĥÎ¸Î±Î¹
ÏĦá½³Ïģ Î¿ÏħÏĤ
ÏīÎ¸ á¿ĨÎ½Î±Î¹
Ġá¼ĢÎ³ Îº
ĠÎ¼Î¿Ïģá½· Î¿Ïħ
ĠÎ¼Î± Î¸Î·
ĠÏĨÎ¹Î» Î¿Ïĥ
Ġá¿¥á¿Ĩ ÏĥÎ¹Î½
á½±Î½ Î±Î¹
ĠÏĦÎ¹Î½ ÏīÎ½
Ġá½ĳÏĢÎ¿ Î¼Î½á½µ
Î¿Ïģ Î´
Ġá¼ĲÎºÎµá½·Î½ á¿³
Ġá½ĦÎ½ ÏĦÎ¿ÏĤ
ĠÏĢÎ±ÏģÎ±ÏĢÎ» á½µÏĥÎ¹
ĠÎ²ÏģÎ±Ïĩá½·Î¿Î½ Î¿ÏĤ
ĠÎºÏħÏģá½· á¿³
Ġá¼ĲÎ¸Î½ á¿¶Î½
ÏĦ ÏĦÏīÎ½
Ïħ ÏģÎ¹
ĠÎ´ Ïī
á½» ÏĦÎ·ÏĤ
Î»Î± ÏĦÎ¿
Î·Ïģ Î¿á¿¦
ĠÎĻ ÏĥÏģÎ±
ĠÎĴ Î±
Ġá¼°Î± ÏĦ
ĠÏĢÏħÏģÎµ ÏĦÎ¿á¿¦
Ġá¼µ Î½
Ġá¼ĪÏĥÎºÎ»Î·ÏĢÎ¹ á½±
ÎŃ ÏīÏĤ
ĠÎ¸ Î±Î½Î±
Ġá¼ĲÏĢÎ¹ ÏĨá½³Ïģ
Ġ3 2
ĠÎĻ ÎµÏģ
ĠÎ¼á½³Ïģ Î¿ÏħÏĤ
ĠÎºá¾Ģ ÏĢá½¶
á½½ÏĦÎ± ÏĦÎ¿Î½
Ġá¼Ķ Î»Î±
Ġá¼ĳÎºá½±ÏĥÏĦ á¿³
Î²á½±Î»Î» ÎµÎ¹Î½
ÏĥÏĦÏģÎµ ÏĪÎµÎ½
ĠÏĢÎ½Îµá½»Î¼Î¿Î½ Î±
Ġá½ĢÏĨÎ¸Î±Î»Î¼ Î¿á¿ĸÏĤ
Ġá¼ĲÎ½ Î´Îµ
Ġá¼ĲÎ½ Î´Îµá½·
Ġá¼Ħ ÏģÎ¹
Ġá¼ĲÎº ÎºÎ»
Ġá¼Ī ÏģÎ¹ÏĥÏĦ
Ġá¼°ÏĥÏĩ Î½
ĠÏĦÎ¿Î¹Î±á½» ÏĦÎ·
ĠÏĦÎ¿Ïĥ Î¿á½»
ÏįÎ½ Î·Î½
ÎºÎ±á½· ÏĦÎ¿Î¹
Îº ÏĦÎ·
Î»Îµ ÏĦÎ±Î¹
ĠÏĥÏħÎ½ Î´á½³ÏĥÎ¼
ĠÏĥÏħÎ¼Î² ÎµÎ²
ĠÏĢÏģÎ± Î³Î¼á½±ÏĦÏīÎ½
Î¹Î³ á½³Î½
ĠÎ´ÏįÎ½Î± Î¼Î¹Î½
ĠÏĨÏħÎ»Î± Îº
á¼ĶÎ½ Î¹Î¿Î¹
) ,
Ïĥ ÏĥÎ±Î½
ÏģÎ± á¿ĸÏĤ
Î´Î¿ Îº
ĠÎ²Î±ÏĥÎ¹Î»ÎŃ Î±
Ġá¼ĢÎ½ ÏīÎ¼Î±
Ġá¼¦ Î»Î¸ÎµÎ½
Ġá½ĳÏĢÎ¿ ÎºÎµÎ¹
Ġth y
Ġ .
Ġá¼Ķ Î¸Î¿ÏĤ
ĠÏĦÎµ Îº
á½·Î½ á¿³
ÏĥÎº Îµ
ĠÎ· Î¼Îµ
ĠÏĨÎ±ÏģÎ¼á½± ÎºÎ¿Î¹ÏĤ
ĠÎºÎ±ÏģÎ´á½· Î±
á½³Ïĩ ÎµÎ¹
Ġá¼ģÏĢÎ» á¿¶Î½
ĠÏĩÏħÎ» Î¿á¿¦
ĠÎ³ÏħÎ½Î±á¿ĸ ÎºÎ±
Ġ ÓĦ
ĠÏĦ á¼ĢÎ½
Ġá½ Ī
Ïģá½· Î±Î½
Ïģá½¹ ÏĦÎµÏģÎ±
Ġthe ir
Ġá¼ħ Î³
Î´á½³ Î´ÎµÎ¹ÎºÏĦÎ±Î¹
Ġá¼ĲÎ»Î± á½·á¿³
ĠÎ¼Î¹ á¾¶ÏĤ
ĠÎĺ Îµ
Ġá¼¸Î·Ïĥ Î¿á¿¦
ĠÎ²Î±ÏĥÎ¹Î» Îµá¿ĸ
Î´á½³Ïĩ ÎµÏĦÎ±Î¹
á½µ ÏĤ
ĠÎ¸ ÎŃ
Ġá¼ĢÎ½Î± ÏĢÎ½Î¿á¿ĨÏĤ
ĠÎ¼á½³ Î»Î»Î¿Î½
Ġc f
Ġá¼ĳÎ±ÏħÏĦ Î¿á¿ĸÏĤ
ĠÎ³ÎµÎ½á½³ ÏĥÎµÏīÏĤ
ĠÏĢÎ½Îµá½»Î¼Î¿Î½ Î¿ÏĤ
ÏĢ ÏĦÎ¿
ÏĢ á½±Î½
Îµá¿ĸ ÏĥÎ±
ĠÏĦÎµ ÏĦÎ±Ïģ
Ġá¼ĳ Îº
Ġá¼¥ ÏĦÎ¹ÏĤ
ĠÎ³Î¹Î½ á½½ÏĥÎº
Î»Î±Î¼Î² á½±Î½
ĠÎºÏģá½± ÏĥÎµÏīÏĤ
ÏĦÎ± á½¶
ĠÎ³ á½³Î³ÏģÎ±ÏĢÏĦÎ±Î¹
ÏĥÏĦ ÎµÎ¹
Ġá¼ĳ ÎºÎ¬
ĠÏĩÏħÎ¼ Î¿á½ºÏĤ
á¼ĢÏĢ á½¸
ÏĢ ÏĦÏī
Ġá¼Ķ ÏĥÎµÏĥÎ¸Î±Î¹
Ġá¼ĢÎ½ Î¬
Ġá¼ĲÏĢÎ¹ ÏĦÎ¹
Ġá¼ĲÏĢÎ¹ ÏĢÎ»
ĠÏĢÎ¿Î»Î» Î¿á½ºÏĤ
Ġá¼Ī Î±Ïģ
ĠÎ£ Î¹
ÏĥÎ¼ á½»ÏģÎ½Î·ÏĤ
Ġá¼´ Î±
ĠÎ¸ÎµÏģÎ¼ á½¹ÏĦÎ·ÏĦÎ¿ÏĤ
ÎºÎ¿Ïħ Î½
ĠÎ¼ÎµÎ³ Î±Î»
ĠÏĥÏĢ ÎŃÏģ
ÏĦÎ¯ Î¿Î½
ĠÏĦÎ¿á¿¦ÏĦ á½¹
Ġá½ĢÎ½Î¿Î¼á½±Î¶ Î¿ÏħÏĥÎ¹Î½
ĠÎºÎ·Ïģ Î¿á¿¦
Ġ r
á½± ÏĦÏīÎ½
ÏĥÏĦ Î·ÏĥÎ±Î½
Ġá¼Ķ ÏĢÎµÎ¹ÏĦÎ±
Ġá¼¡ Î»á½·
Ġá½ĳÏĢá½±ÏģÏĩ Î¿Î½
ĠÏĥÎµ Î±ÏħÏĦ
ĠÏĢÏģá½½ ÏĦÎ¿Ïħ
ĠÎ¼Ïħ á½¸ÏĤ
ar t
ÏĨÏħ ÏĥÎ¹Î½
ĠÎ¼Îµá½·Î¶ Î¿Î½
ĠÏĥÎ· ÏĢÎµ
Î´ Î¯
Î¿Ïħ ÏĥÎ±Î¹
ĠÏĩ Î¿
ĠÎ´Î¹Î± Î²
Ġá¼ĲÏĢÎ¹ ÏĦÎµ
ĠÎµá¼¶ Î¸
Ġá¼ĶÏĩ Î¿Î½ÏĦÎµÏĤ
Ġá¼ĲÏĩ Î¸Ïģ
Ġá¼ĲÎ» á½±Î»
Î»á½¹Î³ ÏīÏĤ
ĠÏĢÏģÎ¿ÏĥÎ±Î³Î¿ ÏģÎµá½»
Ġá¼ĲÎ½Ïİ ÏĢÎ¹Î¿Î½
0 1
Î± Ï²
ĠÎ±á½ĲÏĦ á½·ÎºÎ±
re ek
ĠÎ¼á½¹Î½ Î·Î½
ĠÏĢÎ±Î½ ÏĦÎ±
ĠÏĨÎ±Ïģ Î¼Î±
ĠÏĦÏģá½· ÏĦÎ·ÏĤ
Ġse e
Ïģ ÏīÏĤ
Ġá¼Ĳ Î¼Î½Î·Î¼
ÏĨ ÏģÎ¿Ïĥ
ÏĦÎ· ÏĥÎµÎ½
Ġá½ģ Î¼Î¹
Ġá¼ĶÎ½ Î±Î½ÏĦÎ¹
ĠÎµá½ Ĺ
Ġá¼ĲÎ» á½³Î³
á½µÏĥÎµ ÏĥÎ¸Î±Î¹
Ġá¼ĲÏĢÎ± Î¹Î½
ĠÏĨÎ±Î½ ÎµÏģ
Ġá¼ĢÎ½Î´Ïģ á¿¶Î½
ĠÎ¸ á½»
Ġthe re
Ġá¼ĶÏĩ á¿ĥ
Î³Î³ Îµ
Ġá¼ĶÎ½ Î¹Î±
ĠÎ¤ Î¯
Ġá¼ĢÎ½á½±Î³ ÎºÎ·
Î½á½· ÎºÎ±
ĠÎ¼ ÏĮ
ĠÎ» ÏħÏĢ
Ġá¿¥ á¿ĨÎ¼Î±
ĠÏĢÎ¿Î¹ Îµá¿ĸÏĥÎ¸Î±Î¹
ĠÏĢÎ¿Î¹ á½¹ÏĦÎ·ÏĦÎ±
Ġá½ĳÏĢÎ¿ Î¼Î½
ĠÎĴ Î±Î¹
ĠÎ¼á½³Ïģ ÎµÎ¹
ĠÎ±ÏħÏĦ Î¿Î¹ÏĤ
ĠÏĥÏĨÏħÎ³ Î¼Î¿á½ºÏĤ
ĠÎºÎ¿Î¹Î» á½·Î±Î½
1 4
Îµ á½Ķ
Ġá¼Ĳ Î²
ĠÏĢ Î¬Î»Î¹Î½
ÎµÎ½ ÏĦÎµÏģ
ĠÎ¿á½Ĳ Î³Î³
Ġá¼ĢÏĢÎ¿ ÏĨ
ÏħÏģ Î¿Î½
ĠÏĢÏģá½½ ÏĦá¿³
ĠÏĦÏģÎ¿ Ïĩ
Î½ Ïī
ĠÎļ Î±á½¶
ĠÎµá½Ĳ Ïģ
Ġá¼ĲÏĨ Ê¼
á¼Ķ ÏĦÎ¹
ĠÏĥÏĢÎ» Î·Î½
ĠÎ¼Î¬ Î»Î¹
ĠÎµ Î¾Îµ
Î² Î»Î·
Î¼ÎµÎ½ Î±Î¹
ÏĥÎ¸Îµ á½¶ÏĤ
ĠÏĥÏħÎ¼ÏĢ ÏĦÏī
ĠÏĥÏħÎ½Î± Î³ÏīÎ³
ĠÏĥÏħÎ½ÎµÏĩ á¿¶ÏĤ
ĠÏĢÎ±ÏĦÏģ á½¸ÏĤ
hap s
Ġï¬ ģ
Ġ -
ÏĢ ÏĦÏīÎ½
Î¸ ÎŃÎ½
Ïĩ ÏģÎ·
á½¹ Î´ÏģÎ±
Ġá¼ĲÎ½ Î´Îµá½·ÎºÎ½ÏħÏĦÎ±Î¹
ÏĦÎ¹ Î¿á¿¦Î½
ĠÎ¾ á½»
ĠÎ¼á½¹Î½ Î·ÏĤ
ĠÏĩÎµÎ¹Ïģ á¿¶Î½
ĠÏĢÎ»Îµá½· Ïī
ĠÏĥÏĢÎ± ÏĥÎ¼
Ġá¼Ħ ÏĢÎ¿
Ġá½ģ Î¼Î±Î»
Ġá¼ĢÏĢÎ¿ ÏĨÎ±
ĠÎ¿á½ĲÎ´ á½³Î½
Ġom it
Î¬Î½ ÏĦÏīÎ½
ĠÏħá¼± á½¸Î½
ĠÎ¦ Î±ÏģÎ±
Î¿Ïħ Î´
Ġá¼Ģ ÏģÎµ
Ġá½ģ ÏĦÎ¹Î¿á¿¦Î½
ĠÏĢÎ» ÎµÎ¹
Ġá½ķ ÏĪ
Ġá½ķ Î»Î·ÏĤ
ĠÎºÎ±Îº á¿¶ÏĤ
ĠÎºÏģá½· ÏĥÎ¹Î½
á½· Î´Î¿ÏĤ
ĠÎ¼ á½·Î±
Ġá¼Ķ ÏĥÏĦÏī
ĠÎ¿á¼ ³
Ġá¼ĳ ÏĦá½³ÏģÎ±
á½·Î½ Î·ÏĦÎ±Î¹
Ġá¼ĢÏĢÎ¿ Î²
Ġá¾ ¿
ĠÏĦÎ¿Î¹Î±á½» ÏĦÎ·ÏĤ
ĠÏĦÎ¯ ÏĤ
Î±á½ ķÏĦÎ·
Î© ÎĿ
o f
o nd
ÏĥÎ¸ á¿ĩ
Ġá¼ĢÏĢ Î¿á¿¤á¿¥
Ġs a
ĠÎ¼Î·Î´ á½³
ĠÏĦÏģÎ¹ ÏĦÎ±
Ġá¼°Î´á½· á¾³
ÏĨ Î¹
Ġá¼ĢÎ½ Î±Î¹
Ġá¼ĦÎ½Î¸ÏģÏī ÏĢÎ¿Î¹
ĠÎºÎ¿Î¹Î½ ÏīÎ½
ĠÎ»ÎµÏĢÏĦ á½¸Î½
ĠÏĨÏīÎ½ á½´Î½
ĠÎ¼Î±Ïģ ÏĦÏħÏģ
ĠÏĨÎ·Ïĥ á½¶
Ġá¼ĢÎ½Î±Î³ÎºÎ±á¿ĸ á½¹Î½
Î± ÏģÎ¹
Ïĥ Î¼á½±ÏĦÏīÎ½
ĠÎ´ Îµá½·
ÎµÏģ Ïĩ
Ġá¼ĲÏĢ Îµá½¶
Ġá¼Ķ ÏĢÎ¹
ĠÏĩ Î»
ÏĢÎ¿ Ïģ
á¼Ĳ Î»Î±
ĠÎ¼á½³ Î¸
ĠÎ±á¼´ ÏĦÎ¹Î¿Î½
ĠÏĦ ÎµÏģ
á½³ ÏĥÎ¸Î±Î¹
Ġá¼Ķ Î³Î½Ïī
á½¹Î½ ÏĦÎ±ÏĤ
ĠÎ³Î±ÏĥÏĦ Ïģá½¶
Ġ10 6
ĠÏĥÎ·Î¼Î± Î¹Î½
Î¿Î¹ ÏĥÎ¹Î½
ĠÏĦÎ¿á¿¦ Î¸
ÏĮ Î¼ÎµÎ½Î±
Ġá¼ĢÎ½ Î¹
Ġc or
ĠÏĥÏĨ á½¹Î´ÏģÎ±
ĠÎ¿á¼° ÎºÎ¿Î´Î¿Î¼
ab ly
Î±Î»Î» á½±
Îº á½³Î½Î±Î¹
Î¿á¿¦ ÏĥÎ±Î½
ĠÎ± ÏģÏĩ
Ġá¼ĲÎ½ ÏĦÎ¿
ĠÏĢÎ¿Î»Î» Î¿á¿¦
Î¼ÎŃÎ½ Î¿Î½
ĠÎºÎ·Ïģ Ïī
Ġá¼ĲÎ³Î³ á½ºÏĤ
n g
Î¹Î½ Î±
ĠÎ´Î¹ Î¬
ĠÎµá¼° Ï²
ĠÎ² Î¹Î±
ÏĥÎµ ÏĥÎ¸Îµ
ĠÏĥÏħ Î³Îº
ĠÏĢÎ± Î¼ÏĢ
ĠÏĪ Î±
er t
Ġ3 6
ou ld
ĠÎµá¼°Ïģ á¿ĨÏĥÎ¸Î±Î¹
ur s
ÏĦÎ· ÏĥÎ¹Î½
ĠÎ¼á½³ Î»Î±Î½
ĠÎ¸ÎµÏģ Î¼Î¿
is t
Ġm y
Î¯Î½ Î¿Ïħ
Ġá¼ĢÎ½Î¸ÏģÏİ ÏĢÏīÎ½
ĠÏĩÏģá½µÏĥÎ¹ Î¼Î¿Î½
1 5
ĠÏĢÏģÎ¿ Î·Î³
Ġá¼ĦÎ»Î» Î¿ÏħÏĤ
Ġá½¥ ÏģÎ±ÏĤ
ĠÏĢÎ±ÏģÎ± ÏĥÎºÎµÏħ
ÏħÎ³ Ïĩ
Ïĥá½· ÏĥÏĦÏģÎ±
Ġá½ł Î¼Î¿
ĠÎ´Î· Î¼Î¹
Ġá¼ķÎ½Îµ ÎºÎµÎ½
Ġá¼ĲÏĢÎ¹Îº ÏģÎ±
Îµá¼´ ÏģÎ·ÏĦÎ±Î¹
Ġá½ ¢
ÎºÎ± á½»
Ġá½ģ ÏĢÎ¿
Ġa ll
ĠB b
ĠÎ½Îµ Î±Î½
ĠÎ¼á¾¶ Î»Î»
ĠÎ¼á½±Î»Î¹ ÏĥÎ¸
Ġá¼ĲÎ¼ á½³
ĠÏĢÎ¹ ÏĥÏĦ
Ġá¼°Î´ Îµá¿ĸÎ½
ĠÎºÎ±ÏģÎ´á½· á¾³
Ġ qu
ĠÏĢ ÏĦÎ¹Ïĥ
Ġá¼Ģ ÏĥÎµÎ²
ÏĥÎµ ÏĦÎµ
Îµá½· Î¼ÎµÎ½Î¿Î½
Ġá¼ĲÏĢÎ¹ ÏĢÎ¿Î»
Î±ÏħÏĦ Î¿Ïħ
ÎºÏģ Î¯
1 6
u d
Ġá¼ĲÎº á½±
ĠÎ³Îµ Î³ÎµÎ½
Ġá¼ĦÎ»Î» Î¿ÏĤ
ĠÎ¼á½µ Î¸
Ġá¼ĢÎ³ ÏģÏħÏĢ
ĠÎµá¼°Ïģ á½µÏĥÎµÏĦÎ±Î¹
á½µÎ¼ Î·ÏĤ
á¼ĺ Î½
ĠÏĨÎ·Ïĥ á½¶Î½
Ġá¼ĦÏģÎ¸Ïģ Î¿Î½
ĠÏĥÏħÎ³Ïĩ ÏīÏģ
i ght
ÏĢ ÏģÎ¿Ïĥ
Î» Ïį
Ġá¼ķ ÏĢÎµÏĦÎ±Î¹
á½¼ Î²
Ġá½ĳÎ³ Ïģá½¹ÏĦÎ·ÏĦÎ¿ÏĤ
ĠÏĦÎ¿Ïį ÏĦÎ¿Ïħ
Ġá¼ĳÎ² Î´á½¹
Ġá½ĳÎ´Î± ÏĦ
Îµ á½ºÏĤ
ĠÎµ Î³
ĠÎ² Î¿Ïģ
Ġs p
ha s
Î¸Îµ Î¯
ĠÎ¼Î· Îºá½³
Ġ3 4
Ġá¼ħÏĢÎ±Î½ ÏĦÎ±ÏĤ
ĠÎ³ÏħÎ½ á½´
ĠÎºÎ±ÏģÏĢ á½¸Î½
Ġ )
Ġ áµĲáµį
ĠÎº ÏħÎ½
á½» ÏīÎ½
ĠÏĢÏģ Ïİ
ĠÎ½ á½»
ÏģÎµ ÏħÎ¸
ÏĥÎ±Î½ ÏĦÎ¿ÏĤ
ĠÎ¼á½³ Ïĥá¿³
Ġá½Ħ Î¾ÎµÎ¹
Ġá¼¤ Ïģ
an t
ĠÏĩá½¹Î½ Î´Ïģ
Ġseem s
ĠÎĻÏĥÏģÎ± Î·Î»
o p
Î¼ Îµá¿ĸÏĤ
âĢĻ :
ÏĢÎ± Ïĥá¿¶Î½
ÏĢÎ¹ ÏĥÎ¸ÎµÎ½
ÎµÎ» Î¸
f ore
á¼ ģ
ÏĢ Î¬
á½³ ÏĥÏĦÎ±
ĠÎµ Î³ÎµÎ½
ĠÎµá¼° Îºá½¹ÏĦÏīÏĤ
Ġá½ĳÏĢ Î±ÏģÏĩ
Ġá¾ ł
ÏĥÏĦÎµ Î»Î»
Î¾Î± Î¼ÎµÎ½
ĠÏĥÎ¼Î¹Îº Ïģá½°
ĠÎµá½ĳÏģ Îµá¿ĸÎ½
Î¼ÏīÎ½Î¹ Î±ÎºÎ¿á¿¦
Ġá¼ĪÏģÏĩ Î¹Î³á½³Î½
ĠÏĥÏħÎ¼ÏĢÏĦÏī Î¼á½±ÏĦÏīÎ½
Î¸ á½µÏĥÎµÏĦÎ±Î¹
Î±Î½ Ïī
Ġt ra
ĠÏĢÎ» á½±Î³
Î·Î¼ ÎŃÎ½
at e
ÏĦ ÏģÎ¹Î²
á½³ ÏĥÎ¹
Î³ Î¿ÏĤ
ÏĥÏĦ Î·ÏĥÎµÎ½
ĠÏĨ ÏħÏĥ
Ġá½ħ ÏĥÎ±Î¹
Ġthe e
ĠÏĥÏħÎ½ á½µ
ĠÏĢá½± ÏĩÎ¿ÏĤ
ĠÎ´ÏħÎ½á½±Î¼Îµ ÏīÎ½
ÎºÏģÎ± ÏĦÎ¿Î½
ĠÏĢÎµÏģÎ¹ÏĦÏĦÏī Î¼á½±ÏĦÏīÎ½
Ġá½ ĤÎ½
Ïĩ á¿¶Î½
ÎµÎ¹ Î¼
Î¾ Î¿ÏħÏĥÎ¹Î½
ĠÎµá¼° Î´
ĠÏĩ á½±Ïģ
Ġre p
ĠÏĥá½»Î¼ÏĢ ÏĦÏīÎ¼Î±
ĠG reek
Ġá¼ĦÎ½Î´ ÏģÎ±ÏĤ
ĠÎ´Î·Î¼Î¹ Î¿ÏħÏģÎ³
Ġá½¢ Î½
Î §
Î¼á½³Î½ Î±Î¹ÏĤ
Î½Î± ÏĦÎ¿Î½
Î¶ Î·
ĠÏĢÎ¿ Î´
Ġá¼ĢÏĢÎ¿ ÏĦÎµÎ»
ĠÏħ ÏĢÎ¿
Ġá½ĳÏĢÎ¿ Ïĩ
Ġá½ĢÏĥÏĦ Î¿á¿¦
ĠÎ¼ ÎµÎ½
ĠÎ´Î¹ ÏĪ
ÎºÎ± á¿ĸÏĤ
ĠÎ»á½¹Î³ ÏīÎ½
ĠÎ±á½ ĹÏĦÎ±Î¹
ĠÎ³á½³Î½ Î¿Î¹ÏĦÎ¿
Ġá¼ĢÎ³Î±Î¸ á½¸Î½
Ġá¼ĳÏģ Î¼Î·
ĠÎ² á½±Ïģ
Ġá½Ģ Ïĩ
Ġá½ĳÏĢ Îµ
ĠÎµá¼°ÏģÎ· Î¼á½³Î½Î±
ĠÏĢÏģá½½ ÏĦÎ·ÏĤ
Ġá¼ĢÎ³Î± ÏĢ
Ġá¼ĳÎ½ á½¶
ĠÏĥÎ±ÏģÎº á½¸ÏĤ
ĠÎľÏīÏħÏĥ á¿ĨÏĤ
Î¸ Î®ÏĥÎµÏĦÎ±Î¹
ĠÎ¼ ÏħÏĥ
ĠÎ±á½ĲÏĦ á½±Ïģ
Ġá¼ĲÎ½ ÏĦÎµá¿¦Î¸ÎµÎ½
Ġs il
á¼Ģ Î¼
ĠÏĥÏĦ á½³Ïģ
Î·Î¸ á¿ĨÎ½Î±Î¹
Ġá¼°ÏĥÏĩ ÏħÏģÎ¿
ĠÎ¼á½³Ïģ ÎµÏĥÎ¹
ĠÎ´á½³ ÎºÎ±
Î¿ÏħÏĥ á¿¶Î½
ĠÏĩÎ¿Î» á½´Î½
ĠÏĢÎ»á½µ Î¸Î¿ÏħÏĤ
ĠÏĥÏĦÎµÏģ Îµ
i es
Î¼ Î·ÏĥÎµÎ½
Ïħ ÏĦÎ±
á½¹ ÏĨ
ĠÎ´Î¹Î± ÏĩÏīÏģ
Ġá¼° Ïĥ
ĠÎµá¼´ ÏĤ
Ġá¼ĶÏĩ Î¿ÏħÏĥÎ±
ÏĥÏĦÎ± ÏĥÎ¹ÏĤ
Î¼Î² Î±Î½Îµ
Ġá¼ĲÎ½Î±Î½ ÏĦ
Ġá¼ĲÎ¾Îµ ÏħÏģ
ÏĮÏĦÎ· ÏĦÎ±
Ġá¼Ķ Î½Îµ
ÏĪ Î¿Î½
á½³Ïģ Î¿ÏĤ
ĠÏĢÎ¿ Ïģ
Î¿á½» Ïĥá¿ĥ
ĠÎµá½ ĸ
ÏĢá½³ Î¼ÏĢ
ĠÎ±á¼°ÏĦá½· Î±
ĠÏĥÏħÎ¼ÏĢÏĦá½½ Î¼Î±ÏĦÎ±
ĠÏĢÏģÎ¿ÏĥÎ·Î³ Î¿Ïģá½·
Î¿ ÏĦá½³
Ïī ÏĥÎº
Î·Î¼ ÎµÏģ
ĠÏĨÎ±Ïģ Î¼Î¬
ĠÏĩÏħÎ¼ Î¿á¿¦
ĠÏĦá½± ÏĩÎ¿ÏĤ
Ġá¼¹ÏĢÏĢÎ¿ ÎºÏģÎ¬
ĠÎ¼ÎµÎ³á½±Î» Î·Î½
Ġá¼¡Î¼ÎŃ ÏģÎ±Î½
ĠÎ²á½± Î¸Î¿ÏĤ
Ġá¼ĲÎ½Î±Î½ÏĦá½· ÏīÎ½
Ġá¼ĢÎ¸ ÏģÎ¿
Ġá¼ĲÏģÏħ Î¸Ïģ
ĠÏĢÏģÏĮÏĥÏī ÏĢÎ¿Î½
ĠÎº ÏģÎ¿
ĠÎº á¼ĢÎ½
Ġá¼ĲÏĢ Î¹Î½
Ġá¼ķ Î´
Î³Î³ Î¹
ĠÏĢÎ±Î½ ÏĦÎµÎ»
ĠÎ»á½³Î³ ÎµÏĦÎ±Î¹
Î¸Î±Î½ ÎµÎ½
á½¥ ÏĥÏĦ
Ġá¼ĳÎºÎ± ÏĦá½³ÏģÏī
ĠÏĦÏģÎ±Ïĩ á½µÎ»
á¼ ¦
Ïģ ÏĮ
á½¹Î½ ÏĦÏīÏĤ
Ïİ ÏĥÎº
ĠÏĥÏħÎ½ ÎŃ
ĠÏĢÏģÎ¿Ïĥ á½½ÏĢÎ¿Ïħ
ĠÎºÎ±Î¹ Ïģá½¸ÏĤ
Ġb is
ÏĥÏĥ Î±Î»
ĠÎ³Î½ Ïİ
ĠÏĢÏĮ Î»Îµ
Î¼ÎŃ Î½Î±
á½·ÏĥÏĦÎ± ÏĦÎ±Î¹
m p
Ġ k
ĠÎ´ á½¶ÏĤ
Î³ á½¹
ĠÎ³ Î±Ïģ
ĠÎ¸ á¾¶
ÏĪ ÏħÏĩ
Ġá¼ĲÎº ÏĨá½»
Ġá¼ĲÏĥÏĦ á½·
ÏģÎµ ÏĦÎ±Î¹
ĠÎ´Î¹Î±ÏĨÎ¿Ïģ á¾¶ÏĤ
Î¼ÏĨÏħ ÏĦÎ¿Î½
Ġá¼ĳÏĦÎ¿á½· Î¼ÏīÏĤ
1 2
Ġá¼ Ŀ
Ïĥ Î¼Î¿Î½
ĠÎº á½³
Î¿á¿ĸ ÏĥÎ¹
á½¹Î½ Î´
ĠÎ² Î»á½³
Î¶ Ïī
Ġá½ĳÏĢ Î¬ÏģÏĩ
Ġá¿¥ á½½
ĠÏĥÏĦ á½³
ÏĢÏĦÎµ ÏĦÎ±Î¹
ĠÎ¸á½± ÏĦÎµÏģÎ¿Î½
ĠÏĥÎ¹ÏĦá½· ÏīÎ½
Î¼Î¹Î½Î¸ á½·Î½Î·ÏĤ
au se
Ïģ Î·Î½
Î· ÏģÎµ
ĠÎ´ Îµá¿ĸÎ½
Ïĩ Î±Î¹
ÏĨ Î¸Î·
Î® Ïĥá¿ĥ
Ġá¼ĳ ÏĦá½³ÏģÏīÎ½
Î·Ïĥ Î¿Î½ÏĦÎ±Î¹
á½·Î½ Î¿ÏħÏĥÎ¹
á½±Ïģ Î¸ÏģÏī
Ġá¿¥ á¿ĸ
ĠÎµá¼´ ÎºÎ¿ÏĥÎ¹
ĠÎ³Î¯ Î³
Ġxx x
ĠÏĢ ÎµÎ¹Ïģ
Ġá¼ĲÎ½ ÏĦá½³ÏģÏīÎ½
ÏĦÎµ Ï²
ĠÏĩÏģ á½¹
ĠÎ¸Îµ á½¹ÏĤ
ĠÏĦÎ¿Ïį ÏĦá¿³
Îµá¼¶ ÏĢÎµÎ½
á¼ ¸
Î¿Ïħ Î»
ĠÎ³ ÏģÎ¬
Î±Î½ ÏĦÎ¿
ĠÎ· Î¼ÏīÎ½
ÏĨÎ± á½·Î½ÎµÏĦÎ±Î¹
ĠÎµá¼°ÏĢ á½¼Î½
ĠÎ¼Î±Îº ÏģÎ¿
á½³ÏģÏĩ ÎµÏĦÎ±Î¹
ĠÏĢá½³ÏĨÏħÎº ÎµÎ½
á½» ÎµÎ¹
Ġa pp
ĠÏĨÎ±ÏģÎ¼á½± Îºá¿³
Ġá¼¡Î¼á½³ÏģÎ± Î¹ÏĤ
ÏĪÎ± ÏĥÎ¸Î±Î¹
ĠÂ §
Ġá¼ĺÏģÎ± Ïĥá½·ÏĥÏĦÏģÎ±
Î½ á¿¶Î½
á¼ ľ
ĠÎµ Î³Ïī
á¿Ĩ Ï²
in e
ÏĢÎµ Ïĥ
ÏĢÎ± Ïħ
ĠÎ¼á½¹Î½ á¿³
Î´Î¿ Î¾
ĠÏĢá¾¶ ÏĥÎ±Î¹
Î¼ÎŃÎ½ Î¿Ïħ
ĠÎºá½±Î¼Î½ Î¿Î½ÏĦÎ¿ÏĤ
h is
i ah
ĠÎº á¼ĤÎ½
Ġá½Ģ ÏĥÎ¼
Î® ÏĥÎµÏīÏĤ
Ġá¼¡Î¼ á½·
Î³ÎµÎ¹ á¿¶Î½
Ġá½ĦÎ³ ÎºÎ¿Î½
Ġá¼ĲÎ½ÎµÏģ Î³ÎµÎ¹á¿¶Î½
ĠÏĢÎ±Î¼ÏĢ á½¹
ÏĥÏĦ Î¿Î¹ÏĤ
Î¶ ÎµÏĦÎ±Î¹
ĠÎļ Î±
ĠÏĥÎº Îµ
ĠÏĥÎºÎ»Î· Ïģá½¸Î½
ĠÎĿ Î±Î²
Î±ÏģÎ³ á½»ÏģÎ¿Ïħ
Ġ j
Î» ÏĮ
ĠÏĢ Î·Î³
ÏĥÏĦ Î¿
ĠÏĢÏģÎ¿ Î³Î½ÏīÏĥÏĦÎ¹Îº
ĠÏĢÎ±Ïģ ÎŃ
Ġá¼ģ ÏĢÎ±Ïĥá¿¶Î½
Ġc h
Ġá½ĢÎ½Î¿Î¼á½±Î¶ Î¿ÏħÏĥÎ¹
ÏĩÎ· Î»Î¿Î½
Ġpro b
Ġá¼ĲÏĢÎ¹ÏĢÎ¿Î» á¿ĨÏĤ
ĠÎºÎ± Î¯
Î¿Î¹ Ï²
Î¼Î± Î¸
ĠÏĦÎµ ÏĥÏĥÎ±Ïģ
ÏĥÎ± á½·
Ġá¼ĢÏĢ ÏĮ
Ġá¼ķ ÏĦÎµÏģÎ±
Ġá¼ĢÎ½Î± ÏĨá½³Ïģ
ĠÎ²ÏģÎ±Ïĩ á½»
ĠÏĢÎ¹ Î¸Î±Î½
Ġá¼ĢÎ»Î· Î¸Îµ
ĠÏĩÎ» ÏīÏģ
Î´ á½»
Îµá½· Î±Î¹ÏĤ
á½·Î½ Î¿ÏħÏĥÎ¹Î½
ÏĥÏī Î¼ÎµÎ½
ĠÎ½Îµ ÏħÏģ
ĠÎ½Îµ ÎºÏģ
en se
ĠÏĢÏģá¿¶ ÏĦÎ±
Ġá½ĢÏĥÏĦ á¾¶
Ïĩ ÎµÎ½
ĠÎµá¼° ÏĥÎ±
ĠÏĩÏģ Ïī
Î»Î¹ Î¿Î½
Ġá½Ħ ÏģÏĩ
Î´Î· Î»
ĠÎµá½ĳ ÏģÎµ
ĠÏĢÎ»Îµá½· Î¿ÏħÏĤ
Î±Ïĥ á½±
n ot
Ġ *
Î½ ÎµÎ¹
ĠÏĢ Î¹Î½
Ġá¼¡ Î½á½·ÎºÎ±
Î¹Îº á¿ĨÏĤ
ĠÎºÎ¹Î½ á½µÏĥÎµÏīÎ½
ĠÎ³á½³Î½ ÎµÎ¹
Ġá¼ĲÎºÎµá¿ĸÎ½ Î¿Î½
ĠÎ³á½³ Î³Î¿Î½
ĠÎ´Î¹ÎµÎ» Î¸Îµá¿ĸÎ½
1 9
Ïĥ Î¿Î¹ÏĤ
Ġá¼Ķ Î¿Î¹
Ġá¼¡ Î³Îµ
ÏĮ Î´ÏģÎ±
Ġá¼Ħ Î¼Îµ
ÏĥÎµ á½¶
ĠÏĥÏħÎ½ ÏĦÎµÎ»
á½¹ÏĦÎ· ÏĦÎ±ÏĤ
ĠÎ´Î¹Î±ÏĥÏĦ Î¿Î»á¿ĨÏĤ
ĠÎ¿á½ĲÎºá½³ ÏĦÎ¹
á¼ Į
ÏĥÎº á½³
ÏĦÎ¹Îº á½¹Î½
ĠÎºÎ±ÏĦ Î¬
Ġá½ĳÎ³ Ïģá½¹ÏĦÎ·ÏĦÎ±
ÏĥÏĦÎµ ÏģÎ±
ĠÎ¸ÎµÏģÎ¼Î± Ïĥá½·Î±Î½
Ġá¼ĲÏĢÎ¹ÏĥÎº á½³
Ġá¼ĪÏģÎ¹ÏĥÏĦ Î¿ÏĦá½³
Ġ âĢĶ
Î¯ ÏĥÎº
ĠÏĩ Î±Ïģ
ĠÏĢÏģÎ¿ ÏĥÏĦÎ¹
Ġá¼ĲÎ¾ á¿ĨÎ»Î¸ÎµÎ½
Ġp re
ĠÎµá¼´ ÏĢÎ¿Î¹
Ġw as
ĠÎºÎ¿ Î»Î»
ÏĦÎ·Ïģá½· Î±ÏĤ
ĠÏĨÎ»ÎµÎ² á½¸ÏĤ
Ġá½ĦÏģÎ³ Î±Î½Î¿Î½
1 7
Î´ Î¿ÏħÏĤ
á½µ Î¼Î±ÏĥÎ¹Î½
Î¿á¿ĸ Ï²
Î·Ïĥ ÎµÎ¹
ĠÏĨÎ± ÏĥÎ¹Î½
ĠÏĨÎ± á½·Î½ÎµÏĥÎ¸Î±Î¹
ĠÏĥá½½ Î¼Î±ÏĥÎ¹Î½
ĠÏĢÏħÏģÎµ ÏĦá½¸Î½
ĠÎ²á½± Î¸Î¿ÏħÏĤ
ĠÏĩÏīÏģá½· Î¿Î½
ĠÏĢÏģÎ±Î³Î¼Î±ÏĦÎµ á½·Î±ÏĤ
Î¼ÎµÎ» á¿¶ÏĤ
Ġá¼ĲÎ½Î¹ Î±ÏħÏĦ
Ġá¼ĲÎ»á½±Î» Î·ÏĥÎµÎ½
Ġá¼ĲÎ¼Î½Î·Î¼ á½¹
ĠÎ¼á¾¶Î»Î» á½¹Î½
Ġ XX
Î¿ ÏĥÎº
Îµ ÏĥÎ¸Îµ
ĠÏĨ Ïī
Ġá½Ģ ÏĥÏĨ
Ġá½ĦÎ½ ÏĦÏīÏĤ
á½³ ÏĥÎ¹Î½
ÏĦÎ¿ Î¯
ÏĥÎµ á½½ÏĤ
ĠÎ¼Îµ ÏĦá½±
Î¼á½± ÏĩÎ¿Ïħ
Ġs o
ĠÎ´á½» Ïĥ
ĠÎ½Îµ Ïī
Ġá¼ĢÏģÏĩ Î¹
ĠÎºá½± Î¼ÏĢ
Î¼ÎŃÎ½ Î·
Î¼ÎŃÎ½ Î·Î½
ĠÎºá½» ÎºÎ»á¿³
ĠÏĢÎ»Î± ÏĦ
Ġá¼ĢÎ¼Ïħ Î´Ïģ
ĠÏĢÏģá½±Î³ Î¼Î±ÏĦÎ¿ÏĤ
e e
ĠÎ´Î¹ Î¿Ïģá½·
Ġá¼Ķ ÏĢÎµ
ĠÎºÎ±Î» Î¿á½»Î¼ÎµÎ½Î¿Î½
ĠÏĦá½· Î½Î±
ĠÏĥÏĦá½¹ Î¼Î±ÏĦÎ¿ÏĤ
ĠÎ´á½¹ Î¾ÎµÎ¹
Î²ÎµÎ² Î»Î·
Ġá¼ĪÎ±Ïģ á½¼Î½
Î¿ ÏĦá½±
ĠÎºÎ± ÏĦÏī
á¿¶ ÏĦÎ¿Î½
á½½ ÏĦÎµÏģÎ±
ĠÏĦÎµ Î¸
Ġá¼ĲÎº ÏĨ
ĠÎ¿á½ĲÎ´ ÎµÎ½á½¸ÏĤ
ĠÏĥÏĨ ÏĮÎ´ÏģÎ±
ĠÎºÎ±Î» Îµá¿ĸÎ½
ou nd
ĠÏĢÏĮ Î»Î¹Î½
ĠÎ´á½· Î´Î¿Ïħ
ĠÎ»Î¹ ÏĢÎ±Ïģ
á½ĳ ÏĢ
ĠÏĢÏģÎ¿ÏĨ Î®
ĠÏĨÏħÎ» Î¬
Î¹ Î±Î½
Ġá¼ ľ
Îº ÏĦÎ¿Î½
Î³ Î¼Î±ÏĦÎ±
ĠÏĥ á½·
ĠÎ» Îµá½·
ĠÏĢÎ± Ïĥá¿¶Î½
Ġs ub
ĠÏĢÎ¿Î»Î» á½°ÏĤ
Ġin st
Î»á½³ Î±
Ġbe en
ĠÎ¿á¼°Îº Îµá½·Î±Î½
Ġá½ĢÎ½ Î¿Î¼
ere d
ĠÏĦÎ¿á½Ĳ Î½Î±Î½
ĠÏĢÎ¿Ïĥ á½¸Î½
ĠÎ³ÏģÎ±Î¼ Î¼Î±
Ġá¼ĳÏģÎ¼Î· Î½Îµ
Ïī ÏĢ
Ġá¼Ĳ ÏĦá¿¶Î½
ĠÏĢ ÏĦÏī
Î·Ïĥ á½·
Ġá¼ĢÎ½Î± ÏĢÎ½Î¿
Ġá¼ĦÎ»Î» á¿³
Î»Î¸ á¿ĥ
Ġá¼±ÎµÏģ Îµá¿ĸÏĤ
ĠÎ¸Î±ÏħÎ¼Î±ÏĥÏĦ á½¸Î½
Ġá¼ĳÎºÎ±ÏĦá½³ÏģÏī Î¸ÎµÎ½
Îº Î¹Î½
ÏħÏĥ á½·
ĠÎ¼Î· ÏģÎ¿á¿¦
á½±Î³ ÎµÎ¹Î½
á½»Î½ ÏĦÏīÎ½
ĠÎºÏħ á½±
ÏĢá½· Î´Î¿ÏĤ
á½Ģ ÏĢ
ĠÏĨÎ»á½³Î² ÎµÏĤ
ĠÎ¼á½³Î³Î¹ ÏĥÏĦÎ¿Î½
Ġrend er
Ïī ÏĥÎ¹
Î³ á½³Î½
ĠÎµ Î½Îµ
ĠÏĦÎµ ÏĥÏĥ
Ġá¼Ħ ÎºÏģ
ĠÏĢÎ±ÏģÎ± ÏĨÏģÎ¿Ïĥ
Ġá¼´ ÏĥÎ±
Ġá½ł Î½á½¹
ĠÏĢá½¹ ÏĦÎµÏģÎ¿Î½
ĠV áµĥ
ĠÏĦá½³ ÏĦÎ±Ïģ
ĠÏĦÏģá½· ÏĦÎ·Î½
ÏĩÎ¹ ÏĥÏĦÎ±
Ïĩ á½¹
ĠÎ¼Îµ ÏĦÎµ
Î¶ ÏīÎ½
ÏģÎµ ÏĥÎ¸Î±Î¹
ĠÎºÎ±Î¸ Î±á½·
Ïİ ÏĥÎµÎ¹
ÏĥÏĦÎ± ÏĥÎ¸Î±Î¹
Ġm e
Ġá¼ħÏĢÎ± ÏĥÎ±Î½
ÏĥÎ· ÏĦÎµ
ĠÎ´ÎµÏħÏĦ á½³ÏģÎ±Î½
ÏĬ Îº
ĠÏĩá½½ ÏģÎ±ÏĤ
ÏĪ á¿ĥ
Î±Î» Î³
ÏĦá½· ÏĤ
ĠÏĢÎµ ÏĢÎ»
ĠÎ¸ÎµÏģÎ¼ á¿·
ĠÎ¿á¼¶ Î´Î±
Îµá½¶ Ïģ
Ġá¼ĲÎ½Î±Î½ ÏĦÎ¹
ÏĦÎ¿á½» ÏĦÏīÎ½
Î¸á½³Î½ ÏĦÏīÎ½
ĠÏĥá½»Î¼ÏĢÎ±Î½ ÏĦÎ±
* )
ÏĦ ÏĮÎ½
Îµ ÏĥÎ¹ÏĤ
ĠÎºÎ± ÏĦÎ·
ĠÎµ ÏĥÏĦÎ¹Î½
ĠÏĢÏģÎ¿ Î³ÎµÎ³ÏģÎ±Î¼
Ġt ak
Ï² Î¸Î±Î¹
ĠÏĢÏģÎ¿Ïĥ ÏĨ
ĠÎµá½Ĳ Î»á½¹Î³ÏīÏĤ
ÏĩÎ¸ á½µÏĥÎµÏĦÎ±Î¹
ĠÎ»á½³ Î³Î¿Î½ÏĦÎµÏĤ
Î¼Î¼Îµ ÏīÏĤ
ĠÎ´á½³Ïģ Î¼Î±ÏĦÎ¹
ĠÎ²Î±Î» Î±Î½
ĠÏĩá½±Ïģ Î¹Î½
Ïī Ïĥ
ĠÎ¼ ÏħÏģ
ĠÏĥ ÎŃ
ĠÎ» á½±Ïģ
Ġá¼ĢÎ»Î» Î¿
ĠÏĦÎ¹Î½ á½°ÏĤ
Ġ3 7
Î¤ á½¸
á½µÎ¼ ÎµÏģÎ¿Î½
Ġver se
ĠÎ¸ÎµÏģÎ±ÏĢ Îµá½·Î±ÏĤ
ĠÏħÎ¼ ÏīÎ½
a ra
Îµ Î¸
Ïĥ Î¯Î±ÏĤ
ĠÎ¼ á¿¦Î½
Ġá¼ĲÎ½ ÎµÏĦÎµ
ÎºÎ± Î¸Î±
Î»á½± Î¼Î²Î±Î½Îµ
Ġá¼ĪÎ² ÏģÎ±
Ġá¼Ĳ Î»Î»
á½± ÎºÎ¿Î½ÏĦÎ±
á¿¶Î½ Î±ÏĤ
ĠÎ´Î¹ ÏĮÏĦÎ¹
ĠÎ» Î·
Ïİ Î¼Î±ÏĦÎ±
Ġá½¥ ÏģÎ±Î½
ĠÏĨÎ»ÎµÎ³Î¼Î¿Î½ á½´Î½
Ġword s
Ġy e
ĠÎº Î¹Î²
Îº Î·ÏģÎ¿á¿¦
á½± Î½ÎµÏĥÎ¸Î±Î¹
ĠÎ³ Î·
á½·Î½ Î¿Î¹ÏĦÎ¿
ĠÏĢÎ¿Î»Î» á½´Î½
Ġá½ĳÎ³ Ïģá½°
Ġn e
Ġá¼ĲÎºÎµá½·Î½ Î·Î½
Î´Ïī ÎºÎµÎ½
ĠÎºá½·Î½ Î´ÏħÎ½
Ġá¼ĲÏģÎ³á½±Î¶ ÎµÏĥÎ¸Î±Î¹
Î²á½± Î»Î»Î¿Î½
ãĢ ī
ĠÏĢÎ±ÏĦ á½´Ïģ
á¼ĲÎ»Î± á½·Î¿Ïħ
2 2
u st
ÏĢ ÏĮ
ĠÏĢ ÎŃÎ½
ĠÎµ Î»
Î»Îµ á½·Î±ÏĤ
Î·Ïĥ Î±Î¹
Î»Î± Îº
ĠÏĥÏĦ ÏģÎ¿
ÎºÎ¿ ÏĢ
ĠÎ»ÎŃ Î³Î¿Î½ÏĦÎµÏĤ
Ġá¼ĲÏĢá½· Î´Îµ
Ġá¼ģÎ¼Î±Ïģ ÏĦÏī
Ġá¼ĢÎ³Î³ Îµá¿ĸÎ¿Î½
ĠÎ¸ÏħÎ¼ Î¹á½±
Î¿á½º Î»
ĠÎ½ á½±Ïģ
Ġp as
ĠÎ¶ á¿¶Î½
Î¼Î¹ Î¿Î½
ÏĩÎ¸ á¿ĨÎ½Î±Î¹
Ïģá½¹ÏĦÎ· ÏĦÎ¹
ãĢ Ī
ÏĢ Î·Î½
Î´ á½²
á¿¶ Ï²
Î»Î» á½±
ĠÏĢÏģ Î¿Î½Î¿
ĠÎ´Î¹ á½±ÏģÎ¸ÏģÏī
á½½ Î¼Î±
ÏħÏĦ á½±
ĠÎ¶ Î·ÏĦ
Ġá¼ĦÎ½ Î´ÏģÎ±
ĠÎºá¾ Ħ
ĠÎ´ÏħÏĥ ÎµÎ½ÏĦÎµÏģ
Ġal so
Ġup on
ĠÎºÎµÎºÎ±Ïħ Î¼á½³Î½Î¿Ïħ
Î´Î·Î¼Î¹ á¿¶Î½
Ġá¼Ģ á½³ÏģÎ¿ÏĤ
ĠÏĥ á½²
ĠÎ³ Î·ÏĤ
ĠÏĩ Ïİ
ÏĥÎ¹ ÏĢ
ĠÏĢÎ¿ ÏģÎµÏħ
Ġá¼ĢÎ½ Î´
Ġá¼¸ ÏīÎ½
ĠÎ¾ Ïħ
Ġá¼ĢÎ½Î¸Ïģá½½ ÏĢÎ¿Î¹ÏĤ
ĠÏĦ á½·Î½
ĠÎ± Î½Îµ
ÏģÎ± Î¹Î½
á½µ Îº
ĠÎĳ Î²
Î¿á½» Î¼ÎµÎ½Î¿Î¹
Ġá¿¥ Î¿Î´
ĠB a
Ġá¼ĶÏĩ Î¿Î½ÏĦÎ¿ÏĤ
Ġc a
Ġ3 5
ĠÎ»á½¹Î³ Î¿Î¹ÏĤ
ĠÎ¿á½ĲÎ´Îµ Î¼á½·Î±Î½
Ġá¼ĲÎ¼Î² á½±Î»Î»
Ġá¼Ģ ÏĥÎ¹
á½µ Î¼Î·Î½
Ġá¼Ħ á¿¤á¿¥
Ġá¼ĲÎº Î¬
Ġá¼ĳ Ïī
Ġá½¡ Ï²
Ġá¼ĲÏĢÎ¹ Î´Î·Î¼Î¹á¿¶Î½
Î½Î±Î¹ ÏĤ
Ġá½Ħ Ïĩ
ĠÏħ Î¹Î¿Î¹
ĠÎ¼Î¿Ïģá½· á¿³
ĠÎ»á½³ Î»ÎµÎºÏĦÎ±Î¹
ĠÏĩÎ¹ ÏĦ
Ġá¼ĢÎ¾Î¹ á½¹
Ġu n
Ġá¼ĲÏĢÎ¿ ÏģÎµá½»
ĠÎ´Î¹Î±á½· ÏĦÎ·ÏĤ
Î´á¿Ĩ Î»Î¿Î½
ĠÎº ÏģÎµ
Ġá¼Ĳ á½±Î½
Î¸ á½²Î½
ĠÎ´Î¹ á½¸
á¿ĩ ÏĤ
Ġá¼ĢÏģ ÎºÎµá¿ĸ
Ġs h
ĠÏĢÎµ ÏĨÏħÎº
ĠÎ³ÏħÎ¼Î½ á½±
Î¿á½ĲÎ´ á½²Î½
ĠÏĥÏĦÏĮ Î¼Î±
ĠÎ½Ïī ÏĦÎ¹
Î» á¿ĥ
á½· Î´ÏīÎ½
Ġá¼ĲÎ½ á½½
ĠÏĨ ÏĮ
ĠÎµá¼¶ Î´Î¿Î½
Ġá¼ĢÎ½Î± Î»Î¿Î³
ĠB U
ÏĥÏĥ ÏīÎ½
Î¤ á½°
ĠÎ¸Î±Î½ á½±
h ras
n ess
ÏĥÏĦ Î·Ïģ
á¿ĸ Î±
ĠÎ´Î¹Î± Ïĥ
ÏĥÎ¼ á½¸Î½
ĠÎ§ Î±Î»
Ïģá½³ ÏĥÎµÏīÏĤ
Ġá¼°Î´ á½·Î±Î½
u c
ĠÏĦ ÏģÎµ
Ġá¼Ĳ Î²Î±
ĠÎ±á½ĲÏĦ á½±
ĠÏĨ Î¬
ĠÎ¸ Î·Ïģ
Ġá¼ĢÎ»Î» Ê¼
ÏĦÏī Ïģ
Î»ÎµÎ¹ Î±
Ïĥá½· ÏĤ
ĠÎĵ Î±
ĠÎ»ÏĮÎ³ Î¿ÏħÏĤ
ĠÎ´Î¯ ÎºÎ±Î¹
Î½ÎµÎ³ ÎºÎµÎ½
Îº Î½Î±
á¿Ĩ ÏĦÎ±Î¹
Îµá¿ĸ ÏĦÎ¿
Î¬ ÏĦÎ¿Ïħ
Î¿á¿ĸ Î¿Î½
ĠÎľ Îµ
Ġ4 9
ĠÎ¼á½µÏĦ ÏģÎ±ÏĤ
ĠÎ¸á½³ ÏĥÎ¹Î½
ĠÎ´Î±ÎºÏĦá½»Î» ÏīÎ½
o ll
Ġ vi
Ġá¼Ģ Î¼ÏĢ
Ġá¼Ģ Î´Î¹
ÎºÎ± Îº
ÎºÎ± Î¼ÎµÎ½
ÎŃ Î±
á½°Ïģ Î¾
ĠÏĢÏģÎ¿ Îµá½·
Î® ÏĥÎ¿ÏħÏĥÎ¹Î½
ĠÏĪ Î±Î»
ĠÏĢÏģÎ¿Ïĥ ÎŃ
Î²Î± ÏĦÎ±
ĠÎ¼ÎŃ Ïĥá¿³
Ġá¼ĲÎ» Î¬Î»
ĠÏĦÎ¿Î¹Î±á½» ÏĦÎ±ÏĤ
Ġá½ĢÎ´á½»Î½ Î·ÏĤ
ĠÏĦá½µÎ½ Î´Îµ
ĠÏĥá½»Î¼Î¼Îµ ÏĦÏģÎ¿Î½
Ġmea ning
ĠÎºÎ± Î¹Î½
Ïī Î²
Î³ á½·Î½ÎµÏĦÎ±Î¹
ĠÏĥ Î¿á½¶
ÏĦÎ· ÏĥÎ±Î½
ÏĢÎ¿ Î¼ÎµÎ½
ÏĥÎº Î±Î¹
ĠÎºÎ±ÏĦÎ± Îº
ĠÏĢÏģÎ¿Ïĥ Ïī
Ġm an
Îĳ ÎĽ
ĠÎ¸ÎµÏģÎ¼Î± á½·Î½ÎµÎ¹Î½
Ġá¼ĢÎ¼ÏĨ á½¹ÏĦÎµÏģÎ±
ĠÎ»ÎµÏħÎº á½¸Î½
Ġá¼ĲÎºÎµá¿ĸÎ½ Î¿ÏĤ
ĠÏĢÎ»á½µ Î¸ÎµÎ¹
ĠÎ¼Î±Ïģ ÏĦÏħ
Î³Î½Ïħ ÏĦÎ±Î¹
Ġ Ïģ
Î½ á½±
Ïĥ Î¿ÏħÏĤ
Î¼ á½±Î½
Îº á¾
Ïī ÏĥÎµ
Ġá¼Ĳ Î´á½·
Ġá½Ħ ÏĢÎ¹ÏĥÎ¸ÎµÎ½
Ġá¼ĢÎº Î¿Ïħ
ĠÎ±Ïħ ÏĦÎ·
Ġá¼ĲÎ¼ÏĢ Î»á½±
ar d
Ġá¼±ÎºÎ±Î½ á½¸Î½
Ġá¼ĳÎºÎ± ÏĦá½³ÏģÎ¿Ïħ
ÏĦÎ¹Î½ á½²ÏĤ
ÎĹ ÎĿ
Ġag ain
ĠÎ¸ÏħÎ¼Î¹á½± Î¼Î±ÏĦÎ¿ÏĤ
Ïĥ ÏħÎ¼
ÏģÎ¹ Î¿Ïħ
ĠÏĢÏģÎ¿ ÎºÎµá½·Î¼ÎµÎ½Î¿Î½
Ġá¼ĲÏĢÎ¹ Î²
ÏħÎ¼ Î¿Î½
ĠÎ¼Î· ÏĦÏģ
ĠÎºÎµ ÏģÎ±
Ġá¼ĢÏĨ á½·
Î¿á½Ĳ Ïĩ
Ġh im
ĠÏĢÎ»Îµá¿ĸ ÏĥÏĦÎ±
Ġá¼ĳÏĦá½³Ïģ á¿³
ĠÎ´Î±ÎºÏĦá½»Î» Î¿ÏħÏĤ
ĠÏĢÎµÏģÎ¹á½³Ïĩ Î¿Î½ÏĦÎ¿ÏĤ
Ġlit t
Ġá¼ĢÎ³ÏģÏħÏĢ Î½
i an
Î ĺ
á½¹ Î´ÏīÎ½
Î±Î¹ Î±
ĠÎ´Î¹ ÏĢÎ»
ÏĥÎ¸ á½µÏĥÎµÏĦÎ±Î¹
ÏĥÎµ Î»
ĠÎµá¼¶ ÏĢÎµ
Ġá¼Ī ÏĥÏĥ
ĠÎ»Î± á¿·
Ġá¼ĺ ÏĨ
ĠÎ²Î¿ Î·Î¸Î·
Ġá¼ĲÎºÎµá¿ĸ Î½Î±
ĠÎĳá¼°Î³ Ïį
ĠÎ²Î¿á½» Î»ÎµÏĦÎ±Î¹
ĠÏĥÏİ Î¼Î±ÏĦÎ¿ÏĤ
ĠÏĦÏģá½³ ÏĨ
Ġá¼Ģá¿¤á¿¥ á½½
Ġá½ģÎ¼Î¹ Î»
o k
Î½ Î¿Î¼
á¼ ¥
Ïĥ Î±Ïģ
ĠÎ´ ÎµÎ¹Î½
ÏĦÎ¹ Î´Î¿ÏĤ
Î»Îµ Î¿ÏĤ
Î® Ïģ
ĠÎ¸Îµ Î¿ÏĤ
Î¯Î½ ÎµÎ¹
ĠÎºá½» ÏĥÏĦÎ¹Î½
ĠÏĢÏģá¿¶ ÏĦÎ¿ÏĤ
ÏĦÎ±á¿¦ ÏĦ
ĠÎ¼ÎµÎ³á½±Î» Î¿Ïħ
ĠÎ´Î¹Î±ÏĨá½³Ïģ ÎµÎ¹
ĠÏĥÏĦÎµÎ½ Î¿Ïĩ
ĠÎ»Î±Î² Îµá¿ĸÎ½
Î¡ ÎĻ
ĠÏĢÎ±ÏģÎ±ÏĢÎ»Î·Ïĥ á½·ÏīÏĤ
Ġá½łÎ¼Î¿ ÏĢÎ»á½±
ÏĢ Ïģá½¹
Î¼ á½·Î±
ĠÎºÎ± Î¼ÏĢ
Ïĩ Î±Î½
Ïĩ Î¼Î±
ÏĨ Î½Î·ÏĤ
ÏħÏĦ á½¶
it em
ĠÎ¼á½¹Î½ Î¿Ïħ
ĠÏĪÏħÏĩ Ïģá½°
ĠÏĢá½± Î¸Î¿ÏħÏĤ
Ġá½ħÎ» á¿³
Î¼ÎŃÎ½ Î¿ÏħÏĤ
ĠÎ£Î± Î¿á½ºÎ»
ĠÏĢÎ±Î»Î±Î¹ Î¿á¿¦
Ġá¼ĲÎ´ á½µÎ»
ĠÏĨÏħÎ» á¿ĨÏĤ
Ġ ,
ĠÎº ÎŃ
Ġá¼Ģ ÏĥÏĦ
á½» ÏĤ
á½» ÏĥÎµÎ¹
ĠÎ» Ïħ
ÏĢÎ¿ Î´
Î® ÏĥÎµÎ¹ÏĤ
Ġo ther
ĠÎ¿á½ĸ ÏĥÎ±Î½
Ġá¼ĢÏĢÎ¿ Ïģ
ĠÎºÎ±ÏĦ Ê¼
ĠÎ±á¼° á¿¶Î½Î¿ÏĤ
ĠÎºÎ¿ Ïģ
en er
ĠÏĦÎµÏĦ ÏģÎ±
iv es
Ġus ed
ĠÎ¼á½³Î³ Î±Î½
ĠÎºÎ¹Î² Ïī
Î» á½°ÏĤ
Î· ÏĥÎµ
ÏĦÎ± ÏĦÎ¿Î½
á¿¶ ÏĥÎ¸Î±Î¹
ÏĥÎ¸ Î®ÏĥÎµÏĦÎ±Î¹
ĠÏĩ Ïī
ÏģÎ¿ ÏĦá½³ÏģÎ±
ĠÎºÎ±Î¸ á½°
Ġá¼ĢÏĢÎ¿ Î»Îµá½·
Î¸Ïģ Î¿Ïħ
Î´Î± Î¼
ĠÎ¿á¼¶ ÎºÎ¿ÏĤ
Î¿Ïģ Î¸
ĠÎ´Î¹á½± Î³Î½ÏīÏĥÎ¹Î½
Îµá½» Î±
Ġá¼¡Î¼ÎŃ ÏģÎ±Î¹ÏĤ
Ġá¼ĳÏĦá½³Ïģ Î¿Î¹ÏĤ
ĠÎ»ÎµÏĢ ÏĦá½°
Ġá¼ĦÏģÏĩ Î¿Î½ÏĦÎµÏĤ
ĠÏĩÎ±Î»Îº Î¿á¿¦
Ġá¼°Î´á½³ Î±Î½
Î´ ÏģÎ¿Î½
á½¹ Î½Î±
ĠÏĨ á½±ÏĥÎº
ĠÎ² Î»Î±Î²
Î»Î· Î¼
Ïİ Î¸Î·
â¸ Ģ
á½ħ Î¸ÎµÎ½
ĠÏĦÎ±Ïį ÏĦÎ·Î½
Î¬Îº Î¹ÏĤ
ĠÏĦÏģÏĮ ÏĢÎ¿Î½
ĠÏĦÎµÏĦÎ±Ïģ ÏĦÎ±
Ġtra ns
ĠÎ¸á¾¶ ÏĦÏĦÎ¿Î½
Î» ÏīÏĤ
Îº ÏĦÎ¿ÏĤ
ĠÏĥ á½µ
á½½ ÏĥÎ±ÏĤ
Ġá½ħ ÏĥÏĦÎ¹ÏĤ
ĠÏĩÏģ á¿Ħ
Ġá¼ĲÏĢÎ¹ Î¼ÎµÎ»á¿¶ÏĤ
re ad
ĠÏĪÏħÏĩ á½´
ÏĢÏĦ á½³Î¿Î½
ĠÏĢá½± ÏĥÎ·ÏĤ
ĠÎĶ Î±Î½Î¹
ĠÏĦÏģá½· Î±
ÏĩÎ¸ Î·ÏĥÎ±Î½
Ġá½ĦÎ½ ÏĦÎµÏĤ
ĠÎ´ÏģÎ¹ Î¼á½³
ĠÎ³Î½ÏīÏģá½· ÏĥÎ¼Î±ÏĦÎ±
ĠÏĢÎµá½· ÏģÎ±ÏĤ
ĠÎ¿á½ĲÎ³Î³ á½·Î±ÏĤ
Î½ Ïħ
Ïį Î½Î·ÏĤ
Ġá¼ĳ ÏĦÎ¿Î¹
Ġá¼ĳ ÏĦÎŃ
Ġá¼ĢÏĢÎ¿ Î´
ĠÎºÎ±ÏĦÎ± ÏĥÏĦ
ĠÎºÎ±Î» Î¿á¿¦ÏĥÎ¹Î½
ÏĥÏĦá½± ÏĥÎµÏīÏĤ
Ġfor m
ÏĨÏħ Î»á½±
ĠÏĨÎ»á½³ Î²Î±
ĠÏĥÎ·Î¼Î± á½·Î½ÎµÎ¹
Ïģá½» ÏĥÎ¹ÏĢ
á¼ĦÎ»Î» Î¿
Î½ ÏĦÎ±Î¹
ĠÎº Î¿Î»
ĠÎµ Ïģ
Î¼Î± á½·
ĠÎ» Ïį
ĠÏĦÎ± ÏģÎ±Ïĩ
ÏĦá½· Î¸ÎµÎ¹
ĠÏĨÎ± ÏĥÎ¹
âģ ½
ĠÎºÏģ Î¹Î½
Ġá¼ĢÎ½Î±Î³ Îºá½±
ĠÏĦÎ¿Î¹Î¿á½» ÏĦÎ¿Ïħ
ĠÏĩÏħÎ» á½¸Î½
ĠÎ±á½ĲÏĦá½±Ïģ ÎºÏīÏĤ
á¼ Ĩ
Ïĥ Î·Î½
Ġá¼Ĳ Î¼Î±
ĠÏĢ Îµá¿ĸ
ÏĦÎ± á½»
Ïģá½· á¿³
Î³Î± Î³Î¿Î½
Ġá¼± ÏĥÏĦ
ĠÏĩÏħÎ¼ á½¸ÏĤ
Î²Î¿Î» Î¿Î½
ĠÎºá½±ÏĦÏī Î¸ÎµÎ½
ĠÏĦÎ¿Ïį ÏĦÎ¿Î¹ÏĤ
ÏĦÏģá½· Î²
ĠÎ¼Î·Î´Îµ Î¼á½·Î±Î½
ĠÏĦÏģá½± ÏĩÎ·Î»Î¿Î½
ĠÎºá¿¶ Î»Î¿Î½
p ostea
ÏĦ ÎµÎ½
Î» ÏħÎ¸
Îº Ïģá½¹ÎºÎ¿Ïħ
Ġá¼Ķ Î´ÎµÎ¹
ĠÏĨ á½±Î½Î±Î¹
á½½ Î´ÎµÎ¹
ĠÎ¸ Ïģá½³
á½·Î½ á¿ĥ
ĠÎ¿á½ĸ ÏģÎ¿Î½
Ġá¿¥ á½µÏĥÎµÏīÏĤ
ĠÎ¼ÎµÎ³ Î¬
ĠÎºá½» ÏģÎ¹Î¿Î½
Ġá¼ĲÎºÎµá½·Î½ Î·ÏĤ
ÏīÏģá½· Î±Î½
ĠÏĥÏĦá½¹ Î¼Î±ÏĦÎ¹
Ġá¼±ÎµÏģ Îµá½ºÏĤ
Ġá½łÏĨ á½³
ĠÎ¾Î·ÏģÎ± á½·Î½ÎµÎ¹Î½
ĠÎ´Î·Î» Î¿á¿ĸ
Ġá½ĢÎ´á½»Î½ Î·Î½
á½»ÏĦÎ· ÏĦÎ±
ĠÏĦá¼ĢÎ½ Î±Î½
1 8
Î½ á¿¦Î½
Ïĥ Î²
Î¿Î¹ Î±
Ġá¼ĲÏĢ Î¬
ÏĪ á½»Ïĩ
ĠA C
Î® ÏĥÎ¿Î¼Î±Î¹
Î»Î· ÏĨ
ÏģÎ· Î¼Î±
ÏĨÎ¿ Î²
ĠÎ£ ÎµÎ¹
ĠÎ· Î½
ĠÎ¼ÎµÏĦ á½³
ĠÎºÎµÏĨÎ±Î» á¿ĩ
ÏīÎ¸ á¿ĩ
Ġ4 1
ĠÎ»ÎµÏĢÏĦ ÏħÎ½
ĠÎ´ÏħÏĥ ÏĢÎ½Î¿
ĠÎºÏģÎ¹ Ïĥá½·
ĠÏĢÎµÏģÎ¹ÏĦÏĦ á½¸Î½
Ġá¿¥á½·Î¶ Î·ÏĤ
Ġá¼ĢÏħÏĦ á¿¶Î½
á¼ĲÏĨ ÎµÎ¾á¿ĨÏĤ
ĠÎ³á½·Î³Î½ Î¿Î½ÏĦÎ±Î¹
Ġá¼ĳÎ±Ïħ ÏĦÎ¿á½ºÏĤ
ĠÎº Î»Î±
ĠÏĢ ÏĦÎµÏģ
ÏĮ Î¼ÎµÎ¸Î±
Ġá½Ģ Î¼ÏĨ
Ġá½Ģ ÎºÏĦ
ĠÎ¿á½ĸ ÏĥÎ±
ĠÎł Î±
ĠÎ³Î½ á¿¶Î½Î±Î¹
á½»Î» ÏīÎ½
ĠÎ²Î¿Ïħ Î»Î·Î¸
ĠÏĦÎ¿á½Ķ Î½Î¿Î¼Î±
ĠÏĥÏħÎ¼Î²ÎµÎ² Î·Îº
Ġ ear
Î¼ Î¼
Îº ÎŃ
Ġá¼Ĳ Î»ÎŃ
ĠÎ¼ Îµá¿ĸ
ÎŃ Î¿Î½
Ġá¼ĢÏĢ ÎµÎ¹
ÏĥÎ±Î½ ÏĦÎ±ÏĤ
ĠÏĢÎ¿Î»Î» á¿ĨÏĤ
ĠÎ´á½³ Î´ÎµÎ¹ÎºÏĦÎ±Î¹
Ġá¼ĲÎ¼ á½²
o c
s cr
Î» á½´Î½
Ïĩ Î·ÏĤ
ÏĥÏĦ Î¿ÏħÏĤ
ĠÏĨ Î¯
ĠÏĢÏģÎ¿ ÏĬ
Ġá¼ĢÎ»Î» Î®Î»
ĠÎ³ÎµÎ½ ÎŃ
ĠÏĢÏģá½¹ Î´Î·Î»Î¿Î½
ĠÎºÎ±Î» Îµá¿ĸÏĦÎ±Î¹
ĠÏĨÎ»Îµ ÏĪ
Î²Î¿Î» á½´Î½
ĠÏĦÎ¿á¿ĸ ÏĥÎ¹Î½
Îµá¼¶ ÏĦÎ±
Î¿á½Ĺ ÏĦÎ¿ÏĤ
ĠÏĢá½µ Ïĩ
ĠÎĳá¼°Î³á½» ÏĢÏĦÎ¿Ïħ
Ġ ri
Î¿ Î´Î¿ÏĤ
ĠÏĢ ÏħÎ»
ÏĥÎ¸ á½³Î½
ĠÏĨ Î¬Ïģ
Ġá¼ĢÏĢ Î±
Ġs ense
Ġá¼¸ Î¿á½»
ĠÎµá¼°ÏģÎ· Î¼á½³Î½Î¿Î½
ĠÎ±Ïħ ÏĦÎ·Î½
ĠÎºÎ±ÎºÎ¿ ÏĩÏħÎ¼
Ġá¼ĢÎºÎ¿á½» ÎµÎ¹Î½
Ġá¼ĲÏĢÎ¿ ÏģÎµÏį
Ġá¼ĶÎ»Î± ÏĦÏĦÎ¿Î½
ĠÏĦÎ¿á½ĲÎ½Î±Î½ ÏĦá½·Î¿Î½
ÏĩÎ¼Î± Î»Ïī
Î± ÏĢÎ¿
Ġá¼ Ń
ĠÎµ ÏĢÎ¿Î¹
Î¿Î¹ ÎµÎ½
á½µ Ïģ
Ġá¼¸ Î´Î¿á½º
Ġá½§ Î´Îµ
á½·Î¶ ÎµÎ¹Î½
ĠÎĵ Î±Î»Î±
ÏĢÎ¿Î¹ Îµá¿ĸ
Î¿Î¼ÎŃÎ½ Î¿Ïħ
Ġá¼ĳÎºÎ± ÏĦá½¸Î½
Î¿Î² Î¿
os s
ĠÏĥÏĢÎ»á½±Î³ Ïĩ
Ġá¼ĢÎ¸Ïģá½¹ ÏīÏĤ
ÎĳÎĽ ÎĹÎĿ
ÎĳÎĽÎĹÎĿ ÎŁÎ¥
u e
Ġá¼Ĳ ÏģÎµ
á¿¶ ÏĦÎ±
ĠÎ± Î³
ĠÏĥ ÏĢÎµÏģ
ĠÎµá¼° ÎºÎ¿ÏĥÏĦ
Ïį Î½Î·
Ġá¿¥ á¾·
á¼Ģ Ïģ
it ion
Ġw e
á½»Î½ Î·Î½
ĠÏĢÏģá½½ ÏĦá¿ĥ
ĠÎ§ Ïģá½»ÏĥÎ¹ÏĢ
Ġá½¦ ÏĦÎ±
ĠG od
á½½Î´Îµ ÏĥÎ¹
Ġá¼ĲÎ´Îµ ÏĥÎ¼á½±ÏĦÏīÎ½
ÏĢ ÏģÎ±
Ġá¼Ħ Î¾Î¹
ÏĪ Î¿Î½ÏĦÎ±Î¹
á½³Ïģ ÏīÎ½
ĠÎºÎ±ÏĦÎ± ÏĥÎº
Ġá¼ħ ÏĢÎµÏģ
ĠÎ¼á½³ ÏĥÎ¿Ïħ
á¼° Î´Î¿á½º
ĠÎ²Î±ÏĥÎ¹ Î»á½³Î±
Ġá¼°ÏĥÏĩ Ïį
Ġn o
ĠÎ¼Î¹Îº Ïģá½°
ĠÏĢÏģá½½ ÏĦÏīÎ½
Ġá¼ĲÎ½Î±Î½ ÏĦÎ¯Î¿Î½
á½µÏĥÎµ ÏĥÎ¹Î½
ĠÏĥÎºÎµÏħ Î±
ĠÏĢÏģÎ¿Ïĥá½³ ÏĦÎ¹
a ce
Îº Î¿Î¼
ĠÏĥ á½°ÏģÎ¾
Î² Î·ÏĥÎ±Î½
á½µ ÏĥÎ¿Î¼ÎµÎ½
á½¹Î½ Î¿ÏĤ
ĠÎ¼Îµ Ïĥ
Ïģá½¹ ÏĦÎµÏģÎ¿ÏĤ
Î¿Î» á½¹Î³
ĠÏĢá½¹ Î»Îµ
Ġá¼ģÏĢ Î±Î»
á½¡ ÏĥÎ±á½»ÏĦÏīÏĤ
Î¸á½³Î½ ÏĦÎ¿ÏĤ
Î¸ÎµÏģ Î¼Î±
ĠÎ´Î¹Î¿ ÏģÎ¹ÏĥÎ¼
ĠÏĥÏħÎ»Î» Î¿Î³
ĠÎ£Î±Î»Ïī Î¼á½¼Î½
Ġper haps
Î¼ ÎµÏģ
Ïī Î¼á½³Î½ÏīÎ½
ĠÎ´ ÏģÎ±
á½¹ ÏĦÎµÏģÎ¿ÏĤ
á½µ Î¼Î±ÏĥÎ¹
ĠÎ¸ ÏĤ
á¿¦ ÏĦÎ±Î¹
ĠÏĢÎ¿ ÏģÎµÏį
Ġá¼ĲÎ¾ Î¹
Ġá¼¡Î¼ Îµ
Ġá¼ĲÎ³ ÎŃÎ½
ĠÎ¸ÎµÏģÎ¼ á½¹ÏĦÎ·ÏĦÎ±
á½ħ ÏĥÎ¿Î¹
ĠÎ»á½³Î³ Ïī
ĠÎ´ÏĮ Î¾Î±Î½
ĠÎ¶Ïī á¿ĨÏĤ
Ġá¼¡Î»Î¹Îº á½·Î±ÏĤ
Ġá½ģÎ¼Î¿Î¹ Î¿Î¼
ĠÎ´ÎµÏħÏĦá½³Ïģ Î¿Ïħ
ĠÎ³ÎµÎ³ÎµÎ½ Î·
mp v
á¼ ¶
Î¹ Î´
Ġá¼Ģ á½³ÏģÎ±
Î¿á¿¦ Î¼Î±Î¹
ĠÎµ ÏīÏĤ
ĠÏĨ á¿¶ÏĤ
ĠÏĦÎµ ÏĦÏĦ
ĠÏĢÎ¿ ÏģÎµá½»
ĠÎ´Î¹Î± Î³Î¹Î½
ĠÎ½ Î¹Îº
Ġá¼ĲÏĢÎ¹ ÏĦÏģá½³
ĠÎºÎ±ÏĦÎ± ÏĥÏĩ
Ġá½Ħ Î³Îº
ĠÎ³á½³Î½ Î·
Î´á½³ ÏĤ
ĠÎķ á½Ĳ
Î»Î±Î¼Î² Î±Î½
ĠÏĩÎµÎ¹Î¼á¿¶Î½ Î¿ÏĤ
Ġli ke
Îµá½Ķ Î´Î·Î»Î¿Î½
ÏĢ Î±ÏĤ
Î¼ á½µÎ½
ĠÎº á½±Ïģ
Î³ Î±Ïģ
ÏĨ á½·
ĠÎ± Î³Î±
ĠÎ¿ ÏħÏĦ
ĠÎµ Î±Î½
Ġá¼Ķ ÏĦÎµ
á½º Ï²
ĠÎ´Î¹Î± Î¸Î®
ĠÎ½ Î·
Ġá¼ķ Î¾ÎµÎ¹
ĠÎ¾ Ïį
ĠÎ´Îµ ÏĥÎ¼
on e
ĠÏĥÏħÎ¼ÏĢ á½±
Ġá¼¸Ïī Ïĥ
ĠÎ»Î¿Î¹ÏĢ á½¸Î½
Ġá¼ĢÎ½Î±ÏĦÎ¿Î¼ á¿ĨÏĤ
i p
Ï ĭ
Î¹ ÏĥÏĦÎ¹Îº
Ġá¼Ĳ ÏĩÎ¸
ĠÏĢ á½»
ÎµÎ¹ Î¿Î½
Î»Î» Î¹Î¿Î½
Î² á½±Î½Î·ÏĤ
ĠÎ² Îµ
Î¹Îº á½°
Î¹Îº á½´Î½
á½¼ Î¸
ĠÏĥÎ¼Î¹Îº Ïģá½¸Î½
ĠÎ¸ÎµÏģÎ±ÏĢ Îµá½·Î±Î½
Ġá½łÎ½á½¹ Î¼Î±
Îµ ÏĥÎ¸Î±á½·
ĠÏĥ ÏĢÎ¿Ïħ
ĠÏĨ Î¹
Ġá½Ģ Î³
ĠÎºÎ±Î¸ á½±Ïģ
Ġá¼ĢÎ½Î± ÏĦÎµ
ĠÏĢÎ±ÏģÎ± Î´Îµá½·
Ġá½ĳÏĢÎ¿ ÏĥÏĦ
ĠÎ¸ÎµÏģÎ¼ á½°
ĠÎ¿á½ĲÏĩ á½¶
ĠÎºÎ±ÏģÎ´ Î¯Î±ÏĤ
Î»Î±Î² á½¼Î½
Ġá¼ĢÏģÏĦÎ·Ïģá½· Î±Î¹ÏĤ
ĠÏĥÏĨÏħÎ³Î¼ Î¿á¿¦
Î¿á½Ĺ ÏĦÎ¿Î¹
ĠÏĥá½±Ïģ ÎºÎ±
ĠÏĢÎ»á½± ÏĦÎ¿ÏĤ
á¼ĲÏĢÎµÎ¹Î´ á½´
Ġá¼Ģ ÏĥÎ±ÏĨ
ÏĨ ÏģÎ±
ÏĥÏĦ Î·ÏĤ
Ġá¼ĲÎ½ ÎŃ
Î»Î± á¿ĸÏĤ
Ġá½Ħ ÏģÎ¿ÏĤ
ĠÎľ á½´
Ġá¼ĲÏģ Îµá¿ĸ
ĠÏĢÏĮ Î»ÎµÏīÏĤ
ĠÎ´Î¹Î±Î¸á½³ ÏĥÎµÏīÎ½
ĠÎ³ÎµÎ³ÏģÎ±Î¼ Î¼á½³Î½ÏīÎ½
ĠÎ²Î¹Î²Î»á½· á¿³
ĠÏĥá½»Î½ Î¸Îµ
ĠÏĢÏģÎ¿ÏĥÎ¸ Îµá¿ĸÎ½Î±Î¹
res ent
ĠÎ¼á½³Î³ Î±ÏĤ
ĠÏĢÏģá¾¶ Î³Î¼Î±
Ġá½ĢÎ½Î¿Î¼ Î¬Î¶
Ïĥ Î¯Î±Î½
ĠÎºÎ± ÏĢÎ½
Ïĩ ÏģÎ¿Î½
Î¿Ïħ Î²
Ġá¼ĲÎ½ á½³
Ġá¼ĲÎ½ ÎµÏĥÏĦ
Î¿Î¼ ÏĨÎ±
ĠÏĦÏģÎ¹ Î±Îº
ÎµÎ¯ Î´
ĠÎ¸Î±Ïħ Î¼á½±Î¶
ĠÏĥÎºá½³ Î»Î¿ÏĤ
ĠÎºÎ½ á½µÎ¼Î·ÏĤ
ĠÏĢÎ¿Î»Ïħ ÎµÎ¹Î´
ĠÏĦÎµÏĦÎ± Î³
ĠÏĦá¼ĢÎ½Î±Î½ ÏĦá½·Î±
ĠÏĥ á½µÎ¼ÎµÏģÎ¿Î½
ÏīÎ½ Î±
Ġá¼Ķ Î¾
ĠÏĨ Ïģ
ĠÏĩÏģ Îµ
Ġá¿¥ Îµ
Ġá¿¥ Î·Î¸
Ġá¿¥ Îµá½»
ÏĦÏģ á¿³
ÏĥÏī ÏĥÎ¹Î½
ĠÎ¼ÎµÏĦÎ± Î²
ĠÎºá½» ÏĥÏĦÎµÏīÏĤ
ĠÏĢÏħÏģÎµ ÏĦÎ¿á¿ĸÏĤ
Îºá½¹ ÏĦÎ±
se l
ĠÎ³Î±ÏĥÏĦ á½´Ïģ
ĠÎĿ Î±
Ġá½łÏĨ Îµ
Ġon e
Ġex c
ĠÎ²Î±ÏĥÎ¹Î» Îµá¿ĸÏĤ
Î¿á¼ ·
ĠÏĢÎ¿Î»Îµ Î¼
ĠÏĥÏĦÏģ ÏħÏĨ
Î½ Î·ÏĥÎµÎ½
Ïģ á½°ÏĤ
Ïĥ Î·Î¼Î±
Î¸ Î¿Î¹ÏĤ
Ġá¼Ģ Î²
ĠÎµ ÎºÎ±
Ġa cc
Ġá¼¡Î¼ Î¹
Ġá¼ĢÏĢÎ¿ ÏĦÎµ
Ġs cr
ĠÏĦÎ¹Î½ á¿¶Î½
Ġá½ĳÎ³ ÏģÎ¿á¿¦
Ġ3 8
ĠÏĨÎ± Î³
en ce
ĠÎ¿á¼¶ Î½Î¿ÏĤ
ĠÎµá¼°Ïĥ á¿ĨÎ»Î¸ÎµÎ½
Î¿Î¼ÎŃÎ½ Î·
ĠÏĩÎµá¿ĸ ÏģÎ¿Î½
ĠÏĥÎ¼ á½»ÏģÎ½Î·ÏĤ
ĠâĦµ B
Î¹ÏĥÏĦ á¿ĨÏĤ
ĠÏĥá½»Î½ Î´Îµ
Ïħ ÏĢÏĦ
ĠÎºÎ± á½»
Î¿á¿ ¶Î½
á½± Î½ÎµÏĦÎ±Î¹
á½µ ÎºÎµÎ¹
á½µ ÏĥÎ¿Î¼Î±Î¹
Ġá¼ĲÏĢÎ¹ ÏĥÏĢ
ĠÏĦá¿ĩ Î´Îµ
Ġá¼ĢÏĢÎ¿ Î»
ÎºÎ¿Î½ ÏĦÎ¿ÏĤ
Ïĥá½· á¾³
ĠÎ³Î¹Î½ á½¹Î¼ÎµÎ½Î¿Î½
Ġá½ĢÎ½Î¿Î¼á½±Î¶ ÎµÏĦÎ±Î¹
ĠÎ³ÎµÎ³ÏģÎ±Î¼ Î¼á½³Î½Î±
ĠÎ±á¼°ÏĥÎ¸ á½µÏĥÎµÏīÏĤ
ÎºÎ±Î¸ Î±Ïģ
Ġá¼ĳÎ² Î´Î¿
Ġá½ħÎ¼Î¿Î¹ Î¿Î½
ĠÎ½ÏīÏĦÎ¹ Î±á½·Î¿Ïħ
ĠÎ²Î¿Î·Î¸Î· Î¼á½±ÏĦÏīÎ½
a st
m áµį
ĠÏĢ á¿ĨÏĩ
Î¾ á½·
ÏģÎ¹ ÏĤ
ĠÎ² Î»Î¬
Ġá¼ĲÎº Î¸
Ġá½ĳÏĢ á½³
ĠÎ½ á½³
Î¿á¿¦Î½ ÏĦÎ¹
Î»á½· ÏĥÎº
ÎµÎ» á¿¶Î½
ĠÎ»á½¹Î³ Î¿ÏħÏĤ
ĠÎ»á½³Î³ Î¿ÏħÏĥÎ¹Î½
ĠÏĢÎ½Îµ ÏħÎ¼Î±
Ġá¼ł Î³
ĠÎ¿á¼°Îº Îµá¿ĸÎ¿Î½
ĠBáµĥáµĩ U
ĠÎ¸Î±Î» á½±
ĠÂ ¶
ĠÎ½ÏħÎº ÏĦá½¸ÏĤ
Ġá¼¸Î±Îº á½¼Î²
ÏĢ Î½ÎµÏħ
ÏĥÎ¸ Î·Ïĥ
Ġá¼Ħ Î³Î³ÎµÎ»
Ġá¼ĲÎ¾ Î±Ïģ
ÏĦÏģ Î¯
Î¸Îµ ÏĥÎ¸Î±Î¹
Î¬Î½ Î¿Ïħ
ĠÎ¼á½¹Î½ Î¿Î¹ÏĤ
ÏĥÎ¼ Î¿Ïħ
Ġá¼ĲÏģ Î¿á¿¦Î¼ÎµÎ½
Ġá½ĢÎ»á½· Î³Î±
ĠÎºÎ±Îº á½¸Î½
res s
Ġá¼ĲÎºÎºÎ» Î·Ïĥ
o se
Ïģ Î¹Î½
Î¸ Îµá½·Î·
á½· ÏĥÏĦÎ·
ĠÏĥ Î¹Îº
Ïį Ïĩ
Ġá¼ĢÎ½ ÏĦá½·
ĠÎ´Î¹Î± Î»Îµá½·
ÏģÎ¿ ÏĦá½±
ha n
ĠÎ²Î±ÏĥÎ¹ Î»á½³ÏīÏĤ
Ġá¼ĢÏĨ Î±Î¹Ïģ
Î¯Î½ ÏīÎ½
ĠÏĢá½³ ÏĪÎµÏīÏĤ
ÎŁ ÎĿ
â¸ĥ ,
á¼¢ Î½
ĠÏĢÏģÎ¿ÏĥÎµ ÏħÏĩ
ĠÎ¶á¿¶ Î±
Ġá¼ĢÎ½Î´Ïģ á½¸ÏĤ
ĠÎ´Î¹á½±ÏģÎ¸ÏģÏī ÏĥÎ¹Î½
á¼ ł
Ïģ á½½
Ïĥ Î·ÏĦÎ±Î¹
Îº á½¼ÏĤ
ĠÎ±á½Ĳ ÏĥÏĦÎ·Ïģ
Ġá½¡ ÏĥÎµá½¶
Î¿Î» Î¿Ïĩ
ĠÎ¼á½³ Î»Î±
ĠÏĢÎ¿Î¹ á½µÏĥÎµÎ¹ÏĤ
Î»ÎµÎ¹ ÏĨÎ¸
Ġá¼ĶÎ¼ÏĢ Î±Î»Î¹Î½
Ġá¼ĦÏģ ÏĦÎ¹
ĠÎ³Î¹Î½ á½½ÏĥÎºÎµÎ¹Î½
Ġá¼ĲÎ» ÏĢ
Ġprob ably
2 0
Ïĥ Î¼á½³Î½Î¿Î½
Î¸ Ïħ
Î´Îµ Î¯
Ġá¼° ÏĩÎ¸
á½·Î½Îµ ÏĦÎ¿
ĠÏĢÎµ Ïĥ
Ġá¼ĢÏĨ Î±Î¹
ĠÎ½á½¹ ÏĥÎ¿Ïħ
ĠI sa
á½ĳ ÏĢÎ¿
ÏĦÎ¹Î½ Î±
Ġá¼ĢÎ»Î·Î¸ á½²ÏĤ
ĠÏĢÎµÏģÎ¹ÏĦÏĦ á½½Î¼Î±ÏĦÎ±
ĠÏĥÏĦÎ± Î¸
ĠÎ¸á½³Ïģ Î¿ÏħÏĤ
Ġá¼ĢÎ½ÏīÎ¼Î± Î»
Ġ ãĢĪ
ÎµÎ½ Î¹Î±
á¿Ĩ Î½Î±á½·
ÏĥÏĦ á½¹Î½
Î¾ Î¬
Î² Î¿ÏĤ
ÎºÎ± ÏħÏĦ
Ġá¼ĢÎ½Î± ÏĨÎµÏģ
Ġá¼ĶÎ½ Î¸ÎµÎ½
ÏħÎ» Î¿Î³
Ïĥá½· Î±Î¹ÏĤ
ĠÏĢá½¹ Î»Î¹Î½
Ġá¼ĳÎ±ÏħÏĦ á¿ĨÏĤ
ÏīÏģá½· Î±ÏĤ
ĠÏĢÎ»Î· ÏĥÎ¹
ĠÎ¼ÎµÎ¸ á½¹Î´Î¿Ïħ
ĠÎ³ÏħÎ½Î±Î¹Îº á½¸ÏĤ
ĠÏĥÏĦÏģÎ¿ Î³Î³
ĠÏĢÏģÎ¿Îµá½· ÏģÎ·ÏĦÎ±Î¹
Ġ ra
Î» Î¼
Ġá½ ī
Ġá½ Ļ
Î´ Î±Ïģ
Î¿Î¹ Î¼
Ġá½ħ Ïĥá¿³
ÏĥÎ± ÏĥÎ±
á½±Î½ Î¿Î¹ÏĤ
ĠÎ´Î¹Î± Î¸á½µ
ĠÏĢÎ± ÏĦÏģÎ¹
ÏĥÏĦÎ± Î»
ĠÏĢÎ¿Î¹ á½¹ÏĦÎ·ÏĦÎ¿ÏĤ
Ġá¼Ī Ïģ
Î¼ÎŃÎ½ Î¿Î¹ÏĤ
ĠÎ¼ÎŃ ÏģÎ¿ÏĤ
ĠÎ¾Î·Ïģ á¿¶Î½
ĠÎ´á½· Î±Î¹
ĠÎ´Î¹Î±ÏĨÎ¿Ïģ á½°Î½
ĠÎ³Î¹Î³Î½ á½¹Î¼ÎµÎ½Î¿Î½
ĠÎĶÎ±Ïħ ÎµÎ¯Î´
Î¸á½³Î½ ÏĦÎ±
ÏĦÏĦÏī Î¼Î±
ÏĢÏģ á¿¶ÏĦÎ¿Î½
Ġá¼ĦÎ»Î»Î· Î»Î±
e ver
á¼ ©
ĠÎ´ á¿¶
Î¿Ïħ Î¼á½³Î½Î¿Ïħ
ÏĪ á½»
ĠÎ² Î»Î±
ĠÏĢÏģÎ¿ Î³Î½
Ï² Î±
Ġá¼ĢÎ»Î» Î¿á½·
á½·Î½ Î·Î½
ÏĦÎ¿Ïħ ÏģÎ³
ĠÎ±á¼° Î³
ĠÎºÎµ ÏĨá½±Î»
Ġm ore
ĠÎºÎ¹Î½ Îµá¿ĸÏĥÎ¸Î±Î¹
á½·Î¶ ÎµÏĥÎ¸Î±Î¹
Ġá¼ĲÏģ Ïī
Ġá¼ĳÎ±ÏħÏĦ á½¸
ĠÏĥÏī ÏĦÎ·Ïģ
ĠÎ´Î¹Î±ÏĥÏĦ á½³Î»Î»
ĠÎµá½ĳÏģ á½µÏĥÎµÎ¹ÏĤ
Ġá¼ĢÎ¼Ïħ Î´
Ġá¼ĶÏĥÏĩ Î±
ĠÏĢá½µÏĩ ÎµÏīÏĤ
u n
ĠÎ´ Îµá¿ĸÏĥÎ¸Î±Î¹
á½· Î¿ÏħÏĤ
Ïĩ Îµá½·
ÏĨ ÏħÎ»
ĠÎ±á½Ĳ Î¾Î±Î½
Ġá¼ĲÎ½ Î´á½³ÏĩÎµÏĦÎ±Î¹
ÎŃ Î»
ĠÏĨ á½¹
Ġá½Ģ Î¸Î¿Î½
Ġá¿¥ á½³
ĠÎºÎ±ÏĦÎ± Î²
ĠÏĢÎ¿Î¹ Î·
ĠÎĻ Îµ
ĠÎ¸ÎµÏģÎ¼ á½¹Î½
ĠÎ»ÎŃ Î³Ïī
ĠÏĢÎ¿Î½ Î·
ĠÎ»Î±Î¼Î² á½±Î½
ĠÎľÏīÏħÏĥ á¿ĨÎ½
ĠÎ¸Î±Î» Î¬
ĠÎ´ÏħÎ½Î¬Î¼Îµ ÏīÏĤ
Ġá½ĢÎºÏĦ á½¼
B áµĥ
i x
Ïī ÏĥÎ±Î½
Î¸ á½±
Î¸ á½³Î½Î±Î¹
ĠÎ¼ Î¿Î½
ĠÎ¼ Î±ÏĥÏĦ
Î² Î¿Î½
ÏģÎ¹ ÏĥÎ¼Î±
á½¹Î½ Î±Î¹
á¿¦ ÏĥÎ¹Î½
Ġá¼ĢÎ½ ÏĦÎ±
ĠÎ´Î¹Î± ÏĢÎ»á½±
Ġo ut
Ġá¼ĲÏĢÎ¹ Î´
ÏĥÎº ÎµÎ¹
ĠÎ¸Îµ ÏīÏģ
ĠÏĦÎ¿Î¹ Î¿Ïį
ĠÏĢá½¹ Î»ÎµÎ¹ÏĤ
ĠÎĿ Îµ
Ġá½ģÎ´ á¿·
ĠÎ¼Î¹ á¾·
Ġá¼ĶÎ¸ Î½ÎµÏĥÎ¹Î½
ĠÏĢÏģÎ±Î³Î¼Î±ÏĦÎµ á½·á¾³
ĠÏĢá½±ÏĥÏĩ ÎµÎ¹Î½
ĠÏĥÏĦÎ¿Î¹Ïĩ Îµá¿ĸÎ±
ÏĥÏĥÎ±Ïģ ÎµÏĤ
ĠÎ²Î»á½±Î² Î·Î½
ĠÎ¼ÎµÎ³á½³ Î¸Î¿ÏħÏĤ
ĠâĢ ľ
' s
ÏĦ á½´
Ïħ Î³Î³Î¿ÏĤ
ĠÎ± Î»Î»
ĠÎ³ Î¿Î½
ĠÎ´Î¹ ÎŃ
ĠÎ² á½¹
Ġá½ĳÏĢ Î·ÏģÎµ
Ġa f
ĠÎ±á¼° ÏĥÏĩ
ĠÎ½Îµ á½»Ïģ
Ġá¼ĲÎºÎµá½·Î½ á¿ĥ
Ġá¼ĲÎ» Î¬
ĠÎ¿á¼°Îº Îµá½·Î±ÏĤ
ĠÎµÎ¹ ÏĢÎµÎ½
Î²Î¿Î» Î¿á½ºÏĤ
ĠÎ´ÎŃ ÎºÎ±
á½·ÏĥÏĦÎ± ÏĥÎ¸Î±Î¹
II I
Ġá¼ĲÏĥÏĩá½± ÏĦÏīÏĤ
Ġá¼ĲÏĢÎ¹ÏĦÎ· Î´Îµ
ĠÏĥÎºÎ¹ á¿¤á¿¥
Ġá½ķÏĪ Î¿ÏĤ
ĠÏĥÏĦá½³ Î±Ïģ
Ġtak en
Îº Ïī
á¿Ĩ Î½Î±
Î¼Î± Ïĩ
Ġá¼ĲÎ½ Î¯
Ġá¼Ħ á¿¤á¿¥Ïī
Î® ÏģÎ¹Î¿Î½
ÏģÎ· ÏĥÎ¹Î½
Ġá¼ĢÎ½Î± á½·
ĠÏĢÎ¿Î» á½»
ÏĩÏģÎ¹ Îµ
ĠÎ¼Î± ÏĥÏĩ
Ġá¼ĲÏģÎ³ á½±ÏĥÎ±ÏĥÎ¸Î±Î¹
ĠÏĨÏīÎ½ á½´
ĠÎ¼Î¹ Ïĥ
ĠÎºÎ±ÏģÏĢ Î¿á¿¦
ĠÎ³Ïģá½±ÏĨ ÎµÎ¹
ĠÎ»Î¹Î¸ Î±ÏģÎ³á½»ÏģÎ¿Ïħ
ĠÎ´ÎµÎ¹ ÎºÎ½
ĠÏĨÎ¬Ïģ Î¼Î±
Î» ÎµÎ½
Î¼ Î¼Î±ÏĦÎ±
á½» ÎµÏĥÎ¸Î±Î¹
Î¯ ÏĥÏī
ÏĥÎ± ÏĥÎ¸Îµ
Ġá½ĳÏĢ ÎŃÏģ
ĠÏĢÎµ ÏĨÎ¸
ĠÎ¸ÎµÏģÎ¼ á½¹ÏĦÎµÏģÎ¿Î½
ĠÎ³á½³Î½ ÎµÏĥÎ¹ÏĤ
ÏĦá½³ ÏĤ
Ġá¼ĢÏģÏĦÎ·Ïģá½· Î±Î¹
ĠÎ´á½· ÎºÎ±Î¹
ĠÏĥÎ·Î¼ Îµá½·ÏīÎ½
Ġá¼ķÎ»Îº Î·
ĠÏĢÏħÎºÎ½ á½¸Î½
ĠÏĢÎ»ÎµÎ¿Î½ ÎµÎº
ÎºÏģÎ¹ ÏĥÎ¹Î½
ĠÏĢÏģÎ¿ÏĥÎº ÏħÎ½
á½± ÏĥÎ±Î¹
ĠÎ³ Î·Î½
á½µ Î¸ÎµÎ¹Î±Î½
Ġá¼Ħ Î»
Ġá¼ĢÎ½ á½½Î¼Î±
ÏĥÎº Îµá½»Î±
Ïģá½± ÏĦÎ¿Ïħ
Î¸Î· ÏĥÎµÏĦÎ±Î¹
ÏĥÎ¼ Î¿ÏĤ
Ġá½ķ Î»Î·Î½
ĠÏĢá½± Î¼ÏĢÎ¿
ĠÎ¼ÎµÎ³ á½±Î»Î±
ĠÎ²Î±ÏĥÎ¹Î»Îµ ÏħÏĤ
ĠÎļÏį ÏģÎ¹Î¿Î½
ĠÎºÎ±ÏģÎ´ Î¯Î±
ĠÎºÎµÎ½ á½½ÏĥÎµÏīÏĤ
ÏĥÎºÎµÏħ Î±Ïĥ
ĠÏĩÎ±Î» Î±Ïģ
ĠÏĩÏģá¿Ĩ ÏĥÎ¹ÏĤ
ĠÎµá½ĲÏĨ ÏģÎ¿Ïĥ
Ġá¼ĲÎ¼ÏĢÎµÎ¹ ÏģÎ¹Îº
Ġá¼ħÎ³ Î¹Î¿Î½
Ġá½ĳÏĢÎ¿Ïĩ á½¹Î½Î´
ĠÎ¸ Ïį
Ġa m
ĠÎ³Îµ Ïī
Ġá¼ģ Î»á¿¶Î½
re d
Î½Î¿ á½ºÏĤ
ĠQ a
ĠÎ· á½Ĳ
Î²Î± á½·Î½ÎµÎ¹
Ġf oll
ĠÏĢÏģá½½ ÏĦÎ·
ĠÎ¼Î±Î» á½±
ĠÎ½á½¹ ÏĥÎ¿Î½
ĠÎ¼ÎµÎ³á½±Î» Î·ÏĤ
ĠÎ¼á½³Î»Î¹ ÏĦÎ¹
ĠÏĪá½» Î¾Î¹Î½
Ġá¼ĢÏħÏĦ á¿¶
ĠÎĴÎ±Î¹ Î¸
ĠÎ¼Î¬Î»Î¹ ÏĥÏĦÎ±
ĠÏĢÎ±Î¼ÏĢá½¹ Î»Î»
Ġá¼ĲÎ½á½½ ÏĢÎ¹Î¿Î½
Ïĥ Î¯Î½
ĠÏĦ Î±Î¹ÏĤ
Ġá¼Ĳ Î¶
ĠÎ´ Î¿Î³
Î¹Î½ Îµ
ĠÏĥ ÏĢÎ±Î½
á½» ÏĦÎµÏģÎ¿ÏĤ
ÏĥÏĦ á½¸Î½
Î½Î± ÎºÎ¿ÏĤ
ĠÎ¼Îµ Î»Î¹Îº
á½±Î½ Î±ÏĤ
Ġá¼ĢÎ½ ÏĦ
ÏĦÎ¹Îº á½¸ÏĤ
Ġá¼¤ Î½
Ġin ce
Î»á½³ Î¸
á¼Ķ ÏĥÏĦÏī
ĠÏĦá½± Î´Îµ
ĠÎ²Î¿Ïħ Î²
Ġá¼ĵ Î¾
Î²Î±Î» ÎµÎ½
ĠÎ³Î¯ Î½ÎµÏĦÎ±Î¹
ĠK ings
Q áµĥ
Î¿ Î»ÎµÎ¸
Ïĥ Î¼Î±ÏĦÎ¿ÏĤ
ĠÏĢ ÏĦá½»
Î´ Ïį
á½± Ïĥá¿ĥ
á½¹ ÏĦÎµÏģÎ¿Î¹
á½» Î½ÎµÎ¹Î½
á½µ ÏĥÎ±ÏĥÎ¸Î±Î¹
ĠÎ¿á½Ĳ Ïĥá½·Î±
Ġá½ħ ÏĢÎ¿Ïħ
Ġá¼ķ ÏĪ
Ġá¼¸ Î¿ÏģÎ´
ĠÎ¶ á¿´
ĠÎ»Î± Î¼ÏĢ
ĠÎ¹ Î²
ĠÏĢÎ±Î¹ Î´Îµ
ĠÎ»ÏĮÎ³ á¿³
ĠÏĦÏĮ ÏĦÎµ
ÏĦÏĦÎµ ÏĦÎ±Î¹
ĠÏĨÎ»ÎµÎ²Î¿ÏĦÎ¿Î¼ á½·Î±ÏĤ
á½³ÏģÏĩ ÎµÏĥÎ¸Î±Î¹
ĠÏĥá½»Î¼Î¼Îµ ÏĦÏģÎ¿ÏĤ
ĠÎ´Î¿á¿¦ Î½Î±Î¹
ĠÏĢÎ±Î½ÏĦÎµÎ» á¿¶ÏĤ
, '
Î¹ ÏĥÏĦÎ±
ĠÏĢ Î½
ĠÏĨ á½±Î³
á½½ ÏĦÏīÎ½
Ïį ÏīÎ½
ÏħÎ½ ÏĦÎ±Î¹
Ġá¼ķ Î¾Î¹Î½
ĠÏĢÎ±Ïģ á½¹Î½ÏĦÎ±
ĠÎĶ Î±
ĠÎºÎµÏĨÎ±Î» á½´
Î»Î±Î² ÎµÎ½
ĠÏĢÎ»Î· Î¼Î¼Îµ
ĠÏĦÎŃ Î»Î¿ÏĤ
ĠÎ´ÎµÏħÏĦ á½³ÏģÎ±ÏĤ
Î¿á½Ķ ÎºÎ¿ÏħÎ½
ĠÎ¼Î·Îºá½³ ÏĦÎ¹
ĠÏĦá½³ÏĦÎ±Ïģ ÏĦÎ¿Î½
Ïĥ Î¿
á½± ÏĥÎ±ÏĤ
Ġá¼ĲÎ½ Î½Î¿
Ġá¼ģ Ïģ
ÏīÏģ Î¿Î½
Î´ÎµÎ¹ Î³
ĠÏĢÏħÏģÎµ ÏĦÎ¿á½¶
ÏĥÏĦÎ· Î¼Î±
ĠAQ Îĵ
ĠÎºÎ±ÏĦá½± ÏĥÏĦÎ±ÏĥÎ¹Î½
Ġá¼ĲÎ½Î±Î½ÏĦá½· Î±
ĠÎ¼Îµá½·Î¶ ÏīÎ½
Ġá¼ĦÏģÎ¸Ïģ ÏīÎ½
ĠÎ´Î¹Î±ÏĨÎ¸ Îµá½·
ĠÎ´Î± ÏĪ
ĠÎ¼Îµá¿ĸ Î¶Î¿Î½
ĠÏĦÎµÏĦÏĦ á½±ÏģÏīÎ½
ÏĢ Î±Î¹
Îº ÏĦÎµÎ¹Î½
ĠÎºÎ± ÏĦÎ¿
á½± Î»Î·
ĠÎµ ÏĥÏĦÎ±Î¹
Î¾ á½·Î±Î½
Î¬ Î¼
ÏĢÎµ á½»
ĠÏĢÎ» Î±Î½
Î¼Î¿ Î¯
Ġin f
Î¼Î¹ Î±
á½·Î¶ ÎµÏĦÎ±Î¹
Ġbe fore
Ġá¼ĦÏģ ÏĦÎ¿Î½
Ġá¼ĢÏģÏĦÎ·Ïģá½· Î±
ĠÎ³Î» á½½
ĠÎ²Î¹Î² Î»Î¯
ĠÎ´Î¹Î´ Î¬
Î»Î±Î¼Î² á½±Î½ÎµÎ¹Î½
ĠÏĢÏģÎ¿ÎµÎ¹ÏģÎ· Î¼á½³Î½ÏīÎ½
Ġá½ĢÎ»á½·Î³ á¿³
Ġá¼ĶÎ»Îµ Î¿ÏĤ
ul t
ĠÎ´ÎµÏħÏĦá½³Ïģ á¿³
ĠÎ§ÏģÎ¹ÏĥÏĦ Î¿á¿¦
ĠÎ²Îµ Î²Î±
o in
Î» á½¹
ĠÎ± Ïģ
ĠÎ³ Î¬
Î¼Î± á¿ĸÏĤ
Î¯ Î½ÎµÏĦÎ±Î¹
ĠÏĩ ÎµÎ¯
ĠÏĩÏģ á¿ĨÎ½Î±Î¹
Î¿Î¼ Î¿Î»Î¿Î³
Î³Î¿Î½ ÏĦÎ±Î¹
ĠÎ¼á½¹Î½ ÏīÎ½
ĠÎ¼á½¹Î½ Î¿ÏĤ
ÎºÎ¿ Î¹Î½
Ġá¼ĲÏģ á¿¶
ĠÏĦÎ±á½» ÏĦÎ±Î¹ÏĤ
ĠÏĥÏħÎ½Îµ Îº
á½½Î´ ÏħÎ½
Îķ á¼°
ÎºÎ±Î¸ á½±ÏĢÎµÏģ
Ġá¼ĢÏĢÎŃ ÏĥÏĦÎµÎ¹Î»ÎµÎ½
ĠÎ»ÎµÎ¹ ÏĦÎ¿ÏħÏģÎ³
ĠÎ¼Î® ÏĦÎµ
ĠÎ´ÏħÏĥÎºÏģÎ± Ïĥá½·Î±Î½
ation s
ĠÎ±á½Ķ Î¾
Ġá¿¥Î¹Î½ á¿¶Î½
Ġá¼ĢÎ½Ïī Î¼á½±
ÎºÎ±Î¸Î± á½·
Ġá¼ĲÎ´á½· Î´Î±
ÏĦ ÏĦÎ·ÏĤ
ĠÎº Î¿Î¼
Î´ Î±Î½
ÏĥÎ¸ Î±
Î»Î¹ ÏĢÎ¿Î½
Î»Î¹ ÏĢÎµÎ½
ÏģÎ³ á½±
ĠÎ¼á½³Ïģ ÎµÏĥÎ¹Î½
ĠÎł Î¿
Ġá¼ĢÎ¼ÏĨÎ¿ ÏĦá½³ÏģÎ±ÏĤ
ĠÏĦÎ¿ÏħÏĦá½³ ÏĥÏĦÎ¹Î½
ĠÏĥÏĦÎ¿Î¹Ïĩ Îµá½·ÏīÎ½
Ġá¼±Î´Ïģ á¿¶
ĠÏĦÏģÎ±Ïĩá½µÎ» Î¿Ïħ
Ġá¼Ħá¿¤á¿¥ ÎµÎ½
e xt
n e
á¿¶ Î´á½³ÏĤ
á½½ Î¼Î¿Ïħ
Î¼á½³Î½ Î±Î¹
Î¹Îº á¿¶ÏĤ
ÏģÎ· Î¼á½±ÏĦÏīÎ½
ÏĥÏĩ Ïħ
ĠÏĢÎ±Ïģ Î·Î³
ĠÎµá½Ĳ Ïĩ
ĠÎ£ Ïħ
ĠÎľ Î±Î½Î±
Ġá¼ĲÎºÎµá¿ĸ Î¸ÎµÎ½
Ġá¼ģÎ¼Î±ÏģÏĦ Î¯Î±ÏĤ
ĠÏĢÎµÏģá½· ÏĦÏĦÏīÎ¼Î±
á¼ħ ÏĢÎ±Î½
ĠÏĥÏĢÎ¿Î½Î´á½»Î» ÏīÎ½
á½µÎ³ Î·ÏĥÎ¹Î½
ĠÎ¼á½³Î¸ Î¿Î´Î¿Î½
Ġá¼ģÎ¼Î±ÏģÏĦÏī Î»
oss ib
Ġá¼ Ĩ
ĠÎ´ á½½
á½³ ÏĦÏī
Î³ ÎµÎ¹Î½
ĠÏĩÏģ á½µÏĥÎµÏīÏĤ
Ġá¼ĲÎ¾ Î±Î¹
Î¼Îµ Î³
Î»á½· Î±
ĠÏĢÏģá½¹ ÎºÎµÎ¹ÏĦÎ±Î¹
ĠÎ¼Î·Î´ ÎµÎ½á½¸ÏĤ
Ġá¼ĺ Î½
ĠÎ¼ÎŃ ÏĥÎ¿Î½
ĠÎ¶á½½ á¿³
ĠÎµá½Ķ Î´Î·Î»Î¿Î½
ĠÎ³ÎµÎ³ÏģÎ±Î¼ Î¼á½³Î½Î¿Î½
Ġread ing
ĠÏĩÎµÏģ Ïĥá½¶Î½
Ġá¼ĶÎ¼Îµ Î»Î»
ĠÎ Ĺ
ĠÎº Î¿Î½
Î´ Î·Î½
Î¿Ïħ Ïĩ
ĠÏĥ ÎµÎ»
ĠÏĢÎ¿ á½·
Ġá¼ĢÎ»Î» Î¿ÏĨ
ÏĦÎ¹Îº á¿·
it y
Î¼Î½ á¿ĨÏĥÎ¸Î±Î¹
Ġá¼ĢÏĨ ÏģÎ¿
Ġh ow
ĠÎ´á½¹ Î¾Î±Î½
ÏĦÏħ Î»Î¿Î½
ÏĪÎ±Î½ ÏĦÎµÏĤ
á½½ÏĦÎ± ÏĦÎ±
ĠÏĪá½» Î¾ÎµÏīÏĤ
ĠÏĢÎ»ÎµÎ¿Î½ á½±Î¶
ĠÏħÎ¹ Î¿ÏĤ
ĠÏĥÏħÎ¼Î¼á½³ ÏĦÏģÏīÏĤ
Î· ÏĦá¿¶Î½
Ïĩ ÎµÎ¹Î½
Î¼Î± ÏĦá½·
Î¬ Î´Îµ
Ġá½¡ Ïģá¿¶Î½
ĠÎ´Î¹Î± ÏĨÎµÏģ
Ġá¼ĢÎ½Î± Î»á½±Î¼Î²Î±Î½Îµ
á¼Ģ Îº
ĠÏĢÏģÎ¿Ïĥ á¿Ĩ
ĠÎĻ Î¿ÏħÎ´Î±
á½»Î½ ÎµÎ¹
ou nt
ÏħÎ¸ á½·Î¿Ïħ
Ġá¼ĲÎ¼ÏĢ á½·
ĠÎ¿Ïħ Î´Îµ
ĠÏĢÎ¬ ÏĥÎ·ÏĤ
ĠÎ²ÏģÎ±Ïĩá½·Î¿Î½ Î±
Ġá½ĳÏĢÎ¿Î¼Î½á½µ Î¼Î±ÏĥÎ¹Î½
Ġri ght
v en
w ord
Ġ :
ĠÎº ÏĦ
ÏĨ Î¿ÏĤ
Ġá¼ĲÏĢ á½±
ÎºÎ± Î¼
ÎºÎ± ÏĥÎ¹
ĠÎ² Î¬
Î·Ïĥ á½¹Î¼ÎµÎ¸Î±
Ġá¼ĲÎ¾ Î¿ÏħÏĥ
Ġá¼ĲÏĢÎ¹ ÏĨÎ±Î½
Ġp ara
Ġá¼ĢÏģ Îº
ĠÏĢÎ» Îµá¿ĸÎ¿Î½
ÎĦ ,
Î³Î½ á½»
Ġá¼¦ Î»Î¸Î¿Î½
ic e
Îĵ ÎĳÎĽÎĹÎĿÎŁÎ¥
Ġá¼ĢÎ»Î»á½µÎ» Î±Î¹ÏĤ
Ġá¼ĲÎ³á½³Î½ Î¿Î½ÏĦÎ¿
Î±Î¸ á½°Î½
ĠÏĦÎ¿ÏħÏĦá½³ ÏĥÏĦÎ¹
ÎĶ Î¹
ĠÏĩÎ¹Î»Î¹ Î¬
ĠÏĢÎµÎ¹ ÏģÎ±
á¼µ Î½Î±
ĠÏĦ ÏħÎ³Ïĩ
Îº Î¿Î»
ĠÎºÎ± ÏĦÎµÏģ
Î· Î´
á½¹ ÏĦÏīÎ½
ÎµÎ½ á½¶
Îµá¿ĸ Î±Î¹
Ġá¼ĢÎ½ Î¸
ÏģÎ· Î³
ĠÎºÎ±ÏĦÎ± ÏĢ
ĠÏĥÎº á½·
Î¼Î¿ Ïģ
Ġá¼Ī ÏĦ
ÏħÎ³ Î³Î±
ĠÎľ Î±Ïģ
ĠÎºÏģ Î¬
ĠÏĦá½± ÏĩÎ¹ÏĥÏĦÎ±
Ġá¼ĲÏĩ Î¿á½»ÏĥÎ·ÏĤ
ĠÎºÎ±ÏģÎ´ Î¯á¾³
ĠÎ§ Î±Î½
ĠÎ±á¼µ Î¼Î±ÏĦÎ¹
ĠÎºÏģá½· ÏĥÎµÏīÏĤ
ol d
ĠÏĨÎ»á½³Î³ Î¼Î±
ĠÏĦÎ¿ÏĥÎ¿á½» ÏĦá¿³
á½ĢÏĢ á½·Î¿Ïħ
ĠÏĥÏĢÎ¿Ïħ Î´
ÏĢ ÏħÏģ
ÏĨ ÎµÎ»
á½µ ÏģÎ¹Î¿Î½
Ġá¼Ķ ÏĦÏħÏĩ
ĠÏĩ Îµá½¶Ïģ
á½½ Î¼ÎµÎ½Î¿Î½
Î±Î» ÎµÏģ
Î® Ï²
Î´Îµ Ïĩ
Ġá¼ĦÎ»Î» Î¿Î½
ĠÏĢÏģá½¹ Ïĥ
Î·Î¼ Î¬ÏĦÏīÎ½
ÏģÎ¿Ïħ ÏģÎ³
ÏħÏĢ ÏĦÎ¿Î½
ĠÏĥÏĨÏħÎ³ Î¼Î¿á½¶
ÏĥÏħ Î½Îµ
Î¿á¿Ĩ ÏĥÎ±Î¹
ĠÏĨÏį ÏĥÎ¹Î½
ĠÏĢÏĦÏī Ïĩ
t s
ÏĢ Î¬Î½
á½µ ÎºÎ¿Î½ÏĦÎ±
ĠÏĢÏģÎ¿ Î²
ÏĢÎµ Ïħ
ĠÎºÎ±ÏĦÎ± Î½
Ġá¼Ī Î¼
Ġ3 âģ°
Ġá¼´ Î´Î¹
ĠÎĴ ÎµÎ½Î¹Î±
ĠÎºá½± ÏĦÎ±
ĠÏĢá½¹ ÏģÎ¿ÏħÏĤ
Ġá¼ĳÎ±ÏħÏĦ á½´Î½
ÏģÎ¹ÏĥÏĦ Î¿Î»Î¿Ïĩ
ĠÏĢÎ±Î»Î±Î¹ á¿¶Î½
ĠÏĢÎµÏĢÎ¿Î½Î¸ á½¸ÏĤ
Îµá¼´ ÏĢÎµÏģ
Ġá¼ĲÎºÎµÎ¯Î½ á¿ĥ
Ġá¿¥á½±Ïĩ Î¹Î½
hras e
w e
ÏĢ ÎµÎ¹Î´
Îº Î»ÎµÎ¹
Ġá¼Ģ ÏĦÎ¿Î½
ÏĨ Î¿Ïħ
á½¹ ÏĦÎ¿ÏĤ
ÎµÎ½ Î½
ĠÎ±á½ĲÏĦ ÏĮ
ÏĦÎµ Ïħ
Ġá¼Ķ Î¼ÏĨÏħÏĦÎ¿Î½
ÎŃ Î½Î±
ĠÎ¸ ÏģÏĮÎ½
Ïģá½· Î½Î¿Ïħ
Ġá¼ĢÏĢ Ïİ
Ġá¿¥ Î±ÏĨ
ĠÎ¸Îµ Ïī
ÏĦÎ¹Îº á½°ÏĤ
ĠÏĢÏģÎ¿Ïĥ ÏĨÎµÏģ
Î¼Î¿ Ïĥ
ĠÏĥá½» ÏĥÏĦÎ±ÏĥÎ¹Î½
ĠÏĢÏħÏģÎµ ÏĦÎ¿á½ºÏĤ
ĠÏĢÏħÏģ á½¶
ĠÎ½Îµá½» ÏģÎ¿Ïħ
ĠÎ»ÎµÎ³ á½¹Î¼ÎµÎ½Î¿Î½
ĠÏĨÎ±Î½ ÏĦÎ±
Ġá¼¡Î»Î¹Îº á½·Î±Î½
ĠÏĩÏģÎ·ÏĥÏĦ á½¸Î½
ĠÏĢá¿¦ Î¿Î½
ÏĦÎµÏĦÎ± Î³
ĠÎ³Ïģá½±ÏĨ ÎµÎ¹Î½
Ġá¼ĲÏĢÎ¹Î´á½³ ÏĥÎµÏīÏĤ
ĠÏĪÎµÏħ Î´
ĠÎ³á½³Î³Î¿Î½ ÎµÎ½
s s
Î· Î½Îµ
ĠÎ´ Î¿Ïį
Î¸ Î¿Î¹
ÏīÎ½ Î¿ÏĤ
ÏĥÏĦ ÎµÏħ
Î¯ Î´Î±
á½³Î½ Î±
ÏĥÎ¹ Î±ÏĤ
ĠÏĢÎ¿ Î»Î¹
Ġá¼° á¾¶ÏĥÎ¸Î±Î¹
á¼Ĳ Î³
Î³Î¿Î½ ÏĦÎ¿ÏĤ
ÎŃÎ½ ÏĦÎµÏĤ
ÏĦÎ¹Îº Î¿á½ºÏĤ
Î¸Ïģ Î¿Î½
ĠÎ£ Ïī
á½³Ïĩ ÎµÏĥÎ¸Î±Î¹
Ġá¼¥ Î´Îµ
ĠÎł Îķ
á½±Î¶ ÎµÏĥÎ¸Î±Î¹
Ġ4 0
ĠÎ²Î±ÏĥÎ¹Î»Îµ ÏīÏĤ
ĠÎ¼Î± Î¸Îµá¿ĸÎ½
ĠÏĥÏħÎ¼ÏĢ á½·
ĠÎ¶Î· ÏĦÎµá¿ĸÎ½
ĠÏĦÎ¿Î¹Î¿á¿¦ ÏĦÎ¿Î¹
ĠÎ½ÎµÏĨ Ïģá¿¶Î½
Ġá¼ĶÏģÎ³ Î¿Î¹ÏĤ
ĠÏĥÎ¹ÏĦá½· Î±
ĠÏĥÎºÎ·Î½ á¿ĨÏĤ
Ġá¼ĺÏģÎ± ÏĥÎ¹
ĠÎ³ÎµÎ³ ÏħÎ¼
ĠÎ´Î¹Î´Î±ÏĥÎºÎ±Î» á½·Î±ÏĤ
Ġá¼ĲÎ´Îµá½· ÏĩÎ¸Î·
ĠÎĶÎ±Î½Î¹ á½´Î»
Î¼ á½°
ÏĢÎ¿ ÏģÎµá½»
ÏĥÎµ Î¹Î½
ĠÎ¼Îµ Î»Î»
in d
ĠÎºÎ±Î¸ á½¹ÏĦÎ¹
á¼Ķ ÏĩÎµÎ¹
Î·Î¸ Î¹
ĠÏĢá½¹ Î»ÎµÏīÏĤ
ĠÏĦá½± Î¾Î¹Î½
Ġg ener
Ġad d
ĠÏĥÎºÎ¿ ÏĢÎ¿
ĠÎ¼ÎµÎ³á½³ Î¸ÎµÎ¹
ĠÎĴÎ±Î²ÏħÎ» á¿¶Î½Î¿ÏĤ
Ġá¼ĶÎ¿Î¹ ÎºÎµÎ½
Î´ á½»Î½Î±
ĠÏĩ Î¬
Ġá½ĳ ÏĥÏĦ
Ïį ÏĦÎ·
ĠÎ½ á½·
Ġa r
ÏĥÏĩ Î¿Î½
ĠÏĢÏģÎ¿Ïĥ á½³Ïĩ
Î»á½± Î²
Î¼Î¹ Î³
Ġá¼ĶÎ½ Î¹
Î¼ÎŃÎ½ Î¿Î¹
vi i
Î¯Î± Ï²
ĠÎ´Î¹Î±ÏĨÎ¿ Ïģá½°
Ġá½ĢÏģÎ³ á½±Î½Î¿Î¹ÏĤ
ĠÏĨÎ±Î¹Î½ Î¿Î¼á½³Î½ÏīÎ½
ĠÏĥÏĦá½» ÏĨ
ĠÏĢÎ»Îµá½·Î¿Î½ Î¿ÏĤ
Ġá¼ĢÎ´ÎµÎ»ÏĨÎ¿ á½¶
ĠÎº Î¿á¿ĸ
ĠÎº Ý²
ĠÏĢ ÏĦ
Ïĩ á¿³
ÎµÎ¹ Ïĥ
ĠÏĨ Î»ÎŃ
ĠÎ¸ Î»Î¯
Ġá¼ĳ ÏĥÏĢ
Ġá¼ķ Î¾
ĠÎºÎ±ÏĦÎ± ÏĢÎ±
Ġc ome
Ġ3 9
Ġá½ĳÏĢÎ¿ ÏĩÎ¿Î½
ĠÎºÎµÏĨÎ±Î» Î±Î»Î³
ÏīÎ¸ Î¹
Ġd o
ĠÏĩÎµÎ¹ ÏģÎ¿ÏħÏģÎ³
Îµá¼¶ ÏĦ
Ġá¼ģÏĢá½± ÏĥÎ±Î¹ÏĤ
Ġá¼¥ÏĢÎ± ÏĦÎ¹
ĠÏĢÎµÏĢÎ¿Î½Î¸á½¹ ÏĦÎ¿ÏĤ
ĠÎºÎµÏģ Îºá½·
ĠÎºÎ¿Ïģ ÏħÏĨ
b is
m ent
t en
Î¿ á¼´
Ïĥ á½º
Î¿á¿¦ ÏĦÎ¿
ĠÎµ ÏĦÎ¹
ĠÎµá¼ µ
Ġá¼Ķ ÏģÎ·
á½½ Î¸Î·
Î½Îµ ÏħÏĥÎµÎ½
Î»Îµ ÏĦÎ¿
Ġá¼ĳ ÏĢÎ¿
ĠÎ´á½» Î½Î±Î½
Îµá¼° Ïĥá½¶
Ġá¼°ÏĥÏĩ á½»
ĠÎ²Î±ÏĥÎ¹Î»Îµ Î¯Î±ÏĤ
á¼Ħ Î¼ÎµÎ¹Î½Î¿Î½
ĠÏĦÏģá½¹ ÏĢÎ¿ÏĤ
Î¿Î¼ÎŃÎ½ Î·ÏĤ
ĠÎ£Î± Î¼Î±
Ġá¼ķÎ»Îº Î¿ÏħÏĤ
Ġá¼ĶÎ¸ Î½Î¿ÏĤ
Î¸Î½ á½µ
ĠÎ½ÏĮ Î¼Î¿Î½
Ġá½ĦÎ¾ Î¿ÏĤ
Ġá¼ĶÎ½Î´ÎµÎ¹ Î¾Î¹Î½
ĠÎ»Î¹Î² Î±Î½Ïī
ĠÎ³Î¯Î³ Î½ÎµÏĦÎ±Î¹
Î¿ ÏĥÎ¹
ĠÏĦ á½»
ĠÏĦ ÏħÏĨ
ĠÏĨ á½·
Î® ÏĥÎ±ÏĤ
Ġt w
ĠÏĦÎ¹ ÏĥÎ¹
ĠÎ¼á½¹Î½ Î·
ĠÏĢá½³ ÏģÎ¹
á½µÏĥÎµÎ¹ ÎµÎ½
ÏĦÎ¿á½» ÏĥÎ·ÏĤ
ĠÎ¾Î·ÏģÎ± á½·Î½ÎµÎ¹
Î±á½Ĳ ÏĦá½¸ÏĤ
Î²Î±Î» Î¿Î½
Ġá¼ĢÏĢÎµ ÏĪ
Ġá½ĢÎ»á½·Î³ Î¿Ïħ
ĠÏĢÎµÎ½ ÏĦÎ±
Ġá¼¤ÎºÎ¿Ïħ ÏĥÎµÎ½
for t
ÏĢÎ½Îµ ÏħÎ¼Î¿Î½
Ġá¼ĲÎ»Î¸ Îµá¿ĸÎ½
Ġá¼ĲÎ¼ÏĢÎ»á½± ÏĥÏĦ
ĠÎĳá¼°Î³Ïį ÏĢÏĦÎ¿Ïħ
l i
Ġ W
Î¿ ÏĥÎ±Î½
Ġá¼ĲÎ½ Î½
Î¯ Î·
Ġá¼Ķ Î´Î¿
ÎŃ Î½Î±Î¹
ĠÏĨ Î»Î¿Î¹
ĠÎ» Î®Î¼
Ġá¼¡ Î´Î¿Î½
Î»Îµ Ïĩ
ÏĥÎµÎ¹ ÎµÎ½
ÎµÎ» Î¸Îµá¿ĸÎ½
ĠÏĪÏħÏĩ ÏģÎ¿
ĠÎºÎ±Ïģ Î´Î¹
ĠÎ¿á¼¶ Î´
ĠÏĦÏģá½· Ïĩ
ĠÎ¾Î· Ïģá½¹ÏĦÎ·ÏĦÎ±
ĠÎ¾Î·Ïģ á¾¶ÏĤ
Î·ÏĦ á½³Î¿Î½
Ġá¼ĢÏĢá½¹ Î´ÎµÎ¹
ĠÏĢÎ»Î± Î³
ĠÎ¸Î± ÏĦá½³ÏģÎ¿Ïħ
ĠÎ´Î¹Î±Î½ Î¿
Ġá¼ķÎ» ÎºÎµ
ĠÎºá½³Î½ ÏīÏĥÎ¹Î½
Î½ Î±ÏĤ
Î½ á¿³
ÏĦ ÏĦÎ±Î½
Ïĥ Î·Î¼
Î¼ ÏĮÎ½
á½± Î¼Î¿Ïħ
Ġá¼ĢÎ½ ÏĦÎ¹Îº
Ġá¼ĢÎ½Î± ÏĦÏģá½³
ĠÎ¸ÎµÏģÎ¼ á½´Î½
á½ħ ÏĢÏīÏĤ
ĠÎ¼á½¹ Î½Î±
ĠÏĩÏģá½¹Î½ Î¿ÏĤ
xx x
ĠD E
Ġá¼ĲÏĢÎ¹ÏĥÏĦ ÏģÎŃ
ĠÏĥÎºÎ¿ÏĢ á½¸Î½
Î¿ÎµÎ¹Î´ á½²ÏĤ
ĠÎ³ÏħÎ½Î±Î¹Îº á¿¶Î½
ĠÎ´á½±Îº ÏĦÏħÎ»Î¿Î½
Î²Î¬ Î»Î»
ĠÎ¸Î¬ Î»Î±
ĠÎ¦Î±ÏģÎ± á½¼
Ġá¼ĲÎ¼Î± ÏħÏĦ
ĠÎ¼Î±ÏĥÏĩ á½±Î»
ĠÎłÎķ Î¡ÎĻ
2 3
b ut
Îº Î¿Î¹
Ġá¼Ĳ Î´á½³
Î¹Î½ Î±Î½
ÏĥÏĦ á¿³
ÏĢÎ¿ ÏģÎµÏį
ĠÎ² Ïģá½¹
Ïį ÏģÎ¹Î¿Î½
Î±Î» Î±Î¹
ĠÏĦÎ¹ ÏĥÎ¹Î½
ĠÎµá¼¶ ÏĢÎ±
á½·Î½ Î±ÏĤ
Î»Î¹ Î¿ÏĤ
Ġá¿¥ Î¿Î¼ÏĨÎ±
ĠÏĢÎ±Ïģ ÎµÎ½
Ġá¼ĲÎ³ ÏĩÎµÎ¹Ïģ
ĠÏĢÎµÏģÎ¹ ÏĢÎ±
Ġá½¥ Ï²
Ġá¼°ÏĥÏĩ á½ºÎ½
Ġá¼ĲÎ¼ ÎŃ
ĠÏĢÎ±Ïĩ á½º
Ġá¼ĳÎºá½±ÏĥÏĦ Î·ÏĤ
ĠÏĦÏģÎ¿ÏĨ á½´
ĠÏĦÎ¿Î¹Î±á½» ÏĦÎ±Î¹ÏĤ
ĠÏĥÏĨÏħÎ³Î¼ Î¿á¿ĸÏĤ
ĠÎºÎ±ÏĦÎ±ÏĥÎºÎµÏħ á¿ĨÏĤ
ĠÏĦá½¹Î½ Î´Îµ
Ġá¼ĲÏģÏħ ÏĥÎ¹
ÏĦÏĦÎ¿Ïħ ÏĥÎ¹Î½
ĠÏĢá½³ÏģÎ± ÏĦÎ±
Ġá¿¥á½±Ïĩ ÎµÏīÏĤ
ĠÎµá¼°ÏĥÎµ Î»Î¸
ĠÎ´á½»Î½Î±Î½ ÏĦÎ±Î¹
e p
Ïħ ÏĪ
ĠÎº Î¿Ïħ
ĠÎº Î»Î·
ĠÎºÎ± ÏĦÎ±Î¹
Î· Ïĩ
Ġá¼Ģ Î¸ÏģÎ¿Î¹
á¿Ĩ ÏĦÎµ
ÎºÎ± ÏĦ
á¾ ´
ÏĢÎ¿ ÏĥÏĦ
Î® ÏĥÎ±ÏĦÎµ
ĠÎ´Î¹Î± ÏĦÎµ
ÏħÎ¼ ÎŃÎ½
á¿ĸÎ½ Î¿ÏĤ
á½±Î³ ÎµÎ¹
ĠÏĢÎ»Îµ Ïħ
ÏħÎ» Î¿Î¹
ÏĦÎŃ ÏģÎ±ÏĤ
ĠÎ¼Ïħ ÎµÎ»
Ġá¼ĲÏĢá½· ÏĥÏĦÎ±ÏĥÎ¸Î±Î¹
ĠÎ¾Î·Ïģ Î¿á¿¦
á½³Î± ÏĦÎ¿ÏĤ
Ġwh o
ĠÏĦÎ±á½Ĳ ÏĦá½¸
Ġá¼ĲÏĢÎ±Î½ Î¿ÏģÎ¸
ÏĥÏĥÎ± ÏģÎ±
Ġá¼ĲÎ»á½± ÏĦÏĦÎ¿Î½
á¼ĦÎ»Î» Î·
Î´ÎµÎ¹ÎºÎ½ á½»
Ġá¼ĪÎ²ÏģÎ± á½°Î¼
ĠÏĦÏģÎµ ÏĨ
Ġ ut
Ġ id
Î¼ Ïİ
ĠÏĢ ÏĦá½³Ïģ
á½¸ Ï²
Ġá¼Ģ Ïĩ
á¿¶Î½ ÏĦÎµÏĤ
ĠÎ² Î»ÎŃ
Î® Î¼Î±ÏĦÎ¿ÏĤ
Ġá¼ĦÎ»Î» Î±Î¹ÏĤ
Î³Î³ ÎµÎ¹
ÏĥÎ¼ Î¿á¿¦
ĠÏĢÎ±Î½ ÏĦÎµÏĤ
Î¿Î¼ÎŃÎ½ Î¿ÏħÏĤ
ĠÎ¼ÎµÎ³á½±Î» ÏīÏĤ
ĠÎµá½Ķ Î»Î¿Î³Î¿Î½
ĠÎ´Î¹Î´ á½±
Ġá¼ĶÎº ÏĨÏħÏĥÎ¹Î½
Ġá¼ģÏĢá½± ÏĥÎ·ÏĤ
ĠÎ±á¼´ÏĥÎ¸Î· ÏĥÎ¹ÏĤ
ĠÎµá½Ĺ ÏģÎ¿Î½
Ġá¼ĲÎ¾ÎµÏħÏģ Îµá¿ĸÎ½
Î·Î¼ÎµÏģ Î¹Î½
Î½ ÏĦÎ¹Î½Î±
ĠÏĦ ÏħÏĩ
Ġá¼Ĳ Î´Îµá½·ÎºÎ½Ïħ
ĠÎ± Î¼Î±Ïģ
ĠÎµ ÏĨ
Î² Î»Îµ
ÎºÎ± Î»Îµ
Î½Î± ÏĦÎ¿
ĠÎ² á½·
Î¶ Î±
Ġá¼ĢÏĢ á½½
Ġá¼° Î´á½·ÏīÏĤ
á¼Ĳ Î¼Î¿á½¶
Ġp art
ĠÏĢÎ¿Î¹ Îµá¿ĸÏĦÎ±Î¹
ĠÏĢÎµÏģÎ¹ ÏĦ
ĠÏĢÎµÏģÎ¹ ÏĢÎ½ÎµÏħÎ¼Î¿Î½
Î³Î³ ÎŃ
ĠÏĢÎ±Î½ ÏĦÎ¿
Ġá¼ĲÏģ Îµá¿ĸÏĤ
Î´Ïī ÏĥÎ¹Î½
ĠÏĢÎ¹ Î¼ÎµÎ»
Ġá¼ĢÎ» á½¹
ĠÏĦÎµÏĦ Ïģá½±
ĠÎŁá½Ĳ Îº
ĠÎ¸Î· ÏģÎ¹
Ġthou gh
Ġá¼ĺÏģÎ±Ïĥá½·ÏĥÏĦÏģÎ± ÏĦÎ¿ÏĤ
Ġá¼ĲÎ»Î¬Î» Î·ÏĥÎµÎ½
Ïĥ Î¿á¿¦Î½
ĠÏĦ Î±Ïģ
Î¼ Î¿á¿ĸÏĤ
Î´ ÏħÎ½Î±
ĠÎµ ÏĢÎ±
ĠÎ±á½Ĳ Î»
Î¯ Ï²
á½µ ÏĥÎ±Î½ÏĦÎµÏĤ
Ġá½ĳ ÏĥÏĦÎµÏģ
ÏĮ ÏĦÎµÏģÎ¿Î½
Ġá¼ĲÎº ÏĢÎµ
Ġá½Ģ ÏĢÎ¿
ĠÏĢÏģÎ¿ Ï²
ĠÎµá¼¶ ÏĩÎµÎ½
Ġá¼¸ Î½
re at
ĠÏħ ÏĢÎµÏģ
ĠÎ±á¼° ÏİÎ½
ĠÎ£ Î±Î²
ĠÏĪÏħÏĩ Ïģá¿·
Î´ÎµÎ¹ Îº
ĠÎ´Î¹Î±ÏĨÎ¿ ÏģÎ±á½¶
ĠÎ¼ÎŃ Î³
ÏĦá½µ ÏģÎ¹Î¿Î½
ĠÎ¸ÎµÏģÎ¼Î± Î¹Î½á½¹Î½ÏĦÏīÎ½
Ġá½ĢÎ¾ á½³ÏīÎ½
Ġá½ģÎ´ Î¿á¿¦
Î²á½±Î»Î» ÎµÎ¹
ĠÏĥÏĦá½¹Î¼Î± ÏĩÎ¿Î½
ÏĢÎµÏĢ á½³ÏģÎµÏīÏĤ
Ġá¼Ļ Î»Î»
ÏĩÎ±Î» Îº
Ġdiff ere
ĠÎ½á½» ÎºÏĦÎ±
Ïģ Î¯
Ġá¼Ĳ Î»Î»Î¹
ĠÎ¼ ÏħÎº
Î¬ ÎºÎ¿Î½ÏĦÎ±
Î½Î± ÏĦÎ¿ÏĤ
Ġá¼ĢÎ½ á½·
ĠÏĢÎ¿Î»Î» Î¬ÎºÎ¹ÏĤ
Ġá¼ĢÏĨ ÎµÎ»
Î¿Ïį ÏĥÎ·ÏĤ
ĠÏĢÎ¿Î» ÏħÏĩ
ĠÎ³Î¹Î½ Î¿Î¼á½³Î½ÏīÎ½
ĠÏĦÏģá½¹ ÏĢá¿³
ĠÎ´ÏħÎ½Î± ÏĦá½¹Î½
Î¾Î±Î½ ÏĦÎ¿
ĠÏĦÎ¿Î¹Î¿á½» ÏĦÎ¿ÏħÏĤ
ĠÏĥÏħÎ¼Î² Î¿Ïħ
Ġá¼ĢÎ´ ÏħÎ½Î±
Î³Î½Ïī ÏĥÎ¹ÏĤ
á½½Î½ ÏĦÏīÎ½
Ġá¼ĲÎ½á½· Î¿Î¹ÏĤ
ÏĢÏĦÎ¿Ïħ ÏĥÎ¹Î½
ĠÏĦÏĮ ÏĢÎ¿Î½
ĠÏĢÎ±ÏģÎ¿Î¾ÏħÏĥ Î¼Î¿á¿¦
ĠÏĩÏģá¿Ĩ ÏĥÎ¹Î½
ĠÎºÎ¿ÏĦá½»Î» Î±ÏĤ
Ġá¼¸Î¿á½» Î´Î±
Î³Î±Ïģ Î¿á¿¦Î½
Ġince p
Î¹ ÏĥÎ¸
Î¼ Î¼Î±ÏĦÎ¿ÏĤ
á½° Îº
á½° Î´
ÎµÎ¹ Îº
ÏĦÎ¹ á¿¶Î½
Ġá½ģ ÏĢÏī
Î»Îµ ÏħÏĥ
Î¶ ÎµÎº
Ġá¼ĳ Î¿Ïģ
Î¿Î» á½´
ĠÏĥÏĦ ÏħÏĨ
ĠÎºÎµ ÎºÏģÎ±
Ġá½ĳÎ³ Ïģá½°Î½
ĠÏĪÏħÏĩ á¿ĩ
ĠÏĨÎ± á½·Î½Î¿Î½ÏĦÎ±Î¹
ĠÎºÎ±Î» á½¸Î½
ĠÎºá½± Î»Î»Î¹
Ïĥá½· Î¿Ïħ
Îºá½¹ ÏĦÏīÎ½
Ġá½ĢÏĨÎ¸Î±Î» Î¼Î¿á½¶
Ïģá½³ ÏĨ
ĠÏĢÏĮ Î»ÎµÎ¹ÏĤ
Ġá½ģÎ´ Î¿Î¹
ĠÏĢÎ¬ Ïĥá¿ĥ
ĠÏĥÏħÏĥÏĦ Î¿Î»á¿ĨÏĤ
Ġá¼ĶÎ»Îµ Î³ÎµÎ½
Ġá¼ģÎ¼Î±ÏģÏĦ á½·Î±ÏĤ
ĠÎ´Î¹Î±ÏģÎ¸Ïģ á½½ÏĥÎµÏīÏĤ
Ïħ Î¿ÏĤ
Ġá¼Ĳ Î´Ïī
Î³ Î·
ĠÎ± ÏĢ
ĠÏĩ Î»Î¹
ÏĦÎ· Î¼Î±
á½±Ïģ Î³
Ġá¼ĢÏģ ÏĦá½·
Î¼Î¿ á½·
á½ħ ÏĥÎ¿Î½
Î²Î± á½·Î½ÎµÎ¹Î½
ĠÏĦá½³ Î¼Î½
á½µÏĥÎµ ÏĦÎµ
Ġá½ģÎ´ Î¿á½ºÏĤ
ĠÏĥÏħÎ½ÎµÏĩ á½²ÏĤ
ĠÏĦÎ¿Î¹Î¿á¿¦ ÏĦÎ¿
ĠÏĥÏħÎ¼ÏĨ á½»
Ïģá½¹ÏĦÎ± ÏĦÎ¿Î½
ĠÏĩÏģÏĮÎ½ Î¿Î½
ĠÏĢÎ»á½±Î³ Î¹Î±
Ġá¼ĢÏģÏĩÎ¹ ÎµÏģ
2 4
ĠÎºÎ± Î½
Ïī ÏĦÎ±Î¹
ĠÎ± ÎºÎ¿Ïħ
ĠÎµ Ïĩ
ĠÏĢÏģ Î¬
Î¯ Î±Î¹
ÏĦÎµ á¿ĸÏĤ
á½½ Î²Î¿Î»Î¿Î½
ĠÎ¸ ÏģÎ±
Ïį ÎµÎ¹Î½
ĠA RT
Ïģá½· Î¿Î¹ÏĤ
á¿¦ Î½Î±Î¹
ĠÏĢÎ± ÏĦÎŃÏģÏīÎ½
ĠÎµá¼¶ Î´ÎµÎ½
Ġá¼ĦÎ»Î» Î±Î¹
Ġá¼ĲÎ³ á½½
Ġá½ĳÎ³ Ïģá¾¶ÏĤ
á½ħ ÏĢÎµÏģ
ÏĨÎ± á¿ĸÏĤ
ea d
ĠÏĦá½³ Î¼Î½ÎµÎ¹Î½
ĠÏĦá½± ÏĩÎµÎ¹
ĠÏĥÏī ÏĦÎ·Ïģá½·
á½µÏĥÎµ Î¹Î½
ĠÎºá½¹ Î»
Ġá¼ĲÎ¼ÏĨ Î±
ĠÎ´ÏĮ Î¾Î·ÏĤ
ĠÏĥÏĢÎŃÏģ Î¼Î±ÏĦÎ¿ÏĤ
Ġá¼¤Ïģ Î¾Î±ÏĦÎ¿
ĠÏĥÏħÎ¼Î²ÎµÎ²Î·Îº á½¸ÏĤ
ĠÎ´Î±ÏĪ Î¹Î»
l at
Ġá¼Ĳ á¿¤á¿¥
á½± ÏĥÏĦ
á½» ÏģÎ¹Î¿Î½
ĠÏĦÎµ ÏĦÏģ
ĠÎ¼Îµ Î¼Î½Î·
ĠÏĢÏģÎ¿ ÏĢÎµ
á½·Î½ Î¿Î½ÏĦÎ¿ÏĤ
Ġá¼ķ Îº
Ġá¿¥ á½µ
Ġá¿¥ ÎµÏħ
ĠÎµá¼´ Î´Î·
ĠÏĢÏģÎ¿Ïĥ Î·Îº
ĠÎ¿á½Ķ ÏĢÏī
ÏĦá½± ÏĤ
ĠÏĢÏģá½½ ÏĦÏīÏĤ
Î´Ïī ÎºÎ±
ĠÎºÎ±ÏģÎ´ Î¯Î±Î½
ĠÎ¸ÎµÏģÎ±ÏĢÎµ á½»
Ġá¼ĲÏĢÎ¹ÏĥÎº Î¿ÏĢ
Ġad not
ÏĦÏĦÎ¿Ïħ ÏĥÎ¹
Ġá¼ĶÏĨÎ± Î¼ÎµÎ½
á½į ÏĦÎ¹
ĠÏĦá½³ÏĦÏĦÎ± ÏģÎ±ÏĤ
Ġá¼ĲÏĩÎ¸Ïģ á¿¶Î½
ĠÏĢÎ±Î½ÏĦÎ± Ïĩá½¹
ĠÏĢÎ»ÎµÎ¹ á½¹Î½ÏīÎ½
ĠIsa iah
Ġ ea
Îµ Î³
Î¼ Ïħ
Î¸ á¿¶Î½
ĠÎ³ Î±Ï²
Î¼Î± ÏĩÎ¿ÏĤ
Î»Î» Î¿Ïħ
Î»Î» Î¿ÏĤ
ĠÏĦá¿¶Î½ Î´Îµ
Ġá½Ģ Î»á½³Î¸
Îµá½· á¿³
Ġá¼ĲÎ¾ ÎµÏħ
Ġá¼° Ïĩ
Ïİ Î´Î·
Ġá¼ĢÏģ Î¾á½±
ĠÎºÎ±ÏĦÎ± Î³
ĠÎºÎ±ÏĦÎ± ÏĨ
ĠÏĢÎ¿Î¹ á¿¶Î½
ĠÏĢÎ±ÏģÎ± Î»Îµ
Ġw here
Ġw ould
ĠÎĻ Ïĥ
ÏĢá½· ÏĢÏĦÎµÎ¹
ot h
ĠÏĨÎ»ÎµÎ³Î¼Î¿Î½ á½°ÏĤ
ĠÏĦÎŃ ÎºÎ½Î±
Ġá¼ķÎ»Îº ÎµÎ¹Î½
ĠBab AF
ĠÏĢÎ»ÎµÏħÏģ á¿¶Î½
ĠÎ³ÏħÎ½Î±á¿ĸ ÎºÎµÏĤ
Ġá¼ĲÏĥÎ¸ á½·
Ġá½ĢÎ»Î¯ Î³Î¿Î½
ĠÏĨÎ¸Î¹Î½ Î¿ÏĢ
Ġá¼ĢÎ½Î´ Ïģá½±
ĠÏĥÏĦÏģÏħÏĨ Î½
Báµĥ áµĩ
] +
Ïģ á¾·
ÏĥÏĦ ÎµÎ¹Î»
ĠÎ´Î¹ á½½
ĠÎ´Î¹ á¿ĨÎ»Î¸Î¿Î½
ĠÎ¿á½Ĳ ÏģÎ·
Ġá¼Ħ ÏĦÎ¿
Ġá¼ĳ ÏĨÎ¸
ĠÏĢÎ¿ Î´á¿¶Î½
Ġo b
Ġá¼ĶÏĩ Î¿Î¹
Î½Î¿ Î¼á½±Î¶
ĠÎ¾ Îµ
Ġin s
ĠÎľ Î±Îº
Ġfor t
Î¿Î¼ÎŃÎ½ Î·Î½
ĠÎ£Î± Î¼Î¿Ïħ
ĠÎ¸ÏħÎ¼ Î¿á¿¦
ĠÏĢÏģÏī ÏĦÎ¿
ĠÏĨÎ¿Î² Î·Î¸
Ġá¼ĲÏĢÎ¹ÏĦÎ· Î´Îµá½·
Î»Î¹Î² á½±Î½Î¿Ïħ
ĠÎ¸Î»á½· Î²
Ġá½ģÎ»Î¿ ÎºÎ±ÏħÏĦ
ĠÏĥÎ·ÏĢÎµ Î´
c l
ĠÏĢ Î·Î»
á½² ÏĪ
ÏĥÎ¸ Î·Î½
ĠÎ² Î¹
Ġá½Ģ ÏĢÏĦ
ĠÎ´Î¹Î± ÎºÏģá½·
Ġá½ĳÏĢ Î±Î»Î»á½±
Ġ( ?)
Ġá¼ĢÎ½Î± ÏĢÎ½
Ġá¼ĶÏĩ Î¿Î¼ÎµÎ½
Ġá½Ħ ÏģÎ¿ÏħÏĤ
ĠÎ¶ á½µ
ĠÏĢá½±Î½ Î¸
ĠÎ¼ÎµÎ³ á½±Î»Î·
ĠÏĦá½³ Î»Î¿ÏĤ
á½±Î¶ ÎµÏĦÎ±Î¹
ÏĢá½· ÏĢÏĦÎµÎ¹Î½
ÏĦá½µ ÏĦÏīÎ½
ĠÎ±Ïħ ÏĦÎ¿
Ġá¼ĢÎ³Î³ Îµá½·Î¿Î¹ÏĤ
ĠÏĨÏħÎ»á½± ÏĦÏĦÎµÎ¹Î½
Ġá¼ĢÏĢÎ¿Îº Ïģá½·
Î»ÎµÏį ÏĥÎµÏĦÎ±Î¹
ĠÎ»Î¿Î¹ÏĢ á½°
ĠÎ½Î¿Î¼á½·Î¶ ÎµÎ¹Î½
á½¹Î´ á¿³
ĠÎ¸ÎµÏģÎ±ÏĢÎµÏħ ÏĦÎ¹Îºá¿ĨÏĤ
á¼ĲÏĢÎµÎ¹Î´ á½°Î½
ĠÏĥÏħÎ¼Î¼ÎµÏĦÏģá½· Î±Î½
ĠÏĨÎ» á½²ÏĪ
Ġá¼ĢÏĢÎ¿ÏĨá½» ÏĥÎµÎ¹ÏĤ
Ġá¿¥á¿ĸ Î³Î¿ÏĤ
u re
Ïĩ ÎµÏĦÎ±Î¹
ĠÏĥ Î±Ïģ
ÎµÎ¹ Î¼á½³Î½ÏīÎ½
Î±Î½ ÏĦÎ±
á½µ ÏĥÎ¿ÏħÏĥÎ¹Î½
Ġá½ģ Î¼Î¿á¿¦
Î® ÎºÎ¿Î½ÏĦÎ±
ĠÏĢÎ¿ ÏģÎµÏħÎ¸
Ġá¼ĢÎ½ á½µ
Ġá¼ĲÎ¾ Î±ÏģÎº
Ġá¼ĲÏĢÎ¹ ÏĥÏĩ
Ġá¼° Îº
Ġá¿¥ Î¯Î¶
Ġá½¥ ÏĤ
ĠÎ±á¼° ÏĩÎ¼Î±Î»Ïī
ĠÏĢÎµ Î´
ĠÎ³ÎµÎ½ Î½Î·
Ġá½ĳÏĢÎ¿ Î¸á½³
ĠÎ¸ÎµÏģÎ¼ á¿¶Î½
Î¿Ïį Î¼ÎµÎ½Î¿ÏĤ
Ġá¼ĢÎ³ ÏīÎ³
Îļ Ïį
Îĳ Î¤
ÏĥÏĦÎ¹Îº á¿¶Î½
Ġá¼ĲÎºÎµá¿ĸÎ½ Î¿Î¹
ĠÏĥÎºÎ¿ÏĢ á½¸ÏĤ
Ġcon f
Ġá½ĢÏĢ Î¯ÏĥÏī
Î²Î±Î»Î» Îµ
Ġá¼ĢÎ³Îº á¿¶Î½Î±
ĠÎ¼Î·Î´á½³ ÏĢÏī
Ġá½ģÏĢÏī ÏĥÎ¿á¿¦Î½
m it
Îµ ÏĥÎºÎ±Î¹
Îº á½¸ÏĤ
Ïī Î´á½³
Ġá¼Ķ Î¼ÏĨ
Ġá½ĳ Î¼ÎµÎ½
Ġá½ģ Î»Îº
ĠÎ² Î»Îµ
Ġá¼ĲÎº Î»á½»
Ġt ext
ĠÎ´Î¹Î± á¿¤á¿¥
ĠÏĦÎ¹ ÏĦ
Î¼á½± Ïģ
Î»Î¹ Î¼
ĠÎ±á¼° Î½
á¼ĲÎ½ á½·
ĠÏĦÏģá½· ÏĦÎ·
ĠÎĵ Î±Î»
ĠÎºÏģ Ïħ
ÎºÏīÎ½ Î¿ÏĤ
Ġá¼ĢÎºÏģÎ¹Î² á¿Ĩ
á¿ĨÎ½ Î±ÏĤ
ÏĦÎ¯ ÏīÎ½
â¸ĥ .
ĠÏĨÏīÎ½ á¿ĩ
Ġit s
ĠÏĦÏģÎ± á½»
Î¿ÎµÎ¹Î´ Î¿á¿¦ÏĤ
Ġá½ģÏģÎ¼ á½´Î½
ĠÏĩÎ±Î»ÎµÏĢ á½¸Î½
á¼¦ Î½
ĠÏĢÎŃÎ½ ÏĦÎµ
* )]
ĠÏĦ Î·Îº
Î¸ ÎµÏĦÎ±Î¹
ÏĦÎµ ÏīÏĤ
ÏĮ Ïģ
Ġá½ģ Ïģá¿¶Î½
ÏĪ Î·
ĠÏĢÏģÎ¿ Îµ
Ġá¼ĢÎ½Î± Î¼Î¹
ĠÏĢÎ±Ïģ Ê¼
Î¿Î¼ Î¬
ĠÎ±á¼° á¿¶Î½Î±ÏĤ
ĠÎ³ÎµÎ½ á½¹Î¼ÎµÎ½Î¿Î½
Ġá¼¥ ÎºÎµÎ¹
ĠÎł ÎµÏģ
ĠÎµá½ĲÎ¸ á½º
Ġá¼ĲÎ»Î± Ïĩ
ĠÎļÏħ ÏģÎ¹Î¿Ïħ
ĠÎºÏģá½± ÏĥÎµÎ¹
ĠÎ¶Î· ÏĦá½µ
ĠÏĨÎ»ÎµÎ³Î¼Î± ÏĦ
ĠÎ¸á½³ ÏĥÎµÏīÏĤ
Ġá¼ĳÏĢ ÏĦÎ±
ĠÎ´Î¹Î´Î± ÏĥÎº
ĠÎ³ÏħÎ¼Î½Î± Ïĥá½·ÏīÎ½
ÏĦÏĮ ÏĦÎµ
ĠÏĨÏħÏĥÎ¹Îº á¿¶Î½
ĠÏĨÏģÎµÎ½ á¿¶Î½
Ġá¼ĲÎ¼ÏĨá½» ÏĦÎ¿Ïħ
Ġá½ĳÏĢÎ¿Î¼Î½ Î·Î¼á½±ÏĦÏīÎ½
Ġrender ing
Ġá¼ĢÎ¾Î¹á½¹ Î»Î¿Î³Î¿Î½
Î¿Ïħ Î¼á½³Î½Î¿Î¹ÏĤ
ĠÏĨ Î»Î¿Î³
ĠÎ» Î¿á½»
Ġá¼ĢÎ½ á½½Î´ÏħÎ½
Ġá½¥ Ïģá¾³
ÏĢÎ» á½´Î½
Ġá¾ Ķ
Ġin ter
Ġá¼ĶÎ½ Î´Î¿
ĠÏĨÎ± á½·Î½Î¿Î¹ÏĦÎ¿
ÏĦÏĦ á½¹Î½ÏĦÏīÎ½
ÏīÎ¸ Î®ÏĥÎµÏĦÎ±Î¹
ĠÏĦá½¹ Î´Îµ
ĠÏĥÏĩ Î¹ÏĥÏĦá¿ĨÏĤ
ĠÏĥÎºÎ»Î· Ïģá½°
ĠC f
ĠÎ¼ÎµÎ³á½±Î» ÏīÎ½
Ġá½¦ Î½
ĠÏĨÏħÎ»á½± ÏĦÏĦÎµÏĥÎ¸Î±Î¹
ĠÎºÎ±Î¸Î±Ïģ á½¸Î½
Ġá¼ĲÏĢÎ¿á½· Î·ÏĥÎ±Î½
ĠÏĢÏģÎ±Î³Î¼Î±ÏĦÎµ á½·Î±Î½
Ġá¼ĳÎ² Î´Î¿Î¼
ĠÏĦÎ±Ïį ÏĦÎ·ÏĤ
ĠÏĢÎ»Îµá½·Î¿Î½ Î±
Ġá¼ĲÏĢÎ¹ÏĦÎ· Î´ÎµÎ¹
Ïģ Î·ÏĤ
Ïģ Ïİ
ÏĢ Î·ÏĤ
ĠÎµ Î»Îµ
ĠÎ¸ Î·ÏĥÎ±
ĠÎ² Î¿Ïį
á½±Î½ Î·
á½±Î½ Î·Î½
Ġá¼ĲÏĢÎ¹ Î¸
Ġá¼¸ Îµ
ĠQ máµį
ĠÎ³ÎµÎ½ Î¿Î¼á½³Î½Î·ÏĤ
Î¿Î³ ÎµÎ½
ÏģÎ¿Ïħ Î½
ĠÎ¼ÎŃ Î»Î¹
ĠÎ¸ÎµÏģÎ¼Î± Î¹Î½
ĠÎ³Î¹Î½ ÏİÏĥÎº
Ġá¼ĢÎ½Î¸Ïģá½½ ÏĢÎ¿ÏħÏĤ
Ġá¼ĢÏĥ ÏĨá½±Î»
Î¸á½³Î½ ÏĦÎµÏĤ
ĠÏĨá½³Ïģ ÎµÏĥÎ¸Î±Î¹
ĠÏĩÏģÎ·ÏĥÏĦ á½³Î¿Î½
ĠÎ³Î½á½½ ÏģÎ¹ÏĥÎ¼Î±
ĠÏĥÏħÎ¼Î¼á½³ ÏĦÏģÎ¿Ïħ
Ġá¼¸Î±Îº Ïİ
Ġá¼ĲÎ¾Î±á½· ÏĨÎ½Î·ÏĤ
Ġá¼ĶÏģÏĩ ÎµÏĦÎ±Î¹
ĠÎµá¼´Ïī Î¸ÎµÎ½
ĠÎ²Î¿Ïģ Ïģ
Ġagain st
Ġá½ĳÏĢÎ¿ÏĩÎ¿Î½ Î´
á¼ĲÎ½á½· Î¿ÏĦÎµ
Ïī ÏĥÎ±
Ġá¼Ĳ ÏģÏĩ
ĠÎ¼ Î¿á¿ĸ
ĠÎµ Î±Ïħ
Î¾ Î·ÏĦÎ±Î¹
Ġá¼ĲÎº Ïĩ
Ïģá½· Î¶
Î® ÎºÎµÎ¹
Ġá¼ĢÏĢ ÎµÏģ
ĠÎĳ á¼´
ĠÎ³Îµ Ïħ
Ġá¼ĢÏĢÎ¿ ÎºÎµ
Ġá¼ĢÎº Î¼á¿ĨÏĤ
Ġb r
ĠÏĢÎ¬ ÏĥÎ±ÏĤ
ĠÏĥÎºá½³ Î»Î·
ĠÏĨá½³Ïģ ÎµÏĦÎ±Î¹
Î¹Î¼ ÏħÎ¸á½·Î¿Ïħ
ĠÏĢÏģá½± ÏĦÏĦÎµÎ¹Î½
ĠÎ¸Î±Î½ Î¬ÏĦÎ¿Ïħ
Ġá¼°Î±ÏĦÏģÎ¹Îº á¿ĨÏĤ
Ġá½ĢÎ½ÏĮ Î¼Î±ÏĦÎ¹
Ġá¼ĪÏģÏĩÎ¹Î³á½³Î½ Î·ÏĤ
ĠÎ¼Î±ÏģÏĦÏħ Ïģá½·Î¿Ïħ
ĠÎľÎ±Î½Î± ÏĥÏĥ
p os
ÏĦ ÏģÎ±ÏĤ
ĠÎº Ïģá½¹ÎºÎ¿Ïħ
ÏĦÎ± ÏĥÎ¹Î½
Ġá¼ĲÏĢ á½±Î½
Ġá¼Ķ ÏĦÎµÎ¹
ÎŃ ÏģÎ±
ĠÏĦÎµ Î»ÎµÎ¹
ĠÎ´Î¹Î± ÏĨÏīÎ½
Ġá¼ĲÏĢÎ¹ Î»Î·
Î»Î¹ Î´
Ġá¿¥ Ïħ
Î¸Î· ÎºÎµ
Ġá¼¤ ÏĢÎµÏģ
ĠÎ±á¼° Î´
ĠÎ²Î± Î´á½·
Ġw he
Î¼Î¹ á¾¶ÏĤ
Ġá¼´ Î´Î¹Î±
ÏĥÏĥ Î¿Ïħ
ĠÏĢá½¹ ÏģÏīÎ½
ĠÎł Î¿Î½
Ġá½ĢÏĥÏĦ Î¿á¿ĸÏĤ
ĠÏĢÎ»Îµá¿ĸ ÏĥÏĦÎ¿Î¹
á½Ģ Î½Î¿Î¼á½±Î¶
á¼´ Ïĥ
ĠÏĥÏĦÎ¿ Î¼á½±ÏĩÎ¿Ïħ
Ġá¼ĢÏĢÎ¿Îº ÏģÎ¹
ĠÏĦÏģÎ¿ ÏĢ
ĠÏĨÎ±Î¹Î½ á½¹Î¼ÎµÎ½Î¿Î½
ĠÎ´ÏħÏĥÎºÏģÎ± Ïĥá½·Î±ÏĤ
ĠÎ»á½± Î²
ĠÎµá¼°Îº á½¸ÏĤ
Ġá¼°Î±ÏĦ ÏģÎ¿á½¶
Ġá¼ĦÏģÎ¹ ÏĥÏĦÎ¿Î½
ĠÎ½ÎµÎ±Î½ á½·ÏĥÎº
Ġá¼ĲÎ¼Î½Î·Î¼á½¹ Î½ÎµÏħ
Ġá¼ĦÎ¾Î¹ Î¿Î½
ÏĦ ÏģÎ±Î½
Îµ ÏģÎ±
Ïħ ÏģÎµ
Îº ÎµÏħ
á½³ Î²Î·
á¿ĸ Ï²
Î¾ Î¿Î¼Î±Î¹
Ġá¼Ķ Î±Î½
ĠÎ» á½µÎ¼
Ġá½Ģ Î»ÎµÎ¸
ĠÎ¼Îµ Î»
ĠÎ¼Îµ Î¼Î½á¿ĨÏĥÎ¸Î±Î¹
á½±Î½ Î¸Î·ÏĤ
á½·Î½ Î¿Î½ÏĦÎµÏĤ
Ġá¿¥ Î±Î³
Ġp ostea
Ġá¼ĢÏĢÎ¿ ÏĩÏīÏģ
Ġs ame
ÏĢÎµ ÏĥÎµÎ½
Ġá¼ĲÎ³ ÎºÎ±Ïģ
ĠÎ¼á½³ ÏĥÎ·ÏĤ
ĠÏĢÎ» Î®
Ġá¼ĢÎº Î¹Î½
á½³Î¿Î½ ÏĦÎ±
á½»Î½ Î·
Ġre scr
Ġd es
ĠÎ¸ÎµÏģÎ¼Î± á½·Î½ÎµÎ¹
ÏĥÏĦá½± ÏĥÎµÎ¹ÏĤ
ĠÎºÎ±ÏĦÎ±ÏĥÎºÎµÏħ á½´Î½
Ġcl ause
ĠÎµá¼´Ïī Î¸Îµ
Ġá¼ĢÏĨÎ¹ÎºÎ½ Îµá¿ĸÏĦÎ±Î¹
g g
ĠÎµ Î¼ÏĢ
ĠÏĥ Î¬Ïģ
ĠÎµá¼ ·
ÎºÎ± Î¯
Ġá¼ĢÏĢ ÎµÎº
Î¼Îµ Î»Î¹
Ġá¼ĦÎ»Î» Î·ÏĤ
Ġá¼ħ Î³Î¹
ĠÎ´Îµ ÎºÎ±
ĠÏĨá½» Î»Î»Î±
ĠÎł ÎŃ
ĠÏĦÏģá½· ÏĦá¿³
Ġre f
ĠÎµÎ¹ Ïĥ
ĠÏĢÎ±Ïĩ ÏħÎ¼
Ġá½ĢÎ½Î¿Î¼á½±Î¶ ÎµÎ¹
Ġá¼ĲÎ¼ÏĨ Ïģá½±
ĠÎ¿á½ĲÏģÎ±Î½ á½¸Î½
Î³Ïģá½± ÏĨ
Ġá½ĢÎ´á½»Î½ Î·
Ġá¼ĲÎ³ÎµÎ½ Î®Î¸Î·
ĠÏĩÎ¹ÏĦá¿¶Î½ Î±
Ġá¿¥Î·ÏĦ á½·Î½Î·ÏĤ
ĠÎ·Î¼Îµ ÏģÎ±
Ġhow ever
n ce
o b
Ġ ro
ÏĢ Î¹Îº
á½½ Î¼Î±ÏĦÎ¿ÏĤ
ÏĢÎ¿ á½»
Î® Î¸Î·ÏĥÎ±Î½
Ġá¼ĳ ÏĥÏĦ
Ġá¼ĢÏĢ Î¿Î½
Î·Ïĥ Î¬
Ġ( ?
Ġá¼ĢÎ½Î± ÏĢÎ½ÎµÏħ
Ġá¼ĶÏĩ Î¿Î½ÏĦÎ±ÏĤ
Ġá¼ĶÏĩ Î¿ÏħÏĥÎ±Î½
Ġá¼ĲÎ³ Î½
ĠÎºÎ±Î¹ ÏģÎ¿á¿¦
Î¿Ïį Î½ÏĦÏīÎ½
á½»Î» Î¿Ïħ
Ġbe ing
Ġá¼ĢÏĥ ÏĨÎ±
ÏĦÎ¿á½» ÏĦÎ¿Ïħ
ĠÏĢÎµÏĢ á½³ÏģÎµÏīÏĤ
ĠÎ»Î±Î¼Î² Î±Î½
ĠÏĥÏĨÎ¿Î´ Ïģá½¹ÏĦÎµÏģÎ¿Î½
Ġá¼ĶÎ»Îµ Î³Î¿Î½
ĠÏĢÎµá½· Ïģá¾³
ĠÎ²ÎµÎ» ÏĦá½·
ĠÏĢÎ±ÏģÎ±ÏĢÎ»á½µÏĥÎ¹ Î¿Î½
Ġá¾ł ÎºÎ¿
Ġfoll ow
2 1
Ïģ Îº
ĠÏĦ ÎµÎ½
ĠÎº Î»ÎµÎ¹
ĠÏĥ Î¹Î½
ÏĥÏĦ á½³Î¿Î½
ÏĪ Î±Î»
á¿ĥ ÏĥÎ¹
Ġá¼ĲÏĢÎ¹ ÏĦá½·Î¸ÎµÎ¹
ĠÏĦÏģ ÎŃ
Î¸ÏģÏī ÏĢÎ¿ÏĤ
ÏīÎ¸ á½³Î½
ĠS t
Ġha nd
Ġá¼ĲÎ¼Î² Î±Î»
ĠÎºÏģá½± ÏĥÎµÏīÎ½
ĠÏĢÎ¿Î¹á½µ ÏĥÎ±ÏĥÎ¸Î±Î¹
á½»ÏĦÎ· ÏĦÎ¿ÏĤ
ĠÏĢÎ»Îµá½·Î¿Î½ Î¹
ĠÏĩÏģá½½ Î¼ÎµÎ¸Î±
Ġá¼ĲÎ»á½³Î³ Î¿Î¼ÎµÎ½
Ġá¼ĦÎºÏģ ÏīÏĤ
á¼Ĩ Ïģ
ĠÎ´ÏħÏĥÏĢÎ½Î¿ á½·Î±ÏĤ
Ġ Â°]
á½ ł
Ïĥ á½»
Ïĥ ÏĨÎ±Î»
á¿ĸ ÏĦÎ¹ÏĤ
Î¯ Î¼ÏīÎ½
ĠÎ´Î¹ ÏĦ
á½½ Î¼ÎµÎ½Î¿ÏĤ
ÏĪ Î¿ÏħÏĥÎ¹Î½
Ġá¼ĲÎº ÏĦÎµÏĦÎ±
á½³Ïģ ÎµÎ¹
Î´Î¹ Î±ÏĨ
ĠÏĥÏħÎ½ Î±Î½
ÎºÎ¿Ïħ ÏĥÎµÎ½
á¼Ħ Î½
Ġá¼¹ÏĢÏĢÎ¿ÎºÏģá½± ÏĦÎ·Î½
ĠÎºÏģá½· ÏĥÎ¹ÏĤ
á½½Î½ ÏīÎ½
ÏįÎ½ á¿ĥ
Ġá¼ĢÎ½Î¸Ïģá½½ ÏĢá¿³
Ġá¼ĢÎ¾Î¹ Î¿á¿ĸ
Ġá½ĳÏĢá½¹ Î»Î¿Î¹
ĠÎ»Î±Î² á½¼Î½
ĠÏĥÏħÎ³Î³ Ïģá½±
ĠÎ¼ÎŃÎ½ ÏĦÎ¿Î¹
ĠÏĥÎµÎ±ÏħÏĦ á¿·
Ġá¿¥Îµ á¿¦Î¼Î±
r ong
Ġ improb
Î± ÏĥÎ±
ÏĢ á½¹Î½
Î´ Î±Î»
ÏĨ Î¿ÏħÏĤ
ĠÏĥ Î±Î²
ÏĦÎ¹ Î¼
ĠÎ¸ á¿Ĩ
ĠÎ¸ á½µ
ĠÎ¸ ÏħÎ³
Î½Î± ÏĥÎ¸Î±Î¹
ĠÎºÎ±Î¸ Ê¼
ĠÎµá¼´ ÏĢÎ¿Î¼ÎµÎ½
ĠÎ¸Îµ á½±ÏĥÎ±ÏĥÎ¸Î±Î¹
Ġá½Ħ ÏģÎµÎ¹
Ġá¼ĢÏĨ Î±Î½
á½µÎ½ Î·
ĠÎ´ÏħÎ½á½± Î¼ÎµÎ½Î¿Î½
ÏĦÎŃ ÏģÎµÏĤ
Î¼ÎŃÎ½ Î¿ÏĤ
ĠÎ¼Î¹Îº ÏģÎ¿
ĠÎ³Î½ á¿¶ÏĥÎ¹Î½
ĠR T
Ġá¼ĢÏĢÎ¿ÏĥÏĦ ÏģÎŃ
ĠÏĢÎ»Î·Ïĥ Î¯Î¿Î½
Î·Ïĥá½± Î¼ÎµÎ½Î¿ÏĤ
Î¿á¼ ¶
Ġá¼ĲÎ³ÎµÎ½ á½µÎ¸Î·
ĠÎ³Î»á½·ÏĥÏĩ ÏģÎ¿Î½
ĠÎ¿á½ĲÎ´á½³ ÏĢÏī
ĠÎºÎµÎ»Îµá½» ÎµÎ¹
Ġá¼ĢÏĢÎ¿Î¸Î±Î½ Îµá¿ĸÎ½
Ġá¼¨ ÏĥÎ±
ĠÎ½Îµá½»Ïģ Î¿Î¹ÏĤ
Ġá¼¸Î½ Î´Î¹Îº
ÏĦ Ïģá½±
Î¼ ÎµÎ¹ÏĤ
ĠÎ´ á½³Î½
ÏĥÏĦ ÏīÏĤ
Î² Î·ÏĤ
ĠÏĦá½° Ï²
ÏĥÎ¹ ÎµÏĤ
Ġá¼Ħ ÏĨ
ÏĪ Î¿Î¼Î±Î¹
ĠÏĩÏģ á¿¶Î½ÏĦÎ±Î¹
Î¼Îµ ÏĦÎ±
Ġá¿¥ á½·Î³
Î¿Î¼á½³Î½ Î±Î¹ÏĤ
Ïģá½± ÏĤ
ĠÎ¸Îµ Î¿Ïħ
ĠÎ¼á½³ ÏĥÎ·Î½
ÏĦÎ¹Îº á½µÎ½
ĠÎ²Î± Ïĥ
ĠÎ¿á¼· Î±
á½³Î¿Î½ ÏĦÎ¿ÏĤ
Î¸á½³ ÏĤ
ĠÏĦÎ¿Ïħ ÏĦÎŃ
Ġá½ĳÏĢá½±ÏģÏĩ á¿ĥ
Ġre st
Ġá¼¹ÏĢÏĢÎ¿ÎºÏģá½± ÏĦÎµÎ¹
Ġá½ĢÎ¾ á½»
ĠÎ´ÏħÎ½Î± Î¼á½³Î½ÏīÎ½
ĠÎºÎ±Îº á½°
ĠÏĢÎ»ÎµÏħÏģ á½°ÏĤ
Ġá¼ĢÏģÎ±Î¹ á½¸Î½
ĠÎ³ÏħÎ½Î±á¿ĸ ÎºÎ±ÏĤ
ĠÎ´Î¿Îº Îµá¿ĸÎ½
ĠÎ´Ïİ ÏĥÏī
Ġcom p
á¼ĢÎ¼ Î¼ÏīÎ½Î¹Î±ÎºÎ¿á¿¦
ĠÏĩÏģá½¹ Î±Î½
ĠÎºá½·Î½Î´ÏħÎ½ Î¿ÏĤ
ĠÎ§Ïģá½»ÏĥÎ¹ÏĢ ÏĢÎ¿ÏĤ
Ġ if
ĠÏĦ á½µ
Î¿Ïħ Ïĥá½·
Î¯ Î½ÎµÎ¹Î½
ĠÎ´Î¹ á½±Î½
ÏģÎ¹ ÏĥÎµÎ½
Ġá¼ĲÏĥÏĦ Î¯Î½
Ġá½¡ Î´á½·
Ġo cc
Î¿á½» ÏĥÎ±Î¹ÏĤ
ÏĦÎ¿Î¹ Î±
Ġá¼ĲÎ³ ÎºÎ±ÏĦÎ±
ÏĢÎ¿Î½ ÏĦÎ±Î¹
ĠÏĥÏħÎ½ á¿Ĩ
ĠÎµá½Ĳ ÎºÏģÎ±
Î¸ÎµÎ½ ÏĦÎ¿
ĠÏĢá½±Î½ ÏĦ
ÎºÎ¿Ïħ ÏĥÎ±Î½
ĠÏĦÎ¿Î¹Î± á¿¦ÏĦÎ±Î¹
Î´Îµá½· ÏĩÎ¸Î·
ĠÏĦÎ¿Î¹Î¿á½» ÏĦá¿³
ĠÎ¼Î±Î»Î±Îº á½¸Î½
Ġá¼ĢÎ³Î±Î¸ á¿¶Î½
ĠÏĢÎ±Î»Î±Î¹ Î¿á½¶
ĠÎ»ÎµÏĢ ÏĦÎ¿
ur n
ÏĢÎ»Î± ÏĥÏĥÎµ
ow n
ul g
Î¿Î´Î¿Î½ Î¿Ïĥ
ĠÎºÎ¬ Î¼Î½
Ġu nt
Ġá½ģÏĢÎ¿á¿ĸ á½¹Î½
Ġá¼ĲÏĢÎ¹ÏĦá½µÎ´ÎµÎ¹ Î¿Î½
ĠÎ³Ïģá½±Î¼ Î¼Î±ÏĦÎ¹
Ġá¼ĲÏĢÎ¹ÏĢÎ» á½³Î¿Î½
ĠÎºá¾Ħ ÏĢÎµÎ¹ÏĦÎ±
Ġ áµĽâģ±áµĪ
ÏĢ ÏĮÎ½
ĠÎº Î·Îº
Î³ ÏħÏĢÏĦÎ¿Î½
á½± Î¼ÎµÎ½Î¿ÏĤ
Ġá¼Ģ ÏĦÏģá½³
ĠÎ¿ ÏħÏĩ
Î¾ Î¿ÏħÏĤ
Ġá¼Ķ ÏĦÎ¿ÏħÏĤ
Îµá¿ĸ ÏĥÎ¸Îµ
Ġá¼Ħ ÏĩÏģÎ·
Î»Î¹ Î¿Î¹
ĠÎ¸Îµ ÏĮÎ½
nd er
Ġá¼¦ ÏģÎ¿ÏĤ
Î±á½· ÏģÎµÏĥÎ¹Î½
ĠÎ¼á½± ÏĦÎ·Î½
ĠÏĢÏħ Ïģá½·
ĠF or
Î¼ÎŃÎ½ Î·ÏĤ
Ġn ame
ĠÏĦá½¹ ÏĢÎ¿Ïħ
ĠÎ¿á¼°Îº Îµá½·ÏīÎ½
ĠÎ¼Î± ÏģÎ±
ĠÏĢÏģá½¸ Ï²
ĠÎ´Î¹Î±ÏĥÏĦ Î¿Î»á½´Î½
ĠÏĩÏīÏģá½· ÏīÎ½
áµĽ i
Ġá¼ĶÏĥÏī Î¸ÎµÎ½
ĠÏĢÎµÏĢÎ¿Î¹ Î¸
ĠÏĦÏģÎ¿Ïĩ á½·ÏĥÎº
ĠÏĦÎµÏĥÏĥÎ±Ïģ ÎµÏĥÎºÎ±Î¹
ĠÏĢÎµÏĢÎ» Ïħ
ĠÏĦá½·Î½ Î¿ÏĤ
Ġá¼ĲÏĢÎ¿ÏģÎµá½» Î¸Î·
A RT
o ok
Î¿ ÏĦá½µÏĦÏīÎ½
ÏĢ ÏĦÎ¹
Î¼ Î¯
Ġá¼Ģ Î¼Î²
ÎµÎ½ á½¹
ÎµÏģ Îµ
ĠÎ±á½ĲÏĦ Î¿
Ġá¼Ķ Î¼Î²
ĠÎ¿á½Ĳ Ïģ
ĠÎ´Î¹Î± Î¼á½³Î½
ĠB Q
ĠÏĦÎ¿Î¹ Î³Î±ÏģÎ¿á¿¦Î½
ÏĦÎ¹Îº á¿¶ÏĤ
Ġá½ĳÎ³ ÏģÎ¿
ĠÏĪÏħÏĩ Ïģá½¹ÏĦÎµÏģÎ¿Î½
Ġá¼ģÏĢ Î¬Î½ÏĦÏīÎ½
ĠÎ¿á¼´ Î´Î±
ÎºÏģ Ïħ
ÏĦá½³ ÏĦÎ±
ÎŃÏģ ÎµÎ¹
ĠL uc
Ġá¼ģÏĢÎ» Î¿á¿¦Î½
Î¾Î±Î½ ÏĦÎµÏĤ
ĠÎ»á½³ Î¾ÎµÏīÏĤ
Ġá¼ĢÎ¼ÏĨ Î·Î¼ÎµÏģÎ¹Î½
ĠÎ´Î¹Î´ á½¹Î½Î±Î¹
Ġal i
ĠÏĢÎ±ÏģÎ¿Î¾ ÏħÎ½
ĠÎºÎ±ÏģÏĢ á½¸ÏĤ
ĠÏĦÎ±á¿¦ Î¸
ÏĥÏĥÎ± ÏģÎ±ÏĤ
Î±á½ ĹÏĦÎ±Î¹
Ġá¼ĦÏģÎ¹ ÏĥÏĦÎ±
ĠÏĢÎ¿Î´ á½¸ÏĤ
ĠÏĢÎ»Î·ÏĥÎ¹ á½±Î¶
, )
Î½ ÏīÎ½
ÏĤ Ý²
Ïħ Î¼á½±ÏĦÏīÎ½
á½± ÏģÎ¹Î¿Î½
Î¹Î½ ÎµÎ½
Ġá¼ĲÎ½ Î¿Ïĩ
ĠÎ´Î¹ ÎµÎº
Ġá¼Ķ Î³
ÎŃ ÏĦÏī
Ġá½Ģ á¿¤á¿¥
ĠÏĢÎ±Ïģ Ïī
ĠÏĢÎ±Ïģ á½¹Î½ÏĦÎ¹
ÏĢÎ± Î¸
Ġá½Ħ ÏĪÎµÎ¹
ĠÏĥÎº ÎµÏį
ĠÎµá½Ĳ Î±
ĠÎ¼á½µ Î½Î¹
ĠÏĢÎ¿Î» á½ºÎ½
Ġn ear
ÏĢá½· ÏĢÎ±Î½
ar i
Ġá½ĢÎ¾ ÏħÎ¼
ĠÏĢÎ±Ïĩ Îµá¿ĸÏĤ
ĠÎ»ÏĮÎ³ Î¿Ïħ
ĠÎ±á¼°ÏĥÎ¸ Î±Î½
Ġá¼¸Î·Ïĥ Î¿á¿¦Î½
ĠÎ½ÎµÏĨ ÏģÎ¿á½ºÏĤ
ĠÎ´ÏģÎ¹Î¼ á½º
ĠÏĢÎ½Îµá½»Î¼Î¿Î½ Î¹
ÏĢÎ¿Î»Î» á½±ÎºÎ¹ÏĤ
Ġá½ĢÎ½á½¹ Î¼Î±ÏĦÎ±
Ġx l
Ġá¼ĲÏ² ÏĦÎ¹
Ġá¼Ģá¿¤á¿¥ÏīÏĥÏĦ á½·Î±Î½
Ġrend ered
ĠÏĢÏĦÎ¹Ïĥ Î¬Î½
ĠÏĦÎµÏĥÏĥ ÎµÏģ
Ġpas sa
Ġá¼ĺÏģÎ±ÏĥÎ¹ ÏĥÏĦ
Ġá¼¸Î±ÎºÏİ Î²
a ct
r d
Ġá¼ ¼
ĠÏĦ á¿¶
ĠÏĦ ÏģÎ¹Î²
ĠÎ± ÏĢÏī
Î¿Î¹ ÏĦ
ĠÎ³ ÎµÏģ
ĠÎ³ á½¹Î½
Î¼á½³Î½ ÏīÏĤ
ĠÏĦÎ¿ ÏĥÎ±á½»
Î·Ïĥ Ïī
Î»Î± á½¶
ĠÏĢÎ± ÏĦÎŃÏģÎ±
ÏĥÏĩ Î·
Ġá¿¥ Î·
Î³Î± Î¸
ĠÏĪÏħÏĩ Ïģá½¹Î½
ĠÎ´Î¿ ÎºÎ¹
á½·Î³ Î½ÎµÏĦÎ±Î¹
ÎĻ ÎĴ
ÎĻ ÎŁÎĿ
ĠÎµá¼°Ïģ Î®
Ġg l
á½¹ÏĦÎ± ÏĦÎ±
Ġá¼ĢÎ½Îµ Î»
á½½Î´Îµ ÎµÏĤ
Ġá¼ĦÎº ÏģÏīÎ½
Ġá¼ĢÏĢÎ¿Î´Îµá½· Î¾ÎµÏīÏĤ
ĠÏĢÎ±á¿ĸ Î´ÎµÏĤ
ĠÏĥÏĢÎ»á½±Î³ÏĩÎ½ Î¿Î½
ĠÏĨÎ±ÏģÎ¼Î¬ ÎºÏīÎ½
Ġch il
ĠÎ´á½·Î±Î¹ ÏĦÎ±Î½
I t
Ïģ Î·ÏĥÎµÎ½
Ïĥ Î¿ÏħÏĥÎ¹
Ġá½ į
Ïĩ Î»
Î´ á½»Î½
á½± Î²
ĠÏĥ ÎµÎ¹
á¿ĸ Î½Î±Î¹
Ġá¼ĲÎ¾ Î®
ĠÏĢÎ¿Î»Î» á½´
ĠÎ²Î±ÏĥÎ¹ Î»ÎµÎ¹
Ġá¼ĢÏģÏĩ Î±
Ġm ight
Ġá¼ĢÏĨ ÎµÏĪ
ĠÎ»á½³Î³ ÎµÏĥÎ¸Î±Î¹
ĠÏĢá½¹ Î´Î±
Ġd ay
Ġá½ĦÎ½ Î¿Î¼Î¬
Ġá¼°Î±ÏĦÏģ á½¸ÏĤ
ĠÎ²Î¿ ÏĦ
Ġá¼°ÏĥÏĩÏħÏģ á½¸Î½
ĠÎµá½Ķ ÎºÏģÎ±ÏĦÎ¿Î½
Î»Îµá½» ÏĥÎµÏĦÎ±Î¹
ĠÎºÏį ÎºÎ»á¿³
Î½ÎµÎ³ ÎºÎ±Î½
ĠÏĢá½±Î¸Î· Î¼Î±
Ġá½ĦÏģÎ³ Î±Î½Î±
ĠÏĨÏģÎµÎ½ Î¹
ĠÏĪá½»Ïĩ ÎµÎ¹Î½
Ġá¼ķÎ´ ÏģÎ±ÏĤ
Ġá¼ĲÎ½ÎµÏĦÎµ á½·
Ġear th
Ġá¼ĦÎ³Î³ÎµÎ» Î¿ÏĤ
Ġá½¥Ï² ÏĢÎµÏģ
ĠÏĢÎ±ÏĩÏħÎ¼ ÎµÏģ
ĠÏĦÎµÎ½ á½¹Î½ÏĦÏīÎ½
Ġ Z
Ġ ]
Îµ ÏĦÎ±á½·
Ïħ Ïģá½·Î¿Ïħ
ĠÎº á¼ĢÏĢ
Ïī Î¸ÎµÎ½
Î³ Î»
Î´ Ïģá½¹
Ġá¼Ķ ÏĦ
ÎŃ ÏĦÎ¹
ÏģÎ¹ Î³
Î½Î± Î³
Ġá¼ĲÎ¾ Î¿Î»ÎµÎ¸
ÏĥÎº ÎµÎ¹Î½
Ġá¼ķ ÏĢÎµÏĥÎ¸Î±Î¹
Ġá¼ĶÏĩ Ïī
Î³Î³ ÎµÎ¹Î»
Ġá¼ĢÏĨ á½³
á½µÎ½ ÏīÎ½
Ġá½ģÎ¼Î¿ Î³ÎµÎ½
ĠÎºÎµÎ½ Î¿á¿¦Î½
Ġá¼ĢÎ³Î³ ÎŃ
ĠÏĥÏħÏĥÏĦ á½³Î»Î»
Ġá½ĢÎ½á½¹ Î¼Î±ÏĦÎ¹
ĠÏĦá½»Ïĩ Î¿Î¹
ĠÏĥÏħÎ½Î¸á½³ ÏĥÎµÏīÏĤ
Ġá¼ĪÏĥÎºÎ»Î·ÏĢÎ¹á½± Î´Î·ÏĤ
ÎºÏģÎ¯ Î¸Î·
ĠÎĿÎ±Î² Î¿ÏħÏĩ
ĠÏĨÎ¬ÏģÎ¼Î± ÎºÎ¿Î½
ĠÏĩÎ»Î¹ Î±Ïģ
ÎĻÎĴ ÎĽ
Ïħ Î¾
Ïī ÏģÎ¹Îº
Î¸ Î¿Î¼ÎµÎ½
ÏĦÎ± ÏħÏĦá½¶
ĠÎµ Î±ÏħÏĦÎ¿Ïħ
ĠÎ±á½ĲÏĦ Î¬
ĠÏĢÏģ á½³
Ġá¼ĲÎº á½³
Ġá¼ĲÎº ÏĨÏħ
Îµá½· ÏĤ
Ġá¼ĢÎ½ Î±Î¹Ïģ
Î·Ïĥ Î·
Ġp ossib
Ġá¼¸ ÏĥÎ±
ÏĢÎ¿Î½ ÏĦÎ±
Î¸Îµ ÏģÎ±
ĠÎ¼á½¹Î½ Î±ÏĤ
ĠÏĢÎµ ÏģÎ±
ÏĨÎ¸ Î±Ïģ
Ġá¼± Î¼á½±
Î´Ïģ Î¿Ïħ
ĠÎ¿á¼° ÎºÎµÎ¹
ou n
ÏĦÏĦ á¿ĥ
ĠÏĢÏħÏģÎµ ÏĦ
Ġá¼ĺ Î»ÎµÎ¹
ĠÎ¹ Î´
Ġ6 2
ÏĥÎ¸Ïī ÏĥÎ±Î½
ĠÎ¸ÎµÏģÎ±ÏĢÎµ á½»ÎµÎ¹Î½
Îµá¼¶ Î¸
ĠÏĥÎºÎ¿ÏĢ Îµá¿ĸÏĥÎ¸Î±Î¹
Ġá¼ĶÎ»Î±Î² Î¿Î½
Ġá¼´ÏĥÏĩ ÎµÎ¹
ĠÎ´Î¹Î±ÏĨ Ïģá½±
Î¿ÏĥÎº Ïħ
ĠÎºÏģÎ¹Ïĥá½· Î¼ÏīÎ½
ÏģÎ³á½± ÏĥÎ±ÏĦÎ¿
Ġá¼Ĳ ÏĦÎµ
á½³ Î²
ĠÎ¼ Î¯Î±Î½
Ïĩ Î¿
ĠÎ¿ Î½
ĠÎ³ Î±
Îµá¿ĸ ÏĥÎ¹Î½
ĠÎ» Î·Î¼
á½½ Î¸Î±
Ġt han
ĠÏĦÎ¹ Ïĥá½¶
Ġá¼ķ ÏĦÎµÏģá½¹Î½
ĠÏĥÏħÎ½ ÏĦÎ¹
ĠÎµá½Ĳ ÎµÎ¾
Ġá¼ĢÎº ÏģÎ¿
ĠÎ´Îµ Î´
ĠÏĢá½±Î½ ÏĦÎ·
Ġá¼Ī ÏĢÎ¿Î»Î»
ĠÎľ Î¹
ĠÎĴ ÎĻÎĴÎĽ
Ġá¼°ÏĥÏĩ Ïħ
Ġá¼°ÏĥÏĩ á½·Î¿Î½
ĠÎ»á½³Î³ Î¿Î¼ÎµÎ½
Ġl and
ĠÎ¹ Î´Î¿Ïħ
ar k
ÏĢÎµÎ¹ Î¸
Ġá½ĢÎ¾ á½º
Ġá¼ĲÏģÎ³ Î¬Î¶
Ġá¼ĢÎ» á½µÎ¸ÎµÎ¹Î±Î½
ĠÎ£Î± Î¼
ĠÎ¸Î±Ïħ Î¼á½±
ĠÎ¾Î·ÏģÎ± Î¹Î½á½¹Î½ÏĦÏīÎ½
Î±á½Ĳ ÏĦÎ¿á¿¦
ĠÏĩÏħÎ» á½¸ÏĤ
Ġá¼ĲÏĢÎ¿Î¯ Î·ÏĥÎ±Î½
ÏĥÏĥÎµ Î¹Î½
ĠÎµá½ķ ÏģÎµÏĥÎ¹Î½
ĠÏĢÎµÏģÎ¹ÎµÏĩ á½¹Î¼ÎµÎ½Î¿Î½
Ġrep resent
á½±ÏĥÏĦ ÏģÎ¹Î¿Î½
) )
V áµĥ
a g
l ic
Î± ÏĥÎ¹Î½
Ïģ á¿¶ÏĤ
Ïĥ Ïĥá¿ĥ
ĠÎºÎ± ÏĦÎ¹
Î¸ ÏħÎ½
ÏĨ Ïį
ÏģÎ± Î²
Ġá¼ĲÎ½ á½·ÏīÎ½
Î¯ ÏĥÎ¸Î·
Î¬ ÏĥÎµÎ¹
ÏģÎ¹ ÏĥÏĦÎ¿Î½
ĠÏĦÎ¿ á½ºÏ²
ĠÏĢÏģÎ¿ Î±Î¹
Ġá½¡ Î¼
ĠÏĩÏģ Î·Ïĥá½·
Ġá¼ķ ÏĪÎµ
Ġá¿¥ á½µÏĥÎµÎ¹
ĠÏĢÎ¿Î¹ Î®ÏĥÏī
Ġá¼ĢÎº á½±
ĠÎ³ÎµÎ½ á½µÏĥÎµÏĦÎ±Î¹
ĠÏĨÎ± Ïĥá½¶Î½
Ïĥá½· Î¿Î¹ÏĤ
Î³Îµ ÏĦÎµ
Ġá¼§ ÏĥÏĥÎ¿Î½
ĠÎ¼Î¹Îº ÏģÎ¿á¿¦
ĠÎ¼ÎŃ ÏĩÏģÎ¹
ĠÏĦÏģÎ¹ Ïĩá¿¶Î½
ĠÏĥÏĩ á½µÎ¼Î±ÏĦÎ¹
Ġá¼ĢÎ» Î®
ĠÎ¼Î±Îº ÏģÎ¿á¿¦
ĠÏĩÎ¿Î» á½´
Î¾Îµ ÏīÎ½
ĠÏĦÎŃ Ïĩ
ĠÏĦá¿Ĩ ÏĥÎ´Îµ
ÏĦÎ¹Î½ ÎµÏĤ
ĠÏĢÏģÎ¿ÏĥÎµ Îº
ĠÎ»ÎµÎ³ Î¿Î¼á½³Î½ÏīÎ½
Ġá¼ĢÏĥÎ¸ÎµÎ½ ÎµÏĥÏĦ
ĠÎ¼ÎµÎ»Î± á½·Î½Î·ÏĤ
Ġá¼ĢÏĦ Î¼
ĠÎºÏģÎ¯ Î¼Î±
ĠÏĦÎµÏĦá½±Ïģ ÏĦÎ·Î½
ĠÎ²Î»á½±Î² Î·ÏĤ
ĠÏĢá½³ÏĨÏħÎº Îµ
ĠÏĨÏģÎ¿Î½ ÏĦá½·
Î´ÎµÎºá½± ÏĦÎ·Î½
ĠÎ¼ÏħÏĥ á½¶Î½
ĠÎ³ÎµÎ½ÎŃ ÏĥÎ¸Î±Î¹
Ġá¼ĲÎ¾ÎµÏħ Ïģá½·ÏĥÎº
áµĽi áµĪ
ï »¿
Î± á¼°
Î» Î±Î½Î±
Îº á¿ĥ
ĠÎ´Î¹ ÎµÏĥÏĦ
Î¿á¿ĸ ÏĥÎ¹Î½
ĠÎ¸ á½±Î»Î±
ĠA T
Î¹Îº Î¿á½ºÏĤ
Ġá¼ĢÏĢ Î±Î½
ĠÎ¿á½ĸ ÏĤ
Ġá¼ĢÎ½Î± ÏĢÎ±
ĠÏĪ Î¹Î»
Î³Î¿Î½ ÏĦÎ±
ĠÏĥÎº Îµá½»
Î´Î· Î³
Ġá¼Ī Ïĥ
it her
ĠÎĻ Î·Î»
ÎºÎµÎ¹ ÏĦÎ¿
Î·Î¸ á¿ĩ
ÏĥÏĥ Î·
ĠÎºÎµÏĨÎ±Î» Î±á½·
ou t
ĠÏĩÏħÎ¼ Î¿á¿ĸÏĤ
ĠÎ³Î¹Î½ Î¿Î¼á½³Î½Î·ÏĤ
Î¬Ïģ Î¹Î½
Î»Î±Î¼Î² á½±Î½ÎµÎ¹
á¼Ī Î»Î»
ÏĮÏĦÎ· ÏĦÎ¿ÏĤ
Ġá¿¥á½·Î¶ Î±Î½
ĠÏĢÏģÎµÏĥÎ² ÏħÏĦ
ĠÎ³Î½á½½ Î¼Î·Î½
ĠÎ¾Î±Î½Î¸ á¿ĨÏĤ
Ġá¼ĲÏĥÎ¸ Î¹
Ġá¼ĢÏĨÏģÎ¿ Î´Î¹
ĠÏĢÎ±Î½ÏĦÎ±Ïĩá½¹ Î¸ÎµÎ½
Ġá¼ĢÏĦÏģá½³ Î¼Î±
Ġ imp
Î» ÏħÎ³
Ġá¼ĲÏĢ ÎµÎ¹
ÏĦÎ¿ Ïį
ĠÏĦÎ¿ Î»Î¼
ĠÏĢÏģÎ¿ ÏĥÏĦÎµ
Ġá¼ĢÏĢ Î·
ĠÎ´Î¹Î± ÏĥÏĦÎµÎ»Î»
Ġá¼ĲÏĢÎ¹ ÏĥÏĦÎ·
Ġthe se
ĠÏĥÏħÎ½ Î®
ĠÏĢÎµÏģÎ¹ ÏĦÎ¿Î½
ĠÎ´Îµ á¿¦
á½³Ïĩ ÎµÏĦÎ±Î¹
ĠÏĢá½± Ïĥá¿ĥ
ĠÏĦá½± Î¾ÎµÏīÏĤ
at er
ĠÎ¼Î± Ïĩ
Ġá¼ĲÎ¼ÏĢ Îµ
Ġá¼ĲÎ½ÎµÏģÎ³ Îµá¿ĸÎ½
ĠÎ´Î·Î» Î¿á¿¦Î½
ÎºÎµá½· Î¼ÎµÎ½Î±
á½½Î´Îµ ÏĥÎ¹Î½
ĠÎ´ÏħÎ½Î¬ Î¼ÎµÎ¹
Î¸Îµá¿ĸ ÏĥÎ±
ĠÎºÏģÎ¯ ÏĥÎ¹Î½
ĠÎ¿á¼´Î½ ÏīÎ½
ĠÏĩÏģá½½ Î¼ÎµÎ½Î¿ÏĤ
ĠÏĥÏħÎ»Î» Î±Î²
Î»Î¹ÏĢ Îµá¿ĸÎ½
ĠÎµá½ĲÏģ ÏħÏĩ
ĠÏĦÎµÏģ Î¼Î¹Î½Î¸á½·Î½Î·ÏĤ
Ġá¼ĲÏĢá½·Î´Îµ ÏĥÎ¹Î½
Ġá¼¸ÏīÏĥ á½´
Ġá¼ĲÎºÎ¸ Î»á½·
Ġaf ter
ĠÎĴÎµÎ½Î¹Î± Î¼Îµ
Î» Î¿á½·
ĠÎºÎ± ÏħÏĥ
Ïī ÏģÎ¹Ïĥ
ĠÏĢ ÎµÎ¹Î½
ĠÎ¼ á½»Ïģ
Î´ Î¼
ĠÎ³ á½³Ïģ
ĠÎ±á½ĲÏĦ á½¹ÏĤ
ĠÏĨ Î¿
á½½ Î¼ÎµÎ½Î¿Î¹
ÏĮ ÏĦÎ±
ĠÎ¿á½ ĳ
Îµá½· Î´
Ġá½ĳÏĢ ÎŃ
ĠÏĦÎ¹ Î¼
Î¿á½» Î¼ÎµÎ¸Î±
Ġá¿¥ ÏħÎ¸
Ġp e
Î¿Î¼ Î¿Î¹
ÏĮÎ½ ÏĦÎ±
ĠÏĢÎ±ÏģÎ± Î³
ĠÎ¾ ÏħÎ½
ĠÎ¼á½¹Î½ á¿ĥ
Ġc urs
ĠÎ¼Î¿ Ïģ
Î¸ÏģÏī ÏĢ
Ġ4 4
Îºá½¹ ÏĦÎ¿ÏĤ
á¼¡ Î¼Îµá¿ĸÏĤ
ĠBáµĥáµĩ A
ĠÏĩÏģÎ· ÏĥÎ¹
ĠÎ¼á½· Î¾Î±ÏĤ
Ġá½łÏĨÎµÎ» Îµá¿ĸ
ĠÏĥÎ± Î²Î±
Ġá½ħÎ¼Î¿Î¹ Î±
ĠÏĥÏħÎ³Î³ ÎµÎ½
Ġá¼ĢÎ¼Îµ ÏĦÏģá½·
Ġá½ĢÎ»Î¯ Î³
Ġá¼°á½± ÏĥÎµÏīÏĤ
Ġá¼ķÎ´ ÏģÎ±Î½
Î¿á¼· Î¿Î½
ĠÏĢá¿ĨÏĩ ÏħÎ½
Ġá¼ĲÎ½Î¯ Î¿ÏĦÎµ
Ġá½ĳÏĢÎ¿Ïĩá½¹Î½Î´ ÏģÎ¹Î¿Î½
gg est
ĠÎĴÎĻÎĴÎĽ ÎĻÎŁÎĿ
o od
p r
w ith
Ïħ á¼±
ĠÎµ Î¾Î±
ĠÎ³ ÏģÎ±
Ġá¼Ķ ÏĥÏĦÎ·
Ïį Ïģ
Ïį ÏĥÎµÎ¹
Ġá¼ĢÏĢ Ïī
ĠÏĩÏģ Î¿Î¹
Ġá¼ĲÏĢÎ¹ ÏĨ
Ġá¼ķ ÏĦÎ¿Î¹
Ġá¼ĢÎ½Î± ÏĢÏĦ
ĠÎ¿á½ĲÎ´ Î±Î¼
Ġá¼ĢÎº Î¿á¿¦ÏĥÎ±Î¹
á½»Î½ Î·ÏĤ
ÎŁ á¼±
Ġá¼°Î±ÏĦÏģ á½¸Î½
Ġá¼ĢÏģÎ³ ÏħÏģ
Ġá¼ĲÎ½á½³ÏģÎ³ÎµÎ¹ Î±
ĠÏĦÎ¿á½Ĳ ÏĢá½·ÏĢÎ±Î½
Ġá¼¸Î¿ÏħÎ´Î± Î¯ÏīÎ½
Ġá¼ķÎ» ÎºÎµÎ¹
ĠÎºÎ¿ÏĦá½»Î» Î·Î½
Ġá¼ĪÏĥÎºÎ»Î·ÏĢÎ¹á½± Î´Î¿Ïħ
Ġá¼¡Î³Îµ Î¼Î¿Î½
ĠâĦµB Q
Ġtw o
ÏĦ á¿ĨÏĥÎ±Î¹
Îµ ÏĢÎ¹
Ġá¼Ĳ ÏĦÎ±
ĠÏĢ ÏĮÎ½
ĠÎµ Î¸
ĠÎ´Î¹ Î¿Î¹Îº
ÏĦÎ· ÏĦÎ±Î¹
Ïģá½· ÏĦÏīÎ½
ĠÏĢÎ±Ïģ Î¬
Ġm ake
Î¿Ïį Î¼ÎµÎ½Î¿Î½
ĠÎ¼Î¹Îº Ïģá¿¶Î½
ĠÎķ Î»Î¹
ct ion
Ġá¼ĢÏĢá½³ ÏĥÏĦÎµÎ¹Î»ÎµÎ½
ĠÎ´ÏĮ Î¾Î±
ÏĢÏĦÎ¿Î½ ÏĦÎ±Î¹
Ġon ly
á½·ÏĥÏĦÎ± Î½ÏĦÎ±Î¹
ĠÎ¸á½± Î½Î±ÏĦÎ¿Î½
ĠP s
Ġá¼ĲÎ³Îºá½³ÏĨÎ±Î» Î¿ÏĤ
Î´Ïħ Î½Îµ
Î³Î±Î³ Îµá¿ĸÎ½
ĠÎ´Î¹Î±Î³Î½ á½½ÏĥÎµÏīÏĤ
Ġsu ggest
Ġá½ĳÏĢÎ±ÏģÏĩ á½¹Î½ÏĦÏīÎ½
ĠÎĿÎ±Î²Î¿ÏħÏĩ Î¿Î´Î¿Î½Î¿Ïĥ
2 6
e th
r u
á½ §
ĠÎ ¥
ĠÎ¼ Î¯
Î´ Î¬
á½¹ ÏĦÎµÏģá½¹Î½
Î¼Î± ÏĦÎ¯
ÎŃ ÏģÏīÎ½
ÏĥÎ¹ Î¼Î¿Î½
Ġá¼ĲÎº ÏĢÏħ
Ġá½Ģ ÏĨÎ¸
Î® ÏĤ
ÏĦÎµÏģ Î¼Î¹Î½Î¸á½·Î½Î·ÏĤ
ĠÎ³Îµ Î³Ïģá½±
Ïİ ÏģÎ±
ÏĥÎ±Î¹ ÏĦÎ¿
ÏĢÎ¿Î½ ÏĦÎµÏĤ
ĠÎ´Îµ Ïį
Î¬Î½ ÏīÎ½
ÏĢÏĦ á¿³
ĠÏĨÎ± á½·Î½Î·ÏĦÎ±Î¹
Î»á½³ Î»ÎµÎºÏĦÎ±Î¹
Î³ÏģÎ± ÏĢÏĦÎ±Î¹
ĠV ulg
ĠÎ¼Ïħ ÏģÎ¹
ĠÎ³Î¹Î½ á½¹Î¼ÎµÎ½Î±
ĠÎºÎ±Îº á¿¶Î½
Î²Î¿Î» á¿ĨÏĤ
ĠÎ¼Î¹ ÏĥÎ¸
ĠÏĢÏģÏĮ ÏĦÎµÏģÎ¿Î½
ĠÎ²á½± Î¸ÎµÎ¹
Ġá¼ĢÏĢá½³ Î¸Î±Î½ÎµÎ½
ĠÎºá½±Î¼Î½ ÏīÎ½
ĠÎ´ÎµÎ¾Î¹ á¿¶Î½
ĠÏĢÎµÏĢ Î»Î·
Ġá¼ĢÎ´ÎµÎ»ÏĨ á¿¶Î½
Ġá½ĢÎ½Î¿Î¼Î±Î¶ Î¿Î¼á½³Î½ÏīÎ½
Ġy ou
ÏģÎ¹Ïĥ Î¼Î¿á½ºÏĤ
ĠÎ¸ÏħÏĥÎ¹Î±ÏĥÏĦ á½µÏģÎ¹Î¿Î½
ĠÎ¿á½ĲÎºá½³ ÏĦ
ĠÏĥÏħÎ¶ÏħÎ³ á½·Î±ÏĤ
Ġá½ĳÏĢÎ¿ÎºÎµÎ¹ Î¼á½³Î½ÏīÎ½
ĠÎ²á½±Ïģ Î¿ÏĤ
ĠÏĢÏģÎ¿Î³Î½ÏīÏĥÏĦÎ¹Îº á¿·
ĠÎ¸Î±Î»Î¬ ÏĥÏĥÎ·ÏĤ
Ġá¼ĲÏĢÎ¹ÏĥÏĦÎ· Î¼Î¿Î½
i us
Îº á½±Ïģ
Î· Ï²
Ïĩ á½³
Î´ Î±Î¹
ĠÎµ ÎºÎµÎ¹
á¿ĸ Î±Î½
ĠÎ´Î¹ Ê¼
Ġá¼Ķ Î¾Îµ
ĠÎ² Î´ÎµÎ»
Ġá¼ĲÎº Î»ÎµÎº
Î´Îµ Ïħ
ĠÏĢÎ± Î¸Î·
Ġá¼ĲÏĢÎ¹ Î´Îµá½·
Ġp ost
ĠÎµá½Ĳ ÏĢÎ¿
or y
ĠÎ³ÎµÎ½ Î¿Î¼á½³Î½ÏīÎ½
Î¼Î½ Î®
Ġw or
Î´Î¿ ÏĥÎ¹Î½
Ġá¼ĶÎ½ ÏĦÎµÏģÎ¿Î½
om it
ÏĨÎ± ÏĥÎ¹Î½
ĠÎ¿á¼´ ÎºÎ¿ÏħÏĤ
Ġá¼ĢÎ³ Î¬
Îºá½¹ ÏĦÎµÏĤ
Îºá½¹ ÏĥÎ¿Î¹
Ġá¼ĳÎºá½± ÏĦÎµÏģÎ±
ĠÏĦÏģÎ¹ á½±ÎºÎ¿Î½ÏĦÎ±
ĠÏĥÎ±ÏĨ á¿Ĩ
Ġá¼ĳÎºÎ± ÏĦá½³ÏģÎ±ÏĤ
ĠÏĨÎ¹Î» Î¿
Ġá¼ĢÎ¼ÏĨÎ¿ ÏĦá½³ÏģÎ¿Î¹ÏĤ
ÏĢÏĦÎ¿Î½ ÏĦÎ±
ĠÎ´ÎµÎ¾Î¹ á½¸Î½
ĠÎ¶Ïī á½´Î½
ĠÏĢÎµÎ½ ÏĦÎµ
res p
Ġá¼ĪÎ½ Î´Ïģá½¹
Ġá½ĢÎ½á½¹ Î¼Î±ÏĦÎ¿ÏĤ
á½¹Î´ Î¿ÏħÏĤ
ÏĩÎ±Î» Î²á½±Î½Î·ÏĤ
á½ķ ÏĦÏīÏĤ
ĠÏĢÎ½ÎµÏį Î¼Î±ÏĦÎ¿ÏĤ
ĠâĢ ł
ĠÎĺÎµ ÏĥÏĥÎ±Î»
Ġá¿¥á½½ Î¼Î·Î½
Ġá¼¸ÏīÎ½ Î±Î¸á½°Î½
Ġá¼ĢÎ½Î±Î»Î¿Î³ á½·Î±Î½
ĠÏĥÎ¹Îº á½»
ĠÏĦÏħÏĨ Î»
Ġá¼ĢÏĢá½¹Î´ÎµÎ¹ Î¾Î¹Î½
ÏĦ ÏģÎ¿ÏĨ
ÏĦ ÏģÎ¹Î±
ĠÎ ©
ĠÎº Î»Î·Î¸
Î¸ á¿ĥ
Î¸ Î¹Î¿Î½
ĠÎ¿ Î¼Î¿Î¹
ĠÎµá¼° Î¸Î¹
Î¶ Î¿ÏħÏĥÎ¹Î½
Î»Î¹ á¿¶Î½
ÏĥÏĩ Î±
Ġá¿¥ á¾´
Ġá¼ĢÎ½Î± Î¼Î½Î·
á¼Ģ ÏĢÎµ
á¼Ģ Î»Î·Î¸
ÏħÏĥ Î¿Î½
ĠÏĢÎµÏģÎ¹ ÏĥÏĦ
ĠÎ¶ á¿ĩ
ĠÏĥÏĦ á½µ
ĠÎ»Î± ÏĮÎ½
ĠÎ¼Î¹Îº Ïģá½¸ÏĤ
Îļ Î±
Ġá½ģÎ¼Î¿ Î¯ÏīÏĤ
ĠI s
Ġá½ĢÏģÎ³ Î±Î½
ĠÏĥÏĢÎ» á¿ĨÎ½Î±
Ġá¼ĲÎ¼ÏĨ Ïħ
Ġá¼¸Ïī Î¬Î½
Ġá¼ĢÎ»Î·Î¸ á¿¶ÏĤ
ĠÎ´ÎµÎ¾Î¹ á½°
Ġpl ace
Î¸Îµá¿ĸ Î½Î±Î¹
Ġá¼ĦÎº ÏģÎ¿Î½
ĠÎºÎ¬ ÏĦÏī
ĠÎłÎ»á½±ÏĦÏīÎ½ Î¿ÏĤ
ĠÎ´Î¹Î´á½±ÏĥÎº ÎµÎ¹
ÏĨÏģ ÏħÎ³
ĠÎ¼ÎµÎ³á½·ÏĥÏĦ Î·Î½
Ġá¼¡Î»á½· Î¿Ïħ
Ġá¼ĲÎºá½± Î»ÎµÏĥÎµÎ½
Î¿Î²Î¿ á½°Î¼
ĠÏĥÏĦÏħÏĨ á½¹Î½ÏĦÏīÎ½
Î¿ÏĥÎºÏħ á½±Î¼Î¿Ïħ
e f
w ay
á½ Ĺ
ÏĢ ÏĦÎ±
Î´ á½±
Î¾ Î¿Î¼ÎµÎ½
ÎŃ ÏģÎ¿Î½
ĠÏĨ Î±Îº
ĠÏĩ Î¬ÏģÎ¹Î½
ÏĦá½° Ïģ
á½¹Î½ Î±ÏĤ
ĠÏĢÏģÎ¿ ÏĥÎ¸Îµá½¶ÏĤ
á¿ĥ ÏģÎ·
Ï² ÏĦÎ±
ÏħÎ½ Î¸
Ġá¼ĢÏĢÎ¿ Î¸
ĠÎµá¼´ ÏĢá¿ĥ
ĠÎºÎ±ÏĦÎ± á¿¤á¿¥
ĠÎ²Î± Î¸
ĠÎĻ Î¿ÏħÎ´
ra el
ÏĢÏĦ á½¹Î½ÏĦÏīÎ½
Ġá¼¥ Î½
Î²Î± ÏĥÎ¹
á½ģ Î¼Î¿
Ġ4 8
at ive
an ce
Ġá¼ĢÎ¼ÏĨ Î¹Ïĥ
Ġá¼ĢÎ³Î±Î¸ á½°
ĠÏĦÎŃ ÏĩÎ½
ĠÎ¼á½µÏĦ ÏģÎ±Î½
ĠÏĥÏĨÎ¿Î´Ïģ á½¸Î½
Ġá¼ĢÎ´ÎµÎ»ÏĨ Î¿á¿¦
Î·Ïĥá½± Î¼Î·Î½
Ġá½ĦÎ³ ÎºÎ¿ÏĤ
ĠÎ¼Î½ Î·Î¼
Îµá½Ĳ Î»Î¿Î³
ĠÎ´Î¹ÎºÎ±Î¹Î¿Ïĥ ÏįÎ½Î·Î½
ĠÎ´Î¹Î´Î±ÏĥÎºÎ±Î» á½·Î±Î½
ĠÎºá½³Î½ ÏīÏĥÎ¹ÏĤ
ÏĢá½±Î½ ÏĦÎ±
Ġá¼ĢÎ½Î±ÏĢÎ½Î¿ á½´Î½
ĠÎĵÎ± Î²Î±
Ġá¼ĢÎ½Î±á½· ÏĥÎ¸Î·
ĠÎ¸Î¬Î»Î± ÏĥÏĥÎ±Î½
Ġcurs ives
Îµ Î¯Î±ÏĤ
Î¼ Îµá¿ĸÎ½
Î»Î» Î·ÏĤ
á½½ ÏĦÎµÏģÎ¿ÏĤ
Ġá¼¡ Î´
ĠÎ² á½·Î¿Î½
Ġá¼ĲÎº Îºá½¹
Ġá½ĳÏĢ Î±Îº
Ġá¼ĲÎ¾ Ïī
Ġá¼ĲÎ¾ á½µ
Ġá¼ĲÎ¾ Î¿Ïĩ
in k
ÏĥÏĦÎ± ÏĦÎ¿Î½
ĠÏĢÎ¿Î»Î» Î±Ïĩ
ĠÏĦÎ¿Ïħ ÏĦÎ¿
ĠÏĦá½³ Î»ÎµÎ¹
ĠÏĦÏģá½· ÏĪÎ±ÏĤ
Îºá½¹ Î¼Î¼ÎµÏīÏĤ
Ġá½ģÎ¼Î¿ á½·ÏīÎ½
Î¸ÎµÎ¹ Î±
ĠÏĢÏĮ Î»ÎµÎ¹
Ġá¼ĳÎºÎ± ÏĦá½³ÏģÏīÎ½
á½Ģ ÏĢÎ¿
ĠÏĢÎ±ÏģÎ¿Î¾ÏħÏĥ Î¼á¿¶Î½
ĠÏĢá½µ ÏĩÎµ
ĠÏĦá½»Ïĩ á¿ĥ
Ġá½ģÏĢá½¹ ÏĦÎµ
ĠÏĢÎµÏĢÎ¿Î½Î¸á½¹ ÏĦÏīÎ½
ĠÎºÏīÎ»á½» ÎµÎ¹
ig n
ĠÎ´á½·ÎºÎ±Î¹ Î¿Î½
ĠÎ¸á¿Ĩ Î»Ïħ
b e
h or
Ïĥ Î¿ÏĨ
Îº á½»
ĠÎ±á½Ĳ Î³
Îµá¿ĸ ÏĥÎ±Î½
Ġá½Ģ ÏĨ
ĠÏĦÎ± ÏħÏĦÎ±
Î´Îµ ÏĦÎµ
Ġá¿¥ Î¿ÏĢ
á½¼ Î¼
Ġá¼ĶÏĩ Î¿Î½ÏĦÎ¹
ĠÎļ ÏħÏģ
ĠÎ¶ ÏħÎ³
ĠÏĨÎ± Ïĥá½¶
ĠÎºÎ±Î» Î¿á¿¦ÏĥÎ¹
Ġá¼ĢÏĨ Ê¼
Ġ4 2
Ġre m
ĠÎ¾Î·Ïģ á½°Î½
ĠÎ¼Î±Î» Î¸
Ġá¼ĢÎ½ÏĦÎ¹ ÏĥÏĢ
ÏĮÏĦÎ· ÏĦÎ¹
ĠÎ»ÎŃÎ³ ÎµÎ¹Î½
ĠÎ»Î¹Î² á½±Î½Î¿Ïħ
ĠÎ¼Îµá½·Î¶Î¿Î½ Î±
ĠÏĢÎµá¿ĸ ÏģÎ±Î½
ĠÏĥÎºÎµÏį Î·
ĠÎ³á½¹Î½ Ïħ
resp ond
g y
Ġ ÏĤ
Î½ Î¿ÏħÏĤ
Î½ á¿ĥ
ÏĦ ÏģÎ¹Î¿Î½
Ïĥ Î¼á½³Î½ÏīÎ½
Î¼ ÏħÏģ
Îº Î·ÏĥÎµÎ½
ĠÎ± Î´ÎµÎ»
Î¼Î± ÏĦá½±
Î¾ ÎµÎ¹Î½
Î¾ Î¿Î½ÏĦÎ±Î¹
ÏģÎ¹ ÏĥÏĦÎ±Î¹
Ġá¼ĲÎº Î¿Î¹Î¼
Îµá½· Î·ÏĤ
Ġá¼ĢÏĢ Î±Î¸
ĠÎ´Î¹Î± Î¯
ĠÏĢÎ± á½·Î´ÏīÎ½
ÏħÏĦ á½³ÏģÎ±
re e
ĠÎºÎ±ÏĦÎ± ÏĢÎ»á½±
ĠÏĢÎ¿Î¹ á½³
ĠÎ´Îµ á½¹Î¼ÎµÎ½Î¿Î½
Ġá¼ĦÎ½ Î¸Î¿ÏħÏĤ
ĠÎ´á½» Î½Î±Î¹
Ġin to
ÏĦá½³ÏģÎ± Î¹ÏĤ
ÎµÎ¹Î´ Î¿á¿¦ÏĤ
ĠÎºÎµÏĨÎ±Î» á½°ÏĤ
ĠÏĢÏģá½½ ÏĦÎ±ÏĤ
Ġá¼°ÏĥÏĩÏħÏģ á½°Î½
ĠÎ¼Î±Îº Ïģá½°Î½
ĠÎ´Î¹Î±ÏĨÎ¿Ïģ Îµá¿ĸÎ½
ĠÎµá¼°Ïģ Î®Î½
á½Ģ Î²Î¿Î»Î¿á½ºÏĤ
ÏĪÎ± ÏĦÎ¿
ĠÏĢÏģÎ¿ÎµÎ¹ÏģÎ· Î¼á½³Î½Î¿Î¹ÏĤ
ĠÎ¿Î¹Îº Î¿Ïħ
Ġpro p
ĠÏĨÎ»á½³Î³ Î¼Î±ÏĦÎ¿ÏĤ
ĠÏĥÏĢÎµÏģ Î¼Î±
b l
z ek
Îº ÏģÎ¹Î¸
Î³ Î¹ÏĤ
ĠÎµ ÏħÏĨ
ĠÎµá¼° á½½Î¸Î±
ĠÏĩ ÏģÎ¹ÏĥÏĦ
Ġá¼ĢÏĢ ÎµÏģÎ³
ÏģÎµ ÏĦÎ¿Î½
Î»Î¹ Î±Î½
ĠÎºÎ±ÏĦÎ± Î»
ÏĦÎ¹Îº ÏģÏħ
Î´Î· Î¼Î±
ĠÏĥÏĨ á½·
Î´ÎµÎ¹ Î³Î¼Î±
ĠÎ¼á½µ Î½
ĠÏĢá½¹ ÏģÎ¿Î½
ĠÎ³Î½ á¿¶
ĠÏĦá½± ÏĤ
Ġá¼ĢÎ» á½»
Ġá¼ĦÏģÏĩ ÏīÎ½
ÏĥÏĦÏģÎµ ÏĪÎ±Î½
ÏĢÎ»á½± ÏĥÎ¹Î¿Î½
Ġá¼ĢÏģÎ³ ÏįÏģÎ¹Î¿Î½
Ġan y
Î¸Î® ÏĥÎ¿Î½ÏĦÎ±Î¹
ĠÎ¼á½³Î³Î¹ ÏĥÏĦÎ±
ÏĢÎ¿Î» á½º
Ġá½ĳÎ´ á½±ÏĦÏīÎ½
ĠÏĥÏħÎ½Î¹ ÏĥÏĦÎ±
Ġá¼ģÏĨ á½´Î½
ĠÏĥÏĢÎ»Î·Î½ á½¸ÏĤ
Ġá¼ĳÎ²Î´Î¿ Î¼á½±
ĠÏĢá½±Î¼ÏĢÎ¿ Î»Ïħ
Ġá¼ĲÎ´Ïī Î´
Ġá¼ĢÎºá½± Î¸Î±Ïģ
Î¿ ÏĢÎ¿Î¹
Îµ ÏīÎ½
Ġá¼Ĳ ÏĥÎº
ĠÎµ Î±ÏħÏĦ
Î»Î» ÎµÎ¹
Ġá¼Ķ Î±Ïģ
Ġá¼Ķ ÏĢÎ±
ÏĥÎ¸ Î±Î¯
ĠÏĨ Îµá½»
Î»Îµ ÏĥÎ¹Î½
Î·Ïĥ á½±Î½ÏĦÏīÎ½
Ġá½ĳÏĢ á¿Ĩ
Ġá¼° Î½á¿¶Î½
á¼Ĳ ÏĩÏģ
Ġá¿¥ Î¿ÏĨ
Î¼ÏĢ Î±Î½
ĠÎ¼á½³ ÏĦÏģÎ¿Î½
ĠÏĢÎ±ÏģÎ± Î´
ĠÏĪÏħÏĩ Ïģá¿¶Î½
Î»ÎµÎ¹ ÏĢ
Î¼ÎŃÎ½ á¿³
Ġ4 3
ĠÎ¼á½±Î»Î¹ ÏĥÏĦ
Ġá¼ĢÎ¼ Î¼ÏīÎ½Î¹Î±ÎºÎ¿á¿¦
ĠÎµÎ¹ ÏĢÎ¿Î½
ĠÎ´Îµá¿ĸ Î¾Î±Î¹
ĠÎ³ÎµÎ½Î½ á¾¶ÏĦÎ±Î¹
ĠBáµĩ U
Ġá½ģÏģ á¾¶ÏĦÎ±Î¹
Ġex p
ÎºÏģÎ¬ ÏĦÏīÏģ
ĠÏĢÏģÎµÏĥÎ² ÏħÏĦá½³Ïģ
Ġá¼°Î´á½³ Î±ÏĤ
ĠÏĩÎ¹ÏĦá¿¶Î½ Î¿ÏĤ
ĠÎµá½ĳÏģá½·ÏĥÎº ÎµÏĦÎ±Î¹
ĠÎ³ÎŃÎ½ Î·ÏĦÎ±Î¹
á½Ħ Î¾Î¿ÏħÏĤ
Ġá¼ĲÎ³ÎŃÎ½ Î½Î·ÏĥÎµÎ½
ĠÏĨÎ±Î³ Îµá¿ĸÎ½
i ed
j ect
l t
v oc
Ġá¼ ¶Î½
ÏĢ á¾¶
Î· ÏĦÏģ
Î¸ ÏīÏĤ
Î¸ ÏģÎ¹
á½³ ÏĥÏĦÎµÏģ
á¿¶ ÏĥÎ±
Ġá¼Ģ á½»ÏĦÎ·ÏĤ
ĠÎµ Î²
ĠÎ³ ÏīÎ½
âĢ Ŀ
ÏĮ Ï²
á½±Î½ Î¿ÏħÏĥÎ¹Î½
Ġá¼ĢÎ½ Î®
ÏģÎ¿ á½·
ĠÎĳ Î¹Î³
ĠÎ¿á½ĲÎº ÎŃÏĦÎ¹
ĠÎµá¼´ Î¸
Ïģá½± ÏĦá¿³
Ġá¼ģ Î³Î¹
ÏĦÏģ ÎŃ
ĠÎļ Ïģá½·ÏĦÏīÎ½
ĠÏĢÎ¿Î¹ á½µÏĥÎµÎ¹
Ġá¼ĢÎº Î¼á½±Î¶
ĠÎ¼Î· Ïģá½¸Î½
ÏĦá½³Ïģ ÏīÏĤ
ÏĦá½³Ïģ á¾³
Î´Ïģ ÏīÎ½
ĠÎ¼ÎµÏĦÎ± Î»Î»
ĠÏĥá½½ Î¼Î±ÏĥÎ¹
Ġá¼ĲÎ» ÏĢÎ¯
Ġ10 9
Î±Î³ ÏīÎ³
Î¼á½³ Î»Î¹ÏĦÎ¿ÏĤ
Ġá¼ĲÎ½ÎµÏģÎ³ Îµá½·Î±Î¹ÏĤ
Ġá¼ĶÎ³ÏģÎ± ÏĪÎ±Î½
Ġá¼ĢÏĢÎµ ÏĨ
Ġá¼ĲÎ´ ÏĮ
ĠÎºá½±Î¼Î½ Î¿Î½ÏĦÎ±
ÏĩÎ¹ ÏĥÏĦÎ¿Î½
ĠÎºÎ±ÎºÎ¿ á½µ
ĠÎ´Î±ÎºÏĦá½»Î» Î¿Î¹ÏĤ
ĠÏĦÎ±á¿¦ ÏĦá½±
Ġá¼ĦÎ³ ÎµÎ¹Î½
ĠÎºÏģá¾¶ ÏĥÎ¹ÏĤ
ĠÏĢÎ¿Î½Î·Ïģ á½¸Î½
ĠÏĩÎ¹Î»Î¹ á½±
Ġá¼ĢÎ½Ïī ÏĦá½³ÏģÏī
ĠÎºá¼Ģ Îº
ĠÎ²Î¹Î± á½·ÏīÏĤ
Ġá¿¥Î¿Î´ á½·Î½Î¿Ïħ
Ġá¼ĲÎ²Î± ÏĥÎ¯
Ġá¼°Ïĩ á¿¶
Ġconf us
Ġá¼ĶÎ¼ÏĨ ÏģÎ±
á¼ ĵ
Ġá¼Ĳ ÏĨÎ¿Î²
Î³ ÎºÎµÎ¹ÏĦÎ±Î¹
Ïĩ Î±Ïģ
á½¹ ÏĨÏīÎ½
ĠÏĥ Î±Î½
Ġá¼ĲÎ½ Î´ÎµÎ¹ÎºÎ½á½»
á½³Î½ ÏĦÎ¹
ÏĥÎ¹ á¿¶Î½
Ġá¼ĲÎº Î´Î¹Îº
Î´Îµ Î´ÎµÎ¹Î³
Ġá½ĳÏĢ ÏĮ
ĠÎ½ ÏħÎ¼
Ġp hrase
Î¿Î» á¿ĩ
ÏĦÎ¹Îº á¿ĩ
Ġá½ĳÎ³ Ïģá½¹ÏĦÎ·ÏĤ
ĠÎ»Î± Î³
Ġá¼ĶÎ½ ÏĦÎµÏģÎ±
ÏĦÏĦ á½¹Î½
Îµá½¶ Î¼
ĠÎºÏģ á½»
Î´ÏīÎ½ Î±Î¹
ĠÎºÏģá½· ÏĥÎµÎ¹ÏĤ
Ġá¼¡Î¼ÎŃ ÏģÎ±
ĠÏĩÏīÏģá½· á¿³
ÏĢÎ½Î¿ á½´Î½
ear s
Ġá¼ĪÎ½ Î´ÏģÎ¿
á¼ĶÎ½ Î¸Î±
Ġy our
Ġá¼°Î±ÏĦÏģÎ¹Îº á½´Î½
ĠÏĨÎ±ÏģÎ¼Î± Îº
ĠÎºá¼ĢÏĢ á½¶
2 5
I n
g in
s ha
ĠÎºÎ± Î¼
ĠÏĢ Î¿á¿¦
á½· Î´Î±
á½¹ Î¸Î¹
á½» Î³
Î±Ïģ Îµ
ĠÎ² Î¿á¿¶Î½
ĠÎ² Î·Ïĩ
Î¶ á½¹Î¼ÎµÎ½Î¿Î½
Î¶ Î·ÏĦ
Ġá¼ĢÎ½ ÏĦÎ¯
Ġá¼ĲÏĢÎ¹ Î³Î½
Ġá¼ĢÎ½Î± Î²Î±
ĠÏĥÎº ÎµÎ»á¿¶Î½
ĠÏĢÎ¿Î¹ á½¹ÏĦÎ·ÏĦÎ±ÏĤ
Ġá¼ĦÎ½ Î¸Î¿ÏĤ
ĠÎ²Î± ÏĥÎ±Î½
Î¿Ïį Î¼ÎµÎ½Î¿Î¹
ĠÏĦÏģ á½¶ÏĤ
ĠÏĦÎ¿Î¹Î± Ïį
ĠÎ½Î¿Ïĥ Î¿á½»Î½ÏĦÏīÎ½
ĠÏĦÏģá½· ÏĦÎ¿Ïħ
ĠÎ²Î±ÏĥÎ¹Î»Îµ Î¯Î±Î½
Ġbe t
ĠÏĢÎ¹ Îµá¿ĸÎ½
ar y
ĠÎºÎ¿Î¹Î½ á½°
Ġá½ĢÎ½Î¿Î¼á½±Î¶ Î¿Î¼ÎµÎ½
á½µÏĥÎµ ÏĥÎ¹
Î¸Î¹ ÏĥÎµÎ½
ĠÎ´ÎµÏħÏĦ á½³ÏģÎ±
Ġá¼ĲÎ¾Îµ ÏĦá½±
ĠÏĥÎ±ÏģÎº á¿¶Î½
ĠÏĢÏģÎ¿ÏĨ Î·ÏĦÎµ
ĠÎ½ÏĮ Î¼Î¿Ïħ
Ġá½ĢÎ½á½¹ Î¼Î±ÏĥÎ¹Î½
ĠÎºÏħÏģá½· ÏīÏĤ
Ġá¼¤ÎºÎ¿Ïħ ÏĥÎ±Î½
ĠÏĥá½±Ïģ ÎºÎ±ÏĤ
ĠÎ³ÏħÎ¼Î½á½± ÏĥÎ¹Î±
ĠÏĢÎ±ÏģÎ±Î´Îµá½· Î³Î¼Î±ÏĦÎ¿ÏĤ
á¼ħÏĢÎ±Î½ ÏĦÎ±
ĠÏĢá½³ÏģÎ¹ Î¾
ÏĪÎ±Î» Î¼Î±
Ġá¼ĪÎ½Î´Ïģá½¹ Î¼Î±ÏĩÎ¿ÏĤ
ÏĦÎ¹ÎºÏģÏħ ÏĤ
e w
Îº ÏĦá½³Î¿Î½
á½¸ Ïģ
ÏĦÎ± Î»
ĠÏĥ ÏĦÎ·
Î»Î» Î¿
Ġá¼Ķ Ïĥ
ÏĥÎ¸ ÎŃÎ½
ÏĢÎ¿ ÏĦ
ĠÏĢÎ± á¿ĸÏĤ
ÏĥÎº ÏīÎ½
ĠÎºÎ±Î¸ Î¹
ĠÎºÎ±ÏĦ á¿´
Î½Î¿ á½¶
ĠÏĢÏģÎ¿Ïĥ á½±
ĠÎ»Îµ ÏĩÎ¸
ĠÏĪÏħÏĩ á½¹Î½ÏĦÏīÎ½
ĠÎ¼ÎµÏĦ ÏģÎ¹
ĠÏĦÏģá½· Î²
Ġ4 5
Ġá¼ĲÎºÎµá½·Î½ Î¿ÏħÏĤ
ÏĦÏĦÎ¿Î½ ÏĦÎ±
ĠÏĦÏģÎ¹ á½½Î²Î¿Î»Î¿Î½
ĠÎ§ Ïģ
ĠÏĢÏĮ Î´Î±ÏĤ
ĠÎºÏģá½· ÏĥÎµÏīÎ½
ĠÎ¼Î¹ ÏĩÎ¸
ÏĦá½½ Î´Îµ
á½½Î´Îµ Î±
ĠÎ²Î¿á½» Î»
ĠÎºÎ±ÏĦÎ¿Î¹Îº Î¿á¿¦Î½ÏĦÎµÏĤ
ĠÎ¸á½³Ïģ Î¿ÏĤ
ĠÏĩÎµÎ¹Î¼á¿¶Î½ Î¹
ĠÏĢÎ¹ÏĥÏĦÎµ Ïį
ĠÏĥÏĢÎŃÏģ Î¼Î±
Ġcor r
ĠÏĩÎ¹ÏĦ á½¼Î½
ĠÎ´Î¹Î±Î³Î¹Î½ á½½ÏĥÎºÎµÎ¹Î½
2 7
Îµ Î»Î¿Î½
ĠÏĦ ÏħÏģ
Îº ÏģÎ¿Ïħ
á¿ĸ ÏĦÎ¹Î½
Î² Î¿á½»
ÏģÎ¹ á½¹Î½
á¿· ÏĤ
Ġá¼¡ Î»Îº
ĠÎ¸ Î»Î¹Î²
ĠÎ² á½±Î»Î»
ĠÎ´Î¹Î± ÏĥÏĢ
Ġá¼ĲÎ¾ á½µÎ³Î·ÏĥÎ¹Î½
ĠÎºÎ±Î¸ á½µ
Ġs ay
ĠÏĢÎ» ÎŃÎ¿Î½
ÎŃÎ½ Î±Î½ÏĦÎ¹
ĠÏĢÎ¿Î¹ Îº
ĠÏĢÎ¿Î¹ Îºá½·
ĠÏĢÏģÎ¿Ïĥ á½³ÏĩÎµÎ¹Î½
ĠÏĢÎµÏģÎ¹ ÎŃ
Î³Î³ ÎµÎ¹Î»ÎµÎ½
is e
ĠÏĢÎµ ÏĢÎ¿
ÏĥÎ¼ á½¸ÏĤ
Ġm ost
ĠÎ¿á¼° Î´
Ġl et
Ġá¼ħÏĢÎ±Î½ ÏĦÎ¹
ĠÎ¤ Î¬Î´Îµ
ĠÏĢÎ¹ á½³
ĠÏĢÎ±Ïĩ á½»
Ġá½ĢÎ½ á½·Î½
ĠÏĨÎ»ÎµÎ³Î¼Î¿Î½ á½´
ab le
ĠÏĦÎ±Ïĩ á½º
ÏĢÏĦÎ¿Ïħ ÏĥÎ¹
id e
ĠÎĽÎµÏħ Î¹
ĠÎ´Î¹ÏĦÏĦ á½¸Î½
ĠÎºÎ±ÏĦÎ±ÏĥÏĦá½± ÏĥÎµÏīÏĤ
ĠÎ´á½³Î¿Î½ ÏĦÎ±Î¹
ĠÎ¼ÎµÏĥ Î¿ÏĢ
Ġá¼ĲÎ½ÎµÏĦÎµá½· Î»Î±ÏĦÎ¿
A R
Ïģ á½±Î½
ĠÏĦ Î·Î»
ĠÎº ÎµÎ¹
Ïī ÏģÎ±
ĠÏĢ Î®
Î¸ á¿³
ĠÎ¼ Î¿Î»
ĠÎ¼ Î±Î½Î¸
Î¿Ïħ Î¼á½³Î½Î·ÏĤ
ĠÎ± Î´ÏīÎ½Î±Î¹
á½¹ ÏĦÎµÏĤ
ĠÎ´Î¹ á¿ĨÎ»Î¸ÎµÎ½
ÎºÎ± Î»á½³
ĠÏĨ Ïģá½·
Ġá½ĳÏĢ Î±
ĠÏĩÏģ á¿¶Î¼Î±
ĠÏĢÎ± Î³
Ġá¼ĲÎ¾ Î±Î½
Î»Î· ÏĨÎ¸
á¼Ĳ Î´Îµá½·ÏĩÎ¸Î·
ĠÎµá¼´ ÏĢÏī
Î´Î¹ á½±
ĠÏĥÎº ÏĮ
ĠÎºÎ±ÏĦ á½±Î³
ĠÎ»Îµ Î³ÎµÎ¹
Ġá½ĳÎ³ Ïģá½¹Î½
ĠÏĢÎµ ÏĨ
ĠÏĢÎµ ÏĦÎµÎ¹Î½
á½³Ïĩ Î¿Î½
Ġá¼± Î¼Î¬
ĠÎºÎ¿ ÏĢ
ĠÎºÎ¹Î½ Î¿á½»Î½ÏĦÏīÎ½
ĠÎ¿á¼¶ Î´ÎµÎ½
Ġn or
ĠÎ¼Î¹Îº Ïģá¿·
Î¿á½· ÏĥÎµÎ¹
ĠÏĢÏħÏģÎµ ÏĦá¿·
ĠÎ±Ïħ ÏĦÎ¿ÏĤ
ĠÎ´Î¿ Î¾
Ġit em
ĠÏĦÎ¿á¿ĸ ÏĥÎ´Îµ
ĠÎºá½¹ ÏĢ
ĠÎ±á¼°ÏĥÎ¸ á½±Î½ÎµÏĥÎ¸Î±Î¹
Ġá¼ĲÏģÎ³á½±Î¶ Î¿Î½ÏĦÎ±Î¹
Ġá¼ĦÏģÏĩ ÎµÏĦÎ±Î¹
ÏĥÏĦÏģÎµ ÏĨ
ĠÏĩÏħÎ» á¿·
ĠÏĥÏĦÎ¿ Î¼Î±
ĠÎ´Î¹Î±Î¹ Ïģ
Ġá¼ģÎ³ Î¯ÏīÎ½
ĠÏĩÏģá¿Ĩ ÏĦÎ±Î¹
Ġá¼ĢÎ´ÎµÎ»ÏĨÎ¿ Î¯
Ġá¼ĢÎ¼á½³ ÏĦÏģÏīÏĤ
Ġá½ĦÏģÏĩ ÎµÎ¹ÏĤ
ĠÎ¸Î±Î½á½± ÏĦÎ¿Ïħ
ĠÎ¿ÏħÏĦ ÏīÏĤ
ĠSt ich
á½§ Î½
Îµ ÏĢ
Ïĥ Î¼Î¿á½¶
ÏĢ á½±Î»Î¹Î½
ĠÎº Î·
ĠÎºÎ± Îºá½¹
ĠÏĢ Ïī
Î¸ á½¹Î½
Î³ ÎºÎ±
ĠÎ± ÏĢÎ±
ĠÎµ ÏħÎ»Î¿Î³
ÎµÎ½ Î±Î½
Î¼Î± Î¯
Î¾ á½¶Î½
Ġá¼Ķ Î´Îµ
ĠÎ» á½µ
Ġá¼Ħ ÎºÏģÎ±
ÏĢÎ¿ á½¶
ĠÎ¼Îµ Î¼Î±
Î¶ á½¹Î½ÏĦÏīÎ½
ĠÏĢÎ¿ Î¯
ĠÎ´Î¹Î± ÏĩÏī
ĠÏĩÏģ Î®
ĠÎĳ Î¹
ÏĦÎµÏģ á½±
Ġá¼° Î¿á¿¦
ĠÎºÎ±Î¸ Î±Î¹Ïģ
á¼Ģ ÏĨ
ĠÏĢÎ±ÏģÎ± Î³ÎµÎ½
ÏĦá½· Î¿Ïħ
ÏħÎ³ Î¼á½³Î½Î¿Î½
or t
á½³Ïĩ Î¸Î±Î¹
Ġf a
ĠÏĢÎ»Îµ ÏħÏģÎ¹
ĠÏĢÎ¿Î» ÎŃ
ĠÏĦá½¹ ÏĢÏīÎ½
Î»Î¸ ÏīÎ¼ÎµÎ½
Ġá¼ĲÎ¼ ÏĢÎ¿
Ġá¼ĢÎ½Î±Î³ Î¹Î½
ÏĦÎ¯ ÏĤ
ÏģÎ¬ Î¹Î¼
ĠÏĦÎŃ ÎºÎ½
ĠÎ¿á½ĲÎ´Îµ Î¼á½·Î±
ĠÎĸ Î±
Ġá¼ĢÎ½Î´Ïģ á½¶
Ġá½¤ ÏĦÏīÎ½
Ġá¿¥á½·Î¶ Î±
ĠÎ´ÏįÎ½Î± ÏĦÎ±Î¹
ĠÏĥÏĦá½» ÏĪÎµÏīÏĤ
ĠÏĦá½³Î½ ÏīÎ½
ĠÏĥÏĦÏĮ Î¼Î±ÏĦÎ¿ÏĤ
ĠÎ¼ÎµÏĦÎ±Î²Î¿Î» á¿ĨÏĤ
ĠÏĦÎ¬ Î´Îµ
ĠÏĢÎ¿ÏĦÎ± Î¼Î¿á¿¦
Ġá¼ĢÏĥÏĨÎ±Î» á¿¶ÏĤ
ĠÎºá½½ Î»Î¿Ïħ
ĠÎ¼á½³Î»Î»Î¿Î½ ÏĦÎ±
ĠÎ¾á½» Î»Î¿Î½
Ġcor respond
Ġá¼ĶÎ½Îµ ÏĥÏĦÎ¹
Ġali q
A BBREV
d e
i a
l ess
m m
Ġ ÏīÎ½
ÏĦ á½´ÏĤ
Îµ á½¶ÏĤ
ĠÏĢ á½»Î»
Ïĩ Î·Î½
ĠÎ± Î´Î¹Îº
Î¼Î± ÏĦá½¹ÏĤ
Î¯ ÏĥÎ±Î¹
Ġá¼ĲÎº ÏĦÎ±
Ïģá½· Î¸Î·
Ġt r
Ġt im
ĠÎ½ ÏħÎ½á½¶
he d
Ġá¿¥ Î¿Î¹
ÏĢÎµ Î¯
ĠÎ¸Îµ Î±Ïĥá½±
ĠÎ¸Îµ ÏīÏģá½·Î±ÏĤ
ĠÎ¾ ÏħÎ¼
á½±Î» Ïħ
Ġá¾ Ĳ
Ġá¼ĲÏĨ Î±
ĠÎľ ÎµÎ¹
ĠÎºÎ¿ á½¶
ĠÏĢÎ±Î½ ÏĦÎ±ÏĤ
Ġá½ħÎ» ÏīÎ½
ĠÏĢá½¹ Î´Î±ÏĤ
Î»ÎŃ Î³ÎµÎ¹
ĠÎ¾Î· Ïģá½¹ÏĦÎµÏģÎ¿Î½
ĠÎ³Î¹Î½ Î¿Î¼á½³Î½Î·
ĠÎ»ÏĮ Î³ÏīÎ½
Ġá½ĳÏĢÎµÏģ Î·
ĠT his
ĠÎ±á¼´ ÏĦÎ¹Î±
Ġhe r
á½¹ÏĦÎ± ÏĦÎ¿ÏĤ
Ġá½¦ Î¼Î¿Î½
Ġá¼ĲÏĢÎ± Î³Î³ÎµÎ»
ÏĦÎµá¿ĸ Î½Î±Î¹
ĠÎ´Î¹Î±Î¹ ÏĦ
qu e
ĠÎ¸Î± ÏħÎ¼
ĠÏĦÎ±Ïį ÏĦá¿ĥ
ĠÏĥÏĦÎ¿Î¹Ïĩ Îµá¿ĸÎ¿Î½
ĠÎ³Î½ÏīÏģá½· Î¶ÎµÎ¹Î½
ĠÎ¸ÏħÏĥÎ¹Î±ÏĥÏĦ Î·
ĠÎ¼á½³Î»Î» ÎµÎ¹
ĠÎ±á¼±Î¼Î¿á¿¤á¿¥Î±Î³ á½·Î±ÏĤ
Ġá¼ĢÏĨÎ¿ÏģÎ¹ÏĥÎ¼ á½¸Î½
Ġá¼ĲÏĢÎ¹ÏĨá½³Ïģ ÎµÎ¹
ĠÏĨÎ±Î½ÎµÏģ á¿¶ÏĤ
ĠÏĢÏĮÎ»Îµ Î¼Î¿Î½
Ġá¼ĶÎ¼ÎµÎ»Î» ÎµÎ½
Ġá¼ĶÏģÎ· Î¼Î¿Î½
ĠIs rael
c on
Î¿ ÎĲ
á¼ ĥ
Ïĥ Î¼Î±ÏĦÎ¹
Îº Î¿á½»
Ġá¼Ĳ Î´á½¹
ĠÏĢ á½³Ïģ
Ïĩ á½»
Ġá¼Ģ Î¾
ĠÎ¿ ÏģÎ³
ĠÏĥ ÏĦÎ·Ïģá½·
Î¯ ÎºÎ±
á½³Î½ ÏĦÎ±ÏĤ
á½µ Î¸Î·ÏĥÎ±Î½
ÏĥÎ¸ Î¹
ĠÎµá¼° Î´á½¹
Ġá¼ĲÎº ÎºÏģÎ¹Î½
ĠA R
Ġá¼ĲÏĥÏĦ Îµ
Ġá¼ĢÏĢ ÎµÏĥÏĦ
ĠÏĦÎ¹ Ï²
ĠÎµá¼¶ ÏĩÎµ
Ġá¼° á½³Î½Î±Î¹
Ġá¼° á¾¶ÏĦÎ±Î¹
Ġá¼ķ Ïģ
Î¸Î· ÏĦÎµ
ĠÎºÎ±ÏĦÎ± ÏĨá½»
ĠÎºÎ±ÏĦÎ± ÏĨÏģÎ¿Î½
ÏĦÎ¹Îº á½±
á¼° Î¿á¿¦
ĠÏĢÎ¿Î¹ Î®ÏĥÎµÎ¹
ĠÏĢÎµÏģÎ¹ ÏĨÎµÏģ
ĠÏĢÎµ ÏĨá½»
ĠÎ³ÎµÎ½ Î½Î±
Ġá¼¥ Î»Î¹Î¿ÏĤ
ĠÎ¼á½µ ÎºÏīÎ½Î¿ÏĤ
Î¯Î½ Î·ÏĤ
ou gh
Î¿ÏĨ Ïħ
ĠS o
ĠÏĨÎ»ÎµÎ³Î¼Î¿Î½ Î±á¿ĸÏĤ
Ġse c
ĠÎ²Î»á½± Î²Î·
ĠÎ±á¼°ÏĥÎ¸ á½µÏĥÎµÎ¹
ÏĪÎ± ÏĦÎµ
nt ly
Ġá¼ĢÎ¸ Î»Î·
Ġá¼ĢÎ»Î·Î¸ Îµá½·Î±ÏĤ
Ġá½ĢÎ´á½»Î½ Î±ÏĤ
Î³Î½Ïħ ÏĥÎ¸Î±Î¹
ĠÎµá½ĲÏĨ ÏģÎ±Î½
ĠÎ¼ÎµÏĦÎ±Î²Î¿Î» á½´Î½
Ġá¼ĲÏĢÎ¿Î¹ á½µÏĥÎ±ÏĦÎ¿
ĠÏĢÎ»Î·Î¸ ÏīÏģÎ¹Îº
ĠÎºá¼Ģ Î³á½¼
ĠÏĢÎ¿Î»ÏħÎµÎ¹Î´ á¿¶ÏĤ
ÏģÎ¹ÏĥÏĦÎ¿Î»Î¿Ïĩ á½·Î±ÏĤ
Ġunt o
ĠÎ¼Î±Î»Î¸ Î±Îº
o ve
Î½ Î¿Î¹
Î¿ ÏĥÎ¹Î½
Îµ á½ĳ
Îº ÏģÎ¿
ĠÎºÎ± Î»Î»
á½± ÏĥÎµÎ¹ÏĤ
ĠÎ´Î¹ Îº
Ġá¼ĲÏĢ Îµá½·
Ġá½ĳ Îµ
Ġá½ĳ Î¼Î½
á½½ ÏĦÎµÏģÎ¿Î¹
ĠÎ¼Îµ ÏĦÏģ
ĠÎ±á¼ ¶
ĠÏĢÎ± Î¸Îµá¿ĸÎ½
ÏģÎµ ÏĥÎ¹ÏĤ
ĠÎ±á¼° Î´Î¿
ĠÎ»Îµ Î»
Ġá¼Ī Î¶
ĠÎºÎ±Ïģ Î´Î¹Î±
Ġf ound
á¼Ķ ÏĢÎµÎ¹ÏĦÎ±
ĠÏĦÎ¿Ïħ ÏĦá½¶
Â° )
ĠÎ¼á½¹ Î³Î¹ÏĤ
Ġá¼ĲÎ» ÏĢá½·
Îł Ïģá½¸ÏĤ
Ġha th
Î¿Î¼ÎŃÎ½ Î¿Î¹ÏĤ
Ġá¼ĲÏģÎ³ á½±
Ġá¼ĳÏĦá½³Ïģ ÏīÎ¸Î¹
ĠÎ»ÎµÎ¹ ÏĢÎ¿
Ġ30 6
ĠÎ½á½¹Ïĥ Î¿ÏħÏĤ
Ġá½¤ Î¼Î¿
Ġá¼ĲÎ³ÎºÎµÏĨá½±Î» á¿³
ĠÏĦÎµÏĦá½±Ïģ ÏĦÎ·ÏĤ
ĠÏĦá½³Î½ Î¿Î½ÏĦÎ±
Ġá¿¥Î¹Î½ á½¸ÏĤ
ĠÎºÎ±ÏĦÏī ÏĦá½³ÏģÏī
ĠÏĥÎºá½· á¿¤á¿¥
S ee
ÏĦ ÏħÎ»
á¿ Ĵ
ĠÏĦ Î¼Î·
Î» ÏĢÎ¹
Î¼ Î·ÏĥÎ±Î½
Î¸ á½¼Î½
Î² Î·Î½
Î¯ Î´ÏīÎ½
Ġá¼Ķ Î³Î½
ÏĦÎ· Î³
á½¹Î½ Î´Ïħ
ĠÏĢÏģÎ¿ Î±á½·ÏģÎµÏĥÎ¹Î½
Ġá¼ĢÏĢ á¿ĨÎ»Î¸ÎµÎ½
ĠÎ¿á½ĲÎ´ ÎµÎ½á½¶
á½¼ Ïģ
ĠÎºÎ±ÏĦÎ± ÏĨÎµÏģ
ĠÎ¼á½³ Î»Î±Î½Î±
ĠÎ»Îµ Î»ÎµÎ³
it ies
ĠÏĪÏħÏĩ Ïģá½°Î½
Ġw ere
ÎºÎµÎ¹ Î¼á½³Î½ÏīÎ½
ĠÏĦÏģ ÏħÎ³
Ġá¼ĲÏģ ÏħÎ¸
ÏīÎ¸ á½µÏĥÎµÏĦÎ±Î¹
ĠÎ³Î½ á½±
Îĳ Q
Îĳ ÎĻ
Î»Î±Î² Îµá¿ĸÎ½
ĠR áµĥ
Ġá½ĢÎ½ ÎµÎ¹
ĠÎ»ÎµÏĢÏĦ á¿¶Î½
Ġá¼ĢÎ³Î³ Îµá¿ĸÎ±
ĠÏĦÎ±Ïĩ á½³ÏīÎ½
á½³Î» Î¿ÏħÏĤ
ĠÏĢÏħÎºÎ½ á½¹ÏĦÎ·ÏĦÎ±
ĠÏĦÎµÎ»ÎµÏħÏĦ á¿ĩ
ĠÎ²Î±Ïģ ÏħÎ½
ĠÎºÎ½ á½µÎ¼Î·Î½
ĠÏĢÏģÎ¿ÎºÎµÎ¹ Î¼á½³Î½Î·ÏĤ
ĠÎ³ÏģÎ±ÏĨ á½´Î½
Ġá¼© Ïģá½¹
á½ķ Î´Î±
ĠÎ³á½±Î»Î± ÎºÏĦÎ¿ÏĤ
ĠÏĢÎ½ÎµÏį Î¼Î±ÏĦÎ¹
ĠÏĨÏħÏĦ á¿¶Î½
Ġá¼ĢÏĢÎ¿Î² Î»á½³
ĠÏĥÎ·Î¼Î±Î¹Î½ á½¹Î¼ÎµÎ½Î¿Î½
op le
Ġá¼ĲÎ½Î±Î½ÏĦ á½·Î±ÏĤ
Î»ÏĮ Î³
ĠÎºÎ±ÏĦÎ· Î³
Ġá¼Ħá¿¤á¿¥Ïī ÏĥÏĦÎ¿Î½
ĠÎ¶á¿´ ÏīÎ½
Ġgener ally
ĠÏĦÏģá½·Ïĩ Î±ÏĤ
ĠÎłÎ¿Î½ ÏĦÎ¹ÎºÎ¿á¿¦
ĠÏĥÎºÎµá½» Î·
Ġá¼¶Î½ Î±ÏĤ
c es
Î¿ Î»Î»
Ïģ á¿ĥ
Î» Î±Î¹ÏĤ
Î¼ Î·Ïģ
Ïĩ Î¿Î»
Î´ á½µ
ÏģÎ± ÏĦÎ±
ĠÏĨ á½±
ĠÎ¸ Ê¼
ĠÎ² á¿ĨÏĩ
Ġá¼ĲÎº ÎºÎ±Î¸Î±á½·
Î´Îµ Îº
Î´Îµ á½»ÏĦÎµÏģÎ¿Î½
Î·Ïĥ ÎµÎ¹ÏĤ
Î¼Îµ ÏĦ
ÏĦÎ¿Î¹ ÏĥÎ¹
ÏĢÎµ ÏĢÏĦÎ¿Î½
ĠÎºÎ±ÏĦÎ± ÎºÎ»
ÏĥÏĦÎ± ÏĤ
ÏĦÎ¹Îº á½µ
ĠÎļ Î±Ïģ
ĠÏĢÎ¿Î¹ á½¹ÏĦÎ·
ĠÎµá½Ĳ ÎºÏģá½±
ĠÎµá½Ĳ Î»Î±Î²
Ġá¼ĦÎ½ ÏĦÎ¹ÎºÏģÏħÏĤ
Ġá½ĳÎ³ Ïģá½¹ÏĦÎ·
ĠÏĢÎµ ÏĢÎ±
ĠÏĢÎµ Î´á½·
ĠÏĢÎµ Î»Î¹Î´
ĠÎ¿á½Ķ ÏģÎ¿Î¹ÏĤ
ĠÎ³ÎµÎ½ Î¿Î¼á½³Î½Î¿Ïħ
Ġá¼´ Î½Î±
ĠÎ¸ÎµÏģÎ¼ á½¹ÏĦÎ·ÏĤ
ĠÎĴ Î±Ïģ
ÏģÏĩ ÎµÏĦÎ±Î¹
ÏĨÎ± Î³
Î¾Î± ÏĦÎµ
á½±Î¶ ÎµÎ¹
Ġ4 7
Ġá¼ł Ïģ
ĠÏĦá½¹ ÏĢá¿³
ĠÏĦÏģÎ¹ Ïĥá½¶Î½
ĠÏĥÎºÎ»Î· Ïģá½¹ÏĦÎ·ÏĦÎ±
Ġá½ĢÎ´ á½¹Î½ÏĦÎ±ÏĤ
ve l
ĠÏĢÎ½Îµá½» Î¼ÏīÎ½
ĠÏĦÎ¿Ïį ÏĦÎ¿ÏħÏĤ
ĠÏĩÎ±Î» Î²
Ġá¼¡Î¼ÎŃ ÏģÎ±Î¹
ĠÏĥÏħÎ½ÎµÏĩ á¿Ĩ
ÏĪÎ±Î½ ÏĦÎ¿ÏĤ
Î®Î¼ ÎµÏģÎ¿Î½
ĠÎºÏģÎ± ÏĦÎ±Î¹
ĠÎ´Î±ÎºÏĦá½»Î» Î¿Ïħ
ÏĢá½± Î½Î±ÎºÎ¿ÏĤ
Ġá¼ĲÎ´Îµá½· Î¾Î±Î¼ÎµÎ½
á½³ÏĥÏĦÎ± ÏĦÎ±
Ġá¼ĢÏĢÎ¿Î»Îµá½· ÏĢÎµÏĦÎ±Î¹
Ġá½łÏĨá½³ Î»ÎµÎ¹Î±Î½
ĠÏĨÎ»ÎµÏĪ á½¶
sel f
B áµĩ
Î» Î¯Î¿Ïħ
Ïī Î¼
ĠÎ´ Î±Î¹
ĠÎ´ Î¿á½»
Î¹Î½ ÏĦÎ¿
ĠÏĥ ÏįÎ½
á½» Î¿ÏħÏĥÎ¹Î½
ÏĥÏĦ á½·
Î¯ Î´Î¿ÏĤ
Îµá¿ĸ ÏĢÎ¿Î½
ĠÎ» ÏħÏĦ
Î¬ Ïĩ
á½½ ÏģÎ¿Ïħ
Î»Îµ ÏĥÎ±Î½
á½±Î½ Î¸Î¿Ïħ
Î´Îµ ÏĥÏĦ
ĠÏĥÏħÎ½ á½·ÏĥÏĦÎ±ÏĦÎ±Î¹
á½·Î½Îµ ÏĥÎ¸Î±á½·
ĠÎ£ Î¯Î¼ÏīÎ½
Ġá¼´ Î´
ĠÏħá¼± á¿·
ĠÎľ ÎµÎ»
ĠÎ´Ïħ ÏĥÎµ
Ġá½ĳÏĢá½±ÏģÏĩ Î¿Î½ÏĦÎ±
ĠÏĥÏħÎ½Îµ ÏĢÎ¹
ĠÎ¼ÎŃ Î³Î±
Ġá½ĦÎ½ ÏĦÎ±ÏĤ
ĠÎºÎ±Îº á½¹Î½
ĠÏĢÏĮ Î»Î¹ÏĤ
Î»Îµá½· Î¿Î¹ÏĤ
ĠÎ´Î¹Î±Î¸á½³ ÏĥÎµÏĥÎ¹Î½
ĠÏĢÎ»Îµá½· ÏĥÏĦÎ¿Ïħ
Ġá¼ĢÏĢá½¹ Î»Î»Ïħ
ĠÎ²Î¹Î²Î»á½· Î¿Ïħ
Ġá¼ĦÏģÏĩ Î¿Î½ÏĦÎ±ÏĤ
Ġá¼ĢÎ½Î±ÏĥÏĦ Î¿Î¼
ĠÎ½Ïī ÏĦÎ¹Î±
Ġá¼ĲÏĢÎ¹Î³ á½±ÏĥÏĦÏģÎ¹Î¿Î½
ĠÎ³Î»á¿¶ ÏĦÏĦÎ±Î½
ĠÎ¸Î±Î½Î± ÏĦ
Ġá¼Ŀ Î»Î»
Ġá¼ĪÏģÎ¹ÏĥÏĦÎ¿ÏĦá½³ Î»Î·ÏĤ
Ġá½łÎ¼Î¿ÏĢÎ»á½± ÏĦÎ·ÏĤ
ĠÏĥÏĢÎ»á½±Î³Ïĩ Î½Î¿Ïħ
ĠÎºÎµÏģÎºá½· Î´Î¿ÏĤ
ĠÏĥÏħÎ¼Î²Î¿Ïħ Î»Îµá½»
ĠÎ´Î¹á½±Î½ Î¿Î¹Î±Î½
Ġá¼ĢÎ»á½» ÏĢÏīÏĤ
ÏĦ á¿¶ÏĤ
Î¿ ÏĦá½³ÏģÎ±Î½
Îº á½¹ÏĤ
Ïī ÏĦá½³ÏģÎ±Î½
ĠÏĢ á½·Î½ÎµÎ¹Î½
ĠÎ¼ á½±Î½
ĠÎ³ Î»Î¹
ÏĥÏĦ Î¿á¿¦
Î»Î» Î±Î³
Ġá¼ĲÏĢ Î¿Ïħ
ĠÎ» á½·Î±Î½
ĠÏĦÎµ ÏĥÏĥÎ±ÏģÎ±
Ġt ake
Î·Ïĥ Î¿ÏħÏĥÎ¹Î½
Ġp oin
Ġá¼ĢÏģ ÏĥÎµÎ½
Ġá¼ĶÏĩ ÎµÎ¹ÏĤ
ÏĦÎ¹Îº Î¿á½¶
â¸ Ĥ
ĠÏĢÎ¿Î¹ Î¿á¿¦ÏĥÎ¹Î½
ĠÎµá½Ĳ Ïģá½»
ĠÏĢÎ¿Î»Î» á½±
Ġá¼ĢÎº Î¼á½´Î½
Îµá¼° Îºá½¹ÏĦÏīÏĤ
ĠÏĥÏĨ Î±Î³
Ġá½ħÎ» á¿ĥ
ou b
Ġá¼ģÏĢ ÏĦÎ¿
ĠÎ¼Î¹Îº Ïģá½°Î½
ĠÏĢÎ¬Î½ Ïħ
ĠÏĦÏģá½· ÏĦá¿ĥ
Ġá½ģÎ¼Î¿ á½·Î±Î½
Ġá¼ĦÏģ ÏĦÎ¿ÏħÏĤ
ĠÎ¸ÎµÏģÎ¼Î± Ïĥá½·Î±
Ġe ver
Ġá½ĢÏĨÎ¸Î±Î» Î¼á½¸Î½
ĠÎºÎ¿Î¹Î½ á½´Î½
ĠÎºÎ¿Î¹Î½ á¿ĩ
Ġse q
Ġor d
ĠÎ¶Î· ÏĦÎ·
Îµá¼´ ÏĦÎµ
Ġá¿¬ ÏīÎ¼Î±
ĠÎ»Î±Î¼Î² á½±Î½ÎµÎ¹Î½
ĠÎĳá¼°Î³ ÏħÏĢ
ĠÏĪá½» Î¾Î¹ÏĤ
ĠÎ¿Î¹Îº Î¿Î½
Ïĥá½± Î¼ÎµÎ½Î¿ÏĤ
Ġá¼ĲÎ¾Î± ÏĢÎ¿ÏĥÏĦ
ĠÎºÎ±ÏĦÎ¿Î¹Îº Î¿á¿¦Î½ÏĦÎ±ÏĤ
ĠÎ´Î¹á½³ Î¾
ĠÏĢÏģÎ¿ÏĥÎ·Î³Î¿Ïģá½· Î±ÏĤ
Ġá¼ĢÎ¼ÏĢ ÎµÎ»
Ġá¼ĢÎ»Î»Î¿á½· ÏīÏĥÎ¹Î½
a x
Ġ áµĥ
Î¿ á¼°
Î¹ Î¬
Ïģ ÏīÏĥÎ¹Î½
ĠÏĦ Î¯Î½
Ïħ á½·Î±ÏĤ
Î· ÏģÎ±
ĠÎ´ Î®
ĠÎ¿ ÏĤ
ĠÏĥ Î²
á½» ÏĥÎ±ÏĤ
ÏĥÏĦ Î¬
Ġá¼Ķ Î¼Î±
ÎŃ ÏĤ
ĠA D
ÏĦÎµÏģ á½¹ÏĤ
á½·Î½ Î´ÏħÎ½
Ġá¼ĢÏĢÎ¿ ÎºÎ±Î»
re w
Î³Î¿Î½ ÏĦÎ±ÏĤ
ĠÎ¸Îµ á¿¶Î½
ĠÏħ Î¼Î±ÏĤ
ĠÎ´ÏģÎ±Ïĩ Î¼á½´Î½
Ġá¼± ÏĢ
ĠÏĢÎ»Îµ á½·ÏīÎ½
á½·Î¶ ÎµÎ¹
ĠÎµá¼°Ïĥ á½·Î½
ĠÎµá¼°ÏģÎ· Î¼á½³Î½Î±ÏĤ
Ġd is
Î»Î¸ Î¿Î¹
ĠÏĥÏħÎ¼ÏĢ Î»Î·
Ġá¼°ÏĥÏĩÏħÏģ á½°
ĠÏĦÎ¿Î¹Î±á½» ÏĦá¿ĥ
ĠÎ³Ïģá½± ÏĪÎ±ÏĤ
Ġá¼ĢÎ»Î»á½µÎ» Î¿ÏħÏĤ
ĠÎ±Î½ Î¿Î¼
Î¯Î¶ ÎµÎ¹Î½
Ġá¼ĦÏģÏĩ ÎµÏĥÎ¸Î±Î¹
Ġá¼ĢÏģÎ¹Î¸ Î¼á½¸ÏĤ
Ġá¼ĢÎ½á½³ Î²Î·
ĠÎ»Î¹Î¸ á½±ÏģÎ³
Ġá¼ĢÎ»Î»Î¿ ÏĦÏģá½·
ĠÎµÎ» Î±Î»
Ġman y
ĠÎ²Î¹Î²Î»Î¯ Î¿Î½
ĠÎºÎ¿Ïħ ÏĨ
2 âģ°
Ġá¼ ¶
ĠÏĦ Î±Î»Î±Î¹
Î³ á½³Î³ÏģÎ±ÏĢÏĦÎ±Î¹
Ġá½ĳ Î¼á½³Î½ÏīÎ½
Î¶ Î¿Î¼ÎµÎ½
Î¹Îº á½´
Ġá¼ĢÎ½ ÏīÎ´
ĠÎ½ Ïį
Ġá¼ĲÎ¾ á¿Ĩ
Ġá¼ĲÏĢÎ¹ ÏĥÎ·Î¼Î±
ÏģÎ· Î¼
ÏĥÎ±Î½ ÏĦÎ¹
ÎŃÎ½ ÏĦÎ±
ĠÎļ ÏģÎ·
ĠÎºÎ±ÏĦ ÎµÎ¹
Î¸Îµ ÏĥÎ¹
Ġc an
Ġw ay
ĠÎľ Î±Î½
Î»Î»Î¿Î½ ÏĦÎ±Î¹
Î²Î± ÏĦÎ¿Î½
Ġá½ł Ïĩ
Ġá¼ĲÏģ á½µÎ¼
ĠÎ²Î±ÏĥÎ¹Î»Îµ ÏįÏĤ
ĠÎ±Ïħ ÏĦÎ±
Ġ5 1
ĠÎ»á½³ Î¾ÎµÎ¹
im il
â¸ĥ Â·
ĠÎ´Î¹Î±Î¸á½³ ÏĥÎµÎ¹
ĠÎ³Î¹Î³Î½ á½½ÏĥÎº
ĠÎ´Î¹Î´ ÏĮ
ÎºÎ±á½· Î´ÎµÎºÎ±
ĠÏĦÏģÎ±Ïĩ Îµá½·Î±ÏĤ
Î²Îµ ÏĥÏĥÎ±Î»
ĠÏĢÏģÎ¿Ïĥá½µ ÎºÎ¿Î½ÏĦÎ¿ÏĤ
ĠÎ²Î¿á½» Î»ÎµÎ¹
Ġá¼ĦÎº ÏģÎ±ÏĤ
ĠÏĢá½¹Î½ Î¿ÏħÏĤ
ĠÎ´Î¹Î±á½· ÏĦá¿ĥ
ĠÎ´Î¹ÏĦÏĦ á½´Î½
Ġá½ĢÏĥÎ¼ á½´Î½
Ġá¼ĲÎ´á½µÎ» ÏīÏĥÎµÎ½
Ġá¼ĢÏģÏĦá½· ÏīÏĤ
ĠÎĳá¼´ Î³ÏħÏĢÏĦÎ¿Î½
ĠÏĦÏģÎ¿Ïĩá½·ÏĥÎº Î¿ÏħÏĤ
Ġpe ople
á½ ĸ
Î¹ Î³Î³
ĠÏĦ Î·Ïģ
Îº Î¹Î¿Î½
á½³ Îº
ÏĦÎ± ÏħÎ¸
ĠÎ± ÏĨ
Î¹Î½ Î±Î¹
Î² ÎµÎ¹Î±Î½
á½³Î½ ÏīÎ½
Ġá¼Ķ Ïĥá¿ĥ
ÏĥÎ¸ á½²Î½
ĠÎ» Î¿Î²
ĠÏĩ á½½ÏģÎ±
ÏģÎ¹ Î¼
Ġá¼ĲÎº ÏĦÎµÎ¹Î½
ĠA ss
ĠÏĢÏģÎ¿ Î³Î¹Î½
Ġ( .
Î»Î¹ Î¸
ĠÏĦá¿ĩ ÏĥÎ¹
Ġá¼ĢÏĢÎ¿ Î´á½³Î´ÎµÎ¹ÎºÏĦÎ±Î¹
á½¹Î¼ÎµÎ½ á½¹Î½
ĠÏĢÎ» Î¿Ïħ
Ġá¼ĢÎº á½·Î½Î·
ĠÎ¼Î· Îº
ĠÎ£ Î¿Ïħ
Î¬Î½ Ïī
ĠÎºÎ±Î» Î¿á½»Î¼ÎµÎ½Î±
ÏĥÏĦÎµ Ïį
ll el
ÎµÎ¹Î´ á¿Ĩ
ĠÎ³á½³Î½ ÏħÎ¿ÏĤ
ĠÎ¼á½± Î»Î±
Ġ4 6
ĠÎ´Î¹Î±ÏĨÎ¿ Ïģá¿¶Î½
ĠÏĦá½¹ ÏĢÎ¿ÏħÏĤ
Ġá½ĢÏĥÏĦ á½³Î±
ion s
ĠÎ»á½· Î¸Î¿ÏħÏĤ
ĠÏĩÎµá¿ĸ ÏģÎ¬
us al
ĠÏĨÎ»ÎµÎ³Î¼Î¿Î½ á¿¶Î½
ÏĥÎºÎµÏħ á½±
ĠÏĥÎ¹ Î´Î·
ÏĦÎ¿á½» ÏĦá¿³
Î¬Î¶ ÎµÎ¹Î½
Î²Î±Î» á½¼Î½
Ġá¼ĢÎ»Î·Î¸ Î¹Î½
ĠÎ³Î»ÏħÎº Îµá¿ĸ
ri an
Ġá¼ĲÏĢÎ¹Î¸ÏħÎ¼ Î·
Î¿Î¹Î½ ÏĦÎ¿
ĠÎºá¾ĢÎº Îµá½·Î½
ĠÎ¸ÏħÏĥ á½·Î±Î½
ĠÎ´Î¹Î´á½±ÏĥÎº ÎµÎ¹Î½
ĠÏĨÎ¹Î»Î¿Ïĥ á½¹ÏĨÏīÎ½
ĠÎ¿á½ĲÎ´á½³Î½ Î±
ĠÏĨÏħÏĥ á¿¶Î´ÎµÏĤ
Ġá¼¹ÏĢÏĢÎ¿ÎºÏģÎ¬ ÏĦÎ·ÏĤ
ĠÎ»á½±Ïģ ÏħÎ³Î³Î¿ÏĤ
Ġá¼ĺÏĨ ÏģÎ¬Î¹Î¼
ĠÎ¸Î±ÏħÎ¼á½±Î¶ ÎµÎ¹Î½
ĠÎ¸Î·ÏģÎ¹ Î±Îº
á½¹Î½Î´Ïħ Î»Î¿Î½
. '
Î¹ Î¿Ïħ
Î¼ Î¬Ïģ
ÏĦÎ± ÏĥÎ¹ÏĤ
á½¹ ÏģÎ¿Ïħ
ÎµÎ¹ Î±ÏĤ
ÎºÎ± ÏĦÎŃ
ÏģÎ¹ Î¿Î¹
Î½Î± Î¯
á½¹Î½ ÏīÏĤ
Î»Îµ Î¯Î±ÏĤ
Î¹Îº á½°ÏĤ
Ġá¼ĢÏĢ Î®
Î»Î¹ ÏĥÏĦÎ±
Ġá¼ĢÎ½Î± Î¼Î½á½µ
Ïİ ÏĥÎµÏīÏĤ
ĠÎºÎ±ÏĦÎ± ÏĢÎ»Î±
ĠÎºÎ±ÏĦÎ± Î»ÎµÎ¹ÏĨÎ¸
Ġá½Ħ ÏģÎ·
ÏĦÎ¹Îº á½½ÏĦÎµÏģÎ¿Î½
ĠÏĢÎ¿Î¹ á½¹ÏĦÎ·ÏĤ
Î¸Îµ ÏĦÎµ
it e
ĠÏĢÎµ Î¼ÏĢ
Ġc all
ĠÎ¸ÎµÏģÎ¼ á½¸ÏĤ
ĠÎºÎ¹Î½ Îµá¿ĸÎ½
ĠÏĢá½¹ á¿¤á¿¥Ïī
ĠÎµÎ½ Ïī
ÏĦÎ¿á¿¦ ÏĥÎ¹Î½
Ġre voc
Ġá¼ĢÎ½Î±Î³ ÏīÎ³
ÏĥÏĢ ÏĮ
ÏĨÏħ Î»Î±
ÎĻ ÏĥÏģÎ±
Ġá¼ĳÎºÎ± ÏĦá½³Ïģá¿³
ÏĥÏĦÎ¹Îº á½¸Î½
Ġá¼ĲÎ½á½· Î¿ÏħÏĤ
Ġá¼ĢÎ³Î±Î¸ á½¹Î½
ĠÎ±Î½ ÏĦÎ¹
ĠÏĢÎ»Îµá½· ÏĥÏĦÎ¿Î¹ÏĤ
ad e
ĠÎ¸á½½ÏģÎ± ÎºÎ¹
ĠÎºÎ·Ïģ á½¸Î½
Ġá¼ĢÏģÎ¹Î¸ Î¼
Ġex pl
Ġá¼ĢÏħÏĦ á½´
Ġá¼ĲÏĢÎ¹Î´á½³ ÏĥÎ¼
ĠÎĽÎµÏħ Îµá¿ĸÏĦÎ±Î¹
Ġá¼ĲÎ¸á½³ Î»Î¿Î¹
Ġá¼ĢÏĨÎ¿ÏģÎ¹ÏĥÎ¼ Î¿á¿ĸÏĤ
ĠÎµÎ³ ÎºÎ±ÏĦÎµ
ĠÏĢÎ»á½±Î³ Î¹Î¿Î½
ĠÏĥÏĦá½³Ïģ Î½Î¿Î½
Î´á½» Î¿
Ġá¼ĲÎ¼Î½Î·Î¼á½¹ Î½ÎµÏħÏĥÎµÎ½
ĠÎ²ÎµÎ²Î± á½·ÏīÏĤ
ÏĢÎµÎ¹Î´ á½°Î½
á¼´Ïĥ ÏīÏĤ
( ?)
u al
Î¿ Î´Î¹Îº
Ïħ ÏĥÎ±Î½
Ïī Î¼á½³Î½Î¿Î¹ÏĤ
Î· Î¸ÎµÏĤ
Ïĩ Ïİ
á¿¶ ÏĥÎ±Î½
Ġá¼Ģ Î¼Î±Î¸
á½¹ Î¼Î·Î½
Î»Îµ ÏĢá½·Î´Î¿ÏĤ
ĠÏĦÎ¿ ÏĥÎ±
ĠÏĢÎµÏģ Î¯
ĠÎ´Î¹Î± ÏĨÏħÎ»á½±
ĠÏĢÎ± Ïħ
Ġá¼ĲÏĢÎ¹ Î´Îµ
Î»Î· ÏĦÎ±Î¹
Ġá¼ĢÎ½Î± ÏĦá½³
Ġp ers
Ïİ ÏĦÎµÏģÎ¿Î½
Ġá¼ģ ÏĢÏĦ
Ġá½Ħ Ïģ
ĠÏĢÎ¿Î¹ Î¿ÏĦá½µÏĦÏīÎ½
ĠÏĢÏģÎ¿Ïĥ Î´Î¿Îº
ĠÎ´Îµ Ïħ
Ġá¼ĦÎ½ Î¸ÏģÎ±
Î´Î¿ Î¼ÎµÎ½
Î²Î± Î»Îµ
ĠÎ´Ïħ ÏĥÏĩ
ĠÎºá½± Î¸Î±Ïģ
ĠÎºÎ¹Î½ Î´ÏħÎ½Îµ
Î¤ á¿¶Î½
Ġ5 0
ĠÎ¼Î±Îº Ïģá½¸Î½
ĠÎ¼Î±Îº Ïģá½¸ÏĤ
Ġá½ģÎ´ á½¸ÏĤ
Ġá¼ĳÏĦá½³Ïģ ÏīÏĤ
Î¯Î¶ ÏīÎ½
Ġá¼°Î´ á½·Î±ÏĤ
Ġá¿ ¾
ÏĥÏħ Î¿ÏĤ
ĠÏĥÏĦÎ¿ Ïĩ
Ġá¼ĶÎ´Ïī ÎºÎ±
ĠÎ½á½¹Ïĥ Î¿ÏĤ
ĠÏĩÎ±Î»Îº á½·
ĠÏĢÏģÏī á½¶
ĠÏĦÎ¿á½Ĳ ÏĢá½·ÏĥÏī
ĠÏĥÏħÎ¼ÏĨ Ïħ
ĠÏĩÏģá¿¶ Î¼Î±Î¹
ĠP ro
Ġá¼© ÏģÎ±Îº
ĠÎ¼Î·Î½ á½¸ÏĤ
Îµá½Ĳ Î¸
ĠÎ´Î¹Î±ÏĨÎ¸ Î¿Ïģ
ĠÏĢÎ»Î·Î¸ ÏħÎ½
ĠÏĥÏħÎ½Î¹ ÏĥÏĦá½±
ĠÏĨÎ¿Ïģ á¾¶ÏĤ
ĠÏĩÏģá½µ ÏĥÎ±ÏĥÎ¸Î±Î¹
ĠÎ£Î¹ ÏīÎ½
Ġá¼ĲÎ½ÎµÏĦÎµ Î¯
ÎºÎ±Îº á½·Î±ÏĤ
Ġá¼ĳÏĦÎ¿Î¹ Î¼
ĠÏĥÏĢÎ»á½±Î³Ïĩ Î½Î±
Ġá½ģÎ¼Î¿Î¹Î¿Î¼ ÎµÏģ
Ġá½ģÎ¼Î¿Î¹Î¿Î¼ ÎµÏģá¿¶Î½
ĠÎ´Îµá¿¦ ÏģÎ¿
r y
ÏĦ ÏħÎ³Ïĩ
ĠÎº Ïģá½¹
ĠÎº ÏģÎ±Î½
ĠÎºÎ± á¿¦
Î³ Î¼Î±ÏĦÎ¹
ÏĦÎ± Î¾
á½° Î¸
á½± Î´Îµ
Î¿Ïħ Î¼á½³Î½Î·
ĠÏĥ á½³
ÏĥÏĦ ÏħÏĢ
Î² Î±Ïģ
Îµá¿ĸ Î»ÎµÎ½
á¾ §
Ġá½ģ ÎºÏĮ
Ġá½Ģ Îº
ĠÏĢÏģÎ¿ ÏĩÎµÎ¹
á½³Ïģ Î¿Ïħ
ĠÎ½ ÏħÎ½
ÏģÎµ Î¼
Î»Î¹ ÏĦÎ¹
ÏĥÏĩ Î¹
Ïİ ÏĤ
ĠÏĥÏħÎ½ ÏĦÏģÎ¹Î²
á½·Î½Îµ ÏĤ
ĠÏĢÎ±ÏģÎ± ÎºÎ±Î»
Ġc hap
Ġá¾ ¤
ĠÎĴ Î±Î»
Ġá¼ĲÏģ Î®Î¼
Ġbe c
Ġá¼ĦÏģ Î¸ÏģÎ±
ĠÏĢÎ±Ïĩ á½³ÏīÎ½
ĠÎ¼ÎµÎ³á½±Î» Î±ÏĤ
ĠÎ»Î¿Î³ Î¹ÏĥÏĦÎ¹Îº
ĠÏĢÎ±Î»Î±Î¹ Î¿á¿ĸÏĤ
Î¯Î¶ ÎµÎ¹
ĠÎ¾Î·ÏģÎ± Î¹Î½
Ġá¼ĢÏĢÎ¿Îº ÏģÎ¿Ïħ
ÏģÏħ Î¿Î½
Ġá¼ĢÎ»Î·Î¸ á¿Ĩ
ĠÏĨá½³Ïģ ÎµÎ¹Î½
ĠÏĢÎµÏģÎ¹á½³Ïĩ Î¿Î½
ĠÏĢá½±ÏĥÏĩ ÎµÎ¹
ÏĦÏģÎ± ÏĢ
aA RT
Ġá¼°Î´Î¹ á½½
ĠÎµÎ³ÎµÎ½ ÎµÏĦÎ¿
ĠÏĢÏģÎ¿ÏĥÏĨ á½±
Ġá¼ĢÎ½ÏīÎ¼Î±Î» á½·Î±Î½
Ġá¼ĲÎ²Î±ÏĥÎ¯ Î»ÎµÏħÏĥÎµÎ½
á¼ĵ Î½
Î½ ÏĮ
ÏĦ Î¼Î·
Ïĥ ÏĥÎµÎ¹
Ïĥ Î¼Î±ÏĥÎ¹
Î» Î·ÏĥÎµÎ½
Ïī ÏĦá½³ÏģÎ±
á½³ Î¸Î·
á½½ ÏĥÎµÏīÎ½
Ġá¼¡ ÏĢÎ±
Î»Îµ ÏĢÏĦ
ĠÏĢÏģÎ¿ á½Ķ
Ġá¼ĲÏĢÎ¹ Î¼Îµ
Î¿á½» Î»
ĠÎ¼á½³ Î¼Î½
á½·Î½Îµ ÏĦÎ±á½·
ĠÏĢÎ¿Î»Î» Î±á½¶
Î³Î³ Î±ÏĤ
Ġá¼ĲÏĨ Î·Î¼
ĠÎ¸ÎµÏģÎ¼ á¿ĨÏĤ
á½³Ïĩ Î¸Î·
á¼Ķ ÏĥÏĦÎ¹Î½
ÎºÎµ Î¯
ĠÏĢÏģá¿¶ ÏĦá½¹Î½
Ġá½ĢÎ»á½· Î³ÏīÎ½
ĠHeb rew
ĠÎºÎ±ÏĦá½± á¿¤á¿¥
ĠÎ»ÎµÏĢÏĦ Î¿á¿¦
ÏĨÏħ ÏĥÎ¹ÏĤ
Ġá¾§ Î´Îµ
ĠÎ³Î¹Î³Î½ Î¿Î¼á½³Î½ÏīÎ½
ĠÎ²Î¹Î²Î»á½· Î±
Ġá¼ĢÎ½Î¸ÏģÏİ ÏĢÎ¿Î¹ÏĤ
Ġá¼ĢÏĢÎŃ Î¸Î±Î½ÎµÎ½
Ġcon s
Î·Ïĥá½± Î¼ÎµÎ¸Î±
Ġá½ĦÎ³ ÎºÏīÎ½
ÏĢÎµÏĢ ÏĦÎ±
ĠÎ³á½·Î³Î½ Î¿Î¹ÏĦÎ¿
ĠÎºÎ¿ÏĦá½»Î» Î·ÏĤ
Ġá¼ģÎ» ÏħÎº
ĠÏĥÏĦÏħÏĢ ÏĦÎ·Ïģá½·Î±ÏĤ
Ġá¿¥ÏħÏĢ Î±Ïģ
ĠÏĢÏģÎ¿ÏĥÏĨá½³Ïģ ÎµÎ¹Î½
ĠÏĨÎ¹Î»Î¿Ïĥ á½¹ÏĨ
Ġá¼´Î± ÏĥÎ¹ÏĤ
Ġqu ot
ĠÏĩá½¹Î½Î´Ïģ Î¿Ïħ
ĠÎ´á½»Ïĥ ÏĢÎ½
ĠÎ³Î»á½½ ÏĦÏĦÎ·ÏĤ
ĠÏĢÎ±ÏģÎ·Î³ Î¿
ĠÎºÎ¿á¿ĸ Î»Î¿Î½
ĠÎ¼ÎŃÎ³ Î±ÏĤ
Î½Î±Î³ Îºá½±
ĠÏĢÎµÏģÎ¹ÏĦÎ¿Î½ Î±á½·Î¿Ïħ
ÏĦÎ±ÏħÎ¸ Î¿á¿ĸ
. :
i re
Î¹ Î»Î±
Ïī Î¼á½³Î½Î¿Î½
ĠÎ´ ÎµÎ¹Î»
á½· ÏĤ
Î´ Îµá¿ĸÎ½
Ġá¼Ģ Ïĩá½½
á½¹ Ïģ
ĠÏĥ ÏīÎ¸
ĠÏĥ Î¿Î¯
ÏģÎ± ÏĥÎ¹ÏĤ
ĠÏĨ Î·
ĠÎ¸ Î»
Ġá¼ĢÏĢ á¿Ĩ
ĠÎ´Î¹Î± ÏĥÎº
Ġá½ĳÏĢ Î½
ÏģÎ¿ Ïį
ÏģÎµ á½¶
ĠÎµá¼´ ÏĢ
Î³Î¿Î½ Î±
ĠÏĥÎº Ïħ
á¼° ÏĥÏĩ
ĠÏĢÏģÎ¿Ïĥ ÎµÎ½
ha ve
ĠÏħ ÏĢÎµ
Î³Î³ ÎµÎ¯
is h
ĠÎ½Î¿Ïĥ á½µÎ¼Î±ÏĥÎ¹Î½
ĠÎĵ Îµ
ĠÏĢÏģá½½ ÏĦÎ¿Î¹ÏĤ
ĠÎ²Î±ÏĥÎ¹Î»Îµ Î¯Î±
Ġá¼ĦÏģ ÏĦÎ¿Ïħ
ÎŃÏģ Î¼Î±
ÏĥÏĢ á½³Ïģ
ĠÎĽ Î¹Î²
ĠÏĢÎ±ÏģÎµ Î¼ÏĢ
Ġá½ģÎ´ Î¿á¿ĸÏĤ
ÏįÎ½ ÏĦÏīÎ½
ĠÏĦÎ±á½Ĳ ÏĦá½°
Ġá¼ĢÎ´ÎµÎ»ÏĨ á½¸Î½
ĠBáµĩ A
á½½Î´Îµ ÎºÎ±
ĠÏĨÎ±Î¹Î½ á½¹Î¼ÎµÎ½Î±
Ġá½ĢÎ½Î¿Î¼Î±Î¶ á½¹Î¼ÎµÎ½Î¿Î½
ĠÎ²Î¿ÏħÎ» á½¹Î¼ÎµÎ½Î¿ÏĤ
ĠÏĥÏİ Î¼Î±ÏĦÎ¹
Ġá¼ĦÎ³ Î±Î½
ĠÎ´Ïİ Î´ÎµÎºÎ±
Î´Îµá¿ĸ Î¾Î±Î¹
ĠÏĥÏĦÎµ Î³Î½
Ġomit ted
ĠÎ¼Î·ÏĦÏģ á½¸ÏĤ
ÏĢÏģá½¹ Î´Î·Î»Î¿Î½
ĠÏĢÎ±ÏĦÏģÎ¹ á¿¶Î½
ĠÎºÎµÏĨá½±Î» Î±Î¹Î¿Î½
ĠÎ´Î¿Î³ Î¼á½±ÏĦÏīÎ½
ĠÏĢÏģÎ¿Ïĥá¿Ĩ ÎºÎµÎ½
Ġá¼ĶÎ½Î´Î¿ Î¸ÎµÎ½
V I
v ed
ÏĨ Î¹Î»
á¿¶Î½ ÏĦÎ±
ĠÎµ Î¸Î½
Î² á½³Î»ÏĦÎ¹Î¿Î½
Ġá½ħ ÏĤ
ĠÏĢÏģÎ¿ Î³Îµ
Îµá½· Î¼ÎµÎ½Î±
ĠÎºÎ±ÏĦÎ± Î¼Î·Î½
Ġá¼ħ Ïģ
ÏĨÎ¿ Ïģá½°Î½
ĠÏĥÏħÎ½ á½±Î³
ĠÎ¸ÎµÏģ Î¹Î½
Ġá½ĳÎ³ Ïģ
ÎºÎ¿Î½ ÏĦÎ¹
ĠÎĻ Î±
ÎºÎ¿ á½¶
ĠÎ»Î± ÏĦ
Î¸á½³ Î¼ÎµÎ½Î¿Î½
á¼Ķ Î¼ÏĢ
ĠÎ´Ïħ Î¿
Î¯Î½ ÏħÎ½
ÏĥÎ¸Î· ÏĦÎ¹
ĠÏĩÏħÎ¼ Î¿á½¶
Ġsup p
ÏħÎ¸ á¿ĨÎ½Î±Î¹
ĠÎ¾Î· ÏģÎ¿
ĠÏĥÏĩ á½µÎ¼Î±ÏĦÎ¿ÏĤ
Ġe nd
ĠÎ§ Îµ
ĠÎ¹ ÎµÏģ
Ġá¼ĲÏĢá½· Î²Î±Î»Î»Îµ
Ġá½ĢÎ¾ á½ºÏĤ
á½µÏĥÎµ ÏĥÎ¸Îµ
ÏĦÏģÎ¹ Î¼
ĠÎ´Î¹Î±ÏĨÎ¿Ïģ Îµá¿ĸ
ĠÎ¸ÏħÎ¼ á½¸ÏĤ
ĠÎ±Î½ Î´
Ġá¼¸ÎµÏģ ÎµÎ¼
ÏĨÏħÎº ÎµÎ½
ĠÏĢÎ»Î± ÏĦá½³
ÏģÎ¹Îº á¿ĨÏĤ
ĠÎµÎ¾ ÎµÎ»
Ġá¼ĲÏĥ ÏĨ
ĠÎµá½ķ ÏģÎ¿Î¹ÏĤ
ĠÏĢÏģÎ¿Ïĥá½³ Î¸Î·ÎºÎµÎ½
ĠÏħÎ¹ Î¿Ïħ
ĠÎµá¼´ÏģÎ· ÎºÎµÎ½
ĠÎ¼ÎµÎ³Î¬Î» Î·Î½
ĠÎ³ÎŃ Î³ÏģÎ±ÏĢÏĦÎ±Î¹
Ġá¼´Î± ÏĥÎ¹Î½
ĠÎ§Î±Î» Î´Î±
ĠÎłÎ± á¿¦
ĠÎ´Î¹Î±Î¸Î® ÎºÎ·Î½
ĠÏĥá½»Î½Î¸Îµ ÏĦÎ¿Î½
Î¼Î¿Ïģ ÏģÎ±
ĠÎ²Î»Îµ ÏĨ
Ġá¼¸ÏīÏĥá½´ ÏĨ
u ra
Ïĥ Î¼Î¿á½ºÏĤ
ÏĢ Î¿ÏħÏĥÎ¹Î½
á½³ Î»Î¹ÏĦÎ¿ÏĤ
ĠÎ¼ Î¯Î±
Î¿á¿¦ ÏĦÎµ
ÏĥÏĦ ÏģÎ±ÏĨ
Î² ÏģÎ±
á½³Î½ Î±ÏĤ
ĠÏĩ Î¿Ïģ
ĠÎ¿á½Ĳ Ïĥá¿¶Î½
ĠÎ¸ ÏģÎ¹
Ġá½ģ Îºá½¹
Ġá½ħ ÏģÎ¿Î½
Ġá¼ĲÎº ÏĢá½³
Ġá¼ĳ ÏĦÎµÏģ
Ġá¼ĳ ÏĢÏĦ
Ġo ver
Ġa ut
ĠÎºÎ±Î¸ Î±Î¹
Ïİ Î¼Î±ÏĦÎ¹
Î³Î± Î³Îµ
ĠÎ³ÎµÎ½ Î·Î¸
ĠÎ· Î¼Î¹Î½
ĠÎ¼ÎµÏĦ á½³ÏĩÎµÎ¹
Ġá½ł ÏĩÏģ
ÏĦÏĦ Î¿ÏħÏĤ
ĠÎ²ÏģÎ±Ïĩ Îµá¿ĸ
ĠÎ¾Î· Ïģá½¹ÏĦÎ·ÏĦÎ¿ÏĤ
ÏĥÏĦÎ· ÎºÎµÎ½
Î»Î±Î² Î¿Î½
ĠÎµá½ĳ ÏģÎ·
ĠÎ²Î¿ á½µÎ¸Î·
Ġá¼°ÏĥÏĩÏħÏģ á½¹ÏĦÎµÏģÎ¿Î½
Ġá½ķÎ´Î± ÏĦÎ±
ĠÎ³Ïģá½± ÏĨÏīÎ½
ĠÎļÏħ ÏģÎ¹Îµ
ĠÎ¼ÎµÎ¸ Ê¼
ĠÏĨÎ¸ Î¿Ïģ
ĠÎºÏģÎ± ÏħÎ³
ĠÏĥá½»Î½ Î¸ÎµÏĥÎ¹Î½
ĠÎºá½±Î¼Î½ Î¿Î½ÏĦÎ¹
Ġá¼´Ïĥ Î¼ÎµÎ½
Ġread s
Ġá¼ĶÏģÎ³ á¿³
ĠÎ¸Î± á¿¤á¿¥
ĠÏĢÏģÎ¿ÎºÎµÎ¹ Î¼á½³Î½Î·Î½
ĠÎ´Î¹Î¿ ÏĦÎ¹
ĠÎ´ÎµÏħÏĦá½³Ïģ á¾³
Ġá½ĳÎ³Î¹Î± Î¹Î½á½¹Î½ÏĦÏīÎ½
Ġá½ģÏĢÎ¿á¿ĸ Î¿Î½
ĠÏĢÏģÏĮÏĥÏī ÏĢÏĮÎ½
ge ther
ĠÎķá¼° ÏĤ
ĠÎ¼ÎµÎ³Î¬Î» á¿ĥ
ĠÎ´Ïģ á¾·Î½
Ġá¼ĳÎºÎ¬ ÏĥÏĦÎ¿Ïħ
ÏĥÏĦÎ¿ Ïģá½·Î¿Ïħ
ĠÏĥÏĦÏģÎ¿Î³Î³ á½»Î»
ĠÏĩÎ¹Î»Î¹Î¬ Î´ÎµÏĤ
Ġá¼ĶÏĦÏħÏĩ ÎµÎ½
ĠÏĦÎ¹ÏĦ Î¸
Ïģ ÏħÎ½
ĠÏĢ á½±Ïģ
Î´ á¿³
ÏĨ Î¸Î±
á¿Ĩ ÏģÎ¿ÏĤ
á¿ĸ Îµ
á½µ ÏĥÎ±Î¼ÎµÎ½
ÎºÎ± Î»ÎŃ
ĠÏĩ á½»
Î»Îµ ÏĥÎ¹
ĠÏĥÏħ Îº
ĠÏĥÏħ á¿¤á¿¥
Ġá¼ĢÎ½ á½¹
ĠÏĢÎ± ÏĥÏĩ
Ġa way
Ġá¼ĢÎ»Î» á½¹
Ġá¼° Î·ÏĦÏģ
Ïİ ÏĥÏī
Ġá¼ĢÏĢÎ¿ Î»á½³
Ġá¼ĦÎ»Î» Î¿ÏĦÎµ
ĠÏĥÎº á½¹
ĠÏĢÏģÎ¿Ïĥ Î·
it z
Î¬Î½ ÎµÎ¹
ÏħÎ³ ÎµÎ½
ĠÏĢÎµ ÏĢÎ¹
ĠÎºÎ±Ïģ Îº
ĠÎĴ Îµ
Î·Î» Î¸ÎµÎ½
ĠÎ³á½³Î½ ÏħÎ½
ÏīÎ¸ á½³Î½ÏĦÎ¿ÏĤ
ĠÎ¼á½¹ ÏĥÏĩ
ÏĦá½µ ÏģÏīÎ½
Ġá¼ĶÎ¼ÏĢ Î»Î±ÏĥÏĦ
ĠÎ³Î¹Î½ Î¿Î¼á½³Î½Î·Î½
Ġá¼ĲÎ¼ÏĢ ÎµÏĥ
Ġá½ĳÏĢÎµÏģ Î¿Ïĩ
Ġá¼ĢÎ» á½¹Î³
Ġsha lt
il e
ĠÎ»ÏĮÎ³ Î¿Î¹ÏĤ
ÏĢá½³ Î»Î±
ĠÎ´Î·Î»Î¿Î½ ÏĮÏĦÎ¹
ĠÏĢÏģÎ¿ÎµÎ¹ ÏĢ
Ġá¼ĲÏĢÎ¹ÏĥÎº ÎµÏĪ
ĠÏĥÏĦÎ± ÏĨÏħÎ»
Ġá¼¸Î¿Ïį Î´Î±ÏĤ
ĠÏĦÏģá½³ ÏĨÎµÎ¹Î½
Î¿á¼ ·ÏĤ
ĠÏħÎ¹ ÏīÎ½
ĠÏħÎ¼ Î¹Î½
ÏĦÏģÎ¿ ÏĢ
ĠÏĥÏĢÎ»á½±Î³ÏĩÎ½ ÏīÎ½
ĠÏĦÎµÎº Î¼á½µ
Ġá¼¡Î»á½· á¿³
ĠÎ¼ÏħÏĥ á½¶
ÏħÏĥá½· ÏĢ
Ġpas s
Ġca se
ĠÎ¼ÎµÎ³Î¬ Î»Î·
Ġpara llel
ĠÏĢÏģÎ¿ÏĥÎ·Îº á½¹Î½ÏĦÏīÏĤ
ĠÎ£Î±Î¼Î¿Ïħ á½´Î»
ĠÎ¸Î·ÏĥÎ± ÏħÏģ
Ġá¼ĲÎ½Î¿Ïĩ Î»
c y
© ÏĤ
ÏĦ Î»
Ïģ Ïį
Î¼ Î¼Î±ÏĦÎ¹
Îº Î¹Î½Î¿Î½
ĠÎºÎ± ÏħÏĩ
ĠÎ¼ á½±Ïģ
Ïĩ ÎµÏĥÎ¸Î±Î¹
Î¿á¿¦ ÏĦÎ¿ÏĤ
ĠÏĥ Î±Î»
Î¼Î± ÏĦÎ¬
ĠÏĨ Î¿Î½
Î¬ ÏĥÎ¹Î½
ÏĥÎ¹ Î¼Î±
ĠÏĦÎµ Î¯
ÏĪ á½·Î±ÏĤ
ÏĪ á¿ĥÏĤ
Î¶ Î¿Î½ÏĦÎ±Î¹
ĠÏĢÎ¿ Î¸
á¿¥ Î·ÏĦ
ÏģÎ¿ á½»Î½ÏĦÏīÎ½
ĠÏĢÎ± ÏĦá½³ÏģÎ±
ÏģÎµ ÏħÏĥ
ĠÎµá¼¶ ÏĩÎ¿Î½
Ġá¼ĢÎ»Î» á½±
ĠÎ¼á½³ ÏĥÏīÎ½
ĠÏĦÎ¿á½» ÏĤ
á½±Î» ÎµÎ¹
ÎºÎ¿Ïħ ÏĥÎ¹
Îºá½± ÏĦÏī
á½»Î½ Î¸Î·
ÏĦÎŃ ÏģÎ±Î½
ĠÏĦá½³ ÏĥÏĥÎ±ÏģÎµÏĤ
Ġá¼ĢÎ³ ÏģÎ¿á¿¦
ĠÎµá¼°ÏģÎ· Î¼á½³Î½Î·Î½
Î¤ Î±
ÎŃÏģ ÎµÎ¹Î½
ĠÏĥÎºÎ»Î· Ïģá½¸ÏĤ
Î´ÏģÎ± Î³á½¹
ÏĦÏģÎ¹ ÏĦÎ±
á½½Î½ Î¹Î¿ÏĤ
Ġá¼ĢÎ½ÏĦÎ¹ Î»Î¿Î³
ce pt
ĠÎ¸ÏħÎ¼ á¿·
ĠÎ³Î¹Î³Î½ Î¿Î¼á½³Î½Î·
ÏĦÎ¿á½» ÏĦÎ¿Î¹ÏĤ
Ġá¼ĲÎ¾Î·Î³ á½µÏĥÎµÏīÏĤ
ĠÎ³ÎµÎ³Î¿Î½ á½¸ÏĤ
ĠÏĥÎºÎµÏħ Î±Î¶
ĠÎ²Î¿Î·Î¸ á½µÎ¼Î±ÏĦÎ±
ĠÎºÎ±ÏĦÎ±ÏĥÏĦá½± ÏĥÎµÎ¹
ĠÎºá¿¶ Î»Î±
ĠÏĥÏħÎ½Î´á½³ÏĥÎ¼ ÏīÎ½
Ġsa id
ĠÏĪÎ± á½»
ert ain
Ġá½ģÏĢÎ¿ á½·Î±
Ġá¼ĲÎ½Î±Î½ÏĦ á½·Î±Î½
ÏĦÎ±á½» ÏĦÎ·Î½
ĠÎ³ÎµÎ³ÏħÎ¼ Î½Î±
Ġá¼ĲÏģÏħÏĥÎ¹ ÏĢá½³Î»Î±
Ġdiffere nt
Ġá¼°Îº ÏĦÎµÏģ
Ġá¼¸ÏĥÎ± á½°Îº
gy pt
ĠÎ§Ïģ ÏħÏĥá½·ÏĢ
. ;
r st
Ġ Â°
Ïģ Î®
ĠÏĦ Ïį
Î¼ á¿ĩ
ĠÎ´ á½½Î´ÎµÎºÎ±
Î¸ Ïī
Ïĩ Î¿Î¹
ÏģÎ± ÎºÎ¿ÏĤ
á½µ ÏĥÎ±Î½ÏĦÎ¿
ÎŃ ÏģÎµÏīÏĤ
ÏĥÎ¸ á½µ
ÏĥÎ¸ Îµá½·Î·
Îµá¿ĸ Î»Î±Î¹
Î¬ Î¼ÎµÎ½Î¿ÏĤ
Î¿á¿ĸ ÏĦÎ¿
Ġá½Ģ ÎºÎ½
Î¶ Î¿ÏħÏĥÎ¹
Ġá¼ĢÏĢ ÏħÏģÎµ
Ġá¼ĲÏĢÎ¹ Î³Î¹Î½
Ġá¼ĲÏĢÎ¹ Î´ÎµÎ¹ÎºÎ½
Ġá¼° Î³Î½á½»
ĠÎºÎ±Î¸ Îµ
Ġá¼ĢÎ½Î± ÏĥÏĢ
ĠÎ³Îµ á¿¦ÏĥÎ¹Î½
Ïģá½¹ ÏĦÎµÏģá½¹Î½
ĠÏĪ Îµá¿¦
ĠÎ¸Îµ Î¿á¿ĸÏĤ
ÏĦÏģ ÏīÎ½
Î´Î± Îº
ĠÏĥÏħÎ½ Î¬
ĠÎ¶ Î·Î»
ĠÏĢá½±Î½ ÏĦá¿ĥ
Ġá¼Ī Î²ÎµÏĥÏĥÎ±Î»
Ġá½ķ Î»Î·
ĠÏĥÏĨ á½»
ĠÎ· Î¼Î±ÏĤ
ĠÎĴ Î±Î»Î±
ĠÏĢÏħ á¿¤á¿¥
ĠÏĢá½¹ Î»ÎµÎ¹
ĠÎµá¼°Ïĥ Î®
ĠÎ´Î¹á½± Î³Î½ÏīÏĥÎ¹ÏĤ
Î¿ÏħÏĥ á½·Î±ÏĤ
Ġá¼ĲÎ¼ÏĢ Î»Î±
ĠÏĥÎºÎ»Î· ÏģÎ¿
ĠÎ³Î» Ïī
ĠÏĥÏħÎ¼Î² á½³Î²Î·
Ġá¼°Î´ á½¼Î½
ĠÏĩÏīÏģá½· Î±
ch ol
ĠÎ¼Îµá½·Î¶ Î¿ÏħÏĤ
ĠÏĢÎ±ÏĦÏģ ÏĮÏĤ
ÏĢÎµÏĢ ÏĦÏī
ĠÏĦÎµÏĦá½±Ïģ ÏĦÎ·
Ġá¿¥á¿Ĩ ÏĥÎ¹ÏĤ
Ġá¼¡ÏĥÏħÏĩ á½·Î±ÏĤ
ĠÎ¿á½ĲÎ´á½³ ÏĢÎ¿ÏĦÎµ
Ġá¼ĲÎ¼ÏĢÎµÎ¹ Ïģá½·Î±ÏĤ
ĠÏĢÎ±á¿ĸ Î´Î±ÏĤ
á¼¤ Î´Î·
ĠÏĩÎµá½· Î»Î·
Ġá¼ģÏģÎ¼á½¹ ÏĦÏĦÎµÎ¹
ĠÎ¼ÎµÎ¹ Î¶
Ġá¼ĦÎ¼Îµ ÏĦÏģÎ¿Î½
Ġá¼ĢÏĥÎ¹ ÏĦ
Îºá¾ Ģ
Ġá¼Ń ÏģÎ±ÏĤ
ĠÎ¸Î±Î»á½± ÏĥÏĥÎ·ÏĤ
ĠÏĦÎ¿Î¹Î¿Ïį ÏĦÏīÎ½
ĠÏĢÎ»Î±Î³ á½·ÏīÎ½
Ġá¿¥á½·Î³ Î¿ÏħÏĤ
Î´Î¼ Îµá½·Î±ÏĤ
t ing
Î¿ Î¼ÎµÎ½Î¿ÏĤ
á¼ ª
Ïĥ ÏĢÎ¹
Ïĥ Î±ÏģÎº
Î¼ á½¹
Îº Î»Î¹
Î³ Î¹Î³Î½
ĠÎ± Î»Î»Î±
á¿Ĩ ÏĥÎ±Î½
ÏĦÎµ Ïį
ÏĮ Î»Î¿Ïħ
Î»Îµ Î±
Î¶ Î¿Î½ÏĦÎµÏĤ
ĠÏĢÏģÎ¿ Î²á½±
Ġá½ĳÏĢ ÎµÎ½Î±Î½
Ġá¼ĲÎ¾ Î¹Îº
Ġa nt
Ġá¼¸ Î»Î»Ïħ
Ġá¼ģ Î»á½·ÏĥÎº
ĠÏĢÎ¿Î»Î» Î±á¿ĸÏĤ
Ġá¼ĢÎº ÏģÎ±
Ġá½¥ ÏģÎ±
ĠÏħ ÏĪ
ĠÎ»Îµ ÏĢá½·Î´Î¿ÏĤ
ĠÏĥÏĨ ÏħÏģ
á½ħ ÏĢÎ¿Ïħ
Ġm ade
Î·Î¸ á½µÏĥÎµÏĦÎ±Î¹
ĠÎºÎ¹Î½ á½µÏĥÎµÎ¹
ĠÎ¿á¼° ÎºÎ¿Ïħ
ĠÏĦÏģ ÏħÏĨ
ĠÎł Î±Î½ÏĦÎ¿
Ġá½ĳÏĢá½±ÏģÏĩ ÏīÎ½
Ġn on
ĠÏĦá½± ÏĥÎ¹Î½
Îĳ Î£
ĠÎºÎ¿Î¹ Î¼Î·Î¸
Ġá¼ĲÎ» Î±Î¹
ĠÎ¹ ÏĥÏĦ
ĠÎµÎ¹ ÏĥÎ±
ĠÏĩÎµÎ¹ Ïģá½·
ĠÎµá¼°Ïģ á½µ
ĠÎ´á½¹ Î³Î¼Î±
Ġver y
Ġá½¦ ÏĥÎ¹Î½
Ġá¼ĢÏģÎ¹Î¸ Î¼á¿·
ĠÎ»Î±Î¼Î² á½±Î½ÎµÎ¹
Ġcon t
ĠÏĦÎµÎ»ÎµÏħÏĦ á½´Î½
ĠÏĩÏģÏħÏĥ Î¯Î¿Î½
Ġá½ĢÏĢ á½·Î¿Ïħ
Ġá¼ĲÏĩÏģ á½µÏĥÎ±ÏĦÎ¿
ĠÎ½Î¿Î¼á½·Î¶ Î¿ÏħÏĥÎ¹Î½
ĠÎ¼Î½ á¾¶ÏĤ
Ġá¼ĶÏģÏĩ Î¿Î½ÏĦÎ±Î¹
ĠÎ²á½±Ïģ Î¿ÏħÏĤ
Ġá½ĢÏĩ ÏħÏģ
ĠÎºÏģÎ¿ ÏĦÎ±
Ġá¼ĲÏĢÎ¹Î½ Î¿
ĠÎ´ÏģÎ± ÏĥÏĦÎ¹Îº
ĠÎºá½±Ïģ ÏĦÎ±
Ġá¼ĶÏĦÎµ ÎºÎµÎ½
ĠÎ´Î¹Î±ÏĥÏĦá½³Î»Î» ÎµÏĥÎ¸Î±Î¹
ĠÎ³ÎµÏī ÏģÎ³
f rom
p re
Ġ &
Î¿ ÏĥÏĦ
Ïĥ Î¬Î½
ÏĢ á½»
Ġá¼Ĳ Î¼Îµ
Î¸ ÏħÏĥ
Î¸ ÎµÎ¹ÏĤ
á½· ÏĥÏĦÎ¿Ïħ
Ïĩ á¿¶ÏĤ
Ġá¼Ģ Î¼Î½
ÏĨ Î¿Î¹
Ġá¼ĲÎ½ Î´ÎµÎ¹
Îµá¿ĸ ÏĥÎ¸Î±á½·
Î¬ Î¼Î·Î½
ĠÏĩ Î¿Î½
Ġá¼Ħ Î»Îµ
Ġá½ħ ÏģÎ¹Î±
Ġá½Ģ ÏĪ
Î¶ Î±Î½
Î±Î» Î±Îº
ĠÏĥÏħ ÏĥÏĦá½±
Î® ÏĦÏī
ĠÏĢÎ¿ Î»á½³
Î¹Îº á½¸ÏĤ
Î»Î· Î¼Î±
Ġá¼° Î·ÏĦ
ÏĥÏĩ Îµ
Ġá¿¥ á½¹Î´ÏīÎ½
ĠÏĢÎ±ÏģÎ± Î»Îµá½·
ÏĢÎ» Î·Ïĥ
ĠÏĥÏĦ á½±
ĠÎ£ Î±Ïģ
Ġá¼´ Î´ÎµÎ½
ÎºÎ¿Ïħ ÏĥÎ¿Î½
ĠÏĢá½± Î¸ÎµÏĥÎ¹Î½
Î¿á½Ĳ Î´Îµ
ĠÏĢÎ»Îµ Î¯Î¿Î½
Ġá¼ĢÎ³ Ïģ
Ġá¼ĺ Î»Î¹
.. ..
ĠÎºá¾Ģ Î³á½¼
Ġá½ĢÎ´ á½¹Î½ÏĦÏīÎ½
ĠÏĩÎµá¿ĸ ÏģÎµÏĤ
ĠÏĥÎ¼ á½»Ïģ
ĠE gypt
ĠÎ¶Î· ÏĦÎ¿Ïħ
ĠÏĥÏħÏĥÏĦ Î¿Î»á½´Î½
Ġ30 1
ĠÏĢÏģÎ¿ÎºÎµÎ¹ Î¼á½³Î½Î¿Ïħ
ÏģÎ¿á½» ÏĤ
ĠÎ±á½Ķ ÏĦÎ±Ïģ
Ġá¼ĶÏĢÎµ ÏĥÎµÎ½
á½ĳÏĢ á½¸
Ġá¼Ģá¿¤á¿¥á½½ ÏĥÏĦÏīÎ½
ĠÎºÎ¹Î²Ïī ÏĦá½¸Î½
Ġá½ĢÎ¸Î¿Î½ á½·ÏīÎ½
Ġá¼ĲÎ´á½·Î´Î± Î¾ÎµÎ½
ĠÎºÎ±ÏĦÎµÏģ Î³Î±
Î½ÏĦÎ¹Î½Î± Î¿á¿¦Î½
ĠÎºá½±Î»Î»Î¹ ÏĥÏĦÎ±
Ġá¼¸Î½Î´Î¹Îº á¿ĨÏĤ
Ġá½ĳÏĢá¿Ĩ ÏģÏĩ
Ġá½ĢÎ½ÎµÎ¹ Î´Î¹
ÏĥÏĦÏħÏĢ ÏĦÎ·Ïģá½·Î±ÏĤ
chol z
O mit
Q mg
Ġ '
Ġá¼Ĳ Î²Î¿Ïħ
Î¿Ïħ Î¼á½³Î½Î¿ÏħÏĤ
á½¹ ÏĢ
ĠÎµ Î¹Îº
ĠÏĥ ÏĢÎ¿
ĠÏĥ Î®Î¼ÎµÏģÎ¿Î½
ÎµÎ½ Î¿
ÏģÎ± á½·
Î¼Î± Î¸Îµá¿ĸÎ½
Î² ÏīÎ½
ĠÎ´Î¹ Ïİ
Ġá¼Ķ Î¸ÎµÏĦÎ¿
ĠA Îĵ
á½³Ïģ Î¿ÏħÏĤ
ĠÏĦÎ± Ïħ
ĠÎ½ Î¿á¿¦
Ġá¼ĲÎ¾ Î¿Î¼Î¿Î»Î¿Î³
ĠÎ¿á½ĲÎ´ ÎŃ
ÏħÏĥ Ïĥ
ĠÏĥÎº Î¿Ïģ
ĠÎ´Îµ á½»ÏĦÎµÏģÎ¿ÏĤ
ĠÏĨá½» ÏĥÎµÎ¹ÏĤ
ĠÎ£ Î·
ĠÏĪÏħÏĩ Ïģá¾¶ÏĤ
ÎºÎ¿Î½ ÏĦÎµÏĤ
Î´Î¿ ÎºÎ¹
Î²Î± ÏĥÎ¹Î½
ĠÎºÎ¹Î½ Î½Î±
ĠÎ¼ÎµÏĦ ÎŃ
Ġá¼ĲÏģ Î¿á¿¦ÏĥÎ¹Î½
ĠÎ»á½³Î³ Î¿ÏħÏĥÎ¹
ĠÎºÏħ ÏģÎ¹Î¿ÏĤ
ĠÎ¼á½³Î½ ÎµÎ¹
ÏĦÎŃ Î¿Î½
ĠÏĥÏħÎ½Îµ Î»Î¸
ĠÎĵ Î¿
ĠÏĦá½± Ïĩ
ĠÏĥÏħÎ¼ÏĢ Îµ
Ġá¼±ÎºÎ±Î½ á½°
ĠÎ¦ Î¹Î»
ĠÎ¼ÎµÎ³á½±Î» Î¿ÏħÏĤ
ĠÏĢÎ±Î»Î±Î¹ á½¸Î½
ĠÎ±á¼°ÏĥÎ¸ á½±Î½
ĠÎ¼á½³ÏĩÏģÎ¹ ÏĤ
Î±á½Ĳ ÏĦá½¸
á¼ĲÎº Îµá¿ĸÎ½
ĠÏĦÎ¿Î¹Î¿á¿¦ ÏĦá½¹Î½
Î³Ïģá½± ÏĨÏīÎ½
ĠÎ¼Î¿ÏĩÎ¸Î· Ïģá½¸Î½
ĠÏĢÎµÎ½ ÏĦá½µ
Ġá¼ĪÎ½ ÏĦÎ¹
ÏģÎ¿á½» Î¼ÎµÎ½Î¿Î½
ĠJ er
ĠÎ±á½ĳ ÏĦÎ¿á¿¦
ĠÏĩÎ¹ÏĦá¿¶Î½ Î±ÏĤ
ĠÎ»Î¿Î³Î¹ÏĥÎ¼ á½¸Î½
Ġá¼ĢÎ´ÎµÎ»ÏĨÎ¿ á½ºÏĤ
ĠÎµá¼´ÏģÎ· ÏĦÎ±á½·
ĠÎ¸Î¬ Î½Î±ÏĦÎ¿Î½
ĠÎºÎ¹ á¿¤á¿¥
are ntly
ĠÎ´á½³Î¿Î½ ÏĦÎ¿ÏĤ
ig in
ĠÏĩÎ¿ ÏģÎ·Î³
Ġï¬ģ rst
ud g
ĠÎ´Î¯ÎºÎ±Î¹ Î¿ÏĤ
ĠÏĢÎµÎ»Î¹Î´ Î½
ĠAss y
ĠÎ²Î¿á½µÎ¸Î· Î¼Î±
2 9
Ïĥ Î¼á½³Î½Î±
ĠÏĦ Î¼Î·Î¸
ĠÏĦ á¼ĢÎ»Î·Î¸
ĠÎº ÏĦÎ·Î½
Î´ ÎµÎ¹Î½
Ġá¼Ģ á½´Ïģ
ĠÎ± Î³Î¹
ĠÎ¿ ÏĨÎ¸Î±Î»
ĠÎµ Î¼Î¿Ïħ
á½» ÎµÏĦÎ±Î¹
ÎµÎ¹ á¿¶Î½
ÎŃ Î³
ÏģÎ¹ Î±ÏĤ
Ġá½ĳ Î¼á½³Î½Î±
á½½ Ïĥá¿ĥ
ĠÎ¸ á½±Î»
ÏĮ ÏĦÎµ
Ġá¼Ħ ÏģÎ¹ÏĥÏĦ
á½¹Î½ Î´Îµ
ĠÏĦÎ¿ Î¯Î½ÏħÎ½
Ġá¼ĲÎº ÎŃ
Ġá½Ģ Î¸á½¹Î½
ĠÏĦÎ± á¿ĸÏ²
ĠÏĢÎµÏģ á½¹Î½
Î¹Îº á½¹Î½
Ġá¼ĢÎ½ Î¸ÏģÏīÏĢ
ÏģÎµ Î³
Ġá¿¥ Î®
Ġá¼ĢÏĢÎ¿ Î¸Î½á½µ
Î¸Î· ÎºÎ±Î½
ĠÎ¸Îµ Î¿á½ºÏĤ
Î´Î¹ á½¹ÏĦÎ¹
Î½Î¿ Î¼á½±
Î¸ÎµÎ½ ÏĦÎ±Î¹
ÏĦá½· ÏīÎ½
ĠÏĥÏĦ á½³Î±ÏĦÎ¿ÏĤ
ĠÎ´á½» ÏĥÎº
Ġá½ĳÎ³ Îµá½·Î±Î½
Ġc o
Ġá½ķ Î²
ĠÎ¸ÎµÏģÎ¼ Î¿á¿ĸÏĤ
Î»Î»Î¿Î½ ÏĦÎµÏĤ
Ġá¼¥ Î¼Î±Ïģ
Ġá¼¥ Î²Î·ÏĤ
ĠÏĢá½± Î¸ÎµÎ¹
Î´Ïģ Î¿ÏĤ
Î´á½· ÏīÎ½
ĠÎ´ÏħÎ½á½± Î¼ÎµÎ½Î±
ÏĨÎ± á½¶
ÏĦÎ¿á¿¦ ÏĦ
Ġd e
Ġl x
ĠÏĢá½³ ÏĪÎ¹Î½
Îł ÎŁ
ĠÎºÎµÎ½ á½¸Î½
Î¬Î» ÏĢÎ¹
ĠÏĥÎ±ÏĨ á½²ÏĤ
ĠÎºÎ±ÏĦá½± ÏĩÏģÎ¹Îµ
ĠI I
ĠÎ³Ïģá½± ÏĪÎ±Î¹
ĠÏĥÎ¹ ÏīÏĢ
á½½Î½ Î¹Î¿Î½
ĠÎľÏī Î±Î²
ÏĩÎ± Î¯
ĠÎ¸á½½ÏģÎ± Î¾
ĠÎĶÎ±Ïħ Îµá½·Î´
ĠÏĢÏģÏĮ Î²Î±ÏĦÎ±
ĠÎ²Î¹Î²Î»á½· Î¿Î¹ÏĤ
Ġá¼ĦÏĩÏģÎ¹ ÏĤ
ĠÏĩÏīÏģá½· Î¿Î¹ÏĤ
ĠÏĢÎ¹Îº Ïģá½°
ĠÎ¼Î¿ÏĩÎ¸Î· Ïģá¿¶Î½
ĠÎ´Î¹Î±Î¹ ÏĦÎ·
Ġá½ģÏģ á¿¶Î¼ÎµÎ½
Ġá¼ĢÏĨÎ¹Îº á½³ÏĥÎ¸Î±Î¹
Ġá¼ĲÏ² ÏĦÎ¹Î½
ĠÎ´Î¹Î¿ ÏģÎ¹
ĠÏĩÎµÎ¹Î¼á¿¶Î½ Î±
Ġá¼ģÏĨ á¿ĨÏĤ
Ġá¼°Î±ÏĦ ÏģÎ¿á½ºÏĤ
ĠÏĥÎ·ÏĢÎµ Î´Î¿Î½
ĠÎµá½Ĺ ÏģÎµÎ½
Ġsa ith
ĠÎ¼Î±ÏģÏĦÏħÏģ Îµá¿ĸ
ĠÎ¼á½³Î»Î±Î½ Î¿ÏĤ
Ġk ing
Ġá¼ĢÎ»Î»Î¿ ÏĦÏģ
Î¼á½±Î½ Î½Î·ÏĤ
Ġá¿¥á¾· Î¿Î½
Ġá¼ĶÏĥÏĩÎ± ÏĦÎ¿Î½
ĠÏĢÎ»Î·Î¼Î¼Îµ Î»
Ġá½ģÎ´Î¿Î¹ ÏĢÎ¿
ĠÎĿÎ±Î²Î¿ÏħÏĩÎ¿Î´Î¿Î½Î¿Ïĥ á½¸Ïģ
Îµá½ĲÎ¸ á½ºÏĤ
á¿¥Î·ÏĦ á½·Î½Î·ÏĤ
T his
n ect
Ġ {
Î¿ ÏģÎ±
Î¼ Î®
Ïī ÏĢÎµ
ĠÏĢ á½½ÏĤ
Î¸ Îµá½·ÏĥÎ·ÏĤ
á½· Î·ÏĤ
Ġá¼Ģ ÎµÏģ
ÏĥÏĦ á¿¶Î½
âĢ ¦
ÏĦÎµ Î»Îµ
Ġá¼Ķ ÏĥÎ¸
ĠÏĦÎµ Î¹Î½
Ġá¼Ħ Î´Î·Î»Î¿Î½
Ïģá½· ÏĦÎ¹
ÏĥÎ± Î¯
Ġá¼ĢÎ½ Î¿á½·
ÏĥÏĩ ÎµÎ½
Ġá¼ĢÏģ Îºá½³
ÏĢÎµ ÏĨÏħÎº
ÏĢÎ± Î³
ĠÎ»Îµ á½±Î½Î±ÏĤ
ĠÏĢÎµ Î¶
Ġá¼¥ ÎºÎµÎ¹Î½
Î»ÎµÎ¹ Î¼
á¼Ķ ÏĥÏĦÎ±Î¹
Ġá½ħÎ» Î¿ÏĤ
ĠÎ¼ÎµÏĦÎ± ÏĩÎµÎ¹
ĠÎ¿á¼¶ ÏĤ
Ġá¼ĳÎ±ÏħÏĦ á¿ĩ
ĠÎ¼á½³Î½ ÎµÎ¹Î½
ĠÎ½Î¿Ïĥ Îµá¿ĸÎ½
á½ģ ÏĢá½¹
ÏĦÏĦÎ¿Î½ ÏĦÎµÏĤ
Ġha rd
Ġá½ĳÏĢÎµÏģ ÏħÏĪ
Î¾Îµ ÏĥÎ¹Î½
ĠÎľÏī á½°Î²
ÏĦÎ® Ïģ
Ġ19 8
ĠÎ´Î¹Î±ÏĨá½³Ïģ ÎµÎ¹Î½
Î¿Î»Î¿Ïħ Î¸
ĠÎ³á¿Ĩ ÏģÎ±ÏĤ
á¼ķ ÎºÎ±
ĠÏĢÎµÏģá½· Î¿Î´Î¿Î½
ĠÎ¼Î·Î½ á½¶
ĠÎ´Î¹ÎºÎ±Î¹Î¿Ïĥ ÏįÎ½Î·ÏĤ
Ġá¼ĢÏģÎ¹ÏĥÏĦÎµÏģ á¿¶Î½
Ġá¼ĲÎ¸Îµ Î±Ïĥá½±
ĠÏĢÎ±ÏģÎµÎ¼Î² Î¿Î»á¿ĨÏĤ
ĠÏĥÏĦÏģÎ± ÏĦÎ·Î³
ĠÏĦá½³ÏĦÏĦÎ± ÏģÎ±
Ġá½ĢÎ»Î¹Î³ á½±ÎºÎ¹ÏĤ
Ġá¼ħÎ³ Î¹Î±
Ġá¼ĢÏĢÎ¿ÏĦÎµÎ» Îµá¿ĸÏĦÎ±Î¹
ĠÎ²Î»Î±Î² ÎµÏģ
ĠÏĥÏĢÎ±Î½ á½·ÏīÏĤ
ĠÎĶÎ± Î¼Î±
Ġá¼ĲÎ»Î±Ïĩ á½·ÏĥÏĦ
s ch
Î¿ ÏĢÎ¿Î½
Îµ ÏħÎº
ÏĢ ÏīÏģ
Ïħ Î²
ĠÎºÎ± Î¼Î½
á½³ ÏĥÏĦÎ¿Ïħ
Î³ ÏħÎ¼
Î¿Ïħ Ï²
ÏĨ Î±Ïģ
ÏģÎ± Î¾Î±
ÎºÎ± ÏĦá½±
Î¿á¿ĸ Î±
ĠÏĦÎµ ÏĦá½±
Ïģá½· á¾³
ĠÏĢÏģÎ¿ ÎºÎ±ÏĦÎ±
á¿¦ Î»Î±
Ġt it
ĠÏĢÎ± ÏĥÎ¹Î½
Ġá¼ĲÏĢÎ¹ ÏĥÏĦÎ±
ÏĥÎº Î¿Î½
Î¼á½± Ïĩá¿³
Ġá¼ĢÎ½Î± Î³Î½
ÏĦÏģ á¾³
ĠÏĢÎ» Î¬
ĠÏĢÎ¿Î»Î» á¿ĩ
ĠÏĢÎµÏģÎ¹ Î²
Ġá½¥ ÏģÎ±Î¹ÏĤ
ĠÎ¶ Ïİ
ĠÎ¾ ÏħÎ»
Î¸Î± ÏĦÎµ
Ġá½ĳÎ³ á½·
Ġá¼ĶÎ½ Î½
ĠÏĨÎ± Î¼ÎµÎ½
ĠÏĢÎ±Î½ Î¹Î±
ĠÎ¼ÎµÎ³ á½·ÏĥÏĦÎ·
á½»Î½ ÏĦÎµÏĤ
Ġá¼ĲÏģ ÏħÏĥá½·
ĠÏĢÏħ ÏģÎ¹
ĠÏĦá½¹ ÏĢÎ¿ÏĤ
ĠÎºá¾Ģ ÏĢÎµÎ¹Î´á½°Î½
ĠÏĦÏģÎ¹ Ïĥá½¶
ĠÎ´ÏħÎ½á½±Î¼Îµ ÏĥÎ¹Î½
ĠÎ¹ Î±
ĠÎ±Î½ Î¸ÏģÏī
ĠÎºá½¹ Îº
á¼ĺ á½°Î½
Ġá¼ĶÎº ÎºÏģÎ¹ÏĥÎ¹Î½
Îķ á¼´
ĠÎ¶Î· ÏĦÎµá¿ĸ
ĠÏĢÎ±Î¸ á½µÎ¼Î±ÏĦÎ±
Îľ Îµ
Ġá¼ĦÎº ÏģÎ±Î½
Ġv ari
ĠÎ¸á½³Ïģ ÎµÎ¹
Ġá¼ĢÎ½ÎŃ Î²Î·
ĠÏĥÎºÎ·Î½ á½´Î½
Ġá¼ĲÏĥÎ¸ Î¯
ĠÎ»ÎµÏĢÏĦÎ¿Î¼ÎµÏģ á½²ÏĤ
Ġï¬ Ĥ
Î´ÎµÎºá½± ÏĦá¿ĥ
á½ĥ ÏĤ
Ġá½ĳÏĢÎ¿Î¼Î½á½µ Î¼Î±ÏĥÎ¹
ĠÏĥÏħÎ½Î´á½³ÏĥÎ¼ Î¿Ïħ
ĠÎºÎ·ÏģÏī ÏĦá¿ĩ
Ġá¼¹ÏĢÏĢÎ¿ÎºÏģÎ¬ ÏĦÎ¿ÏħÏĤ
ĠÏĥÏħÎ½ÏĦÎµÎ» Îµá¿ĸ
ĠÎ´Î¹Î±Ïĥ á½½
Ġá¼ĪÏĥÏĥ ÏħÏģ
ĠÎºÎ±ÏĦÎ¿ ÏģÎ¸
ĠÎºÝ² ÏĤÝ²
ĠÎ±á¼°ÏİÎ½ Î¹Î¿Î½
Ġá½¡Î¼ Î¿Î»á½¹Î³
ĠÎļÏħÏģ Î¯á¿³
á¼ĲÏĩÏģ á¿ĨÎ½
sha ll
Ġá¼ĦÎ»Îµ ÏħÏģÎ¿Î½
o ice
u ll
Ïĥ ÏĢÎ¿
ĠÏĦ ÎµÎ¹
Î» Î¸Îµ
á¿¶ ÏĦÎ¿ÏĤ
Ġá¼Ģ ÏĥÎ¸á½³Î½
Î¿á¿¦ Î½Î±Î¹
á¿¶Î½ Î¹
ĠÏĥ á¿¶
Î±Î½ ÏĦÎ¹Î¿Î½
á½µ ÏĥÎ±Î½ÏĦÎ±
ÏĦÎ¹ Î±Î½
ĠÎ¸ Î±Î»Î±
ÏĮ Î¼Î·Î½
Ïį ÎµÎ¹
Î¶ Î¿Î½ÏĦÎ±
Î»Î± ÏĦÎµ
ÏģÎµ Î¯
Ġá¼ĲÏĢÎ¹ Î¼á½³
ÏĥÎº ÎµÏĪ
Ġá¼ĢÏģ Î¾Î±
Ġá¼ĲÎ³ Ïİ
ĠÏĥÏħÎ½ Î·
ÏĮÎ½ ÏīÎ½
ÏĮÎ½ ÏĦÎ¿ÏĤ
Ġá¼Ī ÏĩÎ±
Î´Î¿ ÏĦÎ±Î¹
ĠÎ»Î± á½¹Î½
ĠÎºÎ±Î» á½³
ĠÎ¼á½µ ÏĢÏī
ĠÏĦá½³ ÏĥÏĥÎ±ÏģÎ±ÏĤ
ÏħÎ¸ á¿ĩ
ĠÎ¤ Î±
ĠÎ³Î» Ïİ
ĠÏĥÎ±ÏĨ á½³ÏĥÏĦÎµÏģÎ¿Î½
Ġá¼ĢÎ´ á½µÎº
ĠÎµá½ĲÎ¸ ÎŃÏīÏĤ
ĠÎ¸ÏħÎ¼ á½¸Î½
ĠÎµá½Ķ ÎºÏģÎ±
ĠÎºÏį ÏģÎ¹Îµ
ĠÎ»ÎµÎ³ á½¹Î½ÏĦÏīÎ½
ĠÏĥÏĨÎ¿Î´ ÏģÎ¿
ĠÎ³ÏħÎ¼Î½Î± Ïĥá½·Î¿Î¹ÏĤ
ĠÏĢá½¹Î½ Î¿ÏĤ
Î´á½³Ïĩ ÎµÏĥÎ¸Î±Î¹
Ġá¼¤ÎºÎ¿Ïħ ÏĥÎ±
ĠÏĢÎ±Î¹Î´á½· Î±
ĠÏĢÏģÎ¿ÏĥÎ±Î³Î¿ ÏģÎµÏħ
ĠÏĥÏħÎ¶ÏħÎ³ á½·Î±
ĠÏĢÎ»Î·Î³ á½´Î½
ĠÎ¼ÎµÎ»Î±Î³ÏĩÎ¿Î» Î¹Îºá½¸Î½
Ġá½ģÎ¼Î±Î» á¿¶ÏĤ
Ġomit s
Ġá¼ĲÎ½ÏĦÎ¿ Î»á½°ÏĤ
ÎµÎ»Î¸ á½¼Î½
ĠÎµá¼°Î´ á½³Î½Î±Î¹
ĠÎºÏħá½± Î¸Î¿ÏħÏĤ
ĠÎ»Î· ÏĨÎ¸
ÏĥÏħÎ¼ Î²Î±á½·Î½ÎµÎ¹
Ġá¼ĲÎ½Î½ á½³Î±
ĠÎ³Î»Î¹ ÏĥÏĩ
ĠÏĢÎµÎ½ÏĦá½µ ÎºÎ¿Î½ÏĦÎ±
e nd
e ous
Â ¶
Ġ <
Ïĥ ÏĥÏī
Ïĥ ÏħÎ³
Îº ÏĦÎ¹
Îº Î·ÏĥÎ±Î½
Î¸ Î¬
á½³ ÎµÎ¹Î½
á½³ ÏĥÎµÏīÏĤ
Î³ á½·Î³Î½ÎµÏĦÎ±Î¹
Î´ ÎµÎ¹ÏĤ
Î¿Ïħ Î¼á½³Î½Î·Î½
ĠÏĥ á¿Ĩ
á¿Ĩ ÏĥÎ±á½·
ÏĥÏĦ á½¹
Î¯ ÏĥÏĦÎ¿Ïħ
Ġá¼ĲÏĢ Î»Î®
ĠÎ» Î¹Î³Î½
Ġá½ĳ Î¼á½³Î½
ĠÎ¸ ÏħÏģ
Ġá¼Ħ Î³Î½
Ġá½ħ ÏĦ
ÏĪ Ïħ
ĠÏĦÎ± ÏħÏĦá½¶
Ġá¼ĢÎ½ ÏĮ
á½·Î½ Î¿ÏħÏĥÎ±
ĠÎºÎ±Î¸ Î·
ĠÎºÎ±Î¸ Î±ÏģÎ¹
Ġá¿¥ á½µÎ¼Î±ÏĦÎ±
Ġá¼ĢÏĢÎ¿ ÏĦá½·
ĠÎµá½Ĳ ÏĢÎ¿Ïģ
Î»Î¿Î½ ÏĦÎ±Î¹
ĠÎ¼Î¿Ïħ ÏĥÎ¹Îº
ĠÏĨÎ± á½·Î·
Î¸á½³ ÏĥÎµÏīÏĤ
ÏĥÏĦÎµ Î¯
ĠÎºá½± Î»Î»Î¹Î¿Î½
ĠÏĢÏħ Î¸
Ġn ations
ĠÎµá¼°Ïĥ ÏĢÎ½Î¿á¿ĨÏĤ
Ġá¼ĢÎ³ ÏīÎ½
Ġá¼ħÏĢÎ±Î½ ÏĦÎ¿ÏĤ
ÏĨÏħ Î»Î±Îº
ĠÎ´Î· Î»Î·
ĠÎµá½ĲÎ¸ Îµá½·Î±ÏĤ
ĠÎºÏģá½· Î½ÎµÎ¹Î½
Ġá¼ģÎ¼Î±Ïģ ÏĦÎ¯
ÏĥÏĦÎ¹Îº á¿ĨÏĤ
ord ing
ĠÎ¼ÎµÎ¸ á½¹Î´á¿³
ĠâĦµ ÎĴ
Î¹ÏĥÏĦ Î¿ÏĤ
ĠÎ³ÎµÎ½Î½ Î·Î¸
Ġá¼¸Ïī á½°Î²
Î¿ÏħÏĥÎ±Î» Î·Î¼
ĠÏĥÏĦÎ¿ ÏĩÎ±
Î³Ïģá½± ÏĨÎµÎ¹
ĠÏĨÎ±Î½ Îµá¿ĸÏĦÎ±Î¹
Ġá¼ĢÎ´ÎµÎ»ÏĨ á½¸ÏĤ
ĠÏĢÏģÎ¿ÏĨ á½±
ÎºÏĮ ÏĥÎ¹Î¿Î¹
Ġá¼ĶÎ´Ïī ÎºÎ±Î½
Ġá¼ĢÏĨÎ¹Îº Î½Î¿Ïħ
ĠÏĢÎ»Î·Ïĥ Î¼Î¿Î½
Ġá¼ĢÎ½Î±ÏĦÎ¿Î¼ Î¹Îºá¿¶Î½
ĠÏĢÎ±ÏģÎ¿Î¾ÏħÏĥ Î¼á½¸Î½
Ġá¼ĲÏ² Î¸
ĠÎĽÎµÏħ ÎµÎ¹
ĠÎ±á¼±Î¼Î¿á¿¤á¿¥ Î¿ÎĲ
Ġá½ĳÎ´ Î±Ïģ
ĠÎ¸ÏħÏĥÎ¹Î±ÏĥÏĦ Î®ÏģÎ¹Î¿Î½
Ġmea n
Ġá¼ĲÎ¾ÎµÎ» á½³Î³
ĠÏĥÏĢÎ¿Î½Î´á½»Î» Î¿Ïħ
Ġá¼ĶÎ½Î´ÎµÎ¹ Î¾Î¹ÏĤ
ĠÏĪÎµÏħ Î´á¿Ĩ
ĠÎ´Ïģ ÏħÎ¼
ÎºÎ¿Ïį ÏĥÎ±ÏĦÎµ
ĠÏĢÏĦÎ¹Ïĥ á½±Î½Î·ÏĤ
Ġá¼ĢÎ½ÏīÎ¼Î±Î» á½·Î±ÏĤ
ĠÎ±á¼°Î³ á¿¶Î½
we en
ĠÎµá¼°ÏĥÎµÎ»Î¸ Îµá¿ĸÎ½
Ġá¼ĦÏĦÎ¿ ÏĢÎ¿Î½
Ġá¼ĢÎ½Î±Î¼Î¹ Î¼Î½á½µ
ĠÏĦÎŃÏĩ Î½Î·ÏĤ
ĠÏĦÎ·Î» Î¹Îº
Ġá¼ĲÏģá½µÎ¼ á¿³
itz sch
á½ Ń
Ïĥ ÎŃ
ÏĢ á¾¶Î½
ĠÎº Î¿á¿¦
ĠÏĢ ÏĦÏħ
Î³ Îµá½·
Î´ á½¸Î½
Î¿Ïħ Ï²Î¹
ĠÏĨ ÏħÎ³
ĠÎ» Î±Î½Î¸
ĠÏĩ Î¿Î¹
Ġá¼¡ Î½
Ġá¼ĢÏĢ Î±Î»Î»á½±
Î´Îµ ÎºÎ¬
ĠÏĩÏģ á½µÏĥÎµÎ¹
Ġá¼ĲÏĢÎ¹ ÏĨÎ±
á½·Î½ Î¿Î½ÏĦÎ±ÏĤ
Î¼á½± Î»Î¹ÏĥÏĦÎ±
Ġá¼° Î½
Ġá¼ĢÎ½Î± Î¼Î½
ĠÏĢÎ±Ïģ Î¿
Ïİ Î¼ÎµÎ¸Î±
Ġá¼ĢÏĢÎ¿ Î»Î±
Î¿Î¼á½³Î½ á¿ĥ
ÏĢÎ± ÏĦÎµ
Î´Î· Î»Î¿ÏĤ
ĠÏĢÎµÏģÎ¹ á½³
Ġá½¥ ÏĥÎ¸
ĠÏĢÎ±ÏģÎ± Î²á½±Î»Î»
ĠÏĥÏĦ á¿Ĩ
Ġá¼Ī Î½Î±
ĠÎ±á¼± Î¼Î±
ĠÎºÎ¿ Ïĩ
ÎºÎ¿Ïħ ÏĥÎ±
Ġm is
ĠÏĢÎ±Î½ ÏĦá½·
ĠÏĦÏģá½· ÏĦÎ¿ÏĤ
ĠÎ²ÏģÎ±Ïĩ Îµá¿ĸÎ±Î½
Ġá½ĢÏĥÏĦ á½³Î¿Î½
Îĳ á¼±
ĠÎ´Î¿ Î¾Î±
ĠÏĢá½³ ÏĢÎ¿Î½
ĠÏĢÎ±Î» Î¹Î½
ĠÎºÎ±ÏĦÎµ Î±Î³
Ġá¼ĢÎ½Î±Î³ÎºÎ± Î¶
ĠÏĦÎ±Ïĩ á½ºÏĤ
Ġg o
ĠG en
Ġá¿¬ Î±
Ġá¼ĲÏģÎ³Î± ÏĥÎ±
ĠÎ¿á¼µ ÏĦÎ¹Î½ÎµÏĤ
ĠÎ´Î¹Î±Î» Î¿Î³
ĠÎ¸á½³ ÏĥÎ¹ÏĤ
el itzsch
ĠÎĸ Î±Î²
Î±Î»Î» Î±Î³
ÏĢÎ¿Î»Î» á½°
ĠÎ´Î¯ Î´Î¿Ïħ
Î¸ÎµÏģ Î¼
ĠÎ³ÏħÎ½Î±Î¹Îº á½¶
Ġá¼ĲÏĢÎ¹Î´á½³ Î´ÎµÎ¹ÎºÏĦÎ±Î¹
ĠÏĩÏģá½µÏĥÎ¹ Î¼Î±
ĠÏĦá½³Î½ Î¿Î½ÏĦÎ±ÏĤ
ĠÎ´Î¿á¿¦ Î»
ĠÎ¿á½ĲÎ´á½³ ÏĦÎµÏģÎ¿Î½
ĠÎµá¼´ÏģÎ· ÎºÎµ
ĠÏĥÏħÎ¼Î²ÎµÎ² Î·
ĠÏĨÎ±ÏģÎ¼Î± ÎºÎµ
ĠÎ¾á½» Î»Î±
ĠÎºÎ·ÏģÏī ÏĦá¿ĨÏĤ
Ġá¼ĢÏĥÎµÎ² á¿¶Î½
ĠÎ´á½¹Î¾ÎµÎ¹ ÎµÎ½
Ġá¿¥Î¿Î´ á½·Î½á¿³
Ġá½ĢÎ¼ÏĨ Î±Î»
ĠÏĥÏħÎ¼ÏĢá½± Î¸ÎµÎ¹Î±Î½
ÏĨÏģÎ± Î³Î¼Î±
Ġá¼ĲÎ´Îµá½·ÎºÎ½Ïħ ÏĦÎ¿
Ġro ot
Ġá½ĳÏĢá½¹Î»Î¿Î¹ ÏĢÎ¿Î½
Ġpassa ge
Ġá¼ĪÎ½Î´ÏģÎ¿ Î¼á½±ÏĩÎ¿Ïħ
ĠÎ´Î¹Î´ÏĮ Î½Î±Î¹
t ers
u ng
w n
Ġ 0
Ïģ Î·Ïĥ
ÏĢ á½¸Î½
Ġá¼Ĳ á¿¤á¿¥Ïī
Î¸ Ê¼
ĠÎ± ÏĥÎµÎ²
Î¼Î± ÏĥÎµÎ½
Ġá¼Ķ ÎºÎ»
Ġá¼Ķ ÏĥÏĦÎ·ÏĥÎµÎ½
ĠÏĨ Î¿Î¹Î½
Î¬ ÏĢ
ÏĮ ÏĦÎµÏģÎ±
ĠÏĢÏģÎ¿ á½Ĳ
Ġá½ĳÏĢ á½±Ïģ
ĠÎ½ Î®
ĠÏĩÏģ Ïħ
Ġá¼° á½¸Î½
ÏħÏģ Î¿ÏĤ
Ïģá½¹ ÏĦÎµÏģÎ¿Î¹
ĠÏĦÎ¹Î½ á½³ÏĤ
ĠÏĥÏħÎ½ á½·ÏĥÏĦÎ±ÏĥÎ¸Î±Î¹
er haps
Ġá¼ĢÎº Î¼Î±Î¶
ĠÏĢÎ±ÏģÎ± Î²Î±Î»Î»
ÏĦá½± ÏĥÎµÏīÏĤ
Î·Î¸ Î®ÏĥÎµÏĦÎ±Î¹
ĠÎºÎµÏĨÎ±Î» á½µÎ½
ĠÎ¼Î¹Îº ÏģÎ¿á½ºÏĤ
ic ult
Ġá¼ĢÎ³Î± Î³
ĠÏĦÎµÎ»Îµ ÏħÏĦÎ±
ĠÎ´á½¹ Î¾Î·ÏĤ
Ġá¼ĢÎ¾Î¹ Î¿Î»á½¹Î³
Î²Î±Î» Îµá¿ĸÎ½
Ġá¼ĢÎ½Î¸ÏģÏİ ÏĢÎ¿ÏħÏĤ
Ġor igin
ĠÏĢÎ¹Îº Ïģá½¸Î½
Ġcon nect
Ġá¼ĲÏĢÎ¿Î¯ Î·ÏĥÎ±ÏĤ
Ġá¼ĲÏĢÎ¹ÏĥÎº Îµ
ĠÏĢÎ»ÎµÎ¿Î½ ÎµÎ¾
ĠÎ´ÏįÎ½Î± Î¼Î¹ÏĤ
Î¿ÎµÎ¹Î´ á¿Ĩ
ĠÏĥÎ· ÏĢ
ĠÏĦÎ¿ÏħÏĦá½³ ÏīÎ½
Ġá¼ĲÏ² ÏĦá½¶
ĠÏĢá½¹Î½ Î¿Î½
Ġá¼ĳÎ±Ïħ ÏĦá½°
ĠÎ§ÏģÎ¹ÏĥÏĦ á¿·
ĠÎ´Î±ÎºÎ½ á¿¶Î´ÎµÏĤ
ĠÎ´Îµá½· ÎºÎ½Ïħ
ĠÎ½ÎµÎºÏģ á¿¶Î½
ĠÏĨÎ¹ Î»Î¿Î½
Ġá¿¥Îµá½» Î¼Î±ÏĦÎ¿ÏĤ
Ġid ea
Ġá¼ĢÎ»á½¹ Î·ÏĤ
Ġá¾łÎºÎ¿ Î´ÏĮ
Ġá¼±Î¼á½± ÏĦÎ¹Î±
Ġtim e
I V
a e
k en
ÏĦ ÏĦÎ¿Î¹
Î¹ ÏĢ
Î¹ Ïī
Ïĥ Î¼Î±ÏĥÎ¹Î½
Ïħ á¿ĸÎ±
ĠÎº Î»Î¿Î½
Î³ Î·Î¼Î±
ĠÏĥ ÏĢÎµá½»
ĠÎ±á½ĲÏĦ Î¿á¿ĸÏ²
Ġá¼ĲÏĢ ÎµÎ»
ĠÎ» Îµá¿ĸÎ¿Î½
Î¬ ÏĦá¿³
á½½ ÏĥÎµÏĥÎ¹Î½
Ġá½ģ Î´Î¿
ÏĪ Î¹Î¼ÏħÎ¸á½·Î¿Ïħ
ĠÏĢÏģÎ¿ ÏĦá½³ÏģÎ±ÏĤ
Ġá¼ĢÎ½ Î¿Î¹
Ġá¼ĲÏĢÎ¹ Î³ÏģÎ±ÏĨ
ĠÎĳ Ïģ
á¼Ĳ Î½Î±
Î»Î¹ ÏĢÎµ
ĠÏĢÎ±Ïģ á½³Ïĩ
ĠÏĢÎ±Ïģ á½¹Î½ÏĦÎ¿ÏĤ
ĠÎµá¼´ ÎºÎ¿
Î¿á¿¦Î½ ÏĦÎ¿
Î¸Î· ÏĦÎ¹
ÏĥÏĦÎ± ÏĦÎ±Î¹
Ġá¼ĢÎº Î¿
ĠÏĥÏĦ ÏģÎµ
Îµá¼° Ïģ
ĠÏĥÏĨ ÏģÎ±Î³
Ġá¼´ Î´Î¿Î½
ĠÎ¸ÎµÏģÎ¼ Î±Î½Î¸
ĠÎĴ Î·Î¸
up lic
ĠÎ±ÏħÏĦ Î¿Î¹
Ġá¼ł ÎºÎ¿Î»
Ġd oub
ĠÎ´Î¹á½± ÏĢÎ»Î±
ÏĢÎµÎ¹ ÏĦ
ĠÏĢÎ±Ïĩ á½³Î±
Ġá¼ĳÎºá½±ÏĥÏĦ Î¿ÏĦÎµ
ĠÏĦÏģÎ¿ÏĨ á¿ĩ
ĠÎĿ Î¹Îº
Ġá½ĢÏģÎ³ á½±Î½Î¿Ïħ
á¼ĺ ÏĢá½¶
ÎºÎµá½· ÏĥÎ¸Ïī
ĠÎ³Î»ÏħÎº á½º
ĠÏĦÏĮ ÏĢá¿³
á¼ĶÎ½ Î¹Î±
Ġá¼ĳÏĪ Î·Î¸
ĠÏĢÎ¯ Î½ÎµÎ¹Î½
ĠÎ´Î¹Î´Î±Ïĥ ÎºÎ±
ĠÏĢÎ±Î¹Î´á½· ÏīÎ½
ĠÏĢÎ±ÏĦ Ïģá½¹ÏĤ
ĠÎ³ÎµÎ³ á½¹Î½Î±
Ġá½ģÎ»Î¿ ÎºÎ±á½»
ĠÏĨÎ¹Î»Î¿Ïĥ Î¿ÏĨ
ĠÎ¸á½» ÏģÎ±ÏĤ
Î±ÏģÎ¹ ÏĥÎ±
Ġá¼ĪÏģÏĩÎ¹Î³á½³Î½ Î¿ÏħÏĤ
ĠÎºá½³ ÎºÏĦÎ·
Ġá¼ĺÏģÎ±Ïĥá½·ÏĥÏĦÏģÎ± ÏĦÎ¿Î½
Ġá¼ĲÎ½Î¹Î±ÏħÏĦ á½¸Î½
Ġá¼ĲÏĢÎ¬ ÏĦÎ±Î¾ÎµÎ½
ĠÎ´Î¹Î±Î¸á½µ ÎºÎ·Î½
Ġá¼ĲÏĢá½± ÏĦÎ±Î¾ÎµÎ½
ÎĶÎ¹ á½°
Ġá¼ĶÎ´Î¿ Î¾ÎµÎ½
ĠÎĴÎµÎ½Î¹Î±Î¼Îµ á½¶Î½
Ġá¼ĢÎ¼ÏĨÎ¹Ïĥ Î²Î·
ĠÎ±á½ĶÏĦÎ±Ïģ ÎºÎµÏĤ
1 âģ°
e b
e x
ÏĦ ÏħÏĢ
Î¼ ÏĨÎ¿
Î¼ Î¯Î±Î½
Ïħ Î¿Î½
ĠÎº ÏĦÎ®
Î· ÎºÎ¿
á½³ Î²Î»Î·
ÏĦÎ± ÎºÏĦÎ±Î¹
á½» ÏģÎµ
ĠÏĢÏģ á½¹Î½
á½µ Ïĥá¿ĥÏĤ
ĠÏĨ ÏģÎ¹Îº
Î¬ Î³Ïĩ
á½½ Î²
Î¼á½³Î½ ÎµÎ¹
ÏĢÎ¿ Î¯
Ġá¼ĲÎº ÏĢá½³Î¼ÏĢ
Îµá½· ÏĥÎ¸Ïī
Î·Ïĥ Î¿Î¼á½³Î½ÏīÎ½
Ġá¼ĲÎ¾ á½±
Ġá¼ĢÏĢÎ¿ ÏĥÏĦá½±
Ġá¼ĢÏĢÎ¿ ÏĢÎ»Î·
Ġs c
ĠÎºÎ±ÏĦÎ± Î»Îµ
Ġá¼ħ ÏĦÎµ
ĠÎļ ÎµÎ»
Î´Î¹ Î¬
ĠÏĢÎµÏģÎ¹ ÏĥÏĦÎµÏģ
Î¼Î¿Î½ Î±
ĠÎ£ ÏħÏģ
Ġc ha
Ġb oth
ĠÎ¸ÎµÏģÎ¼ á½´
ĠÏĨÎ± Î¯Î½ÎµÏĦÎ±Î¹
Ġá¼¥ Î¾ÎµÎ¹
ĠÏĢá½± ÏĥÎ±Î¹ÏĤ
Ġm en
ĠÏĢÎ»Îµ Î¯
ĠÎºÎ¹Î½ Îµá¿ĸÏĦÎ±Î¹
Ġá½ł Îº
Î¿á½ ĸ
Ġd id
Ġd ue
ÏĦá½µ ÏĥÎµÎ¹
ot her
ĠÏĥÏĢ á½±Î½
Ġá¼ĦÏģ Î¾Î±ÏĥÎ¸Î±Î¹
ĠÎ³Î¹Î½ ÏīÏĥÎº
ĠÎ¹ ÏĢ
Î»Î¿Ïħ Î½
ĠÏĥÎ±ÏĨ á½´ÏĤ
Ġá½ĢÎ½Î¿Î¼á½±Î¶ ÎµÏĥÎ¸Î±Î¹
Ġha d
ÏģÏī ÏĥÏĦ
ĠÎµÏĢÎ¹ ÏĥÏĦÏģÎµ
Ġá½ĢÏģÎ³ á¿ĨÏĤ
Ġá¼ĢÏĢá½¹ ÏĥÏĦÎ±ÏĥÎ¹Î½
Ġver s
ĠÎ²Î±ÏĥÎ¹Î»ÎŃ ÏīÎ½
ĠÎ±á¼°ÏĥÎ¸Î· ÏĦá½´Î½
ĠÏĪá½» ÏĩÎµÎ¹
Ġá½łÏĨÎµÎ» Îµá¿ĸÎ½
ĠÏĢÏģÎµÏĥÎ² Ïį
Ġá¼¸Î¿ÏħÎ´Î± á¿ĸÎ¿Î¹
Ġá¼© ÏģÎ¿ÏĨ
ĠÏĩÎµÏģ Ïĥá½¶
ĠÏĢá½¹Î½ Î¿Î¹
ĠÏĢÎ¯ ÏĥÏĦÎµÏīÏĤ
Ġá½ķÏĢÎ½ Î¿Î½
ĠÎ²ÎµÎ² Î»Î±Î¼
Ġá¼ĶÏĥÏĩ ÎµÎ½
Î¼Î±ÏĦ ÏĮÏĤ
ĠÏĥÏħÎ¶ÏħÎ³ á½·Î±Î½
ĠÎºÏħÎº Î»Î¿
Ġdiff icult
Ġá¼ģÏģÎ¼á½¹ ÏĦÏĦÎµÎ¹Î½
ĠÎºÎ¿á½· Î»Î·ÏĤ
Ġá½ĢÎ¼ÏĨ Î±Îº
ĠÎºÎ±ÎºÎ¿ÏĩÏħÎ¼ á½·Î±ÏĤ
ĠÎºÎ±Î¸á½±Ïģ ÏĥÎµÏīÏĤ
ĠÎ¼á½³Î»Î± Î¹Î½Î±Î½
ĠÏĢÎ½ Î¹Î³
ĠÎºÏģÏħ ÏĥÏĦÎ±
Ġá¼ĲÎ¾ÎµÏħÏģá½·ÏĥÎº ÎµÎ¹Î½
ĠÏĢÎ±ÏģÎ·Î³Î¿ ÏģÎ¹Îº
Îµ Ï²
ĠÏĦ Ïħ
ĠÏĦ Îµá¿ĸ
Î» Îµá¿ĸ
Î¼ á½¹ÏĤ
ĠÎºÎ± Ïħ
Ïī ÏģÎ·
Ġá¼Ĳ Î¼Î¿Î¯
Î¸ Ïį
Î´ á½¸ÏĤ
Ġá¼Ģ ÏĦá½¹
ĠÎ± ÏģÎ³
ĠÎ± Î»Î·Î¸
á¿¶Î½ ÏĦÎ±ÏĤ
ĠÎ³ ÎµÎ¹
Î¾ á¿ĥÏĤ
Ġá¼Ķ ÎºÏģÎ¹Î½
ÎŃ ÏģÎ¿Ïħ
ÏĥÎ¸ Î·ÏĤ
ĠÎ» Î·Ïģ
ÏģÎ¹ Î±Î½
ĠÎ¸ Î½Î·
Ġá¼Ħ Î³ÎµÎ¹
ÏĪ ÏħÎ³
ĠÏĥÏħ ÏĩÎ½
ĠÎ´Î¹Î± ÏĢÎ±Î½
á¿ĥ ÏĥÎ¹Î½
á¼Ĳ ÎºÎµá¿ĸ
Î»Î¹ Î±ÏĤ
á¼Ģ ÏģÏĩ
Î¸Î· ÎºÎ±ÏĤ
ĠÎºÎ±ÏĦ á½±Î½
ĠÎµá½Ĳ ÏĨÎ¿Ïģ
ĠÏĨá½» Î»Î»ÏīÎ½
ĠÎºÎµ ÏĩÏģÎ¿Î½
Î¸Î± ÏħÎ¼Î±
ÏģÎ¿Î½ ÏĦÎµÏĤ
Î¼Î½ Î¿Î½
ĠÏĥÏĨ Î±Î»ÎµÏģ
ĠÎ»Î± Î¿Ïħ
ĠÎ»Î± ÏĮÏĤ
Î¸á½³ Î¼ÎµÎ½Î¿ÏĤ
ĠÎºÎ±Î» Î¿á¿¦
ĠÏĢÎ±Î½ ÏĦá½¹ÏĤ
ÏĥÏĥ á½·Î±ÏĤ
Î¿Î½ÏĦÎ± á½·
ĠÎ½Î¿Ïĥ á½µÎ¼Î±ÏĦÎ¹
Ġá¼ĢÎºÏģÎ¹Î² Î¿á¿¦ÏĤ
Ġá¼ĺ Î³á½¼
ĠÎ²Î±ÏĥÎ¹Î»Îµ á¿¦
á¼¡ Î¼
Ġá¼ĲÎ¼ÏĢ Î»Î·
ĠÏĢÎ»Î· ÏģÎ¿á¿¦
Ġfor th
Ġá¼ģÎ¼Î±Ïģ ÏĦÎ¹á¿¶Î½
ĠÎºÎ¿Î¹Î» á½¹ÏĦÎ·ÏĦÎ±
Ġ?? )
ĠÎ´á½· ÎºÎ·Î½
ĠÎľÏī Ïĥ
ÏĢá½¹ ÏĦÎµÏģÎ¿Î½
ĠÎ³ÎµÎ½Î½ á¾¶ÏĥÎ¸Î±Î¹
ere m
Ġá¼ĢÏģÎ³ á½»ÏģÎ¹Î¿Î½
ĠÏĢÏģÎ¿ÏĨ Î·ÏĦá¿¶Î½
ÏĥÏħÎ½ Î¿Î½
Ïĥá½± Î¼Î¿Ïħ
Ġá¼ĢÏħÏĦ á½´Î½
Ġá¼ĢÎ¼á½³ Î»ÎµÎ¹
Ġá¼ĢÏĢÎ¿Î´Îµá½· Î¾ÎµÎ¹ÏĤ
Ġá¼ĲÎ¾Î±á½· ÏģÎµÏĦÎ¿Î½
ĠÎ¡ Î±
ĠÏĦá½³ÏĦÏĦÎ± ÏģÎµÏĤ
ĠÎĻÎµÏģ Î¿ÏħÏĥÎ±Î»Î·Î¼
Ġá¼ĳÎ²Î´á½¹ Î¼Î·Î½
Ġá¼ĦÎ¼Îµ Î¼ÏĢ
ĠXX X
ĠÎ»á½±Ïģ ÏħÎ³Î³Î±
Ġsh ould
ĠÏĦÏģá½³ÏĨ ÎµÏĥÎ¸Î±Î¹
Ġá¼ĲÏĢÎ¿ÏģÎµÏį Î¸Î·
ĠÏĢÎ¿á½· ÎµÎ¹
Ġá¼ĪÏĦ ÏĦÎ¹ÎºÎ¿á¿¦
ĠÎ¼Î±ÏĥÏĩá½±Î» Î·Î½
ĠÎ¼ÏħÎº ÏĦá¿Ĩ
Ġá¼ĢÎ½Î´Ïģá½± ÏĥÎ¹Î½
Ġá¼ĢÏĥÏĨá½±Î» ÎµÎ¹Î±Î½
Ġexp ress
ĠÎĳÎ¹Î³ ÏħÏĢ
Ġsec ond
p h
ÏĢ ÎµÎ¹Ïģ
Ïħ á¿¤á¿¥
Ïħ á¿ĸÎ±Î½
Îº ÏĦá½¸ÏĤ
Ïī Î¼á½±ÏĦÏīÎ½
Î¸ á½·Î¿Ïħ
ĠÏĥ Î±ÏħÏĦ
ĠÏĥ ÏĦÎ·ÏģÎ¹
Ġá¼ĲÎ½ Î´
Ġá¼ĲÎ½ ÏĦá½³ÏģÎ¿Î¹ÏĤ
Î¯ ÏĤ
Î¯ Î·Î½
Ġá¼Ķ ÏĥÏĦÎ·ÏĥÎ±Î½
Ġá¼ĲÎº ÏĢÎ¿ÏģÎµÏħ
Î·Î½ Î±Î¹
Ġá¼ĳ Î»
ĠÎ´Î¹Î± ÏĢÎµ
ĠÎ½ á¿Ĩ
ÏģÎ¿ Ïĩ
ĠÏĢÎ± ÏĦÎŃÏģÎµÏĤ
Ġá¿¥ Î¹Î³
ÏħÎ¼ Î¬ÏĦÏīÎ½
ĠÎµá¼´ Î´ÎµÎ¹
ĠÎºÎ±ÏĦÎ± ÏĦÎµ
ĠÎºÎ±ÏĦÎ± Î¼á½µÎ½
Ġá¼ĲÎ³ Î½Ïī
ĠÎ´Îµ á½¹Î½ÏĦÏīÏĤ
ĠÎ»Îµ ÏĩÎ¸á½µÏĥÎµÏĦÎ±Î¹
ÏīÏģ Îµá¿ĸ
Ġá½ķ Î»Î±ÏĤ
ĠÎ¸ÎµÏģÎ¼ á½¹ÏĦÎµÏģÎ±
á½µÎ½ Î·Î½
ĠÏĦÏģ Î¬
ĠÎºÏħ ÏĢ
ĠÎµÎ½ Î±Î½ÏĦÎ¹Î¿Î½
ĠÎł ÏģÎ±Î¾Î±
ĠÎ²ÏģÎ±Ïĩ Îµá½·Î±ÏĤ
Ġd own
Ġá¼ĺ Î»Îµ
ĠÎ´Î¹á½± ÏĨÏģÎ±Î³Î¼Î±
ĠÏĥÎºÎ»Î· Ïģá¿¶Î½
ĠÎ´ÏħÎ½Î± Î¼á½³Î½Î¿Ïħ
Ġá½ĢÎ´ á½»Î½Î±Î¹
ÎŁ Î£
ÏĥÏĢ Î±Ïģ
ĠÏĢÎ±ÏģÎµ Î³
ĠÏĢÎ±ÏģÎµ ÏĥÎºÎµÏħÎ±Ïĥ
ĠÎµá½ĲÎ¸ Îµá¿ĸÎ±Î½
ÎºÎ±Î» Îµá¿ĸÏĦÎ±Î¹
Ġá¼ĲÎ»Î± ÏĨ
ĠE x
Ġá¼±ÎµÏģ á½¸Î½
ĠÎ´á½¹ Î¾Î±
Ġá¼ĲÏĢÎ± á½»
ÏĢÏĦÎ¿Î½ ÏĦÎµÏĤ
ĠÎ³Î»ÏħÎº á½³Î¿ÏĤ
ĠÎľÏīÏħÏĥ á¿Ĩ
ĠÎ»á½» ÏĥÎ¹Î½
ĠÏĢÎ»ÎµÏħÏģ á¾¶ÏĤ
ÏĥÏĥÎµ ÏģÎ±
Î¼Ïī Î¼Î¿Î½
ĠÎ´ÏħÏĥÎºÏģÎ± Ïĥá½·Î±
Ġu se
Ġá¿¥á½± Î²
ĠÏĦÎµÏĦá½±Ïģ ÏĦá¿ĥ
um b
ĠÏĥÏħÎ¼ÏĢÏĦá½½ Î¼Î±ÏĦÎ¿ÏĤ
Ġá¼Ļ Î¶ÎµÎº
ĠÏĢÏģá½±Î³ Î¼Î±ÏĦÎ±
ĠÎ¼Î½Î·Î¼Î¿Î½Îµá½» ÎµÎ¹Î½
Î¸ÎµÎ¯ Î·
Ġá¼ĲÎ¼Î²á½±Î»Î» ÎµÎ¹Î½
ĠÎ³ÏħÎ¼Î½á½± ÏĥÎ¹Î¿Î½
Ġtrans lat
ĠÎ¼á½³Î»Î± Î¹Î½Î±
Ġá¼ĲÎ¾Î¿ÏħÏĥ Î¯Î±Î½
ĠÎ½á½· ÏĦÏģÎ¿Ïħ
ĠÎ»Î¹Î²Î±Î½Ïī ÏĦÎ¿á¿¦
Ġins ert
ĠÎ¸á½±Î»Î± ÏĥÏĥÎ±Î½
imil ar
Ġá¼ĲÏģÏħÏĥá½· ÏĢÎµ
v es
Ïĥ á½±Î½
Î¼ Î½Î±
á½· ÏĥÎ±Î¹
Î³ ÎµÎ¹Ïģ
Î¾ á½¶
Ġá¼ĲÏĢ Î¿ÏħÎ»
Ġá¼Ķ Î¼
Î¬ ÏĦÏī
Î»Îµ ÏħÎº
Î¶ ÎµÎ½
Î¹Îº á¿·
Ġá¼ĢÏĢ Î¹ÏĥÏĦ
Ġá¼ĢÏĢ á½»ÏģÎ¿Ïħ
Ġá¼ĲÎ¾ Î·Ïģ
Ġá¼ĲÏĢÎ¹ Î¼Î¹
Î»Î· ÏĥÎ±
á¼Ĳ Î³Ïĩ
Ġá¼ĢÎ½Î± Î²á½±
Ġs y
Î´Î¹ Î±Î½
Ġá¼¤ Î¼ÏīÎ½
ÏĦÎ¿Ïħ Î½
ĠÏĢÏģÎ¿Ïĥ ÎµÎ½Îµ
ĠÎ¶ á¿·
ĠÎ´Îµ Ïĩ
Ġá¼Ī Î¼Î¿ÏģÏģÎ±
ÏĥÎ¼ á¿·
ĠÎ±á¼± Î¼Î±ÏĦ
Ġin cl
Ġ3 05
ĠÎ¼ÎµÏĦÎ± ÏĥÏĦ
ĠÏĥá½» Î³ÎºÎµÎ¹ÏĦÎ±Î¹
at ter
ĠÏĦÏģÎ¹ ÏĦÎ±á½·
ĠÏĥÏĢ á½¹
ĠÏĦÏģá½¹ ÏĢÎ¿Ïħ
ĠÎ§ ÎµÎ²
ĠÎ¿á¼°Îº Î¯Î±Î½
ĠÏĢÎ¹ Î¸á½µ
Ġá¼ħÏĢÎ± ÏĥÎ±Î¹
ĠÎ»á½· Î¸Î¿Î½
Ġá¼ĢÎ´ Î¯
ĠÎ¦ Î±Î»ÎµÏģ
ĠÏĩÎ±Î» Î±ÏĥÏĦ
ro d
ÏĩÎµ ÏīÎ½
the y
ĠÏĥÎ±ÏģÎº á½¶
nt ax
ĠÏĨÎ¹Î» á½¹
Ġá¼¸ÎµÏģÎ¿ÏħÏĥÎ±Î» á½µÎ¼
ĠÎ¼á½· Î³Î½ÏħÏĦÎ±Î¹
ĠÏĥÎºÎ¿ÏĢ Îµá¿ĸÎ½
á¼Ī Î½
Î»á½³Î³ Ïī
ĠÎ´Î¹Î±ÏĨá½³Ïģ Î¿Î½ÏĦÎ±
ĠÎ´ÏħÎ½Î¬ Î¼ÎµÎ¹ÏĤ
ĠÎ¿Î¹Îº Î¿
ĠÎµÏĢ ÏĦÎ±
Ġá¼ĢÎ½á½³ ÏĥÏĦÎ·
ĠÎºÏĮ ÏĥÎ¼Î¿Ïħ
ĠÎ¼Î¹Î³Î½ á½»
Î¾Î· ÏģÎ±
ĠÏĩÏģÏĮÎ½ á¿³
Ġat t
ĠÏĢÏģÎ¿ÏĥÏĦ á½·
ĠÎµá¼°Î´ á½¼ÏĤ
ĠÏĦÏģÎ±Ïĩá½µÎ» á¿³
Ġá½ĢÏĥÏĨ á½ºÎ½
ĠÎ½ÎµÏī ÏĦá½³ÏģÏīÎ½
ĠÏĨÎ»ÎµÏĪ á½¶Î½
Ġá½ĢÎ³ Î´Î¿
Ġá½ĢÎ³ Î´á½¹
Î´Î±Ïģ á½±
Ġá¼ĢÎ½á½½Î¼Î± Î»Î¿ÏĤ
Ġá¼ĲÏĢá½±Î½ Ïī
ĠÎłÎŃ ÏĦÏģÎ¿ÏĤ
Ġá¼ĢÎ½Î±ÏĢÎ½ÎµÏħ ÏĥÏĦÎ¹Îºá¿¶Î½
ĠÎ³ÎµÏģ á½¹Î½ÏĦÏīÎ½
Ġá¼ĺÎ»ÎµÎ¹ ÏĥÎ±
ĠÏĥÏĨá½· Î³Î³
ĠÎ»Î¹Î¸á½±ÏģÎ³ ÏħÏģÎ¿Î½
ĠÎµÎ½Ïī ÏĢÎ¹Î¿Î½
ĠÎºÏģÏħÏĥÏĦÎ± Î»Î»
F or
] |
m ost
á½ Ļ
ÏĦ ÏģÎ·
Î¼ Îµá½·Î½
ĠÎº Î»Îµá½·
ĠÎºÎ± ÏħÎ¸
Ïī ÏĦÎ±
á½· Î´Î±ÏĤ
á½³ Î»Î·
Ïĩ Î¿Î¹ÏĤ
ĠÏĥ á¿ĸ
ÏģÎ± ÏĦÎ¿ÏĤ
Ġá¼ĲÎ½ ÏĦÎµ
Ġá¼ĲÎ½ ÏĦÎ±ÏħÎ¸Î¿á¿ĸ
Ġá¼ĲÏĢ ÎµÏģ
Î½Îµ ÏĥÎ¸Î±á½·
Î¼á½³Î½ ÎµÎ¹Î½
Ġá½ħ Î½
Ġá½Ģ Ïģá½³
ĠÏĥÏħ ÏĥÏĦá½±ÏĥÎµÏīÏĤ
ÏĥÎ± ÏĥÎ¹Î½
á¾¶ Î¹
Î´Îµ Ï²
ĠÏĢÎ± ÏĦá½±
Ġá¼ĲÏĢÎ¹ Î´Î·
á½±Ïģ Î´Î¿Ïħ
Î´Î¹ ÏĮÏĦÎ¹
ĠÏĢÎµÏģÎ¹ Î³ÏģÎ±ÏĨ
á½±Î» ÏīÎ½
ĠÎºÎµ Î»ÎµÏį
ĠÎ³ÎµÎ½ á¿¶Î½
Ġw hat
ĠÎ¼ÎµÏĦÎ± Î²á½±Î»Î»
Î¯Î½ Î¿Î½ÏĦÎ±Î¹
á½·Î¶ ÏīÎ½
ic al
ĠÎ¿á¼°Îº á½·Î±Î½
Ġá¼°ÏĥÏĩÏħÏģ á½¸ÏĤ
ĠÎ»Î¿Î³ Î¹Î¶
ÏĩÏģ á¿ĨÏĥÎ¸Î±Î¹
ĠÏĥÎ¿ÏĨ Î¹ÏĥÏĦ
ĠÏĢÎµÏĢÎ¿Î½Î¸ á½¹ÏĦÎ±
Ġcon st
ĠÎ¿á¼µ Î±Î½
á¼ķ ÏĪÎµ
ĠÏĢÎ±ÏĦÏģ á½¶
Ġá¼ģÎ³ Î¯Î¿Ïħ
Ġá¼ĢÏĦ ÏģÎ¿ÏĨ
Ġá½ģÎ¼Î¿Î»Î¿Î³ Îµá¿ĸ
Ġá½ĳÎ³Î¹ÎµÎ¹Î½ á¿¶Î½
ĠÏĥÏħÎ½á½³ Î²Î·
ĠÎ¾Î±Î½Î¸ á½´Î½
Ġá¼ĢÎ»Î· Î¸á½³ÏĤ
ĠÎ´Ïİ ÏĥÎµÎ¹
Ġá¼ĶÎ½Î´ÎµÎ¹ Î±Î½
Ġá¼ĲÎ¸Îµ á½±
ĠÏĢÎ±Ïģá½± Î´ÎµÎ¹Î³Î¼Î±
Ġá¼ĢÏģá½· ÏĥÏĦÎ·Î½
ĠÎ»Î¿ÏħÏĦÏģ á½¸Î½
Ġá¼ĲÏĢÎ¹ÏĦÎµ ÏĦÎµ
ĠÎ¼Î·Î´á½³ ÏĢÎ¿ÏĦÎµ
Ġá½ĳÏĢÎ±ÏģÏĩ Î¿á½»ÏĥÎ·ÏĤ
Ġá¼ĢÎ»Î·Î¸Îµ Î¯Î±ÏĤ
ĠÎµá¼°ÎºÎ¿ÏĥÏĦ á½´Î½
Ġra ther
Ġá¼ĢÎ½á½½Î¼Î± Î»Î¿Î½
Ġá¼ĢÎ»Î»Î¿ÏĨ á½»Î»ÏīÎ½
ĠÏĦÎ·Îº ÏĦá½°
ĠÎ²Î¿ÏģÏģ á¾¶
ĠÏĩÎ¹Î»Î¹á½± Î´ÎµÏĤ
Ġbet ween
Ġá½ĳÎ¼Î½ Îµá¿ĸÏĦÎµ
Ġá¼ĢÏĢÏħÏģÎµ Î¾á½·Î±Î½
ĠÎºá½³ÎºÏĦÎ· ÏĦÎ±Î¹
h old
ÏĦ ÎµÎ¹Ïģ
Ïģ Î³Î¿Î½
Ïĥ Î¼á½³Î½Î¿Ïħ
Ġá¼Ĳ Î¬Î½
ĠÏĢ Î¹Î»
á½· Î´Î¹
Ġá¼Ģ Ïħ
ĠÏĥ Î¯
Ġá¼Ķ Î»Î¸á¿ĥ
Îµá¿ĸ ÏĥÎ±Î¹
Ġá½ĳ ÏĥÏĦÎµÏģÎ±
á½½ ÏĦÎ¿Ïħ
ÏĮ Î½Î±
Î»Îµ Î¿Î½
Ġá½ħ ÏĥÎ¿Î¹ÏĤ
Ġá¼ĲÎº Î»Îµá½·
Ġá½Ģ Î¼Î²
ÏĥÎ± Ïį
Î® Ïĥá¿ĥÏĤ
ĠÏĢÎ¿ Î»Î¹ÏĤ
Ġá½¡ ÏģÎ±
á½±Î½ ÏĦÎ±
á½±Î½ ÏĦÎµÏĤ
Ï² Îµ
ÏĦÏī ÏĥÎ¹Î½
Ġá¼ĢÏĢÎ¿ Ïĩ
Ġá¼ĢÏĢÎ¿ Î»Ïī
ĠÎºÎ±ÏĦÎ± Î²Î±
ÏĢÎ± á½¶
ĠÏĥÎº ÎŃ
ĠÏĢÎ±ÏģÎ± ÏĨÏģÎ¿Î½
ĠÎ´Îµ á½»
ĠÎ´Îµ Î¯
ĠÎºÎ±Î¹ ÏģÎ¿á½ºÏĤ
Ġá½ĳÎ³ Ïģá½¹ÏĦÎµÏģÎ¿Î½
ĠÏĢÎµ Î¯
ĠÎ½Îµ Îº
Î·Î» Î¿ÏĤ
ĠÎ¿á½Ĺ Î½
ĠÎĶ Î·Î¼
ÎµÎ¹Ïģ Î³Î±
ou ght
ĠÎµá¼°Ïĥ á½µ
Ġá¼ĢÎ¼ Îµá½·Î½
Ġá¼ĢÎºÏģÎ¹Î² á½´ÏĤ
Ġá¼µ Î´Ïģ
ĠÎµá½ĳ Ïģá½³ÏĥÎµÏīÏĤ
ĠÎºÎ±Îº Î¬
ĠÎĽ á½»
ĠÎ¦ Î±ÏģÎ¹ÏĥÎ±
ÏģÎ¬ ÏĦÎ¿Ïħ
ĠÏĢÏģÎ¿ÎµÎ¹ÏģÎ· Î¼á½³Î½Î±
Ġá¼¡Î³ Î¿á¿¦Î¼Î±Î¹
ĠÏĦÏģÎ¿ ÏĨÎ±á¿ĸÏĤ
ĠÏĢÎµÏģÎ¹á½³Ïĩ ÎµÏĦÎ±Î¹
ĠÏĢÎ±ÏģÎ¿Î¾ÏħÏĥ Î¼á½¸ÏĤ
Î¿á½ĲÎº Î¿á¿¦Î½
ĠÎ½Î¿Î¼á½·Î¶ Ïī
ĠÎ¼Î½ á¾¶Î½
ĠÎ¸Î±ÏħÎ¼Î±ÏĥÏĦ á¿¶ÏĤ
ĠÏĩá½¹Î½ Î´ÏģÎ¿Î½
ĠÎ´Î¹Î±Î³Î½ á¿¶Î½Î±Î¹
ĠÎ½ÎµÎ±Î½ Î¯ÏĥÎº
ĠÎµÎ³ ÎºÎ±ÏĦÎ±
ĠÎ½á½±Ïģ Î´Î¿Ïħ
Ġá¼ĢÎ² Î»Î±Î²
ĠÎºÎµÏĨá½±Î» Î±Î¹Î±
ĠÎ±á½ĶÎ¾ Î·ÏĥÎ¹Î½
Ġá¼ĲÎ»Î»Î¹ ÏĢ
Ġá¼ĲÏĥÎ¸á½· ÎµÎ¹Î½
ĠÎ´ÎµÏį ÏĦÎµÏģÎ¿Î½
Ġá¼ĲÎ½ÎµÏĦÎµÎ¯ Î»Î±ÏĦÎ¿
á¼ª Î½
ĠÎµá¼´ÎºÎ¿ ÏĥÎ¹Î½
ĠÏĦÎµá¿ĸ ÏĩÎ¿ÏĤ
v ing
Î¿ ÏĦá½³ÏģÎ±
Î¹ Îµ
Î¹ Î¼Î¿Î½
ĠÏĦ Î®Î½
ÏĢ Ïģá½±
ÏĢ ÏĦÎ¿Î¹
ĠÎº á½·
Î· ÏĦá½¸ÏĤ
á½· ÏĦÏģÎ¿Ïħ
ÏĨ Ïī
ĠÎµ ÏģÎ·
ÏĥÏĦ Ïģ
Ġá¼Ķ ÏĥÏĦ
Ġá½ħ Ï²Î±
ĠÎ² ÏĮ
ÏħÎ½ ÎµÎ½
á½·Î½ Î¿Î½ÏĦÎ¹
Î¿á½» Î¼ÎµÎ½Î±Î¹
Ġá¿¥ á½¹Î´
ÏĢÎµ ÏĦÎ¿
Î³Î± á¿ĸÏĤ
Î´Î± Î³
ĠÏĢÎµÏģÎ¹ ÏĥÏĥ
ĠÏĪÏħÏĩ á½°ÏĤ
on s
ĠÏĢÏģá½¹ Î³Î½ÏīÏĥÎ¹Î½
ĠÏĢÎ¿Î» á½ºÏĤ
ĠÎł ÎµÏģá½¶
ou se
ĠÎ½Î¿Ïĥ á½µÎ¼Î±ÏĥÎ¹
á½»Î» Î¿ÏħÏĤ
ĠÎºá½» Îº
Ġá¼ĢÎºÏģÎ¹Î² á½³ÏĥÏĦÎµÏģÎ¿Î½
ÎºÏģá½± ÏĦÎ·ÏĤ
ĠÎ³Î±ÏĥÏĦ Ïģá½¹ÏĤ
ĠÎ´ÏħÎ½Î± Î¼Îµ
ĠÏĢÎ±Ïĩ á½ºÎ½
ĠÏĨÏīÎ½ Î·
ĠÏĨÎ»ÎµÎ³Î¼Î¿Î½ á¿ĩ
Ġá¼ĢÎ½ÏĦÎ¹ Î³Ïģá½±ÏĨÏīÎ½
ĠÎµÎº ÎµÎ¹Î½
Ġá¼ĲÎ½Î±Î½ÏĦá½· ÏīÏĤ
Ġá¼¸Ïī ÏĥÎ±ÏĨ
ÏĦÎ® ÎºÎ¿Î½ÏĦÎ±
ĠÎ¿á¼µ Î±
ĠÎ¼Î¿ÏĩÎ¸Î· Ïģá½°
Î¸á½µ Ïĥá¿ĥ
á¼ķ ÏĦÎµÏģÎ¿Î½
Ġá¼ĢÏĨÎ¿ ÏģÎ¹ÏĥÎ¼Î¿á½ºÏĤ
ĠÏĢÎ¿Î¹á½µ ÏĥÎ±ÏĤ
Ġst and
ĠÏĩÏģá½µÏĥÎ¹ Î¼Î¿ÏĤ
ĠÏĦá½¹Î½ Î¿Î½
Ġá¼ĲÏĢÎ¹á¿¤á¿¥ á½³Î¿Î½
Ïĩá½½ ÏģÎ·
ĠÏĢÎ»Î·Î³ á¿ĨÏĤ
ĠÎºÏħÏģÎ¹ Î¿Ïħ
Ġá½ĳÎ³ÏģÎ± á½·Î½ÎµÎ¹Î½
Ġá¼ĲÏĢÎ¹ÏĦÎ¹ Î¸Îµ
ĠÏĢÏģÎ¿ÏĥÎ·Î³Î¿Ïģá½· Î±Î½
ÏĢÎµÏĥ Îµá¿ĸÎ½
ĠÏĩÏİ ÏģÎ±Î½
Ġá¼ĢÏĨá½· Îº
Ġá¼¡Î¼Î¹ ÏĦÏģÎ¹ÏĦÎ±
ĠÎ´Î¹Î±Î¸á½µ ÎºÎ·ÏĤ
ĠÎ´á½½ ÏĥÏī
ĠÎ¸ÏģÏĮÎ½ Î¿Ïħ
Î¿á¼´ Î½Î¿Ïħ
ĠÏĨÎ»Î¿Î¹ Î¿á¿¦
ÎļÏį ÏģÎ¹Îµ
ĠÎ¼Î¿á¿ĸ ÏģÎ±
ĠÎµÎ±Ïħ ÏĦÏīÎ½
ĠÎµá¼°ÏģÎ®Î½ Î·Î½
ĠÎ¼á½±Ïģ ÏĦÏħ
3 0
Ì ĵ
Ġ en
Î± ÏĥÎ¹
Îµ ÏĥÏĦá½±
Ïģ á½µ
Ïĥ ÏħÎ½Î±
ĠÏĢ á½½
á½· Î·Î½
á½³ Î±ÏĤ
ÏĨ Î½
ĠÏĢÏģ Î¿á¿¤á¿¥
Î¬ Î½ÎµÎ¹Î½
á½½ ÏĥÎ·ÏĤ
Î½Îµ ÏĦÎµ
Ġá½ģ Î¼ÏīÎ½
Ġá¼ĲÎº Î»Îµ
Î® ÏĥÎµÏĥÎ¸Îµ
ĠÏĢÎ¿ Î¼ÏĨ
Ġá¼ĢÏĢ Î±Î¹
á½±Î½ á¿ĥ
Ġá¼ĢÎ½ ÏĦÎµ
ÏģÎµ ÏĢ
Î»Î¹ ÎºÎ±
Ġá¿¥ á½·
Ġá¿¥ Ïį
Î¼ÏĢ ÎµÎ»
Ïİ ÏĥÎµÎ¹ÏĤ
Î¸Î· ÏĥÎ¹Î½
Ġá½Ħ ÏĪÎ¹Î½
ĠÎ±á¼° ÏĥÏĩÏħÎ½
Î»Î¿Î½ ÏĦÎ¿
ĠÎ»Îµ ÏĢá½·
ĠÏĥÏĦ Ïį
ĠÎ²Î± ÏĥÏĦ
Ġá½ĳÏĢÎ¿ Î»Î¿á½·
ĠÎºÎ±Î» Îµá¿ĸ
ÏĦÏĦ á½¹Î¼ÎµÎ½Î¿Î½
Ġto gether
ĠÎ¼á½±Î»Î¹ ÏĥÏĦá½±
ÏĦÎµÎ¹Î½ ÎµÎ½
ĠÎ²Î±ÏĥÎ¹Î»Îµ Î±
ĠÎºÎµÎ½ Îµ
ĠÎ»á½· Î¸Î¿ÏĤ
ĠÎ»á½· Î¸Î¿Ïħ
ÏģÏī Î¼Î±
Ġá¼°ÏĥÏĩÏħÏģ á¿¶Î½
em ent
Ġá¼ĶÎº Î»Î±
ÏĦÎ¿á½» ÏĤ
ĠÏĥÎ¼Î¹Îº Ïģá½°Î½
Ġá¼ĲÏĢÎµ Î¼Î²
Ġá¼ĳÎ¾ Î±Îº
ĠÏĩÎ± Î¼Î±Î¹
ĠÏĩÏīÏģá½· Î¿Ïħ
Î¹ÏĥÎ¼ á½¸Î½
ĠÎ´Î¹Î±Î» á½³Î³
á½½ÏĦÎ± ÏĦá½¹Î½
Ġá¿¥á½·Î¶ Î±ÏĤ
ĠÎ³Î¯ Î³Î½
ĠÏĦÎµÏĦá½±Ïģ ÏĦá¿³
ĠÏĥÏħÎ³ ÎºÎ±ÏĦÎ±
ĠÎ²ÎµÎ² Î±Î¹
Ġá¼ģÎ» Î¼ÏħÏģ
Ġcom m
Ġá¼ĳÎ²Î´á½¹ Î¼Î·ÏĤ
ĠÏĥÏĦÎµÏģÎµ á¿¶Î½
Ġá¿¥á¿ĸ Î½Î±
Ġinst ead
Ġá¼ĢÎ»Î»Î®Î» Î¿ÏħÏĤ
Ġá½ĦÎ³Îº Î¿ÏħÏĤ
Ġá¿¥Îµá½» Î¼Î±ÏĦÎ±
Ġá¼ĲÎ¶ Î®
ĠÏĥÎºÎ¿ÏĢÎ¿ á½ºÏĤ
ÏĩÎ±Î»Îº Î¿á¿¦
Ġá¼ĶÎ¼Î² ÏģÏħÎ¿Î½
Ġá¼ĺÏģÎ±ÏĥÎ¹ÏĥÏĦ Ïģá½±ÏĦÎ¿Ïħ
ĠÏĩÏģÎ·ÏĥÎ¹ Î¼
Ġá¼ĶÎ³Î½ ÏīÎ½
Ġá¼ĲÏĢÎ¿Ïħ Î»Ïī
ĠÏĩÎ±Î»Îºá½· ÏĦÎµÏīÏĤ
ĠÏĨÎ· Î¼Î¹
Ġaut hor
Ġá½ĳÏĢÎµÏģÏħÏĪ Î¿á¿¦ÏĦÎµ
ĠÎĶÎ±Î¼Î± ÏĥÎº
Ġá¼ĲÏģÏħÏĥá½·ÏĢÎµ Î»Î±ÏĤ
V II
f er
n on
Ì ģ
Ïģ Î¬Î½
ĠÎº Î´
Îº ÏĦÏīÎ½
Ġá¼Ĳ Î¼á½±
á¿¶ Îµ
Î¿Ïħ Ï²Î¹Î½
á½¹ ÏģÏīÏĤ
ĠÏĥ ÏĢÎ¿Î´
ĠÎ³ á½¹Î½Î±
Î±Î¹ Î¼
ÏĦÎ¹ Î±ÏĤ
Î½Î± Ïģ
Ġá½ħ Î»Î·
ĠÎ² á½µ
ĠÎ² á½³Î»
Î±Î» Î¿Î½
ĠÏĢÏģÎ¿ á½µ
ĠÏĢÏģÎ¿ ÏĨÎ±Î½
Ġá¼ĲÏĥÏĦ Î·
ÏģÎ¿ Î¯
Ï² ÎµÎ¹
Ï² ÏĦÎ¿Î½
ÏĥÎº Î¿ÏĢ
ĠÎºÎ±Î¸ Î±
ĠÎºÎ±Î¸ ÎµÎº
Ïİ Î´Îµ
Ġs in
Ġá¼¸ Î´Î¿Ïħ
ĠÎļ Îµ
ĠÎµá½Ĳ ÏīÎ´
Î¼Î¿ ÏįÏĤ
ĠÎ´Îµ á½µÏĥÎµÎ¹
ĠÎ¼Î· ÏĩÎ±Î½
Î³Î³ Î¿Ïħ
Î¸Î± Ïħ
ĠÏĥÏĨ Î¿Î½
ĠÏĥÏĨ Î·Î½
Ġá¼´ ÏģÎµÏīÏĤ
á¿ĸÎ½ Î±ÏĤ
Ġm ount
Î»ÎµÎ¹ ÏĢÎµÎ½
á¼Ķ Î¿Î¹
ĠÎºÎ¹Î½ Îµá¿ĸ
ĠÎ¼ÎµÏĦÎ± ÏĨá½³Ïģ
Ġá¼°ÏĥÏĩ á½ºÏĤ
Ïĥá½· Î±Î¹
ĠÎºÏħ Î¬
ĠÏĦá½³ Î»Î¿ÏħÏĤ
ĠÏĥá½» Î¼ÏĨÏħ
ĠÏĥá½» Î¼ÏĨÏħÏĦÎ¿Î½
ĠÏĢÎ¹ ÏĦÏħ
ÏĢÎµÎ¹ ÏģÎ±
ĠÎ¼Î±Î» Î±
ĠC y
Ġá¼°ÏĥÏĩÏħÏģ á¾¶ÏĤ
Ġá¼ĢÎ»Î»á½µÎ» Î±ÏĤ
á½¹ÏĦÎ± ÏĦá½¹Î½
Ġá¼ĲÎ¾Î·Î³ Î·ÏĦá¿¶Î½
Ġá¼ĢÎ½Î¸ÏģÏİ ÏĢá¿³
ĠÎºÏģÎ± ÏĦ
Ġá¼ĢÏĢÎ¿Îº ÏģÎ¹Î¸
ĠÎ¼Î±Ïģ ÏĦá½»
Ġá¼´Ïĥ Î·Î½
ĠÏĢÎµÎ½ ÏĦÎ®ÎºÎ¿Î½ÏĦÎ±
ĠÏĢÎµÏģÎ¹á½³Ïĩ ÎµÏĥÎ¸Î±Î¹
Ġá½ģÏģ á¾·Î½
ĠÎ½ÏĮ Î¼á¿³
Ġá¼ĲÎ»á½± ÏĦÏĦÏīÎ½
ĠÎ¼Î® ÏĦÎ·Ïģ
ĠÏĦÏģÎ± ÏħÎ¼Î±
ĠÎ¸Î± ÏĦá½³Ïģá¿³
ĠÏĢÎ±Î¹Î´ á½±ÏģÎ¹Î¿Î½
Ġá¼ĲÎ¸á½³ Î»Î¿Î¹ÏĤ
ĠÏĢÎ±Î¹Î´á½· Î¿Î½
ĠÎ£Î±Î»Ïī Î¼
ĠÎ³á½±Î»Î± ÎºÏĦÎ¹
ĠÏĢÎ±á½» ÎµÏĦÎ±Î¹
Ġag re
ĠÏĢÏį Î»Î·ÏĤ
ĠÎ¼Î±Î¸Î· ÏĦÎ±á½¶
ĠÎ¼Î·Îºá½³ ÏĦ
ĠÎ³á½³Î³Î¿Î½ Îµ
ĠÏĢÏģÎ¿ÏĨÎ® ÏĦÎ·ÏĤ
ĠÏĢÏģÎ¿ÏĥÏī ÏĢÎ¿Î½
ĠÏĢÎ±ÏģÎµÎ½ á½³
Ġá¼ĲÎ¾Î±ÏģÎº Îµá¿ĸ
Ġá¼¸Î»Î»Ïħ ÏģÎ¹Îºá¿ĨÏĤ
á¼ §
ĠÏĦ á½¶
ÏĢ á¾¶ÏĤ
ÏĢ á½¹Î½ÏĦÏīÎ½
Î· Î¼Î¿Ïĥ
ĠÎ´ Î±Ïĥ
Î¸ Î·Ïĥ
á½· Î½Î±
á½³ ÎµÏĤ
Ïĩ ÎµÎ¹ÏĤ
ÏĦÎ± ÏĦÎ±
ĠÏĢÏģ Î¿Î½
Ġá¼ĲÏĢ Î±Îº
Ġá¼Ķ Î¸Î·ÎºÎµÎ½
ÎºÎ± ÏħÎ¸
ĠÎµá¼° ÏģÎ³á½±ÏĥÎ±ÏĦÎ¿
ĠÏĩ Îµ
Ġá¼Ħ Ïĩ
Ġá½ģ Ïģá½·
Ġ| |
Ġá¼ĢÏĢ á½µ
ĠÎ´Î¹Î± Î»ÎµÎ³
Ġá¼ĲÏĢÎ¹ Î³ÎµÎ½
Ġá¼ĲÏĢÎ¹ ÏĦÎµÎ»
Ġá¼¸ Î¿ÏħÎ´
ÏĦÎ¿Î¹ Î¿á¿¦ÏĦÎ¿Î½
re n
ÏĢÎµ ÏĢÏĦ
ĠÎºÎ±ÏĦÎ± Ïĩ
ÏĦÎ¹Îº ÏĮÎ½
ĠÏĢÎ¿Î¹ Î¿á¿¦Î½ÏĦÎµÏĤ
ĠÏĢÏģÎ¿Ïĥ Î³Ïģá½±
ĠÎ±á¼° ÏĦÎ¹
Ġá¼Ī Î´
Ġá¼Ī ÏĩÎµÎ¹
Ġin t
ĠÏĥÏĨ á½±
ĠÎĻ Î±Îº
Î´Î¿ ÏĥÎ±Î½
Ġá½ĳÏĢÎ¿ Îºá½±ÏĦÏī
ÏĢÏĦ á½½ÏĥÎµÏīÏĤ
ĠÎºÎ¿ Î¯
Î¸á½³ ÏĥÎ¸Î±Î¹
ĠÎºÎ¹Î½ Î´ÏħÎ½
ÎµÎ¹Î´ á½²ÏĤ
Ġá½ł Î¿á¿¦
Î´Îµá½· Î¾Î±Î¼ÎµÎ½
á½±Î¶ Î¿ÏħÏĥÎ¹Î½
ÏĥÎ¸Î· ÏĥÎµÏĦÎ±Î¹
ĠÏĦá½± ÏĩÎ¿ÏħÏĤ
ĠÏĦá½· Î¸ÎµÏĥÎ¸Î±Î¹
se m
ÎºÎ½ Î¿Î½
ĠÏĨá½±Ïģ ÏħÎ³Î³Î¿ÏĤ
ĠÎ¹ ÏĥÏĩÏħ
ĠÎºÎµÎ½ á½½ÏĥÎµÎ¹ÏĤ
ĠÎºÎ±ÏĦá½± ÏĥÏĦÎ±ÏĥÎ¹ÏĤ
ĠÎĽ Î±Î²
ĠT h
ĠÏĩÎ±Î» Î²á½±Î½Î·ÏĤ
ĠÏ² ÎºÎµÏħ
ĠÎ¼Î±Î»Î±Îº á½°
Î»Î¹Îº ÏģÎ¹Î½
Ġá¼¸ÎµÏģ Î¿Î²Î¿á½°Î¼
ĠâĦµ c
ĠÏĥÏĦÎ¿ Î¼á½±Ïĩá¿³
ĠÎ±á¼°ÏĦá½· Î¿Î¹ÏĤ
ÎºÎ¬ ÏĦÏī
ĠÎµÎ¾ Î·
Ġá¼ĲÏĢÎ¹ÏĥÏĦ Ïģá½³
ĠÎ»á½» ÏĥÎ¹ÏĤ
Î»Î¬ Î²
Î·Ïĥá½± Î¼ÎµÎ½Î¿Î¹
ĠÎ´Î¿Îº Î¿á¿¦ÏĥÎ¹Î½
ĠÎĽÎµÏħ ÎµÎ¯
ĠÏĨÎµÏģ á½¹Î¼ÎµÎ½Î¿Î½
Ġá¼±Î´Ïģ á½½ÏĦÏīÎ½
ĠÏĢÎµÏģÎ¹ÏĦÏĦÏī Î¼Î±
ĠÎ¼ÏĮ ÏģÎ¹Î±
Ġá½ĳÏĢÎ¬ÏģÏĩ ÎµÎ¹
Ġapp arently
ĠÎ¶á¿¶Î½ ÏĦÎ¿ÏĤ
Ġá¼ĲÎºÎ¬ Î»ÎµÏĥÎµÎ½
Î¿á½ĲÏĩ á½¶
Ġá¼ĲÎ¾Î±Ïģ Î¸Ïģ
ĠÎ´á¿¶ ÏģÎ±
Ġá¼ĦÎ» Î³Î·Î¼Î±
ĠÎ²á½· Î²
Ġwhe n
ĠÎ´Î¹Î±ÏĨÏģá½± Î³Î¼Î±ÏĦÎ¿ÏĤ
Ïħá¼± Î¿á½¶
ĠÏĢÎµÏĢÎ»Î· ÏģÏī
ĠÎ¼á½µÎ½ Î¹Î³
Ġord er
ĠÎ²á½³Î» ÏĦÎ¹
o ly
Ġ ÏģÎ¿
Ġ ii
ÏĦ Î¯Î±
ÏĢ Î¹Î½
ĠÎº ÏĦá½µ
Îº ÏĦÎ¿ÏħÏĤ
Îº Î·ÏĥÎ¹Î½
ĠÎºÎ± Î»á½±
Ġá¼Ĳ ÏĦá½¹
Î¸ á½»
Î¸ Î·ÏĥÎµÎ½
á½± Î¼
Î¿Ïħ Î¼á½³Î½á¿³
Ġá¼ĲÎ½ Î±á½·
Î»Î» Î¿Î¹
Î² á½·Î¿Ïħ
ĠÎ´Î¹ Î·Ïģ
ĠÎ´Î¹ ÎµÏĥ
Ġá¼ĲÏĢ á½µ
Ġá¼ĲÏĢ Î®
Ġá¼Ķ ÏĥÎ¿Î¼Î±Î¹
ÏĥÎ¸ á½³Î½ÏĦÎ¿ÏĤ
ÏĥÎ¸ Î®ÏĥÎ¿Î½ÏĦÎ±Î¹
ÏĮ Î³
ĠÎ² Î»Î±ÏĥÏĦ
ÏĥÎµ Î»Î¸
ÏĥÎ± ÏĥÎ¸Î±á½·
ĠÎ½ ÎµÎ½
Ġá¼ĲÏĢÎ¹ ÏĥÏĦá½±
Î»Î· ÏĢ
Î»Î· ÏĪÎ¹Î½
Ġá¼ķ ÏĦÎµÏģÎ¿Î¹
Ġá¿¥ Î±
Ġá¼ĢÏĢÎ¿ ÏĥÏĩ
ÏĢÎµ Î¼
Î¿Î» Î¿
Î¿Î» á½°ÏĤ
ĠÎºÎ±ÏĦÎ± Î»Îµá½·
ĠÎ¼á½³ ÏĥÎ¿ÏĤ
ĠÏĥÏħÎ½ ÏĦÎ±
ĠÏĢÏģÎ¿Ïĥ Î®
Ġá½ĳÏĢÎ¿ Î²ÎµÎ²Î»Î·
ĠÎ¸ÎµÏģÎ¼ á½¹ÏĦÎ·ÏĦÎ¹
ĠÎºÎ¹Î½ á¿¶Î½
Ġá¼ĢÎ³ Ïģá½·Î¿Ïħ
Ġá¼ł Î´ÏħÎ½
Ġre g
Ġd uplic
Î»Î¸ Î¿ÏĥÎ±Î½
Î¼Î±Ïģ ÏĦÏħÏģ
ĠÏĦÏģÎ¹ Î¬ÎºÎ¿Î½ÏĦÎ±
Ġá¼ĦÏģ ÏĦÏīÎ½
ĠÎ¤ Î©ÎĿ
Ġá¼ĢÎ³Î± Î»Î»Î¹
Î¼Î· Îº
ĠÎºÎ¿Î¹Î½ Î¿á¿¦
ĠÎ¼ÎµÎ³á½±Î» Î¿Î¹
ĠÎ²Î¹Î² Î»Î¹
ĠÎ±Î½ ÏĦÎ±
ĠÎ»Î¹ ÏĩÎ±Î½
ĠÏĦÎ±Ïĩ ÎŃÏīÏĤ
ĠÎŁ á½ķÏĦÏīÏĤ
á¼ĺ ÏĢÎµá½¶
ĠÎºÏģÎ± ÏĦÎµá¿ĸ
Ġá¼ĲÏĢÎ¹ÏĥÏĦ á½µÎ¼Î·Î½
ÏĢÎ¿Î»Î» Î¿á½¶
ĠÏĢÏģÎ¿Ïĥá½³ Î¸Î·ÎºÎµ
Ġá¼ĲÏ² ÏĦ
Ġá¼ĢÎ³Î½Î¿ Îµá¿ĸ
ĠÏĢá½³ÏģÎ± ÏĦÎ¿ÏĤ
Ġá¿¥Î·ÏĦ á½·Î½Î·Î½
Ġá¼µÏĢ ÏĢÎ¿Î½
ÏĢÏĦÏī ÏĥÎ¹Î½
Î²Î»Î· Î¼Î±
Ġá¼ĲÎ¼á½³ ÏĦÏīÎ½
ĠÎºá½·Î½Î´ÏħÎ½ Î¿Î½
ĠÎ´ÏģÎ¹Î¼á½³ ÏīÎ½
ĠÏĢá½» Î¿Ïħ
ĠÎ´á¿¶ ÏģÎ¿Î½
Ġá¼Ħá¿¤á¿¥ÎµÎ½ Î¿ÏĤ
ĠÏĢÏģá½¹Ïĥ ÏĨÎ±
ĠÏĥÏĦá½»ÏĨ Î¿Î½ÏĦÎ±
ĠÎĵÎ±Î» Î¹Î»Î±
Ġá¼ĦÏĩÏģÎ· ÏĥÏĦÎ¿Î½
ĠÏĢÏĦÎ¹ÏĥÎ¬Î½ Î·ÏĤ
Ġchil mpv
Ġwor k
ĠÎĻÎ¿ÏħÎ´ Î±Î¹
ĠÏĦÎŃÏĩÎ½ Î·Î½
Ġá¼ĲÎºÎ¿Î¹Î¼ á½µÎ¸Î·
ĠAssy rian
á¼ĲÎ½Î± ÏģÎ³
w here
Ġ iii
Î½ á½±ÏģÎ´Î¿Ïħ
ĠÎ ĩ
Î¿ ÏĨÎ¿
Î¿ Îºá½¹
Î¹ ÏīÎ½
Î¼ á½½Î¼Î¿Ïħ
ĠÎ´ á½µÎ¼
á½³ Î¿ÏħÏĥÎ¹Î½
ĠÎ¼ á½²
ĠÎ¼ Ïį
á½± ÏĥÎµÎ¹
Ġá¼Ģ Î³Î½
Ġá¼Ģ Î»ÎµÎº
ĠÎ³ á½µ
Î±Î½ ÏĦÎµÏĤ
âĢĻ ]
á¿ĸ Î±Î¹
Ġá¼ĲÎ½ á½¹
á½µ Î¼Î·
ÏĥÎ¸ á½³Î½ÏĦÏīÎ½
Îµá¿ĸ ÎµÎ½
ĠÏĨ ÏģÎ¿Ïħ
ĠÎ» Î¬
Î¬ ÏĥÎ±Î¹
ÏģÎ¹ ÏĥÎº
á½½ ÏĢá¿³
Ġá¼Ħ Î¼ÎµÎ¹Î½
ĠÎ¼Îµ Î¼Î¹Î³
Î® ÏĥÎ±ÏĦÎ¿
Ġá½ĳÏĢ á½³Ïģ
ĠÎ½ Î¿Ïħ
ĠÎ½ Î¿á½»
Ġá¼ĲÎ¾ á¿ĨÎ»Î¸Î¿Î½
Ġá¼ĢÎ»Î» ÏĮ
ÏħÏĦ á½¸Î½
Î»Î¹ Î±Îº
á½³ÏģÎ± Î¹
ĠÎºÎ±ÏĦÎ± ÏĥÏĢ
ÎŃÎ½ ÏĦÏīÎ½
Î´Î¹ Ïī
ĠÎ¼Î· Î´Î±Î¼
Ġá½ķ Î¼Î¹Î½
Î´Î¿ Î¾Î±
ĠÏĢá½¹ ÏģÎ¿Ïħ
ÏĨÎ± ÏģÎ±
Ġá¼§ ÏĦÏĦá½¹Î½
ÏĦÎŃ ÏĤ
ĠÎ¿á¼´ Î¿Î½ÏĦÎ±Î¹
ĠÎµá¼°Ïĥ á¿ĨÎ»Î¸Î¿Î½
ÎºÏģ á½»
ĠÎ²ÏģÎ±Ïĩ Î¯Î¿Î½
Ġd el
Ġá¼ĺ ÏĢÎ¹
ĠÏĥÏĩ Î·Î¼á½±ÏĦÏīÎ½
ĠÏĥÏĢ á½¹Î½Î´ÏħÎ»Î¿Î½
ĠÏĦÏģá½¹ ÏĢÎ¿ÏħÏĤ
ĠÎ¿á¼°Îº á½·Î±ÏĤ
ĠÎ¿Ïħ ÏģÎ±Î½
ĠÎºÎµÎ½ Î¿á¿¦ÏĥÎ¸Î±Î¹
ĠS am
ĠÎ¼Î±Îº Ïģá¿·
ĠÎ£Î± Î¿á½»Î»
Ġá¼ĢÎ³Î³ Îµá½·Î¿Ïħ
ĠE zek
Ġá¼±ÎµÏģ ÎŃÏīÎ½
Ġá¼ĲÎ¾Î·Î³ Î·ÏĥÎ±
ĠÏĩá½½ Ïģá¾³
ĠÏĦÎ±á½Ĳ ÏĦá½¹Î½
ĠÎ¼ÏĮÎ½ Î¿ÏĤ
ĠÏĢÎµÎ½ ÏĦÎ·
ĠÏĦÎµÎ»ÎµÏħÏĦ á¿ĨÏĤ
ĠÏī ÏĥÎµÎ¹
Î»Î¬ ÏĤ
ain s
Ġá½ĢÏĢ Î¿á¿¦
ĠÏĦÏģÎ± á¿¦Î¼Î±
ĠÎ¸ÏħÎ³Î± ÏĦÏģ
ĠÏĥÏħÎ³ ÎºÎµ
ĠÎºÏħÏģÎ¹ Ïī
Î´ÎµÎºá½± ÏĦÎ·ÏĤ
á½ī Îºá½¹ÏĥÎ¿Î¹
ĠÎ³Î»á¿¶ ÏĥÏĥÎ±
ĠÏĢÎ±ÏģÎ±ÏĢÎ»á½µÏĥÎ¹ Î±
ĠÎ·Î¼Îµ ÏģÎ±ÏĤ
Ġá¼ĢÎ½Î¬ Î³Îº
Ġá½ĳÏĢÎ¿Î¼Î½ á½µÎ¼Î±ÏĦÎ±
Ġá½ĳÎ´Î±ÏĦ á¿¶Î´ÎµÏĤ
ĠÏĩá½¹Î½Î´Ïģ Î¿ÏĤ
ĠÎ´Î¹Î±ÏĩÏīÏģ á½µÎ¼Î±ÏĦÎ±
ĠÏĨÎ±ÏģÎ¼Î¬ ÎºÎ¿Ïħ
Ġá¼ĲÏģÏħÎ¸Ïģ á½¸Î½
Ġacc ording
Ġ(?) )
ĠÏĢÎµÏĢÎ»Ïħ Î¼á½³Î½Î¿Ïħ
á½ģÎ¼Î¿ á½·ÏīÏĤ
Ġprop he
ĠÎ½ÏħÎ¼ ÏĨ
Ġá¼ĲÎ¼ÏĢÎ¿ Î´á½·
ÏĥÎ±Ïį ÏĦÏīÏĤ
i al
w h
Î½ Î·ÏĦÎ±Î¹
ÏĢ ÏĦÎ·
Ġá¼Ĳ Î¿Î¹Îº
Ġá¼Ĳ Î´Î·Î¼Î¹
ĠÎ´ ÎŃÎ½
á½° ÏĦ
ĠÏĥ Ê¼
á½» Î½ÎµÏĥÎ¸Î±Î¹
Î¼Î± Ïĥ
Î¾ Î·Ïģ
Ġá¼ĲÎ½ Î±Î¹
Ġá¼ĲÎ½ ÎµÎ´
ĠÏĢÏģ á¾³
Ġá¼ĲÏĢ Î¿Ïĩ
ĠÎ» Îµá¿ĸÎ±
ĠÎµá¼° Î»Î¹ÎºÏģÎ¹Î½
ĠÏĩ Ïģá½·
Ġá½ĳ Î¹á¿¶Î½
á½½ Î¼ÎµÎ½Î±
ĠÎ¸ Î»á½±
ÏĦÎ· ÏĥÎ±
Î¼ÎµÎ½ ÏīÎ½
ÏĥÎµ ÏĩÎµ
á¿¦ Î¿Î½
ĠÏĦÎ± Îº
Ġá¼ĢÏĢ Î±Ïģ
ÏģÎ¿ Ï²
ĠÏĦÎ¹ Ïĥá½¶Î½
ÏħÏĦ á½³ÏģÎ±Î½
ĠÏĢÎ±Ïģ Î¿Î¹Îº
ĠÏĪ ÏħÎº
ĠÏĪ Î¹Î¼
ÏĥÏĦÎ± Î³Î¼Î±
Ġá½Ħ ÏģÎµ
Ġá¼ĢÎº Ïģá½·
ĠÏĢÎ±ÏģÎ± ÎºÎµÎ¹
ĠÎ¾ á½»Î»ÏīÎ½
Î³Î³ ÏīÎ½
ĠÎ£ á½º
ÏĦá½³Ïģ ÎµÏĤ
ĠÎ¼á½¹Î½ Î¿ÏħÏĤ
Ġá¾ ħ
Ġá¼´ Ïĥá¿³
ĠÎ¿á¼· Î¿ÏĤ
ĠÎºÎ¿ ÏĥÎ¼
en s
ĠÎºÎ¹Î½ Î·Î¸
ĠÎ¿á¼¶ Î¿Î½
ÏĩÎ¸ á¿ĩ
ĠÏĦá½± ÏĩÎ±
Ġá¼ĲÎºÎµá½·Î½ Î·
ĠÎ¿á¼°Îº á½³
Ġá¼ĲÏĢá½· ÎºÏĦÎ·
ÎŃÏģ Î¿ÏħÏĤ
Ġ5 6
ĠÎ¾Î·Ïģ á½¹Î½
Ġá½ĢÎ¾ á½³Î±
ĠÏĢÎ±Ïĩ á½»ÏĦÎµÏģÎ¿Î½
ĠÏĢÎ±Ïĩ á½³Î¿ÏĤ
Î¸Î±Î½ Î±
Ġá¼°Î±ÏĦÏģ Î¿á¿¦
ĠÏĩÎµÎ¹ ÏģÎ±ÏĤ
ÏĢÎ±Ïģ á½°
ĠÎ£Î± Î¼Î±Ïģ
ÎºÎ±Î» Î¿á¿¦ÏĥÎ¹
ĠÎ±á¼´ ÏĦÎ¹
ĠÎ±á¼°ÏĦ Î¯Î±Î½
ĠÏĥÏħÎ½Î± Î³
ĠÏĥÎ¿ÏĨ á½¸ÏĤ
ĠÏĩÎ± Î¯
ĠÏĩÎ± ÏģÎ±Îº
Ġá¼ĢÏĢÎŃ ÎºÏĦÎµÎ¹Î½
ĠÏĢÏģÎ¿ÏĥÎ¸ á½µ
ĠÎ±á¼°ÏĥÎ¸Î· ÏĦá¿¶Î½
Ġá¼ĢÏģÎ±Î¹ á½¹ÏĦÎ·ÏĦÎ±
ĠÏĢÎ¿Î¹á½µ ÏĥÏī
ĠÏĩÎµÏģ Î¿ÏħÎ²
ĠÎ±á½ĲÎ¾ Î·Î¸
Î¬Î³ Î¼Î±ÏĦÎ±
ĠÎ²Î±Î» á½¼Î½
ĠÎ»ÎŃÎ³ Î¿ÏħÏĥÎ¹Î½
ĠÎ´Î¿Ïħ Î»ÎµÏį
ĠÏĨÎ¿Ïģ á½°Î½
Ġá¼ĲÎ»Îµ ÏħÎ¸
Ġá¼ĲÎ¼ÏĨá½» ÎµÏĦÎ±Î¹
Ġá¼µÏĢ ÏĢÏīÎ½
Ġá½ĢÎ»Î¹Î³ Î¿Ïĩ
Ġá¼ĲÎ»á½³Î³ ÎµÏĦÎ¿
ĠÎ¦Î±ÏģÎ± á½½
ĠÎ¼á½³Î¸ Î¿Î´Î¿ÏĤ
ĠÏĢÎ¿Ïģ Î½Îµ
ÏĥÎµÎ» á½·Î½Î¿Ïħ
ĠÎºÎ¿Î» Î¿Îº
ĠÎµÏĢÎ¿Î¹ Î·ÏĥÎµÎ½
ĠÏĩÏģÎµ Î¯Î±Î½
Ġá¼Ħá¿¤á¿¥Ïī ÏĥÏĦÎ¿ÏĤ
Ġá¼´Î´Î¹ Î¿ÏĤ
ĠÏĨÎ±Î½ÏĦÎ± Ïĥá½·Î±Î½
Ġá¼°ÏĥÏĩá½» Î¿ÏĤ
Ġá¼ĲÎ¼Î½Î·Î¼á½¹Î½ÎµÏħ ÏĥÎµ
Ġá¼ĲÎºá½³ Î»ÎµÏħ
ĠÏĩÎ¿Î½ Î´Ïģ
Ġá¼ĶÎ½Î½ Î¿Î¹Î±Î½
2 8
n er
Ġ âģ½
á¼ Ļ
Ïģ ÎµÎ¹ÏĤ
ÏĢ ÏĦÎ¹Î¿Î½
Î» á½¸ÏĤ
Î´ á½´
Î´ ÎµÏģ
Î´ Îµá¿ĸÏĦÎ±Î¹
á½» ÏĥÎµÏīÏĤ
ÎµÏģ Î³Î¿Î½
Î² á¿³
ĠÎ´Î¹ á½µ
Ġá¼ĲÏĢ Î¿Î»
Îµá¿ĸ ÏĥÎ¹
ÏģÎ¹ Ïī
Ġá¼Ħ Î½Îµ
ĠÎ¼Îµ Î¸Î¹
Îĩ |
Ġá¼ĢÏĢ Î±ÏģÏĩ
Î·Ïĥ á½¹Î¼ÎµÎ½Î¿Î½
ĠÎ½ á½µ
Ġá¼ĲÎ¾ Î·
Ġá¼ĲÏĢÎ¹ Î²á½±Î»Î»
Ġá¼ĲÏĢÎ¹ ÏĦÎ®
ĠÎĳ ÏĩÎ¹
ĠÎµá¼¶ ÎµÎ½
Î¿á½» ÏģÎ³
Ġá¿¥ Î¹Î¶
ĠÏĢÎ±Ïģ á½¹Î½ÏĦÏīÎ½
Ġá¼ĢÏĢÎ¿ Î´ÎµÎ´ÎµÎ¹Î³
Ġs imilar
Ġá¼¸ Î¿Ïħ
Ġá¼ģ Î¼á½±Ïģ
Î¸Î· ÎºÎ±
Î³Î¿Î½ ÎµÎ½
ĠÎºÎ±ÏĦÎ± Î³Î¼á½±ÏĦÏīÎ½
Ġá¼ĲÎ³ á½·Î½ÎµÏĦÎ¿
ĠÎ¼á½³ ÏĥÎ±
Î´Î¹ ÏĦÏĦ
ÏĨÎ¿ Ïģá¾¶ÏĤ
ĠÏĢÎ¿Î»Î» Î¬
ĠÎ´Îµ á½¹Î¼ÎµÎ½Î±
or s
ĠÎ³ÎµÎ½ á½¹Î¼ÎµÎ½Î¿ÏĤ
ĠÏĥÏĨ Î±Î»
ĠÎºÎ±Ïģ ÏĢÎ¿
Ġf all
ĠÎ¼Î·Î´ á½³Î½Î±
ĠÎºá½± Î¼
á½µÎ½ Î·ÏĤ
Ġá½ł Î¼á¿¶Î½
ĠÎĶ á½·Î±
Î¾Î± ÏĥÎ¸Îµ
ea l
ĠÎµá¼°ÏģÎ· Î¼á½³Î½Î±Î¹ÏĤ
ÏħÏĢ Î½
ĠÏĦá½± ÏĥÎµÏīÏĤ
ĠÎ¸ÎµÏģÎ¼Î± á½·Î½Î¿Î½ÏĦÎ±
ĠÎ¼Î± ÏĩÎ±Î¯
ĠÏĥÎºÎ»Î· Ïģá½¹ÏĦÎµÏģÎ¿Î½
ĠÏĥÎºÎ»Î· Ïģá½¹ÏĦÎ·ÏĦÎ¿ÏĤ
ĠÎºÎ±ÏĦá½± ÏĢÎ»Î±ÏĥÏĥÎµ
ÏĨÏħ Î³Î¿Î½
ĠÎ¦ Î±
Ġá¼ĢÎ» ÏīÏĢÎµ
ĠÎ¼Î±Îº Ïģá¾¶ÏĤ
Ġá¼ģÎ¼Î±Ïģ ÏĦÎ·
ĠÏĦÎŃ ÏĥÏĥÎ±ÏģÎµÏĤ
Ġg reat
ĠÎ¼ÎµÎ¸ Î¿Î´Î¹Îº
ĠÎ¿á½ĲÎ´Îµ Î¼Î¹á¾¶ÏĤ
ĠÎ½ÎµÏĨ ÏģÎ¿á¿ĸÏĤ
ĠÎºÎ±ÎºÎ¿ á½µÎ¸Î·
Î¸á½µ ÏĥÎ¿Î½ÏĦÎ±Î¹
Ġá¼¡Î³ Îµá¿ĸÏĥÎ¸Î±Î¹
Ġá½ĳÏĪÎ·Î» á½¸Î½
ĠÎ¼Îµá½·Î¶ Ïī
Ġá½¤ ÏĨÎ¸Î·
ÏĦÎµÏĦÎ± Î¼á½³Î½Î¿Î½
ĠÎºÎ±Î»Î¿Ïħ Î¼á½³Î½Î·Î½
Ġá¼ĲÏģÎ³Î±Î¶ Î¿Î¼á½³Î½ÏīÎ½
ĠÎ¸Î±Î» Î±Ïĥ
ĠÏĨÏħÏĥÎ¹Îº á½´Î½
Ġá¼°Î´á½· ÏīÎ½
ĠÎºÎµÎºÎ±Ïħ Î¼á½³Î½Î·ÏĤ
ĠÎ´Î¹ÎµÎ¾ á½³ÏģÏĩÎµÏĦÎ±Î¹
ĠÏĨÏħÏĦ á½¸Î½
ĠÏĥÏħÎ½á½µ Î¸ÏīÏĤ
Ġá¼Ŀ Î»Î»Î·
Ġá¼ĪÏģÎ¹ÏĥÏĦÎ¿ÏĦá½³ Î»Î¿ÏħÏĤ
Î³á½³Î½ ÎµÏĦÎ¿
Îºá¾ Ħ
Ġá½ĳÏĢÎ¿ÏĥÏĦ ÏģÎ¿ÏĨ
ÏĥÏĦÎµÎ¹Î» Î±Î½
ĠÎµá¼· Î½Î±Î¹
Ġgl ory
ĠÎ¿á½ĲÎ´Î±Î¼ á¿¶ÏĤ
ru ction
ĠÏĢÎ±Î¸Î· Î¼á½±ÏĦÏīÎ½
ĠÎ¿Î¼Î¿Î¹ ÏīÏĤ
ĠÎ´Î¹Î±Î¯ ÏĦÎ·ÏĤ
Ġconfus ion
ĠÏĢÎµÏĨá½» ÎºÎ±ÏĥÎ¹Î½
Ġá¼ĪÏĥÏĥÏħÏģ Î¯ÏīÎ½
ĠÎłÏģÎ±Î¾Î± Î³á½¹
ĠÏĥÏĨÎ¿Î½ Î´á½»Î»
V III
a pl
f ul
i ous
Ġ áµĩ
Î¿ ÏĦÎ¹
Ïī Î¼á½³Î½Î¿Ïħ
Ïī ÏĦÎ¹Îºá½¸Î½
Ġá¼Ĳ Î»á½³
Î¸ ÏģÎµ
Ġá¼Ģ Îµá½·
ĠÎ±á½ĲÏĦ á½±ÏĤ
Î¾ á¿ĨÏĤ
Î»Î» Î±Îº
Ġá¼ĲÏĢ Ïī
á½³Î½ Î±Î½ÏĦÎ¹
Î¬ ÏĥÎ±ÏĤ
Î½Îµ ÏĥÎ¸Îµ
Ġá¼Ħ ÎºÎ±Î½
á½¹Î½ ÎµÎ¹
ĠÏĢÎµÏģ á½±ÏĦÏīÎ½
Ġá¼ĢÎ½ Î¿
ĠÎ´Î¹Î± Îºá½¹
ĠÎºÎ±Î¸ á½³
ĠÎºÎ±Î¸ Î®
Ġá¼ĢÎ½Î± ÏĢÎ»Î·
Ġs ign
ÏħÏģ Ïī
ÏĦÎ¿Î¹ Ï²
ĠÎºÎ±ÏĦÎ± ÎºÎµ
ĠÎ¸Îµ ÏīÏģá½·Î±Î½
ĠÎ¼á½³ Î¼ÏĨ
ĠÏĢÎ» Î¿Ïį
Ġá½Ħ ÏĨ
Ġá½Ħ ÏĪÎµÏĦÎ±Î¹
ĠÏĥÎº á¿¦Î»Î±
ĠÏĢÎ¿Î¹ Î¿á½»Î¼ÎµÎ½Î¿ÏĤ
ĠÏĢÎ¿Î¹ á½µÏĥÎµÏĦÎµ
Î±Îº á½¸Î½
ĠÎ´Îµ á½¹Î¼ÎµÎ¸Î±
Î·Ïģ Î¯Î¿Ïħ
ĠÏĪÏħÏĩ Ïģá½¹ÏĦÎ·ÏĦÎ±
Ġá½ĳÎ¼ á½´Î½
ÏĢÏĦ á¿ĥ
ĠÎ¿á¼· ÏĥÎ¹
ĠÎ¸ÎµÏģÎ¼ Î±Î½
ĠÎºÎ¿ ÏĢÎ¹
Î¯Î½ á¿ĥ
ĠÎ¼Î¹Îº Ïģá½¹Î½
ĠÎ³Î½ ÏīÏģ
ĠÎµá¼°ÏģÎ· Î¼á½³Î½Î·ÏĤ
Ġá¼ĳÎºá½± ÏĦÎµÏģÎ¿ÏĤ
ĠÎºÎµÎ½ Î¿á½»Î¼ÎµÎ½Î¿Î½
ĠÏĥÏĨÎ¿ Î´ÏģÎ±
Î¿Î¼ÎŃÎ½ á¿³
ĠÎ¼ÎµÎ³á½±Î» Î¿Î¹ÏĤ
ĠÏĢÎ½Îµá½» Î¼Î±ÏĦÎ¹
ÏĥÏĦÎ¹Îº Î¿á¿ĸÏĤ
ĠÎ±Î½ Î·Ïģ
Ġnot e
Ġá¼ĶÎº ÎºÏģÎ¹
ĠÎ²Î¹Î²Î»á½· ÏīÎ½
Ġá¼ĲÎ¼Î² Î»Î·Î¸
ĠÏĢÎ»Î± ÏĦÎµ
ĠÎ¿á½ĲÏģÎ±Î½ á¿·
ĠÎ´ÏĮ Î¾á¿ĥ
ĠÏĨá½³Ïģ ÎµÎ¹
ĠÏĦÎ¿á½Ĳ ÎºÏĦá½¸ÏĤ
Ġá¼ĢÎ½Î±ÏĦÎ¿Î¼ á½´Î½
ĠÏĥÏħÎ¼ÏĨ ÏīÎ½
Ġá¼¸Î¿ÏħÎ´Î± Î¯Î±ÏĤ
Ġst rong
Ġá½ĳÎ³Î¹ÎµÎ¹Î½ á¿ĨÏĤ
ĠÎ½Î± ÏģÎº
ĠÏĢÎ· Ïĩá¿¶Î½
ĠÏĢÎµÎ¹ Ïģá½±
Ġá¼ĢÎ´Î¹Îº Î¯Î±ÏĤ
ĠÏĥÏħÎ¼Î¼ÎµÏĦÏģá½· Î±ÏĤ
ĠÎ»Î¿ÏħÏĦÏģ Î¿á¿ĸÏĤ
ĠÏĦÎ¿ÏĥÎ¿á½» ÏĦÎ¿Ïħ
ĠÏĥÏħÎ½Î´á½³ÏĥÎ¼ Î¿ÏħÏĤ
ĠÎ´Î¹Î±Î² Î¹Î²
Î³Î³Îµ Î»Î»
ĠÏĥÏħÎ½Î±Î³ÏīÎ³ á¿ĨÏĤ
á½³ÏĥÏĦÎ± ÏĦÎ¿Î½
ĠÎºá¼ĢÎ½ ÏĦÎ±á¿¦Î¸Î±
ĠÏĢÎµÎ¹Ïģ á¾¶ÏĥÎ¸Î±Î¹
ĠÏĦÎµÎ¸ Î½Îµ
ĠÎ²Î±Î»Î±Î½ Îµá¿ĸÎ¿Î½
ĠÎ´Î¹Î±Î³Î¹Î½ á½½ÏĥÎº
Ġá½ĢÎ»á½³Î¸ ÏģÎ¹Î¿Î½
ĠÏĨÎ¸Î¹Î½Î¿ÏĢ á½½ÏģÎ¿Ïħ
Ġá¼ĢÎ»Î® Î¸ÎµÎ¹Î±Î½
ĠÎ»ÎµÎ¹ÏĢÎ¿ Î¸ÏħÎ¼
Ġá¼©ÏģÎ±Îº Î»Îµá½·
ĠÏĪÎµá¿¦ Î´Î¿ÏĤ
Ġorigin al
ĠÏĨÎ¹Î»Î¿Î½ ÎµÎ¹Îº
á¼ĲÎ³Ïĩ ÏīÏģÎµá¿ĸ
s h
u nt
y ne
Ïģ Î³Î±
ÏĢ á½¸
ÏĢ á½±Î½ÏĦÏīÎ½
Îº Ïį
Î· ÏĦÎ¿Î½
Ġá¼Ģ ÏĦÎ¹
Î¾ á½·Î±ÏĤ
Ġá¼Ķ ÏĢÏģÎ±
ĠÎ» á½»ÎµÎ¹Î½
Ġá½ĳ Î´Ïģ
ÏĦÎ¿ Î»Îµ
ÏĥÎµ ÏĦÎ±Î¯
Î±Î» ÎµÎ¹
ĠÏĢÏģÎ¿ ÏĦÏģá½³
Ġt urn
Ġá¼ĢÏĢ á½±
ĠÎ´Î¹Î± Î»ÎµÎº
Ġá¼ĲÎ¾ ÎµÏģ
Ġá¼ĲÏĢÎ¹ ÏĢÎ¿
he yne
ÏĦÏī ÏĢÎ¿Î½
Ġá¿¥ á½µÏĥÎµÎ¹ÏĤ
ĠÏĢÎ±Ïģ á½¸Î½
ÏĦÎ¿Î¹ ÏĥÎ¹Î½
ĠB A
Î¿Î» Ïį
Ġá¼ĲÎ³ Ïĩ
ĠÎļ Î±Î´
ĠÎµá½Ĳ Î»ÏĮÎ³
ĠÎ´Îµ Î´Î¹
ĠÎ´Îµ Îºá½±
Î»á½· á¾³
Ġá¼Ī Î»Îµ
Ġá½ĳÎ³ ÏģÎ¿á¿ĸÏĤ
ĠÏĪÏħÏĩ á½µÎ½
ĠÏĪÏħÏĩ Î®Î½
ĠÎĻ ÎĻ
Ġá¼¦ ÏĤ
Ġá½ĳÏĢÎ¿ ÎºÎ¬ÏĦÏī
ÏĢÏĦ Ïħ
ĠÎ¿á¼· ÏĥÎ¹Î½
Ġof ten
Î»ÎµÎ¹ ÏĢÎ¿Î½
ĠÎºÎ¹Î½ Î¿á½»Î¼ÎµÎ½Î¿Î½
ĠÎ¼ÎµÏĦÎ± Î²á½±Î»Î»ÎµÎ¹Î½
ĠÏĢá½¹ Î»Î¹ÏĤ
Ġá½ĳÏĢá½±ÏģÏĩ Î¿ÏħÏĥÎ±
Ġá½ĳÏĢá½±ÏģÏĩ Î¿ÏħÏĥÎ±Î½
ÏĦÎŃ ÏģÎ¿Ïħ
Î¼ÎŃÎ½ Î±ÏĤ
ĠÏĦá½³ ÏĦÎ±ÎºÏĦÎ±Î¹
Î¼Î¹Î½ Î¿Î½
ĠÏĨÏħ ÏĥÎ¹
Ġá½ĦÎ½ ÏĦÎ¹
ĠÎ¼Î± Î¸
Ġá½ĢÎ¾ á½³ÏĥÎ¹
ĠÎºÎ¿Î¹Î½ á½´
Ġá¼ĲÎ½ÎµÏģÎ³ Îµá¿ĸ
ĠÎ´á½· Î´Ïī
ĠÎ³Î¹Î³Î½ Î¿Î¼á½³Î½Î·ÏĤ
Ġg ive
á½µÎ¼ á¿ĥ
ÏĦÎ¿á½» Î¼ÎµÎ½Î¿Î½
Îķ á¼¶
ĠÎ±á¼°ÏĥÎ¸ á½µÏĥÎµÏīÎ½
ĠÏĢÏģÎ¿ÏĥÎµ Î»Î¸
Î±á½Ĳ ÏĦá¿¶Î½
ÎºÎµá½· Î¼ÎµÎ½Î¿ÏĤ
ĠÎºÎ±ÏģÏĢ á¿¶Î½
ÏĢÏĦÎ¿Î½ ÏĦÎ¿ÏĤ
Ġá¼ĢÏĢÎ¿ÏĥÏĦ ÏģÎ±ÏĨ
á½½ÏĦÎ± ÏĦÎ¿ÏĤ
ĠÏĥÏĨÎ¿Î´ Ïģá½¹ÏĦÎ·ÏĦÎ±
ĠÎ²Î¿ÏħÎ» á½´Î½
ĠÏĢÏģÎ¿ÏĥÎ± Î³
ĠÏĨÎ¿Î² ÎµÏģ
Î¿á½º Ï²
Î¿á¼ µ
Ġá¼ĲÎ¸á½³ Î»
Ġá½ķÏĢÎ½ Î¿Ïħ
Î»Î¹ÏĢ á½¼Î½
ĠÎºá¾ĢÎº Îµá¿ĸÎ½
Ġá¼ĶÎ¿Î¹ ÎºÎµ
ĠÎ´Î¹Î¿Ïģá½· Î¶ÎµÏĥÎ¸Î±Î¹
ĠÎ¼ÏħÏģ Ïĥ
ĠÏĦá½·Î½ Î¹
Ġá¼ĢÎ¾Î¹á½¹ Î»Î¿Î³
Ġun c
Ïĭ Ïĥ
Ġpara p
ĠÎľÎ±Ïģ Î´Î¿
ĠÎ³Î±Ï² ÏĦÎŃÏģÎ±
Ġá¼ĢÎ½á½½Î´ÏħÎ½ Î¿Î½
ĠÎ¶á¿ĩ Î½
ĠÎºÎ±ÏĦÎ·Î³ Î¿Ïģ
ĠÎłÎ±á¿¦ Î»Î¿ÏĤ
ĠÎ¸ÏģÎ¹ Î´Î±Îº
ĠÎ´Î¹Î±ÏĢÎ±Î½ ÏĦá½¸ÏĤ
m o
Ġ ÏĮ
Ġ vel
á½ ©ÏĤ
ÏĦ Ïģá½¹
Î¼ á½·Î½
Îº ÏĦÎ¿Ïħ
ĠÎºÎ± Ïį
ĠÎºÎ± ÏħÎ»
ĠÎ´ Ïģá½¹
Î¸ Î±ÏĤ
Î¸ á½¹ÏĤ
á½· ÏĥÎ±ÏĥÎ¸Î±Î¹
á½³ ÏĥÏĦÎµÏģÎ±
ÏĦÎ± Î¾Î±Î½
á½± ÏĦÏī
ĠÎ¿ Î½Î¿Î¼Î±
ĠÏĥ Î¬Î»ÏĢÎ¹
á½» Î²
ÏĥÏĦ á½³Î±ÏĦÎ¿ÏĤ
Ġá¼ĲÎ½ Î¹Î±
Î»Î» á½·Î¿Ïħ
Îµá¿ĸ ÏģÎ±Î¹
ĠÏĨ ÎŃ
ĠÎ» Î·Î¸
ĠÏĩ Î¹Î»
Ġá½ĳ Î¿ÏĥÎºÏħá½±Î¼Î¿Ïħ
Î¼ÎµÎ½ Î¿ÏħÏĤ
Ġá½ħ Ï²
ĠÎ¼Îµ Î»Î¯
á½³Ïģ Î¿Î¹ÏĤ
Ġá¼ĳ ÏĦÎ±á½·
ĠÏĢÎ¿ Î´Î·Î³
Ġo ur
Ġá½ĳÏĢ Î·Ïģ
Ġá¼ĲÏĢÎ¹ ÏĦÏħÏĩ
Ġá¼ķ ÏĢÎ¿Î½ÏĦÎ±Î¹
á¼Ĳ ÏĢá½·
Ġá¿¥ Î®Î¼Î±ÏĦÎ±
Ġá¼ĢÎ½Î± Î»Î±Î²á½¼Î½
Ġá¼ĢÏĢÎ¿ Î»ÎŃ
Ġs er
ĠÎ¸Îµ á½±Ïĥá¿ĥ
Î³Î± ÏĢ
ĠÏĥÏħÎ½ ÏĦá½µ
ĠÎµá½Ĳ ÏĥÎµÎ²
ĠÎµá½Ĳ Î´Î¿Îº
ĠÏĢÎ¿Î»Î» Î±
ĠÏĥÏĦ á¿¦
Ġá½ĳÎ³ Îµá½·Î±ÏĤ
ĠÏĪÏħÏĩ Ïģá½¸ÏĤ
Ġb l
ĠÎ²Î±ÏĥÎ¹ Î»Î¹Îº
Ġá¼ĢÏģÏĩ á¿¶Î½
Ġá¼ĢÏģÏĩ Î±á¿ĸÏĤ
ĠÎľ Î·
ÎºÎ¿Ïħ Îµ
á½»Î½ á¿ĥ
ĠÎ¼Î¿ ÏĥÏĩ
ĠÎ¿á½Ĺ ÏĦá½¹ÏĤ
ĠÎ¼ÎµÏĦ á½³Ïĩ
Î´á½³ ÏīÏĤ
á½µÎ» ÏīÎ½
ĠÎ¼Î¹Îº Ïģá½¹ÏĦÎ·ÏĦÎ±
Ġá¼ł Î¸
ÏģÎ¿á¿¦ ÏĥÎ¹
ĠÎµÎ¹ Î¼Î¹
ĠÎµÎ¹ Î´Î¿Î½
Ġ5 7
Ġá½ĢÎ¾ Ïį
ĠÎºÎ¿Î¹Î½ á½¹Î½
Ġá¼ĳÎºá½±ÏĥÏĦ á¿ĥ
á½µÏĥÎµ á½½ÏĤ
Ġá½ĳÏĢÎµÏģ Î²á½±Î»Î»
ĠÎ³Ïģá½± Î¼Î¼Î±
ĠÏĩÎ¿Î» á¿¶Î´ÎµÏĤ
ÏįÎ½ Î¸Î·
Ġ14 7
ĠÎ´Î¹Î±ÏĥÏĦ ÏģÎ¿ÏĨ
ĠÎ²Î»á½± ÏĢÏĦÎµÎ¹Î½
ĠÎ»Î¿Î¹ ÏĢÎ¿á½¶
ĠÏĢÏģÎ¿ÏĥÎµ ÏĢÎ¹
ĠÏĥÎ¿ÏĨ Î¯Î±Î½
Ġá½¦ ÏĥÎ¹
ĠÎµá½ĳÏģ Î¯ÏĥÎº
ĠÎ´á¿Ĩ Î¼Î¿ÏĤ
á¼ĲÎº Îµá½·Î½
Ġá½ĳÏĢá½¹ ÏĥÏĦÎ±ÏĥÎ¹Î½
ĠÏĢÎµÏĢÎ¿Î½Î¸ á½³Î½Î±Î¹
Ġá¼ĢÏģÎ³ ÏħÏģÎ¯Î¿Ïħ
ĠÏĢÎ¹Îº Ïģá½¹
ĠÏĥÏĨÎ¿Î´ ÏģÎ¿ÏĦá½±
ĠÎ²ÏģÎ±Î´ á½ºÏĤ
Ġá¼ĲÏĥÏĩá½± ÏĦÎ·Î½
Ġá½ĳÎ³Î¹ÎµÎ¹Î½ á½´Î½
Î²Î¿ Î»Î±á¿ĸÏĤ
ĠÎ»Î¿Î³Î¹ÏĥÎ¼ á¿·
Ġá¼ĢÎ³Î½Î¿ Îµá¿ĸÎ½
ĠÎ´Î¹Î±ÏĨÎ¿ÏģÎ· ÏĦÎ¹Îºá¿ĨÏĤ
ĠÎĶÎ¹ Î¿ÏĥÎº
ĠÏĦÎ¿á½Ķ Î»Î±Î¹Î¿Î½
ĠÎĳá¼°Î³á½» ÏĢÏĦá¿³
Ġá¼ĢÎ½Î±ÏĦÎ¿ Î»á¿¶Î½
Ġá¼¨ Î»ÎµÎ¹
Ġk n
Ġá¼ĲÏĢÎ¹ÏĥÎºá½³ ÏĪÎ±ÏĥÎ¸Î±Î¹
ĠÎ¶Î·ÏĦ á¿ĨÏĥÎ±Î¹
ĠÏĩÏİ ÏģÎ±ÏĤ
ĠÎ´Î¯ÎºÎ±Î¹ Î¿Î½
Ġwe ll
Ġá¼ĲÎ»ÏĢ á½¶ÏĤ
Ġright eous
ĠÎºÎ±ÏĦÎ±Î½ ÏĦÎ»
ĠÎ±á¼°Î´ Î¿á¿ĸÎ¿Î½
Ġocc urs
Ġá¼ĲÏģÎ³Î¬Î¶ ÎµÏĦÎ±Î¹
ĠÏĢÎ¿Î¹Îº Î¹Î»
ĠÎ¸ÏħÏĥÎ¹Î±ÏĥÏĦÎ· Ïģá½·Î¿Ïħ
á½ķÎ´Î± ÏĦÎ¹
Ġhard ly
Ġá¼ĲÎ»Î±ÏĨ Îµá½·Î¿Ïħ
Ġá¼ĺÎ»ÎµÎ¹ÏĥÎ± á¿ĸÎµ
Ġá¼ĲÏĢÎ¹ÏĦÎµÏĦÎµ ÏħÎ³Î¼á½³Î½Î¿Î½
ĠÎ´á½µÎ¼ Î¿ÏħÏĤ
Ïħ Î±
ĠÎº á¼Ħ
ĠÏĢ á½³ÏģÎ±Î½
Ġá¼Ģ Î¼Î±
Ġá¼Ģ Î¼ÎµÎ»
ÏĨ Î¬
á½¹ Î»ÏīÏĤ
Î¼Î± ÏĥÎ±Î½
Î¯ Î´Î¹
Ġá¼Ķ Î½Î±
Ġá¼Ķ Î´Î¿Î¾
ÏĥÎ¸ á½³Î½ÏĦÎ±
ÏĥÎ¸ Îµá½·ÏĥÎ·ÏĤ
ĠÎ» ÏħÏĩ
Î¬ ÏĦÎ·Ïģ
ĠÎ¸ ÏİÏģÎ±
ÏĦÎ¿ ÏĢ
Ġá¼Ħ Î´Î¹
Ġá½ģ ÏĥÎ·Î¼
Î¼ÎµÎ½ Î·
Ġá½ħ ÏģÎ¿ÏĤ
Ġá¼ĲÎº ÏĦá½µ
ĠÏĢÏģÎ¿ ÏĦá½³ÏģÎ±Î½
ĠÏĢÏģÎ¿ Î¼á½µ
ĠÏĦÎ± Î¹Î½
Ġá¼ĢÏĢ ÏīÎ¸
Ġá¼ĢÎ½ Î¿Î¯
ĠÎ´Î¹Î± ÎºÎ¿
Ġá½ĳÏĢ Ê¼
Â· |
Ġá¼ķ Î¾ÎµÎ¹ÏĤ
Ġá¼ĢÎ½Î± Î¸ÏħÎ¼
Ïİ Î¼ÎµÎ½Î¿ÏĤ
Ġs ent
á¼Ģ Îµá½¶
ĠÎ¸Îµ Î¿Î½
ÏħÏĥ Î±ÏĤ
ĠÏĥÎº á½³Î»Î¿ÏħÏĤ
ĠÎµá½Ĳ ÏĦÎ¿Î½
ĠÎ´Îµ Î·Î¸
ĠÏĥÏĦ ÎŃ
ĠÎºÎµ Îº
Î¼Î¹ ÎºÎ±á¿ĸÏĤ
ĠÎ»Î± á½¹ÏĤ
ĠÏĨÎ± ÏħÎ»
á½ħ ÏĥÏĦÎ¹ÏĤ
ĠÎ¼á½µ ÎºÎµÎ¹
Î¿Ïį Ï²
ĠÎ¿á¼° ÎºÎ¿Î½
Ġá½ł Î¸
á½µÎ» ÏīÏĦÎ±Î¹
ĠÎ½Î¿Ïĥ Î·Î¼Î¬ÏĦÏīÎ½
ĠÏĦá½³ ÏĦ
ĠÎµá¼°ÏģÎ· Îºá½³Î½Î±Î¹
Ġá¼ł Î¾
ĠÎ²Î±ÏĥÎ¹Î»Îµ Î¯á¾³
Ġbe gin
ĠÏĩÏģá½¹Î½ Î¹Î±
Ġá½ĢÏĥÏĦ á¿·
Ġá½ģÎ¼Î¿ á½·Î±ÏĤ
ĠÎºÎ¿Î¹ Î¼
Ġá¼ĦÏģ ÏĦÎ¿ÏĤ
Ġe l
ĠÏĨá½±Ïģ ÏħÎ³Î³Î±
Ġth ink
ÏĥÏĢ á½±
Ġ6 0
Ġá½ĳÏĢÎµÏģ Î²
ĠÏĥÎ¼ á½·
Ġá½ĢÏģÎ³ á½´
ĠÏ² ÏĢ
ĠBáµĥáµĩ AQ
Ġg u
ÏĪÎµ ÏīÎ½
ĠÏĥÏĢá½³Ïģ Î¼Î±ÏĦÎ¹
Ġá¼ĲÎ¾Î·Î³ Î·
Ġá¼ĲÎ¼Î² Ïģá½»
Ġá½ģÏģ á¾·
Ġá¼ĲÎ»á½± ÏĦÏĦÎ¿ÏħÏĤ
Ġá½ĢÎ½á½¹ Î¼Î±ÏĥÎ¹
ĠÏĢÎ¿Ïĥ á¿·
Ġá¼ĢÏģÎ¹ÏĥÏĦÎµÏģ á½°
Ġá¼´ÏĥÏĩ ÎµÎ¹Î½
Ġá¼ĢÎ´á½»Î½Î± ÏĦá½¹Î½
ĠÎ¼ÎµÏĦÎ±Î²Î¿Î» á½´
ĠÎµá¼´ÏģÎ· ÎºÎ±
ĠÏĦÎµÏĩÎ½ á¿¶Î½
ĠÎºÎ¿Î¹Î»á½· Î·ÏĤ
ĠÏĢÏģÎ¿ÏĥÏĨá½³Ïģ ÎµÏĥÎ¸Î±Î¹
ÏĦÏĦÎ¿ Î¼á½³Î½ÏīÎ½
Ġá¼´Î± Î¼Î±
ĠÎ¼Îµá½·Î¶Î¿Î½ Î¿ÏĤ
ĠÎºá½±Î¼ÏĢ ÏĦÎµÎ¹Î½
á½ĳÏĢ á½²Ïģ
ĠÏĥÏĦÎµÎ½Î¿Ïĩ ÏīÏģ
ĠÏĩÏģá¿Ħ Î¶ÎµÎ¹
ĠÏĢÎµá¿ĸ ÏģÎ±
ĠÏĥá½»Î½Î´Îµ ÏĥÎ¼Î¿ÏĤ
ÏĥÎºÎµá½»Î± Î¶Îµ
ÎºÎ¿Î¹Î½ á½¸Î½
Ġá¼ĲÎ»á½±ÏĦÏĦÎ¿Î½ Î±
ĠÏĢÎ¿Î»ÏħÏĩ ÏģÎ¿Î½
ÏįÏģ Î½Î·ÏĤ
ĠÎ¼ÎµÏĥÎ¿ÏĢ Î»ÎµÏħ
Ġá¼ĶÎ¼Î± Î¸ÎµÏĤ
Ġá¼ĲÏģÎ®Î¼ á¿³
ĠÎºÎ±ÏĦÎ±Î¼Î·Î½ á½·ÏīÎ½
Ġá¼ĲÎ½Î´ÎµÎ¹ ÎºÎ½Ïħ
á½¹ÏĢ ÏīÏģÎ¿Î½
Ġá¼ĢÏģÎºá½³ ÏĥÎµÎ¹
Ġá¿¥á½¹Î´ Î¹Î½Î¿Î½
Ġ ÏģÎ·
Ïĥ ÏĨá½»
Ïĥ Î¼á½³Î½Î¿ÏĤ
Îº Î·Îº
Î· Î¸Îµ
á½± ÏĦÎ·Ïģ
Ġá¼Ģ Î¸Îµ
ĠÎ¿ ÏħÎ½
ĠÎµ Î¼Îµ
á½» Î½ÎµÏĦÎ±Î¹
Î±Î½ ÏĦÎ±Î¹
Î¯ ÏĥÏĩ
ÎŃ ÏģÎ±ÏĤ
ĠÎµá¼° Îºá½±
á½½ ÏĥÏī
ĠÏĢÏģÎ¿ ÏĥÎ¹
ĠÏĢÏģÎ¿ ÏĨÏħÎ»Î±Îº
ĠÎ½ á½´
ÏĥÏĦÎ± Î¶Îµ
ÏĢÎ¿Î½ ÏĦÎ±ÏĤ
ĠÏĢÎ¿Î¹ Î¿á¿¦Î½ÏĦÎ±Î¹
er ted
ĠÎ¾ á½»Î»Î¿Ïħ
ĠÏĢá½± ÏģÎµ
Î»ÎµÎ¹ ÏĢÎ¿
Î±á½· á¿³
ĠÎ¿á¼° ÎºÎµ
Ġá¼ĲÏģ Îµá¿ĸÎ½
Ġá½ĳÏĢá½±ÏģÏĩ Î¿Î½ÏĦÎ¿ÏĤ
Ġá¼ĺ á½°Î½
Ġá½ĢÏĥÏĦ á½³
Î¼Î±Ïģ ÏĦ
ĠÎ¹ ÏĥÏĩ
ĠÎµÎ¹ ÏĥÎ·
ĠS ee
á½¥ ÏĥÎ¸
ĠÏĩÎµÎ¹ ÏģÎ¹
ĠÏĥÏĨÏħÎ³Î¼ á½¹Î½
ĠÎ»Î¿Î³ Î¹Îºá¿ĨÏĤ
ĠÏĥÏħÎ½ÎµÏĩ á½´ÏĤ
ĠÎĳá¼° Î¸Î¹
Ġá¼¸Ïī ÏĥÎµ
ĠÏĩÎ± Î»Îµ
Î¹ÏĥÎ¼ Î¿á¿¦
ĠÎ±Î¹ ÏīÎ½
Ġá¼ĢÎ´ÎµÎ»ÏĨ Î¿á¿ĸÏĤ
ĠÎ´ÏģÎ¹Î¼ á½»
Î»á½³Î³ ÎµÎ¹
ĠÎ²Î¿á½» Î»Î¿Î½ÏĦÎ±Î¹
ĠÏĨÎ±Î¹Î½ Î¿Î¼á½³Î½Î¿Î¹ÏĤ
Ġex cept
ul ar
ĠÎ¿Î¹Îº Ïī
ĠÎ¸á½± Î½Î±ÏĦÎ¿ÏĤ
ĠÎ»Î±Î» á¿ĨÏĥÎ±Î¹
Ġá¼ģÎ¼Î±ÏģÏĦ á½±Î½
ĠÏĦÏģÎ± ÏħÎ¼á½±ÏĦÏīÎ½
Ïĥá½± Î¼Î·Î½
Ġá¼ĲÎ¾Î± ÏĢÎ±
rob ably
ĠÏĥÏħÎ½á½³ ÏĦÎ±Î¾ÎµÎ½
á½¹Î´ Î¿Î¹ÏĤ
Î²Î¿ ÏģÎ¿Î½
Ġá¼ĢÎ¼á½³ Î¼ÏĢ
ĠÏĨÏģÎµÎ½ á½·
ĠÎºÏħÎº Î»Ïī
ĠÎºÏħÎº Î»ÏĮ
Ġá¼ĲÎ»Îµ Î·Î¼Î¿Ïĥ
á¼¤ ÏĦÎ¿Î¹
á½ĥ Î½
Ġá¼ĢÎ½ÏīÎ¼Î± Î»á½·Î±
Ġá¼ĶÎ³Î½Ïī ÏĥÎ±Î½
Ġá½ĳÏĢÎµ Î¶Ïī
ĠÏĢÏģÎ¿ÏĥÏī ÏĢÎ¿Ïħ
ĠÎ´Î¹ÏĢÎ» Î¿á¿¦Î½
Ġá¼ĪÏĥÏĥ Ïħ
Ġá¼ĺÏĨ Ïģá½±
ĠÏĨá½±ÏĥÎº Î¿Î½ÏĦÎµÏĤ
ÏĦÎ±á½» ÏĦá¿ĥ
ĠÎºÎ»Î± ÏħÎ¸
ÏĥÎºÎµÎ¹ ÏĦÎ±Î¹
ĠÏĢÎµÏĨÎ¸ á¿ĨÎ½Î±Î¹
Ġá¼ķÎ»ÎºÎµ ÏĥÎ¹Î½
Ġpart ic
Ġá¼ĻÎ»Î» á½µÎ½ÏīÎ½
ĠÎĻÏĥ Î»
ĠÏĥÏħÏĥÏĦá½³Î»Î» ÎµÏĥÎ¸Î±Î¹
á¼ĪÎ»Î» á½°
Ġá¼ĲÎºÎ¸Î»á½· Î²
ĠÎ¥ á¼±
Ġá½ĳÏĢÎµÏģÎ· ÏĨÎ±Î½
Ġá¼ĲÏģÎ³á½± ÏĥÎµÏĦÎ±Î¹
Ġá¼ĲÏĢÎ¹Î´á½³ÏĥÎ¼ ÏīÎ½
Î´ÏģÎ±Î³á½¹ ÏģÎ¿Ïħ
ĠÎºÎµÏĩÏģÎ¿Î½ Î¹Ïĥ
Ġá¼¸Î´Î¿Ïħ Î¼Î±
l es
Â §
Â ²
Î °
Ġ es
ÏĦ á½²
Î± Î»Îµ
Î¼ á¾¶
Ġá¼Ĳ Î¸Î±
ĠÏĢ Î±ÏĤ
Î³ ÎµÏģ
Î´ Î¿Î¹
Î´ Î®
Ġá¼Ģ ÎºÎ±Î¸Î±Ïģ
á¿ĸ Î²Îµ
Î¾ ÎµÏĥÎ¸Î±Î¹
á½µ ÏĥÎ±Î¹
Ġá¼Ķ ÏĦÎ¿ÏĤ
Ġá¼Ķ Î¼Î¹
ÎºÎ± Î¹Î½
ÏĦÎ¹ Î¸Îµ
ĠÎµá¼° ÎºÏĮ
Î¬ Ï²
ĠÏĦÎµ Î¼Î½
Î½Î± ÏĦÎµ
Ġá¼Ħ ÏĨÏīÎ½
ÏĥÎµ Î²Îµ
Ġá½Ģ Î²Î¿Î»Î¿á½ºÏĤ
ĠÏĥÏħ ÏĥÏĦÎµÎ»Î»
Ġá¼ĲÏĢÎ¹ ÏĨÎµÏģ
Î»Î¹ ÏĦÏģÎ¿Î½
ÏĦÏī Ï²
ÏĥÏĩ Î¯
Ġá¼ĢÎ½Î± Î³Î³ÎµÎ»
ĠÏĢÎ±Ïģ ÎµÎ»
ĠÏĦÎ¿Î¹ á½±Î´Îµ
Î³Î± Îº
ĠÏĢÏģÎ¿Ïĥ á½±Î³
ĠÏĢÎµÏģÎ¹ ÏĦÎµ
Ġá¼ĢÎº á½¹Î»Î¿Ïħ
ÏĦá½· Î±Î¹ÏĤ
Ġá¼Ī Ïĩ
ĠÎ£ Î·Î»
ĠÎ³ÎµÎ½ á½¹Î¼ÎµÎ½Î±
ÏĥÎ¼ á¿³
ĠÎ±á¼± Ïģ
Î¼Î½ ÏīÎ½
ĠÎĻ Î·Ïĥ
Î´Î¿ Ïĩ
Î´ÎµÎ¹ Î¾ÎµÎ½
Ġf f
ĠÎ¼á½µ ÎºÎ¿ÏħÏĤ
Ġá¼ĢÏĨ Îµ
ĠÏĦá½³ Î»ÎµÎ¿ÏĤ
ĠÎµá¼°ÏģÎ· Î¼ÎŃÎ½ÏīÎ½
ÎºÏģ á¿ĸÎ½Î±Î¹
Ġá¼ĲÎºÎµá½·Î½ Î±ÏĤ
at ed
Î´Ïī Î¼ÎµÎ½
Ġe ven
ĠÎ¤ ÏīÎ²
Î¤ á½´Î½
ĠÏĥÎºÎ»Î· Ïģá½¹ÏĦÎ·ÏĤ
Ġ5 4
ĠÎ¿Ïħ ÏĦÎ¿ÏĤ
ĠÎ»á½³ Î¾Î¹ÏĤ
ĠÏĢÏĮ Ïģ
Ġ8 6
Ġá½ĢÏģÎ³ á¿ĩ
ĠÏ² Ïħ
ÏģÎµá½» ÎµÎ¹Î½
ĠÎľÏī ÏĭÏĥ
Ġg iv
ĠÏĥÏĢÎ» á½´Î½
á½ĳ Î³
Ġse t
ĠÏĢÏħÎº Î½Î¿
ent ly
ĠÎ²Î»á½± ÏĢÏĦÎµÏĥÎ¸Î±Î¹
ÏĪÎ±Î½ ÏĦÎ±
Ġá¼ĲÎ¾Î·Î³ á½µÏĥÎ±ÏĥÎ¸Î±Î¹
á¼´ ÏģÎµÏīÏĤ
ĠÎºÏģá½± ÏĥÎµÎ¹ÏĤ
Ġá½ĢÎ»á½·Î³ Î¿Î¹
ĠÎºá½±Î¼Î½ Î¿Î½ÏĦÎµÏĤ
ĠÏĢÏģÎ¿ÏĨ Î·
ĠÎ¼Î±Ïģ ÏĦÏį
ĠÏĨÎ·Ïĥ á½·
Î»ÎµÏį ÏĥÎ¿Î½ÏĦÎ±Î¹
ĠÎ³Î¯ Î½ÎµÏĥÎ¸Î±Î¹
ĠÏĥÏĦá½» ÏĪÎ¹Î½
ĠÎºÎ±Î»Î¿Ïħ Î¼á½³Î½ÏīÎ½
Ġá¼ĳÏĪ Î·
ĠÏĦá½³Î½ Î¿Î½ÏĦÎ¿ÏĤ
ĠÏĢÎ¯ ÏĥÏĦÎ¹Î½
ÏĦá¿Ĩ ÏģÎ±
ĠÎ²ÎµÎ² Î·Î»
ĠÏĢÎ¿Î»Îµ Î¼Î¹
ĠÎ±á½Ķ ÏģÎ¹Î¿Î½
ĠÏĢá½³ÏģÎ± ÏĦÎ¹
ÎºÏħ ÏĥÏĦ
ĠÎĴÎ±Î²ÏħÎ» á¿¶Î½Î±
Ġá¼Ģá¿¤á¿¥ á½³Î½ÏīÎ½
ĠÏĨÎ¸Î¹Î½ á½¹ÏĢÏīÏģÎ¿Î½
ĠÏĢÏģÎ¿ÏĥÎ±Î³Î¿ÏģÎµá½» Î¿ÏħÏĥÎ¹Î½
Ġá¼ĢÎ½Î¹ Î±Ïģ
ĠÎµá½ĸ ÏģÎ¿ÏĤ
Ġá¼ĲÎ½Î¹Î±ÏħÏĦ Î¿á¿¦
ĠÏĢÎ»Î±ÏĦ á½ºÏĤ
ĠÏĦÎµÎ¸ Î½Î·
ĠÏĦÎµÏĥÏĥ á½±ÏģÏīÎ½
ĠÎºÏģÎµ á¿¶Î½
ĠÎ¸Î·Ïģ Î¯Î±
ĠÎ´ÏģÎ¹Î¼á½³ Î±
Ġá¼°ÏĥÏĩÏį Î¿ÏĤ
ĠÎ´Î¹Î±ÎºÏģá½· Î½ÎµÎ¹Î½
Ġinter pre
Ġá¼ĢÏĢÎ¿ÎºÏģÎ¹ Î¸Îµá½¶ÏĤ
Ġá¼ĲÎ¼Î½Î·Î¼á½¹Î½ÎµÏħ ÏĥÎ±
Ġá¼ħÎ³Î¹ Î¿ÏĤ
Î³Î³ÎµÎ¹Î» Î±Î½
ĠÎ³ÎµÎ³Ïģá½± ÏĨÎ¸Î±Î¹
ĠPro f
Ġá¼ĶÎ¼ÏĢÎ»Î±ÏĥÏĦ ÏģÎ¿Î½
Ġá½¡Î¼Î¿Î»á½¹Î³ Î·ÏĦÎ±Î¹
Ġdoub t
ĠÎ¿Î¹ÎºÎ¿ Î´Î¿Î¼
Î½ ÏĦÎµá¿¦Î¸ÎµÎ½
Ïĥ Î¿ÏħÏĥ
ÏĢ Î¿ÏħÏĥÎ¹
Î¼ á½²Î½
Ġá¼Ĳ Î¸ÏħÎ¼
Ġá¼Ĳ Î¸ÎµÏģ
Ġá¼Ģ á½³
Ġá¼Ģ ÏĦÎ¹Î¼
ÏĨ Î¬Î½
ĠÎ¿ Î»Î¿
ĠÎµ Î¾Ïī
ĠÎ³ á½·Î½Î·ÏĦÎ±Î¹
ĠÎ±á½ĲÏĦ á¿¶
Ġá¼ĲÎ½ ÏĦÎ±á¿¦
ĠÎ´Î¹ á½±Îº
ÎŃ ÏĥÎ¸Î±Î¹
Îµá¿ĸ ÏĦÎ±á½·
ĠÎ¿á½Ĳ Ïĥá½·Î±Î¹ÏĤ
Î¼ÎµÎ½ á½¹Î½
ĠÏĦÎ¿ Î¼á¿ĨÏĤ
Î¹Îº Î¿á½¶
ĠÎ´Î¹Î± ÎºÎµÎ¹
ĠÏĦÎ¹ ÏĦÏģ
Ġá¼° Î¬
ĠÎ¼á½³ ÏĦÏīÏĢÎ¿Î½
ĠÏĥÎº Îµá¿¦
ĠÏĢÎ¿Î¹ á½¸Î½
ĠÏĥÏħÎ½ Î´ÏģÎ¿
ÏĮÎ½ ÏĦÎ±ÏĤ
ĠÏĢÏģÎ¿Ïĥ á½³Î³ÏģÎ±
Ġá½¥ ÏĥÏĢá½³Ïģ
ÏĢÎ» á½µ
Î»á½· Î¿Ïħ
ĠÎ£ ÏħÏģÎ¹
ÎµÎ» á¿¶
ĠÎ³ÎµÎ½ Î¿Î¼á½³Î½Î·
ĠÎ»Î± Î¿Î½
ĠÎºÎ¿ Î»Î»Î·
Ġm od
Ġá¼ĢÏĨ ÏīÏģÎ¹Ïĥ
ĠÎł ÏĦÎ¿Î»Îµ
Ġá½ĢÎ½Î¿ Î¼á½±
ÏĦÎ¿á¿¦ ÏĤ
ĠÏĥÏħÎ½Îµ ÏĥÏĦ
Ġá¼ĢÎ³ ÏħÎ¼
Ġá¼ł Î½
Ġá¼ł Î¸ÏģÎ¿Î¹
Ġre c
ĠÎºá½» ÏĥÏĦÎµÎ¹
ĠÎ´Î¹Î±ÏĨÎ¿ ÏģÎ±á¿ĸÏĤ
ĠÎ´Î¹Î±ÏĨÎ¿ Ïģá½±ÏĤ
at her
se e
ĠÎºÎ¿Î¹ Î»Î¹á¿¶Î½
ĠÎ¤ á½·
ĠÎ¿á¼°Îº Î¯Î±ÏĤ
Ġá¼ĲÎ¼ÏĢ Ïħ
Ġth ings
Î¾Î±Î½ ÏĦÎ¿ÏĤ
Î²Î¿Î» á½°ÏĤ
ÎĻ Î£
ÎºÎ±Î» á¿¶ÏĤ
ĠÎºÎ¿Î¹Î» Î¯Î±Î½
ÏĨá½» ÎµÏĦÎ±Î¹
ĠÎ´á½· ÏĩÎ±
ĠÎ¼Î±Î»Î±Îº Î¿á¿¦
Ġá¼ĢÎ³Î±Î¸ Î¿á¿ĸÏĤ
Î´á½¹ ÏĥÎµÏīÏĤ
Î·Îº á½³Î½Î±Î¹
Î»Î±Î¼Î² á½±Î½ÏīÎ½
Ġá¼ĢÎ¾Î¹ á¿¶
Ġá¼ĲÏĢÎµ ÏĩÎµá½·
Ġá¼ĢÏĥÎ¸ÎµÎ½ á½´ÏĤ
ĠÎ±Î¹ ÏīÎ½Î±
Ġá½ĢÎ»á½·Î³ Î·Î½
Ġcon i
Ġá¼ĲÏĢÎ¿á½· Î·ÏĥÎµ
ĠÎ¼Î¿ÏĩÎ¸Î· Ïģá¿¶ÏĤ
Ġá½ģÎ¼Î¿Î¹ á½¹ÏĦÎ·ÏĦÎ±
Ġá½ĦÎ³ ÎºÎ¿Ïħ
ĠÏĥÎ· ÏĢÎ¿
Ġá¼ĲÎºÎµÎ¯Î½ á¿³
ĠÏĢÎ¿Î½Î·Ïģ á½°
Ġá½ĢÎ»Î¹ Î³Î¿
ĠÎ¼Î½Î·Î¼Î¿Î½ Îµ
Ġá½ķÏĢÎ½ Î¿ÏĤ
ĠÎµá½ĳÏģá½·ÏĥÎº ÎµÎ¹Î½
ĠÏĥá½±Ïģ ÎºÎµÏĤ
ĠÎ½ÏħÎº ÏĦá½¶
ĠÎ¾Î·ÏģÎ±Î½ ÏĦÎ¹Îº
Î³Î±Î³ ÎµÏĤ
Ġá¼ĲÎºÎºÏģá½· ÏĥÎµÏīÏĤ
Ġá½ģÏĢá½¹ ÏĦÎ±Î½
ĠÎ¸ÏħÏĥ Î¯Î±ÏĤ
ĠÎºá½½ Î»ÏīÎ½
Ġá½ĢÎ½ÏĮ Î¼Î±ÏĦÎ¯
ĠÎ³Ïģá½±Î¼ Î¼Î±ÏĦÎ¿ÏĤ
Ġá¼ĢÏĢÎ¿ÏĨ á½µ
Ġá½ĳÎ´Î±ÏĦ á½½Î´Î¿ÏħÏĤ
ÏĩÎ±Î¹ ÏģÎ±Î½
ĠÎµá¼°ÏĥÎ± Î³
Ġá¼ĲÎ²Î± Ïĥá½·
Ġá¼ĲÏģÎµ Î¸
ĠÏĥÏħÎ¼ÏĢá½· ÏĢÏĦÎµÎ¹
Ġadd ition
ĠÎ´Î¹á½½ ÏģÎ¹ÏĥÏĦÎ±Î¹
ĠÏĥÎ·ÏĢÎµÎ´ á½¹Î½Î¿ÏĤ
Ġá¼ĳÏĢÏĦÎ± ÎºÎ±Î¹
ĠÎ²Î¿ÏģÏģ á¾¶Î½
ĠÎľÎ±Î½Î±ÏĥÏĥ á½´
Ġfollow ing
ĠÏĦÎµÏĥÏĥÎµÏģ Î¬ÎºÎ¿Î½ÏĦÎ±
Ġpossib ly
Ġá½ĢÏģÎ³Î±Î½ Î¹Îºá¿¶Î½
ĠÏĢá½µÏĩÎµ Î¿ÏĤ
ĠÎ¸ÎµÎ±Ïĥá½± Î¼ÎµÎ½Î¿ÏĤ
ÏĨÎ¹Î» Î¿ÏĤ
ĠÏĢÎ±ÏĥÏĩ á½¹Î½ÏĦÏīÎ½
Î¿á½ĲÎ´Îµ á½¶ÏĤ
Ġá¼ĢÏĥÎ¸á½³Î½ ÎµÎ¹Î±Î½
Ġá½ĳÎ¼á½³Î½ ÎµÏĤ
ĠÏĢÎ±Î»Î¹Î½ Î´ÏģÎ¿
ĠÎºÏħÎºÎ»Î¿ ÏĦÎµÏģ
ĠEx od
Ġsy ntax
Ġá¼ĦÎ¼ÎµÎ¹Î½ á½¹Î½
Ġá¼ĢÎ»ÏīÏĢÎµ Îº
Ġá½ģÏĥÎ·Î¼ á½³ÏģÎ±Î¹
ĠÎºÏħÎºÎ»ÏĮ Î¸ÎµÎ½
( ?
a p
s ed
Î½ á½µ
ĠÎ ŀ
Ïĥ á½ºÎ½
ĠÎº á½³ÏģÎ±
á½³ ÏĥÎµÎ¹
ĠÎ¼ á¿ĨÎ½Î±ÏĤ
á½» Î¿Ïħ
ÎµÎ¹ Î¼Î¹
Î² Î¹
Î² ÎµÏģ
Ġá¼ĲÏĢ Î·Ïģ
á½µ ÏĥÎ±Î½ÏĦÎ¿ÏĤ
ÏĥÎ¸ á½³Î½ÏĦÎµÏĤ
ĠÎµá¼° ÎºÎ¿
ĠÏĦÎµ Î»ÎŃ
ÏĦÎ· ÏĥÎ¹ÏĤ
Ġá¼Ħ Î¼Î±
ĠÎ² Ïī
ĠÎ² ÏģÏī
Ġá¼ĲÎº ÎºÏģÎ¹Î¸
Ġá½Ģ ÏĥÏĨá½»
ĠÎ¼Îµ Î»Î¹
ĠÏĢÏģÎ¿ ÏĦá½±
ĠÎ´Î¹Î± ÏĢÏħ
ĠÏĢÎ± ÏĦÎ®Ïģ
ÏĦÎµÏģ Î¿á½·
Ġá¼ķ Î¾ÎµÏīÏĤ
ĠÏĦá¿ĩ ÏĥÎ¹Î½
Ïİ Î¸Î·ÏĥÎ±Î½
Ġá¼ĢÏĢÎ¿ Î»Î»
ĠÏĪ á¿¦
ĠÎºÎ±ÏĦÎ± ÏĪá½»
ÏĥÏĦÎ± ÏĦÎ±
Ġá½Ħ ÏĪÎµÏīÏĤ
ĠÎºÎ±ÏĦ ÎŃÎ½Î±Î½ÏĦÎ¹
ĠÎ»Îµ ÎºÏĦá½³Î¿Î½
ĠÎ¿á½Ķ ÏĥÎ±ÏĤ
ĠÏĥÏĨ Î±Î¹
Ġá½ĳÏĢÎ¿ Î³ÎµÎ³ÏģÎ±Î¼
á½³Î¿Î½ ÏĦÎµÏĤ
ĠÏĢÏģá½¹ Î²Î±ÏĦÎ±
ĠÎĴ Î±Î½
ÎµÎ¹Î´ Î¿ÏĤ
Î³Îµ Î¯
ĠÎ¿á¼´ ÎµÏĦÎ±Î¹
ea k
ÎºÏģ ÏħÎ¼
Ġre sem
ĠÏĩÏħÎ¼ á½¹Î½
ĠÏĢÏģá½½ ÏĦÎ¿ÏħÏĤ
ĠÏĢÏģá¿¶ ÏĦÎ¿Î¹
á¼Ħ Ïģ
ĠÎ¤ Î¹
ver b
Ġá½ĢÎ¾ á½³ÏīÏĤ
ĠS cholz
ĠÎ»á½³ Î³Î¿Î½ÏĦÎ¿ÏĤ
ĠÎ»ÎµÏĢÏĦ á½¸ÏĤ
ĠÏĩÎµÎ¹ Î¼á½¼Î½
ĠÎ£Î± Î´
ÎºÎ±Î» Ïį
Ġá¼ĲÎ»Î± Î¯Î¿Ïħ
Ġá¼ĲÎ½ÎµÏģÎ³ Îµá½·á¾³
ÏĥÎ· Î¼Î²
ĠÎ³Î¹Î³Î½ á½½ÏĥÎºÎµÎ¹Î½
ĠÏĢÎ»Îµá½· ÏĥÏĦÏīÎ½
Ġá¼ĢÏĢá½¹ ÏĨÏħÏĥÎ¹Î½
ÏĪÎµ ÏĥÎ¸Îµ
Î¯Î¶ ÎµÏĦÎ±Î¹
ĠÎ²Î»á½± ÏĢÏĦÎµÎ¹
Î¬Î¶ ÏīÎ½
Ġá¼ĶÎ¸ Î½Î¿ÏħÏĤ
ĠÎĶÎ±Ïħ ÎµÎ¹Î´
Îµá¼´ Î·
Ġá¼ĲÎ´ ÎŃ
ĠÏĦÏģÎ±Ïĩ Îµá¿ĸÎ±Î½
Î»á½³Î³ ÎµÎ¹Î½
Ġá¼ĲÏĥ Î¼ÎµÎ½
ĠÏĦÎµÎ»ÎµÏħÏĦ á¾·
Î½á½· ÏĦÏģÎ¿Ïħ
Ġá¼ĲÎ»á½± ÏĩÎ¹ÏĥÏĦÎ¿Î½
ĠÏĨÎ¿Î² Î¿Ïħ
ĠÏĥÏİ Î¼Î±ÏĦÎ±
Ġab ove
Ġá¼ĲÎºÎµÎ¯Î½ ÏīÎ½
ĠÎ½Î± Ïģ
Î© Î£
ĠÎ»Î¿Î³Î¹ÏĥÎ¼ á½¸ÏĤ
Ġá½ĢÎ´ÏħÎ½ Î·Ïģ
Ġá¼ĢÎ½Î¿Î¼ Î¯Î±ÏĤ
Ġá¼ĲÎ½ÎµÏģ Î³Îµ
ĠÎ¼ÎµÎ¹ ÏģÎ±Îº
ĠÏĥÏħÎ½Î±Î³ÏīÎ³ á½´
ĠÏĦÏģÎ¹ÏĦÎ± á¿ĸÎ¿Î½
Ġapp ears
ĠÏĨÏĮ Î²Î¿ÏĤ
Ġá¼ĲÎ´á½µÎ» ÏīÏĥÎµ
Ġá¼ĢÎ»Î»Î®Î» ÏīÎ½
Ġá½łÎ½á½¹Î¼Î± ÏĥÎµ
ĠÎ´Î¿Î³ Î¼Î±
ĠÎºá½±ÏĦÎ± Î³Î¼Î±
Î´á½»Î½Î± ÏĦÎ±Î¹
Ġá¼ĲÏģÏħÏĥÎ¹ ÏĢÎµ
ÎļÏį ÏģÎ¹Î¿ÏĤ
ĠÎ±á¼°Î½ ÎŃ
ĠÏĦÎµÏĥÏĥÎµÏģ á½±ÎºÎ¿Î½ÏĦÎ±
ĠÎ´ÎµÎ´ á½µÎ»ÏīÏĦÎ±Î¹
Ġá¼ĢÏĨÏģÎ¿Î´Î¹ Ïĥá½·ÏīÎ½
ĠÎµá¼´ÏĢÏī Î¼ÎµÎ½
Ġá½¤Î¼Î¿ ÏĥÎµÎ½
ĠÎ§ÏģÏħÏĥá½·ÏĢ ÏĢÎ¿Ïħ
Ġá½ĳÏĢá¿ĨÏģÏĩ ÎµÎ½
Ġá½ģÎ»Î¿ÎºÎ±á½» ÏĦÏīÎ¼Î±
Ġá¼ĲÏĢÏī Î¼á½·
c ed
u ch
Ïĥ Î¯á¾³
Ïĥ á½¹Î¼ÎµÎ¸Î±
ĠÏĦ á½·Î½ÏīÎ½
ĠÎº Ïİ
Î³ Î¿Ïħ
ĠÎ¼ ÏīÏģ
á½± ÏĥÎµÏīÏĤ
Î¿Ïħ Ïģ
á½¹ ÏģÎ¸
ÏīÎ½ á½·Î¿Ïħ
Ġá¼ĲÎ½ Î¿Î¹Îº
Î² á½µ
Î² Î±Î½Î¿Î½
Îµá¿ĸ á½¹Î½
ĠÏĨ ÏħÏģ
Ġá½ĳ Î¼á½³Î½Î±ÏĤ
Î½Îµ ÏĥÏĦÎ¹
Ġá¼Ħ Î´Î·
ÏĪ Î¿ÏĤ
ÏĢÎ¿ á½·
ĠÎ¼Îµ Î»á½·
ĠÎ¼Îµ ÏĥÎ·Î¼Î²
á¿¦ ÏĦ
Ġá¼ĳ ÏĦÎ¿Î¯
á¾¶ ÏĦÎµ
ÏĦÎ¿Î½ Î¿Î½
ÏĥÎº ÎµÎ½
ĠÎ¿á½ĸ ÏĥÎ¹Î½
Ġá¿¥ á¿ĸÎ½Î±ÏĤ
Î¿Î» á½µÎ½
ĠÏĦÎ¿Î¹ á½¹Î½Î´Îµ
ĠÎ¼á½³ ÏĥÎ·
ĠÏĢÎ¿Î¹ á½¹ÏĦÎ·ÏĦÎ¹
ĠÏĥÏħÎ½ ÎµÏģÎ³
ĠÏĢÎµÏģÎ¹ Î»Î±Î¼Î²á½±Î½
Î¸Îµ Î¿ÏĤ
ÏĦá½· Î´Î±ÏĤ
á½±Î» Î¿Ïħ
ĠÎ±á¼± Ïģá½³
Î´Î¿ Î¼Î±
Î¯Î½ Î¿Î½ÏĦÎµÏĤ
ĠÎ¼Î¿ ÏĩÎ»
ĠÎ¿á¼° Î½Î¿Î¼
ÏīÎ¸ á½²Î½
Î´Îµá½· Î¾Î±ÏĦÎ¿
Ġá¼ł Î½Î±Î³Îºá½±
ĠÎºá½» ÏĥÏĦÎ¹ÏĤ
ĠÏĦá½± Î¾ÎµÎ¹
Ġd ec
ĠÎ²Î±ÏĥÎ¹Î»Îµ Ïħ
Ġá¼ĲÏĩ Î¿á½»ÏĥÎ±ÏĤ
Ġbe l
ĠÎ³Î¹Î½ Î¿Î¼á½³Î½Î±ÏĤ
Ġá¼ĢÎ½Î±Î³ ÎºÎ±Î¹
ĠÎ¼Î± ÏĦÎ±
ĠÎºÎ¿Î¹Î½ á½¸ÏĤ
ĠÎºÎ±Îº Î¿á¿¦
á½µÏĥÎµ ÏĦÎ±á½·
ĠÏĥÏĨÏħÎ³Î¼ á½¹ÏĤ
ĠÏĥÏĦá½¹ Î¼Î±ÏĦÎ±
Ġal most
ĠÏĥÏħÎ½ÎµÏĩ Îµá¿ĸÏĤ
ĠÎ»ÎµÎ³ á½¹Î¼ÎµÎ½Î±
ĠÏĨÎ»ÎµÎ³Î¼Î± Î¹Î½á½¹Î½ÏĦÏīÎ½
ĠÎ¼á½· Î¾ÎµÏīÏĤ
ĠÎ½ÎµÏĨ ÎŃ
Ġá¿¬ á½½
Ġá¿¬ Î¿ÏħÎ²
ĠÎĳá¼°Î³ ÏħÏĢÏĦ
Îľ Îĳ
Ġ23 3
ĠÎ²Î¿á½» Î»Î¿Î¹
ĠÏĨÎ±Î¹Î½ Î¿Î¼á½³Î½Î¿Ïħ
ĠÎ»Î¿Î¹ÏĢ Î¿á¿¦
ĠÏĥÏħÎ¼Î²Î± á½·Î½ÎµÎ¹Î½
Ġá¼ĢÏĨÎ¿ ÏģÎ¼
ĠÏĢÎ±Î¹Î´ Î±Ïģ
ĠÏĦá½³Î½ Î¿Î½ÏĦÎµÏĤ
Ġmea ns
ĠÎ³Î»á½·ÏĥÏĩ ÏģÏīÎ½
Ġá¼ĳÏģ ÏĢÎµ
Ġá¼°á½± Î¼Î±ÏĦÎ±
Î¾Î· ÏģÎ±Î½
ĠÏĥÏĦÏģÎ± ÏĦÎ¹
ĠÎ±á½ĲÏĩ á½³Î½Î±
Ġá¼ĲÏĢÎ¹ÏĩÎµÎ¹Ïģ Îµá¿ĸÎ½
te nd
te xt
ĠÏĥÏħÎ³Îº Îµá½·Î¼ÎµÎ½Î¿Î½
ĠÎºÏħÎ½ á½¸ÏĤ
ÏĬÎº Î¿á¿ĸÏĤ
ĠÎºÎ±ÏĦÎ±Îº Î»Î·ÏģÎ¿Î½Î¿Î¼
ĠÏĢá½¹Î»Îµ Î¼Î¿Î½
Ġá½łÎ½á½¹Î¼Î± ÏĥÎµÎ½
Ġá¼ĲÎ½ÎµÏĥÏĦ á¿¶ÏĦÎ±
Ġá½Ļ ÏĪ
ĠÎ²Î¹Î²Î»Î¯ á¿³
ÏĢÎ¬Î½ ÏĦÎ±
ĠÎ³Î±Ï² ÏĦÏģ
Ġá¼ķÏĦÎ¿Î¹ Î¼Î¿Î½
Ġá¼±Î¼Î¬ ÏĦÎ¹Î±
Ġcons id
ĠÎºÏģÎ¿ÏĦÎ± ÏĨá½·
ĠÎºÎ±Î¼Î½ á½¹Î½ÏĦÏīÎ½
á½³Î²Î»Î· ÏĦÎ±Î¹
ĠÏĢÎ¿Î¼ÏĨ á½¹
ĠÏĢÎ¹ÎºÏģá½¹ ÏĩÎ¿Î»
Ġá¼ĺÏĨÏģá½± Î¹Î¼
ĠÏĥÎºÎµá¿¦ Î¿ÏĤ
3 1
B Q
t im
Î ĸ
ĠÏĦ ÏįÏĩ
Î» Î¼Î·
Î¼ á½³Î³
Î¼ ÏĪÎ±Î¹
Ïħ Î¼Î±ÏĦÎ¹
Ïħ Î³Î³Î¹
ĠÎº Îµá¿ĸÏĦÎ±Î¹
Î· Î»Î±
Î³ ÏģÎ¬
Î³ á½·Î½Î¿Î½ÏĦÎ±Î¹
ÏĦÎ± Î¾Î¹Î½
Î´ Î¿Î¹ÏĤ
Î´ á¿ĥ
á¿¶ ÏĦÎ±Î¹
Ġá¼Ģ Î»Îµá½»
Ġá¼Ģ ÏĥÏĦÏģÎ±
Î¿Î¹ ÏĦá½¹
ĠÎ´Î¹ Î·Î½Îµ
ÎºÎ± Ïį
ĠÏĨ Î»Ïħ
ĠÎ» Î¬Î²
ĠÏĩ á½·
á½½ ÏģÎ±ÏĤ
Ġá¼Ħ Î´Î¹Îº
Ġá½ħ Ïģ
Ïį Î½Î±Î¹
á½±Î½ ÎµÎ¹Î±Î½
ĠÎ½ ÎŃ
ĠÏĢÎ± ÏĦá½³ÏģÏīÎ½
Ġá¼ĲÏĢÎ¹ ÎµÎ¹Îº
Î»Î· ÏĥÎ¹Î½
Ïģá½± ÎºÏīÎ½
ĠÎºÎ±ÏĦÎ± ÏĨÏħ
Ġá¼¤ Î»ÏĢÎ¹
ĠÏĢÎµÏģÎ¹ ÏĦá½¹Î½
ĠÎ¶ á¿Ĩ
ĠÎºÎµ ÎºÎ¿
ĠÎºÎµ ÎºÏĦÎ·
ĠÎ£ ÏĦÏī
ĠÎ¼á½¹Î½ Î±Î¹ÏĤ
Î¼Î½ Î¿Ïħ
Î´Î¿ ÏĦÎ¿ÏĤ
Ġá½ĳÏĢÎ¿ ÏĢÏĦÎµ
ĠÎ´ÏħÎ½ á½µÏĥÎµÏĦÎ±Î¹
ĠÎ¼Î·Î´ ÎŃ
Î¹Î± Î´Î¹Îº
ĠÎ»á½¹Î³ Î¿Î¹
á½¹ÏĦÎ· ÏĦá½±
ĠÎ¼Î¹Îº ÏģÎ¿á½¶
ĠÏĦá½³ Î¼
á½±Î¶ ÏīÎ½
Ġá¼ł Î¾á½·
ĠÎºÏģ á½³Î±
Ġá½ĢÏĥÏĦ á½³ÏīÎ½
ÏĦÎµÏģÎ± Î¹
ÏĢÎ½ Î¹Î¿Î½
Ġe ither
Ġá¼ĲÎ» Î¿Î³
Ġá¼ĲÏĢá½· ÏĥÏĩ
Ġ5 5
ĠÎ´ÏħÎ½Î± Î¼á½³Î½Î·ÏĤ
ÏĦÎ±á½· Î¿ÏħÏĤ
Î¾Î±Î½ ÏĦÎ±
Î¬Î» Ïħ
ĠÏĦÎ¿á¿¦ÏĦ ÏĮ
ĠÏĦÏģÎ¿ÏĨ á½µÎ½
ĠÎºÎ±ÏĦÎµ ÏħÎ¸
ĠÏĦÎ¿Ïĥ Î¿á¿¦
Ġá¼ĢÎ½ÏĦÎ¹ ÏĥÏĦ
ĠÏĢÎ»á½³Î¿Î½ Î¹
Ġá¼ĶÎ³ÏģÎ± ÏĪÎ±
ĠÎ»ÏĮÎ³ Î¿Î¹
ĠÏĨÎ¸ á½±Î½
ĠÎ´Î·Î» á¿¶ÏĥÎ±Î¹
Ġá¼ĦÏģÏĩ Î¿Î½ÏĦÎ±
ĠÏĢÏģÎ±Î³Î¼Î±ÏĦÎµ á½·Î±Î¹ÏĤ
ĠÎľÏīÏħÏĥ á¿ĩ
Ġá½ĳÏĪÎ·Î» á½¸ÏĤ
ĠÎ½ÏĮ Î¼Î¿ÏĤ
á¼ķ ÏīÏĤ
Ġá¼ĢÎ»Î»Î¿Î¹ Ïī
Ġá¼ĢÎ½Î±ÏĦÎ¿Î¼ Î¹ÎºÎ¿á¿ĸÏĤ
ĠÎ¸ÎµÏģÎ±ÏĢ Îµá½·Î±
Ġu nder
ĠÏĢÏģÎµÏĥÎ² á½»
ĠÏĩÏģá½½ Î¼ÎµÎ½Î¿Î¹
ĠÎ´Î¹ÎºÎ±Î¹Î¿Ïĥ ÏįÎ½á¿ĥ
ĠÏĢÎ±Ïģá½³ ÎºÏģÎ¿Ïħ
ĠÎ¾Î±Î½Î¸ á½´
Ġá¼ĢÏģÎ¹ÏĥÏĦÎµÏģ á½¸Î½
ĠÏĥÏĦÏĮ Î¼Î±ÏĦÎ¹
Ġá½ģÏĢÎ¿á¿ĸ Î±
ĠÎ³ÎµÎ½Îµ á½°ÏĤ
ĠÏĢÎ±á¿ĸ Î´Î±
ÎŁÎ¥ Î£
ĠÏĢÏħÏģá½³ ÏĦÏĦÎµÎ¹Î½
ĠÎĻÎµÏģ Îµ
ĠÏĨÏħÎ»Î±Îº á½´Î½
ĠÏĥÏĢÎ±ÏĥÎ¼ á½¸ÏĤ
ĠÏĪÎ± á½»ÎµÎ¹Î½
ĠÏĥÏĦá½³Ïģ Î½Î¿Ïħ
Ġá½ĦÏģÏĩ ÎµÏīÎ½
ĠÏĢÎ±ÏģÎ±ÏĨÏģÎ¿Ïĥ á½»Î½Î·Î½
ĠÎ¼ÎµÏĦá½³ ÏīÏģÎ¿Î½
ĠÎºÎ±ÏĦÎ±ÏĥÎº Î·Î½
ĠÎºÏĦ á½µÎ½Î·
ĠÎµÏĩ Î¸Ïģ
Ġá¼ĢÏģÎ¾á½± Î¼ÎµÎ½Î¿ÏĤ
Ġá¼ĢÏĥÏĨÎ± Î»Îµá½·Î±ÏĤ
ĠÎļÏģÎ· ÏĦÎ¹ÎºÎ¿á¿¦
(?) )
ĠÏĥÏħÏĥÏĦá½± ÏĥÎµÎ¹
Ġá¼©ÏģÎ¿ÏĨ á½·
Î³Î±Îº á½±Î½Î¸Î·ÏĤ
* .
Q Îĵ
r it
s c
t hat
ÏĦ Î¼Î·Î¸
Î¿ ÏĦá½³ÏģÎ±ÏĤ
Î¹ Î¸
Ġá¼ į
ĠÏĦ á½·Î½ÎµÏĤ
ĠÎºÎ± Î»Î±Î¼
ĠÎºÎ± Î´Î¼Îµá½·Î±ÏĤ
á½± Î´Î±ÏĤ
á½± Î¸ÏģÎ¿Ïħ
Ġá¼Ģ ÏĥÏĢ
ĠÎ± ÏĢÎ·
á½» Î»Î±
Î¿Î¹ Î¼ÎµÎ½
á¿Ĩ ÏĥÎ¸Î±á½·
Î¯ ÏĥÎ±ÏĤ
Ġá¼ĲÏĢ Î¬Î½Ïī
ÎºÎ± ÏĦÎ¿Î½
ĠÏĨ ÎµÏį
Î¬ ÏģÏīÎ½
ÏĮ Î¼ÎµÎ½
Ġá¼Ħ ÏĨÎ¸
á½¹Î½ Î¿Ïħ
Î»Îµ ÏĦÎµ
Î»Îµ ÏħÎ¸
ĠÏĢÏģÎ¿ ÏĦá½³ÏģÎ¿Ïħ
Î® Î¸Î·Î½
ĠÎ´Î¹Î± ÏĥÏī
ĠÎ´Î¹Î± Î³Î½ÏīÏĥÏĦÎ¹Îº
á½·Î½ Î¿Î½ÏĦÎ¿
ĠÏĢÎ±Ïģ á½³ÏĩÎµÎ¹
Ïİ Î´Î·ÏĤ
Ġá¼ĶÏĩ Î¿ÏħÏĥÎ±Î¹
ĠÏĢÎ» Î®Ïģ
ÏĦÎ¹Îº á½¹ÏĤ
ĠÏĥÎº Ïī
ĠÏĢÎ±ÏģÎ± Î³Ïģá½±
ÏĦá½· Î¸ÎµÏĦÎ±Î¹
ĠÎ´Îµ Î´Îµ
ÏĢÎ¹ ÏĮÎ½
Î¬Î½ á¿ĥ
ĠÏĪÏħÏĩ Ïģá½¹ÏĦÎµÏģÎ±
ÏģÎ¿Î½ ÏĦÎ±
Ġc ertain
ĠÏĥÏĨ á½±Î»
Ġá½ĳÏĢÎ¿ ÏĩÏīÏģ
Ġá¼´ Î´Îµ
Ġá¼´ Î¾Î¹Î½
Ġá¼ĲÏĨ á½±Î½Î·
ÏĦá½± ÏĥÎ¸Î±Î¹
ĠÎ· Î¼
ĠÏĢá½± ÏĩÎµÎ¹
ĠÎ¼Î·Î´ ÎµÎ½á½¶
ĠÎ¿á¼° Î½
ÏĥÎ¸Î· ÏĦÎµ
Ġl o
Ġá¼¹ ÎµÏģ
Ġá¼¡Î¼á½³ÏģÎ± Î¹
ĠÎ§ ÎµÎ»
ĠÎµá½ĳ ÏģÎ¹ÏĥÎº
ĠÏĥÎºÎ»Î· ÏģÎ¿á¿¦
á½µÏĥÎµÎ¹ Îµ
ÏĦÎ±á¿¦ ÏĦá½±
ĠÎ»á½³ ÏĢ
ĠÎ»á½· Î¸ÏīÎ½
Î»Îµá½· ÏĢÎµÏĦÎ±Î¹
Ġá¼°ÏĥÏĩÏħÏģ Î¿á¿ĸÏĤ
ĠÎ¼ÎµÎ³á½±Î» á¿³
ĠÏ² ÎºÎ»Î·
Ġá¼ĢÎ¼ÏĨ Î¹Î²
Ġá¾§ Î´á½³
ĠÏĢÎ»Îµá½· Î¿ÏĥÎ¹Î½
á½ĳ Î¼Îµá¿ĸÏĤ
ĠÎ±á¼°ÏĥÎ¸ á½±Î½ÎµÏĦÎ±Î¹
Ġá¼ĢÏĥÎ¸ÎµÎ½ á¿Ĩ
ĠÏĦá½³Ïĩ Î½Î·
ĠÎºÎ±Î¸Î±Ïģ á½°
ĠÏĦÏĮ ÏĢÎ¿Ïħ
ĠÏĥÎºÎ¿ÏĢ á¿¶Î½
Ġá½ĢÎ½Î¿Î¼Î±Î¶ Î¿Î¼á½³Î½Î·Î½
ÏĢÏģ á½½
ĠÏĢÎ±ÏģÎ¿Î¾ÏħÏĥ Î¼Î¿á½ºÏĤ
ĠThe od
ĠÏĢÎ±Î¹Î´ á½¸ÏĤ
Ġá¼ĲÎ¸á½³ Î»á¿ĥ
ĠÎ»Î¿Î³Î¹ÏĥÎ¼ Î¿á¿¦
ĠÎ¼Î¹Î³Î½ á½»Î½Î±Î¹
Ġá¼ĲÎºÎºÏģá½· Î½ÎµÏĦÎ±Î¹
ĠÎ³Î½Ïī ÏģÎ¹
ÏĩÏī ÏģÎ·
Ġá¼Į Î½
ĠÎ´Î¹Î±Î³Î½ á½½ÏĥÎµÎ¹ÏĤ
ĠÏĢÏĮÎ»Îµ ÏĥÎ¹Î½
ĠÎ²Î»á½³ ÏĢÎµÎ¹Î½
ĠÏĢÏģÎ¿Î³Î½ÏīÏĥÏĦÎ¹Îº á½¸Î½
ĠÎºÏħá½± Î¸ÏīÎ½
ĠÎºÎ±Î¸Î±á½· ÏģÎµÎ¹Î½
Î²á½±Î»Î»Î¿Î½ ÏĦÎµÏĤ
ĠÎ±Î³ Î¹Î±
ĠÎ´Î¹Î¿ÏģÎ¹ÏĥÎ¼ Î¿á¿¦
ĠÏĥá½»Î½Î´Îµ ÏĥÎ¼Î¿Î½
Ġá¼ĳÎ²Î´Î¿ Î¼Î±
ĠÏĢÎµÏĥ Î¿á¿¦Î½ÏĦÎ±Î¹
Ġá¼ĲÏģÏī ÏĦ
ĠÏĨá½¹ Î²Î¿ÏĤ
ĠÎ´Î¹Î±ÏĢÎ»á½± ÏĥÎµÏīÏĤ
Ġam ong
Ġbr ing
Î´Î¹Î±ÏĨ á½³ÏģÎµÎ¹
ĠÎ»ÎµÏĢÏĦÎ¿ ÏĦá½±
ĠÎ¼á½µÎ½Î¹ Î³Î³Î¿ÏĤ
ĠÏĦÎ¿ÏĥÎ±á½» ÏĦÎ·Î½
ĠÎºÎµÏĨÎ±Î»Î±á½· ÏīÎ½
Ġá¼ĲÏĢÎ¹ÏĨ á½±Î½ÎµÎ¹Î±Î½
ĠÎºÏĦÎ·Î½ á¿¶Î½
ĠÎ§ÎµÎ² Ïģ
Î´Î±Ïģá½± ÏĩÎ·ÏĤ
a ge
ÏĦ ÎµÎ¹ÏĤ
ÏĢ Îµá½·
Î» Î±Î»
Î» á¿¦ÏĥÎ±Î¹
ĠÎº ÏīÎ½
Îº ÏĦÎ¿
Îº ÎµÎ¹ÏĤ
Î· Î¸Îµá½¶ÏĤ
ĠÎ´ Ê¼
Î¸ Î±Î»
á½³ ÎµÎ¹
á½³ ÎµÏĥÎ¸Î±Î¹
á½³ Î»Î¿Ïħ
Î¿á¿ ĩ
Î´ á½¹ÏĤ
ÏĨ Î½á½·
ĠÎ± Î½Î·
ĠÏĥ ÏĦÏģÎ¿Ïħ
Î¯ ÏīÏ²
ÏĦÎµ ÏĩÎ½
ĠÎ´Î¹ ÏĢÎ»Î±
á½µ ÏĥÎ±ÏĦÎµ
ĠÎ» Î¿Î³Î¿Î½
Ġá¼¡ ÏĦÎ¿Î¯
Î»Îµ ÏĥÎ¸Î±Î¹
Ġá¼ĲÎº ÏĥÏĦ
Ġá¼ĳ Î»á½·
á½±Î½ ÏĦÎ·ÏĥÎ¹Î½
Ġá¼ĢÎ½ á½»
Ġá¼ĢÎ½ á½·Î±
Ġá¼ĢÎ½ ÏĦÎµÎ¹
Î»Î± ÏĦ
Ġá¼ĲÏĢÎ¹ Ïĩ
ĠÎĳ Î¼
Î»Î· Î»ÏħÎ¸
ĠÎ³Îµ Î³ÏģÎ±ÏĨ
Ġá¼ĢÏĢÎ¿ Î¸Î½
Ġá¼ĢÏģ Î¸ÏģÎ¹
ĠÎµá¼´ Î´Î¿ÏħÏĤ
á¼Ģ ÏģÎ¹ÏĥÏĦÎ¿Î»Î¿Ïĩá½·Î±ÏĤ
ÏĦÏģ Î¿Î¹ÏĤ
Ġá½Ħ Î¼Î²
ĠÎļ ÎĳÎĻ
á¼° Î´
ÏĮÎ½ ÏĦÎ¹
Ġá¼ĢÎº á½·Î½Î´ÏħÎ½
ÏħÎº á½·Î¿Ïħ
ĠÏĢÎ±ÏģÎ± Î´Î¿
ĠÏĢÎ±ÏģÎ± Î»Î»á½±
ÏĦá½· ÎºÎ±
Î³Î³ á½³Î»Î»
ĠÎºÎµ ÏģÎ±Î¼
ĠÏĪÏħÏĩ á½µ
ĠÏĢÎµ ÏģÎ±Î¹
Ġw ater
ĠÎ´ÏħÎ½ Î·Î¸
ĠÎºÎ±Î» á¿¶Î½
ĠÎºÎ±Î» Î¿á¿¦Î¼ÎµÎ½
ĠÏĢÎ±Î½ Î¿ÏħÏģÎ³
Î·Î» Î¸Î¿Î½
Î´á½· Î¿Ïħ
ĠÎ¼ÎµÎ³ Î¹ÏĥÏĦ
Ġá¼°ÏĥÏĩ Î¹Î±Î´Î¹Îº
ĠÎ¼Î¿ á½·
ĠÎ¿á¼° ÎºÎ¿
Ġá½ł Î´
ĠÎºÏħ ÏģÎ¹Îµ
ĠÎł Î¿Î»
ÏĦÎ¿á¿¦ ÏĥÎ±Î½
ÏīÎ¸ á½³Î½ÏĦÏīÎ½
Ġá¼ĢÎ³ Ïģá¿·
ĠÎ²ÏģÎ±Ïĩ á½ºÏĤ
Ġd r
Ġd est
ĠÎ´Î¹á½± ÏĥÏĦÎ±ÏĥÎ¹Î½
ĠÎ¹ Î´Î¿Î½
Ġth us
ĠÎºÎµÎ½ á½½ÏĥÎµÎ¹
Ïģá½³ Î¸Î·
ĠÎµá¼°ÏĢ á½½Î½
ÏģÎ¬ ÏĨÎ·
ĠÏĥÎ¹ Î³
Ġá¼ģÎ¼Î±Ïģ ÏĦá½µ
ÏĥÏĦÎ¹Îº á½´Î½
Ġá¼ĢÎ¼ÏĨ á½¹ÏĦÎµÏģÎ¿Î¹
ĠÎ³Î¹Î³Î½ Î¿Î¼á½³Î½Î·Î½
ĠÏĦÎµÏĦ Î¬Ïģ
Ġg ra
ĠÎ»Î¿Î¹ Î¼
ĠÎ²á½± ÏĥÎ¹Î½
Î²Î±Î» Ïĥá½±Î¼Î¿Ïħ
ĠÎµá½ĳÏģ ÎŃ
ĠÎ´á¿Ĩ Î»
Ġá½ĳÏĢá½¹ Î¸ÎµÏĥÎ¹Î½
ĠÎ´ÎµÎ¾Î¹ á¾¶ÏĤ
ĠÎ´ÏģÎ¹Î¼ ÏħÏĦá½±
ĠÏĨÎ·Ïĥ á½·Î½
Ġá¼¡Î»Î¹Îº Î¹á¿¶Î½
ir it
ĠÏĢá½±ÏĥÏĩ Î¿Î½ÏĦÎ¿ÏĤ
ĠÎ½Î¿Î¼á½·Î¶ Î¿ÏħÏĥÎ¹
ĠÎ¸Î±ÏħÎ¼Î±ÏĥÏĦ á½¹Î½
ĠÎ³Î½á½½ Î¼Î·ÏĤ
ÏģÎ¿á½» ÏĥÎ·ÏĤ
Î±á½ ĸ
ĠÎ´Î¹Î±ÏĨÎ¸ Î±Ïģ
ĠÏĥÏħÎ½ÏĦÎµ Î»Îµ
ĠÎ´Î¹ÎºÎ± Î¯ÏīÎ½
ĠÎ¼ÎµÏģ Î¹
ĠÏĥÏħÎ¼Î¼ÎµÏĦÏģá½· Î±
ĠÎ³ÎŃ Î³Î¿Î½ÎµÎ½
ĠÎ¼ÎµÎ³á½·ÏĥÏĦ ÏīÎ½
ÏĢá½±Î½ ÏĦÏīÏĤ
ĠÎ¸á½» ÏģÎ±Î½
ĠÏĦÏģÎ¹ÏĦÎ± á¿ĸÎ¿ÏĤ
Ġá¼ĲÏģÏħÎ¸Ïģ Î¿á¿¦
Ġá¼ĲÎºÏĨá½» ÏĥÎµÏīÏĤ
á¼¸ Î·Ïĥ
Ġj udg
á¼Į Î»Î»Î·
ĠÏĩÎ¹ÏĦ á½½Î½ÏīÎ½
ĠÎľÎµ ÏģÎ±
Ġá¼ĢÏĢÎµÎ¹ Î¸
á¼ĢÏģ ÎºÎµá¿ĸ
Ġá¼ĢÏĨÎ±Î¹ ÏģÎµ
Ġá¼ĶÎ¼ÎµÎ»Î» Îµ
ÏĢÎ¬Î½ ÏĦÎµÏĤ
ÏĢÎµÎ¹Î´ á½´
Ġá¼ĢÎ¸ÏģÎ¿Î¹ Î¶
ĠÏĦÎ±Ïģ Ïĥ
ĠÎ¸ÏħÎ³ Î¬ÏĦÎ·Ïģ
ĠÎ¸ÏħÎ³ á½±ÏĦÎ·Ïģ
Ġá¼ĢÎ½ÎµÎ» á½¹Î¼ÎµÎ½Î¿ÏĤ
Îµá½ĲÎ»Î¿Î³ Îµá¿ĸÏĦÎµ
ĠÎľÎµÎ¹ ÏĩÎ±
ĠÏĦÎµÏĥÏĥÎ±ÏģÎ± ÎºÎ¿ÏĥÏĦ
ĠÎ´Î¹á½³Î¾ Î¿Î´Î¿Î½
usal em
Ġbec ause
ĠÏĦá¼ĢÎ»Î·Î¸ á½²ÏĤ
ĠÎ´Î¹á½±ÏĢÎ»Î± ÏĥÎ¹Î½
ĠÎĻÎ±Îº ÏīÎ²
Ġel se
B ut
a ch
e v
i gh
k in
ï ¬
á½ Ī
Ġá¼ Ĵ
Ïĥ Î¼á½³Î½Î¿Î¹
Î¼ ÏīÎ¸
ĠÎº ÏĦÎ·
ĠÎº Î»á½±
ĠÎº ÏĦÎ¯
Ïī Î¼á½³Î½Î·ÏĤ
Î· ÏĥÎµÏĦÎ±Î¹
Ġá¼Ĳ Ïħ
ĠÏĢ Î¿á¿¤á¿¥
ĠÎ´ á½¸ÏĤ
Ġá¼Ģ ÎºÎ±á½·
á¿¶Î½ ÏĦÎ¿ÏĤ
ĠÎ¿ Ïģ
ÏĥÏĦ á½°ÏĤ
Î¼Î± ÏĩÎ¿Î½
Ġá¼ĲÎ½ Î±Ïģ
Ġá¼ĲÏĢ ÎµÎº
ĠÏĨ ÏģÏĮÎ½
ĠÎ» á¿Ĩ
ĠÎ» Î¬Îº
ĠÎ» Îµá¿ĸÏĢÎ¿Î½
ĠÎµá¼° Î´á¿¶Î½
á½½ ÏĦÎµÏģá½¹Î½
ĠÏĦÎ¿ á½·
ĠÏĢÏģÎ¿ ÏĦÎµ
Îµá½· Ïĥá¿ĥ
á¾¶ ÏĦÎ¿
ĠÏĢÎ¿ ÏĦá½³
ÏģÎµ Î±
ĠÎĳ Î½
ÏģÎ· Î½Î±
ĠB ut
Ġá¼ĶÏĩ ÎµÏĦÎµ
ĠÎ¼á½³ ÏĦÎ±
ĠÏĢÎ±ÏģÎ± Î´ÎµÎ¹
ĠÏĢÎ±ÏģÎ± Î»Î¹ÏĢÎµá¿ĸÎ½
ĠÎ¼Î· Î»
ĠQ Îĵ
ÏģÎ¿Î½ ÏĦÎ±Î¹
Î´Î¿ Ïį
Î´Î¿ ÏĥÎ¸Î±Î¹
ĠÎ· á½Ķ
Ġá¼¥ Î»Î¹Î¿Î½
Ġm ust
Î»ÎµÎ¹ ÏĢÏĦÎ±Î¹
ÏĥÏĦÎ±Î¹ ÏĤ
ĠÎ¿á¼´ Î´Î·Î¼Î±
Ġn ow
ĠÎµá¼°Ïĥ ÏĢÎ½
ĠÎĵ ÎµÎ´
Ġá¼ĢÎ¼ Î¼ÏīÎ½Î¹
Ġsup pl
ĠÏĥÏĩ Î¿Î¹Î½
ÏīÏģá½· Î±
Ġ5 3
ĠÎ¿Ïħ ÏĤ
ĠÎ¿Ïħ Î´
Î¿Î¼ÎŃÎ½ Î±ÏĤ
ĠÎ²Î¿ Î®
ĠÏĥÏĨÏħÎ³Î¼ Î¿á½»ÏĤ
ĠÎºÏģá½· Î½ÎµÏĦÎ±Î¹
ĠÏĥÎ¹ Î´á½µ
Î¸Î¹ ÏĥÎ±Î½
ĠÎ¼Î±Î»Î±Îº á½¹ÏĦÎ·ÏĦÎ±
Ġá¼ĳÏĦá½³Ïģ Î¿ÏħÏĤ
ĠÏĥÏħÎ½Î± ÏĢÎ¿
Î¼ÎµÎ¹Î½ ÎµÎ½
ÏĨÏħÎº Îµ
Î±á½Ĳ ÏĦá¿·
ĠÎºÏģÎ± ÏĦÎµá¿ĸÎ½
ĠÏĦá½³Ïĩ Î½Î±ÏĤ
Ġá¼ĢÏĢá½³ Î¸Î±Î½
Ġá¼ĢÏģÎ³ ÏħÏģá½·Î¿Ïħ
ĠÏĢÏģÎ¿ÏĨ á½µ
ÏĢá½± Î¸ÎµÎ¹Î±Î½
Ġá¼ĪÎ² ÎµÎ¹
ÏĢÏģ ÏĮ
Ġá¼¸Î¿Ïį Î´Î±Î½
ĠÏĨÎ»ÎµÎ²Î¿ÏĦÎ¿Î¼ á½·Î±Î½
Ġx iv
ĠÏĢÏģÎµÏĥÎ² Ïħ
Ġá¼ĲÎºÎµÎ¯Î½ Î¿Ïħ
Ġá¼ĳÏĪ á½µÏĥÎ±ÏĤ
ĠÏĩÏģá½½ Î¼ÎµÎ½Î¿Î½
ĠÏĥÏħÎ³ ÎºÎ¿ÏĢ
ĠÏĩÏģÎ¿Î½ Î¹
ĠÎºÎ±ÏĦá½³ Î²Î·
ĠÎ´Î¿á¿¦ Î»Î¿ÏĤ
ĠÎ¸ÏħÏĥÎ¹Î±ÏĥÏĦ Î·ÏģÎ¯Î¿Ïħ
ĠÎ´Î¹ÏĦÏĦ á¿¶ÏĤ
á¼ħ ÏĢÎ±
á¼ĢÎ½Î± Î³ÎºÎ±
Ġá¼ĢÎ»Î³ á½µÎ¼Î±ÏĦÎ±
Ġá¼¸Î±Îº á½½Î²
ĠÎ³á½·Î³Î½ Î·ÏĦÎ±Î¹
ĠÏĥÏĢÎ¿Î½Î´á½»Î» Î¿ÏħÏĤ
ĠÏĦÏģÎ¯ ÏĦÎ¿Î½
ĠÏĢá½³Î¼ÏĢ ÏĦÎ¿Î½
ÎŁá½Ĳ Îº
ĠÎµá¼°Îº á½¹ÏĤ
ĠÎ³Ïģá½±Î¼ Î¼Î±ÏĥÎ¹Î½
ĠÎ¤Î¯ ÏĤ
ĠÏĦÎµÏģ Î¼Î¹Î½Î¸
ĠÎºÏģÎ¿ ÏĦá½±
Ġá½ĳÏĢÎ¬ÏģÏĩ ÎµÎ¹Î½
Î´Î¿Î¾ Î¿ÏĤ
Ġá¼¡Î¼á½· ÏĥÎµÎ¹
Ġá¼¡Î¼á½· Î»Î¹ÏĦÏģÎ¿Î½
Ġá¼ĢÎ½Î±ÏĨá½³Ïģ ÎµÏĦÎ±Î¹
ĠÎµá¼°ÏĥÎ± ÎºÎ¿Ïį
Î·Ïĥá½· ÏĤ
ĠÎ¾Ïħ Î½Îµ
Ġá¼ĲÎ¾Î¹ Î»á½±
ĠÎ¾Ïį Î»Î±
Î»á½¹ Î·ÏĤ
ĠÎ³Î¬ Î»Î±
ĠÏĩÎ¹Î»Î¹Î¬ Î´Î±ÏĤ
Ġá¼ĳÏĥÏĢ á½³ÏģÎ±ÏĤ
ĠÎºÎ¿ÏģÏħÏĨ á½´Î½
ĠÎ´Î¹Î±Î½Î¿ á½·Î±ÏĤ
Ġá¿¥Î¯Î¶ Î·ÏĤ
ĠÎ¿á¼´Î´Î± ÏĦÎµ
ĠÎµá¼°ÏģÎ® Î½Î·ÏĤ
Î»ÏħÎ³ Î¼Î±
Ġá¼ĲÏĢÎµÎ¹ Ïģá½±
ĠÎ²Î¿á½»Î» Î¿Î¼Î±Î¹
Ġá¼ĢÏĢÎ¿Î¸Î½á½µ ÏĥÎº
ĠÎ³Î¯Î³Î½ Î¿Î½ÏĦÎ±Î¹
Ġá¼ĲÏĢÎ¹ÏĦÎ® Î´ÎµÎ¹
ĠÎ¼Î½Î·Î¼Î¿Î½Îµ á¿¦ÏĥÎ±Î¹
Ġresem bl
f ect
x l
ÏĦ Î½
Ïģ Î¿ÏħÏĥÎ¹Î½
ĠÎºÎ± Î³Ïī
ĠÎ´ Î¿Ïģ
ÏĦÎ± Ïĩ
Î¿á¿¦ Ïĥá½·
Î¹Î½ á¿¶Î½
Î¿Î¹ á¿¶Î½
ĠÎ³ Î»Î±
ĠÎµá¼ ±
Î² Î´Î¿Î¼
á½µ Î½Î±ÏĦÎ¿
ÏĦÎ¹ Î´Î¹
ÎŃ ÏģÎ±Î½
ĠÏĨ Î±Î¹
ÏĮ ÏĦÎµÏĤ
Ġá¼Ħ Î»Î¿Î³Î¿Î½
Ġá¼Ħ ÏĢÎµÏĢÏĦÎ¿Î½
ÏĪ á½±Î½ÏĦÏīÎ½
Ġá½Ģ ÏģÎŃ
ĠÏĢÏģÎ¿ Î¸ÏħÎ¼
Î»Î± Î¸
ÏģÎ¿ Î¼ÎµÎ½
ĠÎĳ Î¼Î±
á¼Ĳ Î³Î³
Ġá¿¥ Î¹
re ng
Î³Î± ÏĢÎ·Î½
ĠÎºÎ±ÏĦ á½³ÏĩÎµÎ¹Î½
ĠÎµá½Ĳ ÏĢÎµ
ĠÏĢÎµÏģÎ¹ á½¹Î´Î¿ÏħÏĤ
ĠÏĢÎ±ÏģÎ± Î»á½»
ĠÎ»Îµ Î³ÏīÎ½
ÏħÎ³ Î¾
Ġá½ĳÎ³ Ïģá½¹ÏĦÎµÏģÎ±
ÏĥÎ¼ Î¿Î¹
ĠÎĻ Î»Î·Î¼
ÏĨÎ¸ ÎµÎ¹
Î´Î¿ ÎºÎµá¿ĸ
ĠÎ»Î± Ïĩ
Ġá¼± Î¼Î±ÏĦá½·
á½·Î¶ Î¿Î½ÏĦÎ±Î¹
á¼ĲÎ½ ÏĦÎ±á¿¦Î¸Î±
Ġá¼ĢÎ³ Ïģá½·Î±ÏĤ
ĠÎ¾Î· Ïģá½¹ÏĦÎ·ÏĤ
Î»Î·Î¸ á¿ĨÎ½Î±Î¹
ĠÎ³Î±ÏĥÏĦ ÎŃÏģÎ±
ĠÎ¤ á½¸
Î¤ Î¿á¿¦
ĠÎ´ÏħÎ½á½±Î¼Îµ á½½ÏĤ
ĠÎºÎµÎ½ á¿¶ÏĥÎ±Î¹
ĠI II
ĠÏĩÎµÎ¹ ÏģÎ±
ĠÏĩÎµÎ¹ Ïģá½¹ÏĤ
ĠÎ¼Î±Îº ÏģÏĮ
Ġh ouse
il t
ĠÎŁ Î¶
ĠÏĥÏĢÎ» Î¬Î³Ïĩ
ĠÎ´á½¹ Î¾á¿ĥ
ĠÏĥÎ·Î¼ Îµá½·Î¿Î¹ÏĤ
Î±á½Ĳ ÏĦá½·ÎºÎ±
ĠÎ³Î¿ Î³Î³
ÏģÎ±Î¼ Î¼Î±
ĠÎºÏī Î»Ïį
ĠÎºÏģá½± ÏĥÎµÏĥÎ¹Î½
ĠÎ±Î¹ Î»Î±Î¼
Ġá½ĢÎ»á½·Î³ Î¿Î¹ÏĤ
ĠÎĸ Î±Ïĩ
ĠÎ±á¼°ÏĥÎ¸Î· ÏĦá½¸Î½
Ġpl ac
ĠÎ»Î¿Î¹ÏĢ á¿¶Î½
Ġá¼ĳÎ² Î´ÏĮ
ĠÎ³ÏħÎ¼Î½Î± Î¶
á¼ĳ Î½
Ġá¼ĲÎ¾Î± ÏĢÎŃ
ÎºÏģÎ¬ ÏĦÎ¿
Ġá¼ĦÎ³ ÏģÏħÏĢ
ĠÎºÏĮ ÏĥÎ¼Î¿Î½
Ġá½ĳÎ´ ÎµÏģ
ÏĥÏīÎ½ ÏĦÎ±Î¹
ĠÎºÎµÎºÎ±Ïħ Î¼á½³Î½ÏīÎ½
ĠÏĩÏģÎ¿Î½ á½·Î¶
Ġi x
Ġá¼ĢÎºÎ¿Ïį ÎµÎ¹Î½
ĠÎ´Î¿Ïħ Î»Îµá½»
ĠÎ´Î¹ÎºÎ± á½·ÏīÏĤ
ĠÎµá¼´Ïī Î¸Î±
ĠÎºÎ¹ Ïģ
Ġá¼ĢÎ½Î±ÏĦÎ¿ Î¼Î±á¿ĸÏĤ
ac k
ÏĥÎ¼ÎŃÎ½ Î¿Î½
Ġrep ea
Ġá¼°ÏĥÏĩÏħÏģÎ¿ ÏĦá½±
ĠÎ²Î»á½³ ÏĨÎ±ÏģÎ±
ĠÏĢÎ¹Î¸Î±Î½ á½¸Î½
ĠÏĢÏģÎ¿ÏĬ á½¹Î½ÏĦÎ¿ÏĤ
ĠÎĵÎ±Î»Î± á½°Î´
Ġá¼°ÏĥÏĩÏį Î¹
ĠÏĢá¿ĨÏĩ ÏħÏĤ
ĠÏĥÏīÏĦÎ·Ïģ Î¯Î±Î½
ĠÏĩÎ¬ ÏģÎ¹ÏĤ
Ġá¼ĶÎ½Î¹ Î±Î¹
Ġá¼ĢÏĢÎµÏĪ á½·Î±ÏĤ
ĠÎºÎ±ÏĦÎ±Î¹ ÏĥÏĩÏħÎ½
ĠÎ¼ÏħÎµÎ» Î¿á¿¦
Ġá½ĳÏĥÏĦÎµÏģ á¿¶Î½
ĠÎ²ÎµÎ»ÏĦá½· Ïī
Ġpossib le
á½ĢÏĢÎ¿ ÏĢá½±Î½Î±ÎºÎ¿ÏĤ
ĠÎ³Î½á¿¶ ÏĥÎ¹ÏĤ
ĠÎ´ÏħÏĥÏĩ ÎµÏģ
ĠÎłÎ±Î½ÏĦÎ¿ ÎºÏģÎ¬ÏĦÏīÏģ
á½Ń ÏĥÏĢÎµÏģ
ĠÎºÎ¿Ïĩ Î»Î¹
ĠÏĢÏģá½¹Î½ Î¿Î¹Î±Î½
Ġá¼ĢÏĨá½·Îº Î·ÏĦÎ±Î¹
Ġá¼ĶÎ´Î¿Î¾ á½³
c f
o y
t ion
w ard
x apl
Î¹ á½³Î½Î±Î¹
Ġá¼ ¬
ÏĢ Î·ÏĦÎ±Î¹
Î¼ á½¶
Ïħ ÏĢÎ±
ĠÎº Î»á½·
Îº ÏĦÏīÏĤ
Î· Î¼Î½
Ġá¼Ĳ á½¸Î½
Ġá¼Ĳ Î¸ÎŃ
ĠÎ´ ÎµÏģ
Î¸ Î»Î¹
ĠÎ¼ Î¹Î½
ĠÎ¼ á¿ĸ
ÏĨ á¿³
ĠÎµ ÏĢÎ±Î½
ĠÏĥ ÏĦá½·
Î±Î½ ÎµÎ½
á¿ĸ ÏĦÎ±Î¹
Ġá¼ĲÎ½ Î´ÎµÎ¹Îº
ĠÎ´Î¹ ÎµÏģÏĩ
ĠÎ´Î¹ á½µÎ³Î·ÏĥÎ¹Î½
á½µ ÏĦÏī
Ġá¼Ķ Î¶
ÏĦÎ¹ ÎºÎ±á¿ĸÏĤ
ÎŃ ÏĥÏĦÎµÏģÎ¿Î½
ĠÏĨ á½µÏĥÎ¿Î¼ÎµÎ½
ĠÏĩ Î±á½·
ÏģÎ¹ ÏĥÏĦÎ±
ÏĦÎ¿ á½»Î½ÏĦÏīÎ½
ĠÎ² ÎŃÎ»
Ġá¼ĲÎº Î»á½³
Ġá¼ĲÎº ÏĢÎ½Î¿
ĠÎ¼Îµ Î¼
Î® ÏĥÎ±Î¼ÎµÎ½
á¾¶ ÏĥÎ±Î¹
ĠÎ´Î¹Î± Î¸ÎŃ
ĠÎ½ á½±
ĠÎµá¼¶ Î½Î±Î¯
á½·Î½ Î¿Î½
ÏħÏĦ á¿¶Î½
ÏģÎ· ÏĦÎ¿Î½
Ġá¿¥ Î¿
Ġá¿¥ á½¹
Ġá¿¥ Î®ÏĥÎµÏīÏĤ
Ġá¼ĢÏĢÎ¿ Î´ÎµÎ¹ÎºÎ½
Ġá¼ĢÏĢÎ¿ Î´ÎµÎ¹Îº
á¼Ģ Î³
ĠÎ¼á½³ ÏĦÏģá¿³
ÎŃÎ½ ÏĦÎ¿ÏĤ
Ġá½Ħ ÏģÎ¸
ÏħÏĥ á½±
ĠÎºÎ±ÏĦ ÎµÎ½á½¹
ĠÏĢÎ¿Î¹ Î·Ïĥá½±Î¼ÎµÎ½Î¿ÏĤ
Î¸Îµ Î¼Î±
ĠÎ±á¼° ÏĦÎ¹á¿¶Î½
Î¼Î¿Î½ Î¿ÏĤ
ÏĢÎ¹ Î±
á½³Î³ Î¼Î±
Ġá½ĳÏĢÎ¿ Î´ÎµÏĩ
ĠÎ½Îµ Î¿
ĠÎ½Îµ ÏħÏģÎ¿
Ġá¼ĶÎ½ ÏĥÏĦÎ±Î¶Îµ
Î»Î»Î¿Î½ ÏĦÎ±
Î¯Î½ Î¿Î½ÏĦÎ±
á½¹ÏĦÎ· ÏĦá½¹ÏĤ
ĠÎĶ Î±Î´
Ġá½ĳÏĢá½±ÏģÏĩ Î¿ÏħÏĥÎ¹Î½
ÏĦÎ¿á¿¦ ÏĦÎ¿Î½
ĠÏĥÏħÎ½Îµ Î´
ĠÎ½Î¿Ïĥ Î¿á¿¦Î½ÏĦÎ¿ÏĤ
ĠÏĥÎµ Î¼Î½
Îºá½¹ ÏĪÎ±ÏĤ
Ġd ist
ÏĦá½³ ÏīÎ½
ĠÎ¼ÎŃ ÏĥÎ¿Ïħ
ĠÏĦÏģÎ¹ Ïĩ
ĠÏĥÏĩ Î¿
ÏģÎ¿á¿¦ ÏĥÎ¹Î½
ĠÎºÎ¿Î¹Î½ á¿·
Ïģá½° Î¼
ĠI V
ĠÏĨÎ»ÎµÎ³Î¼Î¿Î½ Î±á½¶
ĠD elitzsch
ĠÎļÏħ ÏģÎ¹Î¿Î½
Ġá¼ĢÎ³Î±Î¸ á½´
Î»Ïħ Î¼Î±
ĠÏĥÏħÎ½ÎµÏĩ Îµá½·Î±ÏĤ
ĠÏĥÎ¿ÏĨ á½·Î±ÏĤ
Î¼Î±Î¶ Î¿Î½
Ġá¼ĢÏĥÎ¸ÎµÎ½ á½³ÏĥÏĦÎµÏģÎ¿Î½
Ġá¼ĢÏĢÎµ ÎºÏģÎ¯Î¸Î·
ĠÎ±á¼°ÏĦá½· Î±Î¹
Î²Îµ Îµ
ĠÏĢÎŃ Î¼ÏĢ
ĠÎ²Î±Ïģ á½»Î½
ĠÎ½Î¿ Îµá¿ĸÎ½
Ġá¼ĦÏģÎ¸Ïģ Î¿Ïħ
ĠÎ´Î¹ÎºÎ±Î¹Î¿Ïĥ ÏįÎ½Î·
ĠÏĥÏħÎ³ ÎºÎµÎ¹
ĠÏĨÎµÏģ Î¿Î¼á½³Î½ÏīÎ½
ĠÎ±á½ĳ ÏĦá½¸
Îµá¿¦ ÏĥÎ¹Î½
ĠÎĶÎ¹ á½°
Ġá¼ĲÏĢÎ¹ÏĦá½µÎ´ÎµÎ¹ Î±
ĠÎºÎ¿Î¹Î½ÏīÎ½ á½·Î±Î½
Ġá¼ĳÎ²Î´á½¹ Î¼á¿ĥ
Î¶Î· ÏĦÎ·
Ġá¼ĶÎ½Îµ ÏĥÏĦÎ¹Î½
á¼Į Î»Î»Î¿
ĠÎºá½±Î¼ÏĢ ÏĦÎµ
Ġá¼ĪÎ²ÏģÎ± Î¬Î¼
ĠÎµÏģ Î³Î±
ĠÎ¼ÎµÎ³Î¬ Î»Î¿Ïħ
ĠÎºÎ±ÎºÎ¿ÏĩÏħÎ¼ á½·Î±Î½
ĠÏĩÎ¬ ÏģÎ¹
Ġá¼ĲÎºÏĢÎµ ÏĨÏħÎº
ĠÏĦÏģÎ±á½» Î¼Î±ÏĦÎ±
ĠÎ¼Î¿á¿ĸ ÏģÎ±Î½
ĠÎµá¼°ÏģÎ® Î½Î·
ĠÎ¼ÎµÎ¼Î± Î¸Î·
ĠÎ´Î¹Î±ÏĩÏī ÏģÎ·Î¼á½±ÏĦÏīÎ½
ĠÎ¸Î±ÏħÎ¼ Î¬
Ġá¼ĪÎ¶ Î±Ïģ
ĠÏĨÎ¹Î»Î¿Ïĥá½¹ÏĨ Î¿Î¹ÏĤ
á¼ĶÎ¼ÏĢ Î±Î»Î¹Î½
ĠÎ±á¼°ÏĥÎ¸á½±Î½ Î¿Î½ÏĦÎ±Î¹
Ġá½ĳÎ³á½· ÎµÎ¹Î±Î½
ĠÎĽÎµÏħÎµÎ¹ ÏĦá¿¶Î½
ĠÏĨÎ»Ïħ Î±Ïģ
Î±á½ĸ Î¸Î¹ÏĤ
u ally
Ġ Ã
ÏĦ ÏĦÎ·
á¼ ¹
Î¹ Î¼Î¿ÏĤ
ÏĢ Î·Î³
Î¼ ÏĮ
ĠÎº Î»Ïħ
Îº Î¿ÏħÏĥÎ¹Î½
Ġá¼Ģ ÏĪÎ¹Î½
Ġá¼Ģ Î·Î´
Î¹Î½ ÏĮÎ½ÏĦÏīÎ½
ĠÏĥ Î¿ÏĨÎ¿
ÎºÎ± ÏĦá½³
ÎŃ ÏĥÎ¸Ïī
Î¬ Î±Î½
Ġá½ĳ ÏĥÏĦá½±
Î¼ÎµÎ½ á½¹ÏĤ
Î»Îµ Î¹Î½
ĠÎ² Î¿Î»
ĠÏĢÏģÎ¿ ÏĥÏĩ
ĠÏĢÏģÎ¿ Ïĭ
Îµá½· ÏģÎµÏĦÎ±Î¹
á¾¶ ÏĥÎ¸Î±á½·
á½±Î½ á¿³
ÏģÎ¿ Î±
ĠÎ¿á½ĸ ÏĥÎ±Î¹
Ġp resent
Ġs l
á¼Ģ ÎºÎ±Îºá½·Î±ÏĤ
á½¹Î¼ÎµÎ½ á½¹ÏĤ
ĠÏĪ ÎµÏį
ĠÎºÎ±ÏĦÎ± Î»á½»
ÏĦÏģ Ïħ
Î´Î¹ Îµ
ĠÏĢÎ¿Î¹ Î¿á¿¦Î½
ĠÏĥÏħÎ½ á½·ÏĥÏĦÎ±Î½ÏĦÎ±Î¹
er n
ĠÎ¾ ÎµÏĥÏĦ
ĠÎºÎ±Î¹ Ïģá½¹ÏĤ
ĠÎ£ Î¹Îº
Ġá½ĳÎ³ Ïģá¿·
ĠÎ³ÎµÎ½ ÏĮÎ¼ÎµÎ½Î¿ÏĤ
Ġá¼ĢÏģÏĩ á½µÎ½
Ġá¼ĢÏģÏĩ ÏĮÎ½ÏĦÏīÎ½
ĠÎľ Î¿
ĠÎľ Î®
Ġf re
ĠÎĴ Î¬
Îºá½± Î»Î»Î¹Î¿Î½
ĠÎºÎ¹Î½ á½µÏĥÎµÏĥÎ¹Î½
ĠÎ»á½³Î³ ÏīÎ¼ÎµÎ½
ĠÎµá¼°Ïĥ ÏĢÎ½Î¿
Ġá¼ĳÎºá½± ÏĥÏĦÎ·
ĠÎ¼ÎŃ Î»Î¹ÏĦÎ¿ÏĤ
ĠÎºá¾Ģ Î¾
ĠÏĥÏĢ á½±
ĠÎ¹ Î½Î±
ĠÏĥÏħÎ¼ÏĢ á½³
Ġá¼ĲÎ¼ÏĢ Î»Î±ÏĥÏĦ
Ġ5 9
Ġá½ĢÏĨÎ¸Î±Î» Î¼á½¸ÏĤ
ĠÏĢÎ±Ïĩ á½ºÏĤ
Ġá¼±ÎºÎ±Î½ á½¹Î½
Ġ6 5
Ġ6 6
ĠÏĩÎµá¿ĸ Î»Î¿ÏĤ
ĠÏĢÎ±ÏģÎµ ÎºÎ¬
ĠÏĢÎ±Î» Î±á½·
Î¾Îµ ÏĥÎ¹
ĠÎºÎ¿Î¹Î» Î¯Î±ÏĤ
ĠÏ² ÏħÎ½
Ġ9 7
Ġá¼ĢÎ³Î±Î¸ á½´Î½
Î¯Î¶ Î¿Î½ÏĦÎµÏĤ
ĠÎ²Î»á½± ÏĢÏĦÎµÏĦÎ±Î¹
ÏĢÎ»Î± ÏĦÏĦÎµ
Î³Îº Îµá¿ĸÎ½
ĠÎ´Î·Î» Î¿á¿¦ÏĦÎ±Î¹
Ġá¼¸Ïī Î±Îº
Ġá¼ĲÎ¼Î² Î±Î»Î»
Ïģá½¹Î½ Î¹Î¿Î½
Ġá¼ĢÎ¼ÏĨÎ¿ ÏĦá½³ÏģÎ¿ÏħÏĤ
Ġá¼ĲÎ´ Îµá¿ĸÏĦÎ¿
ĠÏĨÎ»ÎµÎ³Î¼Î± á¿ĸÎ½Î¿Î½
ĠÎ´ÎµÎ¾Î¹ Î¿á¿¦
ĠÎ½ÎµÏĨ á½³Î»
Ġá¼ĲÏĢÎ¿á½· Î·ÏĥÎ±
ĠÎļá½» ÏģÎ¹Î¿Î½
Ġá¼ĲÏĢÎ¹ÏĥÎº Î¿
ĠÎ¼Î½Î· ÏĥÎ¸
Ġá¼ĲÎ»á½± ÏĦÏĦÏī
ĠÏĥÏħÎ¼ÏĨ á½³Ïģ
ĠÎ³Ïģá½±ÏĨ Î¿ÏħÏĥÎ¹Î½
ĠÏĨÏį ÏĥÎµÏīÏĤ
ĠÎºÏħÏģá½· Ïī
ÏģÎ¿á½» Î¼ÎµÎ½Î±
Ġá½ħÎ¼Î¿Î¹ á½¹Î½
Ġá¼ĲÏģÎ³Î±Î¶ á½¹Î¼ÎµÎ½Î¿Î½
Î½ÎµÎ³ ÎºÎµ
ĠÎ¼Î¹Î³Î½ Ïħ
ÎĹ Î£
Ġá¼ĲÎ½Ïİ ÏĢÎ¹ÏĮÎ½
Ġá¼ĶÏģÏĩ ÎµÏĥÎ¸Î±Î¹
ĠÎ´ÏħÎ½Î¬Î¼Îµ ÏīÎ½
ĠÏĥÎ·Î¼Î±Î¹Î½ á½¹Î¼ÎµÎ½Î±
Ġá¼ĲÎºÏĨ ÏħÏĥ
Ġá¼ģÎ¼Î±ÏģÏĦÏī Î»á¿¶Î½
ĠÎ´Î¹Î±Î¸Î® ÎºÎ·ÏĤ
Ġá½łÏĨÎµ Î»Îµá½·Î±ÏĤ
Ġá¼ĢÏĢÎ¿ÏĦÎµ Î»Îµ
ĠÏĢÎ±ÏģÎ·Î³ Î¿Ïģ
Ġá¼ĢÎ»Î»Î¿ÏĨ Ïį
Ġá¼ĶÏĦÏħÏĩ Îµ
ĠÎ±á½ĲÎ» á¿ĨÏĤ
ÏĩÎ±Î»Îº á½±Î½Î¸Î¿Ïħ
ĠÏĥÎ¬Ïģ ÎºÎ±
Ġref er
Ġrest it
Ġá¼ĢÎ¼Î² Î»
ĠÎºÎ±ÏĦÎ¹ ÏĥÏĩ
ĠÏĢÏģÎ¿ÏĥÎµÎº ÏįÎ½
Ġá¼ĶÎ¾Îµ ÏĥÏĦÎ¹Î½
Ġá¼ĲÎ´á½¹ ÎºÎµÎ¹
Ġá¼©Ïģá½¹ ÏĨÎ¹Î»Î¿ÏĤ
Ġá¼ĢÎºá½·Î½Î· ÏĦÎ¿Î½
Ġá¼ĲÏĥÏĦÎ· ÏģÎ¹Î³
Ġá¼ĿÎ»Î»Î· Î½ÎµÏĤ
l p
Ġ ÏģÎ·Î¼Î±
Ïĥ á½±Î½ÏĦÏīÎ½
ĠÎº Î»Î¹
Îº ÏħÏĢ
ĠÏĢ á½±Î»
ĠÎ´ ÏįÎ½
Î³ Î±Î½Î¿Î½
ĠÎ¼ Î¿Î½Î¿
Ïĩ ÏħÏģ
Ïĩ á½¹Î½ÏĦÏīÎ½
Ïĩ ÎµÏĦÎ¿
ĠÎ± ÏĢÎ±Î½
ĠÎµ ÏĥÏĦÎ¹
ĠÎµ Î¼Î¿Î¹
Î¿Î¹ Î¼Î¹
ÏĦÎ¹ ÎºÎ±á½¶
ÏĦÎ¹ Î¸á½³
ÏĦÎ¹ ÏĥÎµÎ½
ĠÏĦÎµ Î¸Î½á½µ
Ġá¼Ħ ÏĦÎ±
Ġá½ħ ÏģÎ±
ĠÎ² á½³Î²
ĠÏĢÎ¿ Î´Î±Î³
ĠÎ´Î¹Î± ÎºÎ¿Î½
ĠÎ´Î¹Î± ÎºÎ»
ĠÎ´Î¹Î± ÏĢÎ»Î±
Ġá½ĳÏĢ Î·
Î»Î· Îº
Ġá¼¡Î¼ á½³
ÏħÎ½ Î·
Î¼Îµ ÏĦÏģá½·
á¼Ģ Î³Î±Î¸
Ġá¼ĲÎ³ ÎµÎ³
Ġá¼ĲÎ³ Îºá½±Ïģ
Ġá¼ħ Î»
ĠÏĦÎ¿Î¹ Î¿Ïħ
ĠÎ¼á½³ ÏĦÏģÎ¹Î±
ĠÏĢÎ¿Î¹ Î¿á¿¦ÏĥÎ¹
ĠÏĢÎ¿Î¹ ÏĮÏĦÎ·ÏĦÎ±
ĠÏĥÏħÎ½ Î·Î¼
ĠÏĥÏħÎ½ ÏĦá½¹
ĠÏĥÏħÎ½ ÏĦÏģÎ¯
Î½Î¿ Î¼ÎµÎ½
Ġá¼ĢÎº ÏģÏī
ĠÏĢÎ±ÏģÎ± Î²
ÏĢÎ» Î®
Î¼Î½ Î·Ïĥ
ĠÎ»Î± Î¿ÏĤ
ĠÎ¿á¼· á½¹ÏĤ
ĠÎºÎ¿ ÏĥÎº
ĠÎºÎ±Î» ÎŃ
Ġá¼ĢÏĨ Ïģ
ĠÎ³á½³Î½ Î¿Î¹ÏĦ
Ġá½ł Î¼á½¸Î½
ĠÏĢá½¹ Î±ÏĤ
ÏīÎ¸ Îµá½·Î·
Ġá¼ł ÏģÎµ
ic k
ĠÎ¼á½¹ ÏĥÏĩÎ¿Î½
at h
ĠÎµÎ¹ ÏĢÎ±
Ġá¼ĲÎ¼ÏĢ Î¹
Ġá¼ħÏĢÎ± ÏĥÎ±
Ġth r
ĠÎ³Î» Î¿Î¹
ĠÎ´ÏħÎ½Î± ÏĦá½¸ÏĤ
ĠÎºÎ¿Î¹Î½ á¿¶Î½
ĠÏĥÎ±ÏĨ Î·Î½Îµ
Ġá¼±ÎºÎ±Î½ á½¸ÏĤ
ĠÎ»ÎµÏĢÏĦ á½¹ÏĦÎµÏģÎ¿Î½
Î±Î³ Î¿
Ġá½ĳÏĢÎµÏģ Î²Î±
ĠÏĨÎ»ÎµÎ² á½¶
ĠâĢĻ :
Ġá¼ĳÎºÎ± ÏĦá½³ÏģÎ±Î½
Î¾Îµ ÏĦÎµ
Ġá¼ĢÎ½ÏĦÎ¹ ÏĦÎµÏĦÎ±Î³
ÎµÏĥ ÏĥÎ±
ĠÎ½Î¿Î¼ á½·
Ġá¼ĶÎ¸ Î½ÎµÎ¹
Ġá¼ĲÎ¾Î·Î³ Îµá¿ĸÏĥÎ¸Î±Î¹
ÏĨÎ±Î½ Î¿Î½
ĠÏĥÎ¿ÏĨ Î¯Î±
Ġá¼ĲÏĢÎ¹Îº ÎµÎ¹
Ġá¼ĲÏĢÎ¹Îº ÏĦá½µ
ĠÎ»ÎµÎ³ Î¿Î¼á½³Î½Î¿Î¹ÏĤ
Ġá¼ĢÏĢÎ¿Îº ÏĦÎµá¿ĸÎ½Î±Î¹
Ġá½ĢÎ»á½·Î³ Î·ÏĤ
ĠÎ´ÎµÎ¾Î¹ á½°Î½
Ġá¿¥á¾³ Î´
Ġá¼ĲÏĢÎ¿Î¯ Î·ÏĥÎ±
Ġá¼¡Î»Î¹Îº á½·Î±Î¹ÏĤ
ĠÏĢÏģÏī á½·
Ġá¼ĶÎ»Îµ Î³Îµ
ĠÎ¿Î¹Îº Î¿ÏĤ
Ġá¼ĢÎ»Î»Î¿Î¹ á½½ÏĥÎµÏīÏĤ
ÏĢÏģ á½¶Î½
ÏĢÏģÎ¿ ÏĥÎµ
ĠÎ±á½ĲÏĦá½¹ Î¸Î¹
á½³ÏģÏĩ Î¿Î½ÏĦÎ±Î¹
ĠÎºÎ±Î»Î¿Ïħ Î¼á½³Î½Î·
Îºá½· ÏĦÎµÏīÏĤ
Ġá¼ĢÎ½ÎŃ ÏĥÏĦÎ·
Ġá¼¡ÏĥÏħÏĩ á½·Î±Î½
ĠÎ´á½±Îº Î½ÎµÎ¹Î½
ĠÏĥÎºÎ¿ Î»Î¹
Ġus ual
ĠÎ¼Î·Î´Îµ Î¼Î¹á¾¶ÏĤ
Î³Î±Î³ á½¼Î½
Ġá¼ĢÎ»Î· Î¸á½³
ĠÎ¸ÏħÏĥ Î¯Î±Î½
ĠÏĢÎµÏĢÎ¿Î¹ Î·
ĠÏĥÎµÎ±ÏħÏĦ á½¸Î½
Ġá¼ĢÏģÎµ ÏĦá½´Î½
ĠÏĥÎºÎµ ÏĢá½±
ĠÏĩÎ»ÏīÏģ á½¸Î½
Î´Î·Î» á½¹Î½
á½ĢÏĢ Î¿á¿¦
Ġvi i
ĠÎ¼ÎµÎ³Î¬ Î»Î±
ĠÎ£ÎµÎ¹ ÏİÎ½
ĠÏĢÎ½ÎµÏħÎ¼Î± ÏĦ
Ġá¼ĢÏĨÎ±Î¹Ïģ Îµá¿ĸÎ½
ĠÎ²Î¿ÏħÎ² á¿¶Î½Î±
Ġá¼¸Î¿ÏģÎ´ á½±Î½Î¿Ïħ
ĠÎ»Î®Î¼ ÏĪÎµÏĦÎ±Î¹
ĠÏĢÎ»ÎµÏħ Ïģá½·ÏĦÎ¹
Ġá¾Ķ Î´ÎµÎ¹
Ġá¼ĲÏĢÎ¹Î»Î· ÏĪ
ĠÎ¼ÎµÎ» á½±Î½
ĠÎµÎ¸ Î½Î·
á¼ĢÏĢÎµ ÎºÏģÎ¯Î¸Î·
Ġá¿¥Î¿ÏĢ á½´Î½
ĠÎ¼á½³Î¼Î½ Î·ÏĦÎ±Î¹
ĠÎµÎ¾ÎµÎ» ÎµÎ¹
ura l
Ġá¼ĪÎ²ÎµÏĥÏĥÎ±Î» á½¼Î¼
ĠÏĥÏħÎ¼Î²á½³Î²Î· ÎºÎµÎ½
ĠÏĢÏģÎ¿Î²á½± ÏĦÏīÎ½
Îµá¼°Ïģ á½µÏĥÎµÏĦÎ±Î¹
Ġá¼Ģá½³ ÏģÎ¹
) :
I X
d en
g ative
w hat
Ġ Ý²
ÏĦ ÏģÎ¹Î¿ÏĤ
ÏĢ á½±Ïģ
Î» á¿ĨÏĤ
Ïħ ÏĦÎ¿Î½
Îº Î¹Î±
ĠÎºÎ± Î»Îµ
Ïī ÏĦá½³ÏģÏīÎ½
ĠÎ´ ÏģÏħ
ĠÎ´ á½½ÏĥÎµÎ¹
ĠÎ´ á¿·ÏĤ
Î¸ Îµá½·Î¿Ïħ
Ġá½ Į
á½± Î´Î¿ÏĤ
ĠÎµ ÏĢÎ¿
ĠÏĥ Î¿á½·
Ġá¼ĲÎ½ Î´Îµá½·ÎºÎ½Ïħ
Î»Î» Ïī
Î»Î» Î¹Î±
Î² Î±ÏĤ
Î¯ ÏĥÎ¸Î·ÏĥÎ±Î½
ĠÎ´Î¹ ÏĬ
Ġá¼ĲÏĢ Î»á½µ
ĠÎ» Î¹Î½
ÏĦÎ¿ Ïĥ
Ġá½ħ ÏĦá¿³
Ġá¼ĲÎº Ïģ
Ġá¼ĲÎº Îµá½·
Ġá¼ĲÎº Î¶Î·ÏĦ
ĠÎ¼Îµ Î»Î±Î½
ĠÏĢÏģÎ¿ ÏĦá½³Ïģá¿³
Ġá¼ĢÎ½ Î¬Î³
Ġá¼ĲÎ¾ Î¿Ïģ
Ġá¼ĢÎ»Î» á½¹ÏĨ
ÏĥÎº Î·
Ġá¼° á½±ÏĥÎ±ÏĥÎ¸Î±Î¹
ĠÏĢÎ±Ïģ Îµá½·Î·
á¼Ģ ÏĦá½°Ïģ
á¼Ģ Î»á½¹Î·ÏĤ
ĠÏĪ Î¹Î¼ÏħÎ¸á½·Î¿Ïħ
ĠÎ¸Îµ á½¹Î½
ĠÏĦÎ¿á½» ÏĦÎ¿Î¹ÏĥÎ¹
ĠÎµá½Ĳ Î¿Î´
Ġá¼ĢÎº Î¿Î»
ĠÎ¼Î· ÏĦÎŃÏģÎ±
Ġá¼Ī Î¼Î±
ĠÎºÎµ ÎºÎ»
ĠÏĪÏħÏĩ Ïģá½¹ÏĦÎ·ÏĦÎ¿ÏĤ
ĠÎ³ÎµÎ½ á½µÏĥÎµÏĥÎ¸Î±Î¹
Ġá½ĳÏĢÎ¿ ÎºÎµá½·Î¼ÎµÎ½Î¿Î½
Ġá¼ĢÏģÏĩ Î±á½¶
Ġf ar
ĠÎ´Ïħ Ï²
á½·Î¶ Î¿Î½ÏĦÎµÏĤ
ĠÎ´ÏħÎ½á½± Î¼ÎµÎ½Î¿ÏĤ
ĠÎ¿á¼¶ ÏĥÎ¸Î±
Ġá½ĢÎ½Î¿ Î¼Î±ÏĥÏĦ
ĠÎ¼Î¹Îº Ïģá½¹ÏĦÎµÏģÎ¿Î½
ĠÎ½Î¿Ïĥ Î¿á¿¦ÏĥÎ¹Î½
Ġá¼ĢÎ³ Ïģá½¸Î½
ĠÏĦÏģá½· ÏĪÎµÏīÏĤ
ĠÎºá½» Î½Î±
ĠÎ²ÏģÎ±Ïĩ á½³ÏīÎ½
ÏĢÎ¿Î¹ Î·
Ġá¼ĺ Î³
Ġá½ĦÎ½ ÏħÏĩ
ĠÏĢá½³ ÏĢÎµÏģÎ¹
ĠÎ³Î¹Î½ á½¹Î¼ÎµÎ½Î¿ÏĤ
ĠÎ§ Î±
Ġá½ĢÎ¾ Îµá¿ĸÏĤ
Ġá¼ģÏĢÎ» á¿ĨÎ½
ĠÎ´ÏħÎ½Î± ÏĥÏĦÎµ
ÎŁ Îĵ
Î³Ïĩ Î¿ÏĤ
ĠÏĦÏģÎ¿ÏĨ á½°ÏĤ
ĠÏĩÎµÎ¹ ÏģÎ¿
ÏĢÎ±Ïģ Îµ
Ġá½ĢÏģÎ³ á½´Î½
ĠÎ¼Î¹ Î¼
ĠÎ¼Î±Î»Î±Îº á¿¶Î½
ĠÎ³Î¹Î³Î½ á½¹Î¼ÎµÎ½Î±
Ġá¼ĲÎ³á½³Î½ Î½Î·ÏĥÎµÎ½
ĠÏĦÎ±Ïĩ Îµá¿ĸÏĤ
ÏĩÎ± ÏģÎ¹ÏĥÏĦ
ÏĪÎµ ÏĥÎ¹Î½
á¼ĺ Îº
Î¬Î¶ ÎµÎ¹
ĠÏĨÎ¸ Î±Ïģ
ĠÏĢÏħÎºÎ½ á½¸ÏĤ
ĠÎ³ÎµÎ½Î½ á¾·Î½
ĠÏĢÎ¬ ÏĥÎ±Î¹ÏĤ
ĠÏĥÏĨÎ¿Î´Ïģ á½°Î½
ĠÎºÏģÎ¹ á½¸Î½
Ġá½ĳÎ³Î¹ á½²ÏĤ
ÏīÎ´ á¿¶ÏĤ
Ġá¼ĲÏĢÎ¹ÏĥÏĦ Î®
ĠÏĢÎ»á½µ ÏģÎ·
ĠÎ´Î¯ Î´Ïī
ĠÏĥÏħÎ¼ÏĨ á½³ÏģÎµÎ¹
ÏĥÏĨ Î·Î¼
Ġá¼¸Î¿ÏħÎ´Î± Î¯Î¿ÏħÏĤ
Ġá¼ĲÏĥÏĩá½± ÏĦÎ·ÏĤ
Ï²Î¹ Ï²
ĠÎ¼Î·Î½ á¿¶Î½
ĠÏĨÏħÏĥÎ¹Îº á¿ĨÏĤ
Ġá¼ĢÏģÎ¹ÏĥÏĦÎµÏģ Î¿á¿ĸÏĤ
ĠÏĢá½· ÏĥÏĦÎ¹Î½
ĠÎ¼Î¹Î³Î½ á½»ÎµÎ¹Î½
ĠÎ³ÎŃÎ½ Î¿ÏĤ
Ïģá½¹ÏĦÎ± ÏĦÎ±
Î¼Î¹Îº ÏĦÎ±Î¹
Ġá¼ĢÏģá½· ÏĥÏĦÎ·
ĠÎ¸Î±Î½Î± ÏĦÏī
ĠÏĥÏĢÎ±ÏĥÎ¼ á½¸Î½
ĠÏĩÏģá½¹ Î±ÏĤ
ÏĢÎ±Ïħ ÏĥÎ¹Î½
ĠÏĢÏģÎ¿ÏĥÏĦÎ¹ Î¸á½³Î½Î±Î¹
Ġá¼ĲÎ»Î» Îµá½·
Ġne xt
ĠÎ¸Î·Ïģ Î¯ÏīÎ½
ĠÎ£ÎµÎ¹ á½¼Î½
Ġá¼ĲÎ³ÎŃÎ½ Î¿Î½ÏĦÎ¿
Ġá¼ĢÎ½ÏĦÎ± ÏĢÎ¿Î´
ĠÏĢá½±Î¼ÏĢÎ¿ Î»Î»Î±
Ġá¼ĲÎ½Î½Î¿ á½·Î±ÏĤ
Ġá¼ĲÎ´á½·Î´Î± Î¾Îµ
ĠÎ¼ÎµÎ»Î» á½¹Î½ÏĦÏīÎ½
Ġá¼ĲÎ¼ÏĢÎ»á½±ÏĥÏĦ ÏģÏīÎ½
Î²Î¬Î»Î» ÎµÎ¹Î½
Î¼Ïİ Î¼Î¿Ïħ
ĠÎ¼ÎŃÎ³ Î±Î½
Ġea s
ĠÎĻÏĥ Ïģ
ĠÏĥÎ±Ïģ ÎºÎ¿
ĠÎ²Î±Î´á½· Î¶ÎµÎ¹Î½
ÎļÎ± ÏĦá½°
ĠÏĢÎ¿Î»Î»Î±Ïĩ á½¹Î¸Î¹
ĠÏĦÎ¿Î¹Î±Ïį ÏĦÎ·Î½
Ġcorr up
ĠÏĥÎºÏĮ ÏĦÎ¿ÏĤ
Ġá¼ĲÏĨÎ± á½·Î½ÎµÏĦÎ¿
ĠÎ²á¿ĨÏĩ ÎµÏĤ
Î»Î¹Î¸ Î±ÏģÎ³á½»ÏģÎ¿Ïħ
ĠÎµÎ¹Îº Î¿ÏĥÎ¹
ĠÏĢÎµÏģá½¹Î½ Î·ÏĤ
Ġá¼ĢÎºÎ¼Î±Î¶ á½¹Î½ÏĦÏīÎ½
ĠÏĢÎ±ÏģÎµÎ½á½³ Î²Î±Î»Î¿Î½
ĠÏĢÏģÎ¿Î½ Î¿Î¼
Ġá¼ĲÎ²Î±Ïĥá½· Î»ÎµÏħÏĥÎµÎ½
Q a
S y
g es
i ally
m os
v our
á¼ ·
Î¼ Îµá¿ĸÎ½Î±Î¹
Ïħ Ý²
Îº ÏīÏĥÎ¹Î½
Ïī ÏĦá½³ÏģÎ±ÏĤ
Ïī Î¼á½³Î½Î·
ĠÏĢ ÏĦÎ±
ĠÎ´ Î±ÏĨ
Ġá¼Ģ ÏĦÎ¿ÏĢ
ÏĨ ÏģÎ±Î½
ĠÎ³ Î±ÏģÎ³
Î¼Î± á½¶
Î¾ Î±á½·
Î¯ Î³
Î¯ Î´
ĠÎ´Î¹ Î¿Î¹
Ġá¼Ķ ÏĨÏħÎ³Î¿Î½
ÏĦÎ¹ Î¶Îµ
Îµá¿ĸ ÏĥÏĦÎ¿Î½
ĠÎ» ÏħÎ³
ĠÎµá¼° Î´ÏĮ
ÏģÎ¹ Ïĩ
á½½ ÏģÎ·Î¼Î±
Î½Îµ ÏĥÎ¹
Ġá¼Ħ ÎºÎ¿
Ġá½ģ ÏģÎ±
ĠÎ² á½·á¿³
Ġá¼ĲÎº Î²
ĠÏĢÏģÎ¿ ÏĥÎµÎ¹
ĠÏĢÏģÎ¿ ÏĥÎ±Î½
ĠÏĢÏģÎ¿ ÏĥÏĦá½±
á¿¦ ÏģÎ¿Î½
Ġá¼ĢÏĢ á½±Î³
Î·Ïĥ Î¿Î¼Î±Î¹
ĠÎ´Î¹Î± ÏĢÎ½
ĠÎ´Î¹Î± ÏĥÏĦá½±
ÏĥÎº Î¿
Ġá¼ĢÏģ Î½
Ġá¼ĦÎ»Î» á¿ĥ
ĠB e
ĠÏĢÎ» Î¿á¿¦ÏĦÎ¿ÏĤ
Ġá½Ħ ÏĪÎ¿Î½ÏĦÎ±Î¹
Î´Î± ÏĢÎ±Î½
ĠÏĢÎ¿Î¹ Î·ÏĥÎ±
ĠÏĢÏģÎ¿Ïĥ á½·
ĠÏĢÏģÎ¿Ïĥ ÏĢá½·
Ġpr a
ĠÏĢÎ±ÏģÎ± ÏĥÏĩ
ĠÏĢÎ±ÏģÎ± Î²á½±Î»Î»ÎµÎ¹Î½
ÏĦá½· Î´Î¿ÏĤ
ĠÎ´Îµ Î¿Î¼á½³Î½ÏīÎ½
ĠÎºÎ±Î¹ ÏģÎ¿á¿ĸÏĤ
ÏĢÎ¹ ÏĢÏĦá½¹Î½ÏĦÏīÎ½
ĠÎ£ ÏħÏĩ
ĠÏĪÏħÏĩ Î·
Ġw rong
ÎºÎ¿Ïħ Ïĥ
Ġof f
ĠÎ¼á½µ Î»ÏīÎ½
Ġá¼ĢÏĨ á¿Ĩ
ĠÎ¼ÎµÏĦÎ± Î²Î±Î»Î»
ĠÎ¼ÎµÏĦÎ± Î²Î±á½·Î½ÎµÎ¹Î½
ÏħÎ» Î¬
ÏģÎ¿Ïħ Î¼á½³Î½ÏīÎ½
ĠÏĦÏģ á¿ĨÎ¼Î±
ĠÎ´á½»Î½Î± Î¼á½·Î½
ĠÏĦá½³ ÎºÎ½Î±
ĠÏĢÏģá½½ ÏĦÎ±Î¹ÏĤ
Ġá¼ĺ Îº
ĠÎ²Î±ÏĥÎ¹Î»Îµ á¿¦ÏĥÎ¹Î½
ĠÎ¾Î· Ïģá½¹ÏĦÎµÏģÎ±
ĠÏĥÏĩ á½µÎ¼Î±ÏĦÎ±
Î¿ÏħÏĥ á½·Î±Î½
ĠÎ¼Î± ÏĦÎ±Î¹
Ġá¼ĲÎ¼ÏĢ á½³
Ġá¼±ÎºÎ±Î½ á½´Î½
ĠÎ»ÎµÏĢÏĦ á½»Î½
ĠÏĥÏħÎ¼Î² á½µÏĥÎµÏĦÎ±Î¹
ĠÎ½á½¹ Î¼Î¿Î½
Ġá¼°ÏĥÏĩÏħÏģ á½¹ÏĦÎµÏģÎ±
ĠÏĢÎ±ÏģÎµ ÏĥÎºÎµá½»Î±
ĠÏĢÏħÏģ á¿¶Î½
ĠÏĢÏģÎ± Î°
ĠÏĩÎ¿Î» á¿ĩ
ĠÎºÏģá½· Î½
ĠÏ² Î¹
ĠÏ² ÏİÎ¼Î±ÏĦÎ¹
Î²Î· ÏĦÎµ
il d
Ġá¼ĳÏĦá½³Ïģ á¾³
Ġá¼ĢÏĢá½¹ Î¸Î¿Ïħ
á½¹ÏĦÎ± ÏĦÎ¿Î¹
Î»Î±Î¼Î² á½±Î½ÎµÏĦÎ±Î¹
ĠÎĺ Î±Ïģ
ĠÏĥÎ±ÏģÎº á¿¶Î´ÎµÏĤ
ĠÏĥá½»Î½ Î·Î¸ÎµÏĤ
ĠÏĦÏĮ ÏĢÎ¿ÏĤ
Ġá¼ĶÎ´Ïī ÎºÎ±ÏĤ
ĠÎľÏīÏħÏĥ Î·ÏĤ
ĠÏĢÎµÏģÎ¹ÏĦÏĦ Î¿á¿¦
Ġá¼ģÎ³ Î¯á¿³
á¼ĳ Î¾á¿ĨÏĤ
Ïĥá½± Î¼ÎµÎ½Î¿Î½
ĠÎ²ÏģÎ±Ïĩá½·Î¿Î½ Î¹
ĠÏĥÎ± ÏĢ
Î¬Î³ ÎµÏĦÎ±Î¹
ĠJ erem
Ġá½ĳÎ´ ÏģÎ¿
ĠÎ¾Î±Î½Î¸ á½¸Î½
ĠÎ´Î¿á¿¦ Î»Î¿Î¹
ĠÏĦá½»Ïĩ Î·Î½
Ġá¼ĲÎ¾ÎµÎ» Î¸
á¼ĢÎ½Î± Î»á½±Î¼Î²Î±Î½Îµ
Î¼Î±ÏĦ á½½Î´Î·ÏĤ
ĠÎ³ÎŃÎ½ Î¿ÏħÏĤ
Ġá¼ĢÎ¸Ïģá½¹ Î¿Î½
ĠN ot
ÏīÏĦá½± ÏĦÎ·
ĠÏĢÏģÎ¿ÏĥÏĦ Î¬
ÏĢÏĦÎ¿ Î¼á½³Î½ÏīÎ½
ĠÏĥÎ·ÏĢÎµ Î´á½¹
Î¸ÎŃÎ½ ÏĦÎ±
ĠÏĦÏģÎ¹ÏĦÎ± á½·Î¿Ïħ
ĠÏĢÏģÎ¿ÏĥÎ·Î³Î¿Ïģá½· á¾³
ĠÎºÎ±Î¯ ÏĦÎ¿Î¹
Î¿ÏĦá½± ÏĦÎ·Î½
ĠÏĢÎ±ÏģÎ±ÏĨÏģÎ¿Ïĥ á½»Î½Î·ÏĤ
Ġá¼ĳÏī ÏģÎ±
Ġá¼ĲÏģÎµ Î¸Î¹
Ġlike ly
ĠÏĩÎ±Î»Î±Ïģ á½¸Î½
ĠÏĨÎ»ÎŃ Î³Î¼Î±
Ġá¼ĲÎ¼ÏĢÎ»á½±ÏĥÏĦ ÏģÎ¿Ïħ
Ġá¼ĻÎ»Î» Î·Î½
Ġá½ĳÏĢÎ¿ÏĩÎ¿Î½Î´ Ïģá½·ÏīÎ½
Ġá¾łÎºÎ¿ Î´á½¹
Ġá½ĢÎ¾ÏħÎ¼ á½³Î»Î¹ÏĦÎ¿ÏĤ
Î³Î» ÏħÎº
Ġá¼ĪÏĥ á½°
ĠÏĥÎ±Î²Î± á½¼Î¸
ĠÏĦÎ±Î»Î±Î¹ ÏĢÏīÏģ
ÏĥÎºÎµÏħá½± ÏĥÎ¸Î±Î¹
Ġcall ed
ĠÎµá¼´ÏĢ á¿ĥÏĤ
ĠÏĢÎ±ÏģÎ¿ ÏģÎ³
ĠÎºá½»Îº Î»Î¿Î½
Ġrighteous ness
ĠÏĢÎµÏģÎ¹ÏĦá½¹Î½ Î±Î¹Î¿Î½
g u
y l
Î± ÏĥÎ±Î½
ÏĢ ÏĦÏīÏĤ
Î» Î·Ïĥ
Ġá¼Ĳ Î´Î·
á½³ Î¼Îµ
ÏĦÎ± á½»ÏĦÎ·ÏĤ
Ġá¼Ģ Î¸Ïģ
ĠÎµ Ïĥ
ÏģÎ± ÎºÎ±
ÏĥÏĦ á¿Ĩ
Î¾ á½·Î½
Ġá¼ĲÎ½ Î±
Î² ÎµÎ»
ÏĦÎµ á½»
ĠÎ´Î¹ Î·Î¸
á½³Î½ Î½Ïħ
ÏģÎ¹ ÏĥÎ±Î½
ÏģÎ¹ ÏĮÎ½
á½½ Î¼Î±ÏĥÎ¹Î½
Ġá½ģ ÏģÎ¬
Ġá½ħ ÏģÎ¿ÏħÏĤ
Ġá¼ĲÎº ÏĢá½·ÏĢÏĦÎµÎ¹
Î¶ á½¹Î¼ÎµÎ½Î¿ÏĤ
Ġt er
Ġá½¡ ÏĥÎ±ÏįÏĦÏīÏĤ
ĠÎ´Î¹Î± ÎºÎ±
Ġo p
ĠÎ½ á½¹ÏĦÎ¹
ĠÏĢÎ± ÏĥÎ¹
Ġá¼ĲÎ¾ á½·
Ġá¼ĲÏĢÎ¹ Î´Î¹Î´
Ġá¼ĲÏĢÎ¹ Î²Î¿Î»á½´Î½
ĠÎĳ Î¶
Î¼Îµ ÏĦÏģ
ÏĥÏĩ ÎµÎ¹
ĠÎ³Îµ á½»ÏĥÎµÎ¹
Ïİ Î¸
Ġs al
Î¸Î· ÏĦÎ¿
ĠB c
ĠÎºÎ±ÏĦÎ± ÏĨá½³Ïģ
ĠÏĥÎº á½½
ĠÏĢÎ¿Î¹ Î·ÏĦá½³Î¿Î½
ĠÏĥÏħÎ½ ÏĦÏģ
ĠÏĥÏħÎ½ á½³Ïĩ
ĠÏĥÏħÎ½ á½±Î³ÎµÎ¹Î½
ĠÏĢÏģÎ¿Ïĥ Î·Î»
ĠÎµá½Ĳ ÏĩÏħÎ¼
ĠÎ´Îµ ÏĥÏĢÏĮ
Ġá¼Ī Î¸Î·
ÏĢÎ¹ ÏĥÎ¸
ĠÎ±á¼± ÏģÎµ
áµĥ A
ĠÎĻ Î¿Ïħ
Ġá½ĳÏĢÎ¿ Î¼Î¿Î½
ĠÎºÎ±Î» Î¿á½»Î¼ÎµÎ½Î¿ÏĤ
Î¯Î½ Î±ÏĤ
ĠÎĶ á½°Î½
ĠÎĶ á½·ÏīÎ½
Ġá½ĢÎ½Î¿ Î¼Î±
á¼ĲÎ½ ÏĦÎµá¿¦Î¸ÎµÎ½
ÏĦÎŃ Ïģ
ÏīÎ¸ Îµá½·ÏĥÎ·ÏĤ
vi ous
ĠÎºá½» ÏģÎ¹Îµ
Ġá¼ĺ Î´
ĠÏĨÏħ ÏĦá½°
Ġá¼ĲÏĩ ÏĮÎ½ÏĦÏīÎ½
ÏĦá½³ Î¼Î½ÎµÎ¹Î½
ÏĥÏĦÎ· ÎºÎµ
Î¼Î±Ïģ ÏĦÎ·
Ġá¼ĦÏģ ÏĥÎµÎ½
Î»Î±Î² á½¹Î½ÏĦÎµÏĤ
ĠÎ³Î¹Î½ Î¿Î¼á½³Î½Î¿Ïħ
Ġ5 8
ĠÎ¾Î·Ïģ á½¸ÏĤ
ĠÎ¾Î·Ïģ á¿·
ĠÎĽ Î±
ĠÎĽ Î·Î¼Î½
ĠC od
ĠÎ²Î¿ ÏĦÎ±Î½
ĠÎ²Î¿Ïħ Î½
Ġ9 3
ĠÏĢÎ»Îµá½· ÏĥÏĦÎ¿ÏħÏĤ
Îµá¼¶ Î½Î±Î¹
ĠÎ³ÎµÎ½Î½ á¿ĨÏĥÎ±Î¹
ĠÏĥÏĨÎ¿Î´Ïģ á½¸ÏĤ
Ġá¼ĢÏĥÎ¸ÎµÎ½ Îµá¿ĸÏĤ
ĠÎ´á¿Ĩ Î¾Î¹Î½
ĠÏĨÏħÎ»á½± ÏĦÏĦÎµÎ¹
ost s
ĠÎ½ÎµÏĨ ÏģÎ¹
Ġá¼ĢÎ´ÎµÎ»ÏĨ á¿·
ĠÎ»ÎµÎ¹ ÎµÎ½ÏĦÎµÏģ
Îľ á½´
ĠÎ¸á½³ ÏĥÎµÎ¹
Ġá¼ĲÏĢÎ¹ÏĥÎº ÎŃ
ĠÎ³ÏħÎ¼Î½ á½±Î¶ÎµÏĥÎ¸Î±Î¹
Ġ30 9
ĠÎ²ÏģÎ±Î´ á½»ÏĦÎµÏģÎ¿Î½
ĠÏĥÏĦá½¹Î¼Î± ÏĩÎ¿ÏĤ
Ġan other
ĠÏĢÎ¿Ïĥ á½¹ÏĦÎ·ÏĦÎ±
ĠÎ´Î¿Îº á¿¶
ĠÏĥÏĦá½» ÏĨÎµÎ¹Î½
ĠÏĢÏģÎ¿ÎºÎµÎ¹ Î¼á½³Î½á¿ĥ
ĠÎ³ÏģÎ±ÏĨ á¿ĨÏĤ
ĠÎŁá½Ĳ Ïĩ
ĠÏĢÏģá½± Î¾ÎµÎ¹ÏĤ
Î¼Î½Î· Î¼Î¿Î½
ĠÎ¼ÎµÏĦÎ±Î²Î¿Î» á½°ÏĤ
ĠÎºÎ»Î·ÏģÎ¿Î½Î¿Î¼ Î¯Î±Î½
ĠÏĥÏħÎ³Ïĩ ÏīÏģÎ·
ÏĩÎ±Î» Îºá½·ÏĦÎµÏīÏĤ
ĠÏĢÎ±ÏģÎ±ÏĢÎ»Î·Ïĥ á½·Î±Î½
ÎºÎµÎ¹Î½ Î±
á½į ÏĦÎ±Î½
ĠÏĥÏħÎ½Î¸á½³ ÏĦÏīÎ½
ĠÏĦÎµÏĩÎ½ á½·
ĠÎ±á½ĲÏĩ á½³Î½
Ġá¼ĲÏĢÎ¹ÏĦá½µÎ´ÎµÎ¹ Î¿ÏĤ
Ġsu ch
Î³Î³Îµ Î»Î¹
ĠÏĥÏħÎ½Î±Î³ÏīÎ³ á½´Î½
ÏģÎ·Î½ ÏĦÎ±Î¹
Ġá¼ĲÏĢÎ¹ÏĥÎºá½³ ÏĢÏĦÎµÏĥÎ¸Î±Î¹
ian s
Î´Î±Î¼ á½½Î¼Î¿Ïħ
Ġform er
ĠÎºÎ±ÏĦÎ±ÏĥÎº á½µ
ĠÏĨÏģ á½³Î½Î±ÏĤ
ĠÏĦÏģá½·Ïĩ ÎµÏĤ
Ġwho le
Ġá¼ĲÎ´Îµá½·ÎºÎ½Ïħ Î¼ÎµÎ½
Ġá½ģÎ´Î¿Î¹ ÏĢÎ¿Ïģ
ÏĦá½³ÏĦÎ± ÏĦÎ±Î¹
ĠÏĢÎ±ÏģÏī Î¾
Ġnear ly
ĠÏĢÏģÎ¿Î±Î¹ ÏģÎµ
Ġá¼ĲÎ´ÏĮ Î¸Î·
Ġá½ĢÎ½á½·Î½ Î·ÏĥÎ¹Î½
ĠÎºá½¹ÏĢ ÏģÎ¿Ïħ
ĠJer usalem
á¼ķÎºÎ± ÏĥÏĦÎ¿Î½
ĠÏĦÎµÏĦá½± ÏĩÎ¸Î±Î¹
Ġá¼ĢÎ´á½µÎº ÏĦÏīÏĤ
Ġá½ĢÎ¼Î² Ïģá½·á¿³
Ġauthor ities
á¼ĶÎ¿Î¹ ÎºÎµ
ĠÏĦá½³ÏĦ ÏĦÎ±Ïģ
Ġá¼ĢÎ¼á½³Î¼ÏĢ ÏĦÏīÏĤ
Î¼á¾¶ Î»Î»Î¿Î½
Ġconi ung
Ġá¼ĢÏĢÎ¿ÏĨá½µ Î½Î±ÏĥÎ¸Î±Î¹
) ;
3 3
A nd
t ra
Ġ er
Ġ ...
á¼ £
Î¹ ÏĥÎµÎ½
Ïĥ ÏĥÎµÏĦÎ±Î¹
Î» Î³
Ïħ Î»Î¹
ĠÎº Î»á½µ
ĠÎºÎ± ÏĥÏĦÎ¿Ïģá½·Î¿Ïħ
Ïī ÏĥÎ±ÏĤ
ĠÎ´ Ïģá½±
ĠÎ¼ á½»Î»
ĠÏĥ Î²Îµ
Î¯ Î²
ĠÎ´Î¹ Ïī
ÏģÎ¹ ÏĥÎ¹Î½
á¿· ÏĦÎ¿
Ġá½ĳ á¿¶Î½
Ġá½ĳ Î»á¿¶Î½
ÏĥÎ¹ Î±Î½
Ġá¼¡ Î½ÏĦÎ¹Î½Î±Î¿á¿¦Î½
ÏĮ Î´Î¿Ïħ
Ġá½ħ Î´Îµ
Ġá½ħ ÏĢá¿ĥ
Ġá¼ĲÎº Î»ÎµÎ¯
Ġá¼ĲÎº Ïģá½·Î¸Î·
ĠA áµĩ
ĠÏĢÏģÎ¿ Î¸Îµ
Î® ÏĥÎ±Î½ÏĦÎµÏĤ
á¾¶ Î½Î±Î¹
Î´Îµ ÏĦÎ±Î¹
ĠÏĢÎ± ÏĦÏģá½·
ÏģÎµ Î¼Î±
Ġá¼ĲÎ¾ Îµá½»
Ġá¼ĲÏĢÎ¹ ÏĢá½³Î¼ÏĢ
Ġá¼ĢÎ½Î± ÏĦÏģá½·
Ġá¼ĢÏĢÎ¿ Ïģá½·Î±Î½
Ġá¼ħ ÏĢÏĦÎµÏĥÎ¸Î±Î¹
Î´Î± Î²
ĠÏĢÎ¿Î¹ Î·ÏĦ
ĠÏĢÎ¿Î¹ Î¿á¿¦ÏĥÎ±
ĠÏĢÎµÏģÎ¹ Î¿ÏħÏĥá½·Î±ÏĤ
ĠÎ¶ á½³
ĠÎ¶ á½»
ĠÎ»Îµ Ïħ
Î»á½· Î¸Î¿Ïħ
ÏģÎ±Î½ Î½
Ġá½ĳÎ³ Ïģá½¹ÏĦÎ·ÏĦÎ¹
ĠÏĪÏħÏĩ Ïģá½±
ĠÎ³ÎµÎ½ Î¹Îº
Ġc oun
ĠÎ±á¼± Ïģá½³ÏĥÎµÏīÏĤ
ÏĦÎ·Î½ Î¹ÎºÎ±á¿¦ÏĦÎ±
Ġá¼´ ÏĥÎ±ÏĤ
ĠÎ¸ÎµÏģÎ¼ á¿ĩ
ĠÎ¸ÎµÏģÎ¼ á½¹ÏĦÎµÏģÎ¿ÏĤ
ĠÏĢÎ±Î½ ÏĦÏīÎ½
ĠÎĴ Î·Ïģ
ĠÎºá½± Î»Î»Î¿ÏĤ
Ïĥá½· ÏīÏĤ
ÎºÎµ ÏĨÎ±Î»
ÏĥÏĥ Î¿ÏħÏĥÎ¹Î½
ĠÏĢÎ¿Î» Î¹Î½
ÏĦÎ¿á¿¦ ÏĥÎ¹
Î¼ÎŃÎ½ á¿ĥ
ea st
ĠÎµá¼°Ïĥ ÏĢÎ¿ÏģÎµÏħ
ĠÏĦá½³ ÏīÏĤ
ÏīÎ¸ á½³Î½ÏĦÎ±
ÏĦÎ·Ïģá½· ÏīÎ½
Ġá¼ł Î´á½»Î½Î±
ĠÏĥá½» Î½Î¿
Îºá½¹ ÏĦÎ±ÏĤ
Ġá¼ĺ Î¶ÎµÎº
Ġá¼ĲÏĩ Î¿ÏħÏĥá¿¶Î½
ĠÎºá¾Ģ ÎºÎµá¿ĸ
ÏĥÏĦá½± Î¼ÎµÎ½Î¿Î½
ĠÎ¿á¼°Îº Îµá½·Î±
Ġá¼ĲÏĢá½· ÏĥÏĦÎ±
ĠÎµÎ¹ ÏģÎ·Î½
ĠÏĥÏī Î¼Î±
ĠÏĢÎ±Ïĩ Îµá½·Î±ÏĤ
Îµá½» ÏĤ
Î³Ïĩ Î¿Î½
Ïģá½³ ÏīÎ½
ĠI n
ĠÎ´Î¹Î±Î¸á½³ ÏĥÎµÏĥÎ¹
Ġá¼ĢÎ½Î±Î³ÎºÎ± á½·Î±Î½
ĠÎ´Î¹Î´ Î¿á½ºÏĤ
Î´á½¹ Î¾
ÏĦÎµÎ» Îµá¿ĸ
Ġá¼±ÎµÏģ Î¿á¿¦
á¼ĢÎ½ á½±Î»Î¿Î³Î¿Î½
á½Ģ Î»á½·
Î¬Î¶ ÎµÏĦÎ±Î¹
ÏĦÏħ Î¿ÏĤ
ĠÎ¾Î·ÏģÎ± á½·Î½ÎµÏĥÎ¸Î±Î¹
Î±á½Ĳ ÏĦÎ¿á½¶
á½µÏĥÎ¹ Î¿Î½
Ġá¼ĲÏĢÎ¹Îº ÎµÎ¹Î¼á½³Î½ÏīÎ½
ĠÏĥÏĨÎ¿Î´Ïģ á½°
ĠÏĢÎµÏĢÎ¿Î½Î¸ á½¹ÏĦÎ¹
Î¹ÏĥÎ¼ á½¸ÏĤ
Ġá½ĢÎ»á½·Î³ Î·
Ġá¼ĲÎ´ Î¯
ĠÏĥá½»Î½ Î¸ÎµÏĥÎ¹ÏĤ
ĠÏĦÏģÎ¿ Î¼
Ġá¼ĪÎ½ Î´Ïģ
ĠÎºÏħÏģ ÏĦ
á¼ĳ Îºá½±
ĠÎ²Î¿Î·Î¸ á½µÎ¼Î±ÏĦÎ¿ÏĤ
Ġá½ģÎ¼Î¿Î»Î¿Î³ Îµá¿ĸÎ½
ĠÏĢÎ±Î¹Î´ Î¯Î¿Î½
ĠJ ud
ĠÏĢá½· ÏĥÏĥÎ·ÏĤ
ĠÎ´á½±Îº Î½
ÏĥÎ¬ Î¼ÎµÎ½Î¿ÏĤ
Ġá¼ĶÏĥÏĩ Îµ
Ġá¼ĶÏĨÎ± Î³Î¿Î½
ĠÏĦÏģá½± Ïĩ
Ġli ght
ĠÎ¼ÎµÏģ á½¶ÏĤ
ĠÏĥÏĦÏħÏĢ ÏĦÎ·Ïģá½·
Ġá¼ĢÎ½Î±ÏĦÎ¿ Î»á½°ÏĤ
ĠÏĢÎµÏģÎ¹Îº ÎµÎ¹
Ġá¼ĢÏĨÎ¹ÎºÎ½ Îµá¿ĸÏĥÎ¸Î±Î¹
ĠÏĨÏħÎ»Î±Îº á¿ĨÏĤ
ĠÎ³Î¹Î½á½½ÏĥÎº ÏīÎ½
Î³Î³Îµ Î»Î¿Î½
Ġá¼ĢÏĢÎ¿ÏĨÎ± Î¹Î½
Ġá¼ĢÎ½Î±Î¹ ÏĥÎ¸á½µ
ĠÎµÎ³ÎµÎ½ Î·Î¸Î·
ĠÎ³Î¯Î³ Î½ÎµÏĥÎ¸Î±Î¹
ĠÎ´Î¹Î¿Ïģá½· ÏĥÎ±ÏĥÎ¸Î±Î¹
ĠÎ¾Ïħ ÏĥÏĦÎ¿á¿¦
Îºá¾ ĤÎ½
ĠÎºÎµÏģÎ± ÏĦÎ¿
Ġá¼ĶÎ¾ ÏīÎ¸á½³Î½
ĠÏĨÏģ ÏħÎº
Ġá¼ĲÏĢÎ¹ÏĥÏĢ á¾¶ÏĦÎ±Î¹
ĠÎ²á½¹ ÏģÎµÎ¹
Ġá¼ĲÏĢÎ¹ÏĦÎ·Î´Îµ á½»
ĠÏĢÎ»ÎµÎ¿Î½ÎµÎº ÏĦÎµá¿ĸ
ĠÏĨá½±Î³ ÎµÏĥÎ¸Îµ
Ġá¼±Î´Ïģá¿¶ ÏĦÎµÏĤ
Ġá¼±Î´Ïģá¿¶ ÏĦÎ±ÏĤ
ĠÎ£Ïħ Î¼Îµ
ĠÎ¸Î»Î¯ ÏĪÎµÏīÏĤ
Ġá¼ĳÏĥÏĢ á½³ÏģÎ±Î½
Ġá¼ĢÏĢÎµÏģ Î³Î±
ĠÎ¿ÏħÏĩ Î¹
Î¸ÎµÏģÎ± ÏĢÎµ
ĠÎ»ÎµÎ» á½³ÏĩÎ¸Î±Î¹
Ġá¼ģÏĢÏĦÎ¿ Î¼á½³Î½Î¿Î¹ÏĤ
ĠÏĢÎµÎ¼ÏĢ ÏĦÎ±
ĠÏĢá½±Ïģ ÎµÏģÎ³Î¿Î½
ĠÎµÎ¹ÏĥÎ± ÎºÎ¿Ïħ
Ġá¼ĲÎ¸ÎµÎ±Ïĥá½± Î¼Î·Î½
ÎľÎµ ÏĦá½°
Ġá¾łÎºÎ¿Î´ÏĮ Î¼Î·ÏĥÎµÎ½
ĠÎºÎ±ÏĦÎ±Î¼á½µÎ½ Î¹Î±
Ġduplic ate
ĠÎ´Î¹Î±Î²Î¹Î² Ïģ
Ġjudg ment
d om
r on
v an
Ġ est
ÏĦ á½µÎ½
Î¹ Î±Î¹
Ïĥ Î¼á½³Î½Î¿Î¹ÏĤ
Î¼ Î¿Î»Î¿Î³
ĠÎº Îµá½·
ĠÎº Îµá½·Î¼ÎµÎ½Î¿Î½
Ïī Î¼á½³Î½Î·Î½
Ġá½ ¨
Ġá½ Ĳ
Ïĩ Î¬
Î¿Ïħ Î¼á½³Î½Î±ÏĤ
Ġá¼Ģ ÏĦá½±
á¿¶Î½ ÏĦÎ¹
ĠÏĥ Î¬Î²
ÏĥÏĦ Î·Î¸Î¹
Î¼Î± ÏĦÎ¿Ï²
Ġá¼ĲÎ½ ÏĦá½³
ĠÎ´Î¹ á¿Ĩ
Ġá¼Ķ Î³Ïĩ
ÎŃ ÎµÎ¹
ÏĥÎ¸ Î¹Î¿Î½
ĠÏĨ Î¸Îµ
ĠÎ¸ Îµá¿ĸÎ¿Î½
ĠÏĦÎµ á½·Î½ÎµÏĥÎ¸Î±Î¹
Ġá½ģ ÏĦá½²
ÏĢÎ¿ Ïį
Ġá¼ĲÎº Î¼Î±Î¸Îµá¿ĸÎ½
Ġá½Ģ Î²Î¿Î»
ĠÎ¼Îµ ÏĥÏĦ
ĠÎ¼Îµ ÏĥÎµÎ½
Î·Î½ ÏĦÎ±Î¹
Ġá¼ĳ Î´ÏģÎ±
ĠÎ´Î¹Î± Î»Î»á½±
ĠÎ´Î¹Î± ÏĥÏĦá½±ÏĥÎµÏīÏĤ
Ï² ÏĦÎ¹
Ġá¼ĲÎ¾ Î¿Ïħ
ĠÎµá¼¶ ÏĤ
Ġá¼ķ ÎºÏĦÎ¿Î½
Ġá¼ĢÎ½Î± ÏĨ
Ġá¼ĢÏĢÎ¿ Ïĥ
ĠÏĢÎ» ÏħÎ½
Î´Î¹ Î·Î³
ÏĨÎ¿ ÏģÎ¿Î½
ĠÎµá½Ĳ Î½
á¼± ÎºÎ±Î½
ÏĢÎ» Î¿
ĠÏĨá½» Î¼Î±ÏĦÎ±
Ġá½ĳÎ³ Î¯
ÎµÎ» Î¿á¿¦
ĠÏĥÏĨ á¿¶Î½
ĠÎľ ÎµÏĥ
ĠÎ´ÏħÎ½ á½µÏĥá¿ĥ
á½³Î¿Î½ ÏĦÎ±ÏĤ
Î»á½³ ÏĥÏĦÎµÏģÎ¿Î½
Ġá¼ĢÏĨ Î¹
á½»Î½ ÏĦÎ±
Ġá½ł Ïĥá½¶Î½
ĠÎĶ Îµá¿¦
ĠÏĢÎ½Îµ á¿¦
ĠÎµÎ½ Î¹
Ġá¼ĢÎ³ Î¼á¿¶Î½
ÏĩÎ¸ á½²Î½
Îºá½¹ ÏĥÎ¹Î½
Ġd i
Ġl ook
ÏĥÏĦÎ· ÏĦÎµ
ÏĥÏĦÎ· ÎºÏĮ
Î´Ïī Î»Î±
ÏĦá½µ Ïģ
Î¿ÏħÏĥ á½±
ÏĨá½³Ïģ ÎµÎ¹
Îł ÏģÎ¿
ĠHe xapl
ĠÎ¼Î± ÏĩÎ±Î¹
Ġá¼ķÎºÎ± ÏĥÏĦÎ±
ĠÏĥÎ±ÏĨ Î¿á¿¦ÏĤ
ĠÎ»ÎµÏĢÏĦ á½´
Î´ÎµÎ» ÏĨ
ĠÎ¼ÎµÎ³á½±Î» Î±Î¹
ĠÎºÎ±ÏĦÎµ Îº
ĠÎ¼Î±Îº Ïģá½°
ĠÏĩÎ¿Î» á½½Î´Î·
ĠÎºÎ¿Î¹Î» á½¹ÏĦÎ·ÏĦÎ±ÏĤ
Î³Î¹ ÏĥÏĦÎ¿Î½
Ġá¼ĢÎ³Î±Î¸ ÏĮÎ½
Ġá¼ĶÏĨ ÏħÎ³ÎµÎ½
ĠÎµá½Ķ Ïĩ
Ġá¼ĢÏĢá½¹ ÎºÏģÎ¹ÏĥÎ¹Î½
ĠÏĥÏħÎ½ÎµÏĩ Î¿á¿¦ÏĤ
Î¯Î¶ Î¿Î½
Îķ ÎĻ
ĠÏĥÎ¿ÏĨ Î¯Î±ÏĤ
ĠÎ¿á½ĲÏģÎ±Î½ á¿¶Î½
ĠÏĥÏĦÎ¿ Î¼Î±Ïĩ
Î¿Ïģá½· ÏĥÏĦÏīÏĤ
ĠÏĨÎ»ÎµÎ³Î¼Î± á½·Î½Î¿Î½ÏĦÎ±
ĠÏĥÎºÎ¿ÏĢ Î¿á¿¦
ĠÎ´Î¹Î±Î¹ ÏģÎµ
ĠÏī ÎºÎ¿Î´Î¿Î¼
ĠÎ½á½¹Ïĥ ÏīÎ½
ĠÎ½á½¹Ïĥ Î¿Î¹ÏĤ
Î»ÎµÏħ ÏĥÎ±Î½
ĠÏĥÏĦÎµÎ½ á½¸ÏĤ
ÏĥÏĥÎµ ÏĥÎ¸Î±Î¹
ĠÏĦÏģÎ± Î³
Ġá¼ĢÎ½Î±ÏĦÎ¿Î¼ á½°ÏĤ
Ġá¼ĦÏģÎ¸Ïģ Î¿Î¹ÏĤ
ĠÏĢÏģÎ¿ÎºÎµÎ¹ Î¼á½³Î½ÏīÎ½
Ġá½ħÎ¼Î¿Î¹ Î¿ÏĤ
ĠÏĢá½¹Î½ ÏīÎ½
ĠÏĥÏĢÎ± ÏĥÎ¼Î¿á½¶
ÏĥÏĥÎ¿Î½ ÏĦÎµÏĤ
ÏĩÏħÎ¼ Î¿Î½
ĠÎ´Î¹ÎµÎ¾ á½³ÏģÏĩÎµÏĥÎ¸Î±Î¹
Ġlit er
ĠÎ´Î¹Î±á½· ÏģÎµÏĥÎ¹Î½
ĠÎ¼Î·Î´Îµ á½¶ÏĤ
ĠÎ»ÎµÏĢÏĦÎ¿Î¼ÎµÏģ Î¿á¿¦ÏĤ
Î´Î¹Î´ á½±ÏĥÎº
ĠÏĥÏĢÎ¿Î½Î´á½»Î» Î¿Î¹ÏĤ
ĠÏĩÎ±Î»ÎµÏĢ á¿¶ÏĤ
ÏħÏĦá½³Ïģ Ïī
Ġá½ĢÏģ ÏĨÎ±Î½
ĠÎºÎ¿Î¹Î»á½· Î·Î½
Ġá¼ĢÎ½Î±ÏĦÎ¿ Î¼Î¹ÎºÎ±á¿ĸÏĤ
ĠÏĢÎ¿Î¹Î® ÏĥÎ±ÏĤ
ĠÎºÎ¿á½· Î»Î·Î½
ĠÏĢÏģá¾¶ Î¾Î±Î¹
ĠÎ¼Î±Î¸Î· ÏĦá¿¶Î½
Ġá¼ĲÎ½Î´Îµá½· Î¾Î±ÏĥÎ¸Î±Î¹
ĠÎ¸ÎµÏģÎ¼Î¿ ÏĦá½³ÏģÎ±
Ġá¼ĢÏĥÎµÎ² Îµá¿ĸÏĤ
ĠÎ³ÏģÎ±Î¼Î¼Î± ÏĦÎµá¿ĸÏĤ
Ġá¼ĲÎ»Î» ÎµÎ²
Ġá¼ĲÏĢá½·Î´Îµ ÏĥÎ¹ÏĤ
ĠÏĥÏĦÎ±Î¸ Î¼á¿·
ĠÏĢÏģÎ¿Î³Î½ á½½ÏĥÎµÏīÏĤ
ĠÏĢÏģÎ¿Î³Î½ á½½ÏĥÎµÎ¹ÏĤ
Ġá¼ĢÎ»Î»Î¿á½· ÏīÏĥÎ¹ÏĤ
we ll
Ġá¼ĲÎ¼Î±ÏħÏĦ Î¿á¿¦
ĠÏĥÏīÏĦÎ·Ïģá½· Î±Î½
Ġá¼Ĳá¿¤á¿¥ á½³Î¸Î·
ĠÏĢÎ»Î® Î¸Î¿ÏħÏĤ
ĠÎ´Î¹Î±Î¼á½³Î½ ÎµÎ¹Î½
ĠÎµá½ĲÎ± Î³Î³ÎµÎ»
ÏĥÏĩÎ· Î¼Î¿Ïĥ
Ġá¼ĢÏĨÎµÏĪ á½µÎ¼Î±ÏĦÎ¹
ĠÎ¼ÏħÏģÎ¹ á½±ÎºÎ¹ÏĤ
Ġá¼ĶÎ¼ÏĨÏģÎ± Î¾Î¹Î½
ĠÎ²Î¿á½»Î» Î¿Î¹ÏĦÎ¿
Ġever y
ĠÎºÎ±ÏĦÎµÎ¹ Î»Î·ÏĨ
ĠÏĥÏĦá¿Ĩ Î¸Î¿ÏĤ
ĠÎ³ÎµÎ³á½¹Î½Î± ÏĥÎ¹Î½
ĠÎµá½ĲÏĨÎ¿Ïģ Î²á½·Î¿Ïħ
ĠÏĨÎ¹Î»á½¹ ÏĥÎ¿ÏĨ
ĠÏĢÏģÎ¿ÏĨÎ±Î½ á¿¶ÏĤ
Ġá¼ĲÏ²ÏĦ á½¶Î½
Ġá¼ĲÎ´Î·Î¼Î¹ Î¿á½»ÏģÎ³
ĠÎ»ÏħÏĩ Î½
Ġgu ess
ĠÏĢÎ±ÏģÎ±Î´ÎµÎ¹ Î³Î¼á½±ÏĦÏīÎ½
Ġá¼ĲÎºÎµá½· Î½Î±Î¹ÏĤ
Ġá¼łÎ´á½»Î½Î± ÏĦÎ¿
m ay
Ġ ÏģÎ±
Î½ Î®
Î¹ ÏĥÏĦÎ¿Î½
Ïĥ ÏĥÎ±Î¹
ĠÏĦ á¿³
ĠÎº á½³Ïĩ
Îº Îµá¿ĸÏĥÎ¸Î±Î¹
Î· ÎºÎ¿ÏĥÏĦ
ĠÏĢ ÏĦÏį
á½³ Î²Î¿ÏģÎ¿Î½
Î³ Î¼Î¬ÏĦÏīÎ½
ĠÎ¼ á½°
ĠÎ¼ Î¹Î±
Ġá¼Ģ ÏĩÏģ
ÏĨ Î¿Î¹ÏĤ
á½¹ ÏĥÎ¿Î½
á½¹ Î¸ÎµÎ½
ĠÏĥ Î¬Îº
Î¿Î¹ Î¿
ĠÎ±á½ĲÏĦ Î¿á½·
ĠÎ±á½ĲÏĦ ÏĮÏĤ
âĢĻ ;
á¿ĸ Î´Î±
Î¾ Î¹Î±
Î»Î» Î¿Î¹ÏĤ
Î² Î¿ÏħÏĤ
Î¯ Î½ÎµÏĥÎ¸Î±Î¹
ĠÎ´Î¹ á¿Ħ
á½µ ÏĩÏīÎ½
Ġá¼Ķ ÎºÎµÎ¹
Îµá¿ĸ Î¿ÏĤ
ĠÏĨ Î±Î»Î±Îº
ĠÎ» ÏħÎ¸
á½½ Î¼Î±ÏĦÎ¹
ÏĮ Î¼ÎµÎ½Î±Î¹
Ġá¼Ħ Î¼
Ġá½ħ ÎºÏīÏĤ
ĠÎ² ÏģÎ¿
ĠÎ² Î´á½³
ĠÏĦÎ¿ Î¼á½´Î½
Ġá¼ĲÎº ÏĢÎ¿
ĠÎ¼Îµ Î»Îµ
Î® Î¼Î±ÏĥÎ¹Î½
ĠÏĢÎ¿ á½ºÏĤ
ĠÏĢÎ¿ ÏĦá½¸Î½
Ġá¼ĢÎ½ á½±Î»
ĠÎ´Î¹Î± Ïĩ
ĠÎ½ Î¿ÏħÏĥ
ĠÏĢÎ± ÏĦÎ¬
Ġá¼ĲÏĢÎ¹ Î²ÎµÎ²Î»Î·
Ġá¼ĲÏĢÎ¹ Î´Îµá¿ĸÎ¾Î±Î¹
Î»Î· ÏĪÎ¹ÏĤ
á¼Ĳ Ïģ
á¼Ĳ ÏĢÎµ
Ġá¿¥ á½¶ÏĤ
Ïİ Î´Î¿ÏħÏĤ
Ġá¼ĢÏĢÎ¿ Î´Î¹Î´
Ïģá½± Î³
ĠÏĪ Î±Ïħ
ĠÎºÎ±ÏĦÎ± Ïģ
Î´Î¹ Î¿ÏĤ
Ġá¼¤ Î¼Î·Î½
ĠÎµá½Ĳ ÏģÏīÏĥÏĦ
ÏĢÎ» Î¬
ĠÎ¾ á½³
ÏģÎ±Î½ ÏĦ
ĠÏĪÏħÏĩ ÏģÎ¿á¿ĸÏĤ
ĠÎ³ÎµÎ½ á½µÏĥÎ¿Î½ÏĦÎ±Î¹
Ġá¼¦ Î¸Î¿ÏĤ
ÏĦá½± ÏĩÎ±
ĠÏĢÏģá½¹ Î²Î»Î·Î¼Î±
Î²Î± Î¹Î½ÎµÎ½
om in
Î¿Ïģ ÏĢÎ¹
ĠÏĢÎ¿Î» Ïį
ĠÎ¼Î¹Îº ÏģÎ¿á¿ĸÏĤ
ea re
ĠÎĵ á½°Î´
ĠÎ²ÏģÎ±Ïĩ á½·ÏīÎ½
Ġá¼°Î± Î¼á½±ÏĦÏīÎ½
Îºá½¹ ÏĥÎ¹Î¿Î¹
Ġá¼ĲÏĩ Î¿á½»Ïĥá¿ĥ
ÏĨá½³Ïģ Îµ
ÎºÎ» á¿ĨÏĤ
Ġas s
ĠÏĢÎ±Ïĩ Ïį
ĠÏĢÎ±Ïĩ ÏħÏĦá½³Ïģ
ÏģÏī ÏĥÎµÎ½
ĠÎ¼Î±Îº Ïģá½¹ÏĦÎµÏģÎ¿Î½
Ġá¼ĢÎ¼ÏĨ á½¶
Ġ9 1
em pt
ÏĦÎ¬ ÏĤ
ĠÏĦÎµÎ»Îµ Ïħ
Ġ14 4
ÏĪÎµ ÏĥÎ¹
ÏĦÎ¹Î½ á½°
Îķ á½Ĳ
ĠÏĥÎ¿ÏĨ á½·Î±Î½
ĠÏĦÎ¯ Î½Î±
ÏĦá½¹ ÏĦÎ¿
Ġá¼ĲÏĢÎµ ÏĥÎº
Ġá¼ĲÏĢÎ¹Îº Îµá½·Î¼ÎµÎ½Î¿Î½
ĠÎ»ÎµÎ³ Î¿Î¼á½³Î½Î¿Ïħ
ÏĦÎ® ÏĥÎµÎ¹
ĠÎ¿á½ĲÏģÎ±Î½ á½¸ÏĤ
ĠÎ±Î¹ ÏīÎ½Î¿ÏĤ
ĠÏĥÎºá½³ Î»ÎµÎ¹
ĠÎļá½» ÏģÎ¹Îµ
ĠÏĥÏĨÎ¿Î´ Ïģá½¹ÏĦÎ·ÏĦÎ¿ÏĤ
ĠÎ´Î¹Î±ÏĨá½³Ïģ Î¿ÏħÏĥÎ¹
ĠÎ±á¼°ÏĥÎ¸Î· ÏĦÎ¹Îºá¿¶Î½
ĠÏĩÏģÏħÏĥ Î¯Î¿Ïħ
Ġá¼ģÎ¼Î±ÏģÏĦ Î¯Î±Î½
ĠÎºÎ¬ Î»Î»Î¹
Î¥ Î¤
á½»ÏĦÎ· ÏĦÎ¹
Î±Î¶ á½°Ïģ
ĠÎ´Î¹Î±ÏĨÎ¸ ÎµÎ¹
ĠÏĢÎ· Î»á½·
Ġá¼ĢÎ½Î¿Î¼ Î¯Î±Î½
ĠÏĢÎ±á½» ÎµÏĥÎ¸Î±Î¹
Ġá¼°á½± ÏĥÎµÎ¹ÏĤ
Ġá¼ĲÎ»Î¸ á½¼Î½
á½µÏĥÏī Î¼ÎµÎ½
ĠÏĢÎ¹ÏĥÏĦÎµ á½»ÎµÎ¹Î½
ĠÎ´Ïī ÏģÎµ
ĠÏĦÎµÎº Î¼Î±á½·
ĠÎ¼ÏĮ ÏĥÏĩ
ĠÏĢÏģÎ¿Î·Î³ Î·ÏĥÎ±
Ġá½ĳÏĢÎµ ÏģÎ±
ĠÎºá½³ ÎºÎ»Î·
Ġá½ĦÏĩ Î»Î¿Î½
Ġsh ow
Ġá½łÎ¼Î¿ÏĢÎ»á½± ÏĦÎ·Î½
ÏĦÏģá½·Î² ÎµÎ¹Î½
ĠÎºÎ±ÏĦÎ±ÏĥÏĩ Î¹Î¶
ĠÎ¿ÏħÏĦ Î¿Î¹
Ġá¼ĲÏĩÎ¸ ÏģÎ¿á½ºÏĤ
Ġá¼łÎ³ Î¬ÏĢ
Ġá¼ĲÎ¶ á½µ
ĠÏĥÏĢÎ±Î½ Î¹
ĠÎ§Î±Î½ Î¬Î±Î½
Ġá¼ĢÏĦÎ¿Î½ á½·Î±Î½
Ġar t
Ġdo es
Ġá¼ĶÎ´Î¿ Î¾Îµ
ĠÎ´Î¹Î´á½± Î¾Î±Î¹
ĠÏĥÏīÏĦÎ·Ïģá½· Î¿Ïħ
Ġá¼ĲÏĢÎ¹ÏĥÎºÎ¿ÏĢ Îµá¿ĸÏĥÎ¸Î±Î¹
Ġá¼ĳÎ²Î´Î¿Î¼ á½µÎºÎ¿Î½ÏĦÎ±
Ġá¼ĳÎ²Î´Î¿Î¼ Î®ÎºÎ¿Î½ÏĦÎ±
Ġá¼ĢÏĥÏĨÎ± Î»Îµ
Ġocc ur
ÏĢÏĦÎ¹ Î¿Î¹
ĠÎ±á½ĲÏĦÎ¿ Î¼á½±
ĠZ ion
ĠÎ¼Î¿Ïģ Î¯ÏīÎ½
ĠÎ¼Î½Î·Î¼ ÏĮ
ĠÎ´á½»Î½Î±Î¹ ÏĦÎ¿
Ġá¼ĢÎºá½±Î¸Î±Ïģ ÏĦÎ¿ÏĤ
ĠÏĦÎ¯Î½ Î¿ÏĤ
ĠÏĢÏģÎ¿Î³Î¹Î½ á½½ÏĥÎºÎµÎ¹Î½
ĠÎºá½±Î¸Î±Ïģ ÏĥÎ¹Î½
Ġá¼ĢÏĢá¿Ĩ ÏģÎ±Î½
ĠÎ¤Î± ÏģÎ±Î½ÏĦ
ĠÎ»Î¹Î³Î½ Ïħ
Ġá¼ĢÏħ ÏĦá½°
ĠÏĢÏģÎ¿á½µ ÎºÎ¿Î½ÏĦÎ¹
Ġá¾ħ Î´Î¿Ïħ
tim es
ĠÎĸÎ±Ïĩ Î±Ïģ
a T
a il
Î± ÏĥÎ±Î¹
Î¿ ÏģÎ¿
Î¹ á½°
Îµ Î»Î±
Îµ ÏħÏģ
ĠÏĦ ÏĮÎ½
ÏĢ ÏģÎµ
Î» Î¿ÏĨ
Î· ÎºÎµÎ½
ĠÎ´ á½·Î±
ĠÎ´ ÏģÎ¬
á½· ÏĩÎ·ÏĤ
ĠÎ¼ Î¬Ïģ
Î´ Î¿Î½ÏĦÎµÏĤ
Ġá¼Ģ Î·
Ġá¼Ģ Î´á½·
á½¹ ÏĦÎ±ÏĤ
á½¹ á¿¤á¿¥
ĠÏĥ ÏīÎ¸á¿ĨÎ½Î±Î¹
Î»Î» ÏħÎ½ÏĦÎ±Î¹
Î² Ïģ
ĠÎ´Î¹ Î¿á½·ÏĥÎµÎ¹
ĠÎ¸ Ïģ
ĠÎ¸ Î·Î»
á½º Î¾
ÏĦÎ· ÏĦÎ¿ÏĤ
Ġá¼Ħ ÏĥÎº
Ġá½ģ ÏģÎ¹ÏĥÎ¼
Ġá½ħ ÏĦÎ¿Ïħ
Ïį ÏģÎ¿Ïħ
ÏĥÎµ á½·
ÎµÎ¹Î½ ÏĦÎ±Î¹
Ġá¼ĢÏĢ Î±Î»Î»Î±Î³
ĠÎ´Î¹Î± ÎºÎ¿ÏĢ
ĠÎ´Î¹Î± ÏĪÎ±Î»Î¼Î±
Ġo wn
ĠÎ½ Î¹
ĠÎºÎ±Î¸ Î·Îº
Ġá¿¥ ÏĮ
Ġá¼ĢÏĢÎ¿ ÏĥÏĦá½±ÏĥÎµÎ¹ÏĤ
ĠÎ¿á½ĲÎ´ ÎŃÎ½
Ġá¼ģ Î»Î¹
Î¸Î· Î¼ÎµÎ½
ÏĢÎµ ÏĦÎµ
ĠÎºÎ±ÏĦÎ± ÏĢÎµ
Ġá¼ĲÎ³ ÎºÎ±á½»
Î³Î± á½¶
ĠÎ¸ÎµÏģ Î¼á½±
ÏĢÎ» á½³
Î»á½· Î¿ÏħÏĤ
ĠÎ¼á½¹Î½ Î¿Î¹
ĠÏĪÏħÏĩ Î·Î½
ĠÏĢÎµ ÏĦÏģÎ±
Ġc ity
Î¿Ïĥ ÏĮ
Î¸á½³ Î¼Î·Î½
á¼Ķ Î¾Ïī
ĠÎ¿á¼° Î´Î·
ĠÏĦÏģ á¿ĸÎ²Îµ
ĠÎ´á½³ Î¾Î±ÏĥÎ¸Î±Î¹
ÏĦÎŃ ÏģÏī
ĠÎ¼Î¹Îº Ïģá½°ÏĤ
ĠÎ½Î¿Ïĥ Î®Î¼Î±ÏĦÎ¿ÏĤ
ĠÏĥÎµ Î¼Î¹
ĠÎ²ÏģÎ±Ïĩ ÏħÏĦá½±
ÏĦÏĦÎ¿Î½ ÏĦÎ±ÏĤ
ÏĥÏĦÎ· Î¼á½±ÏĦÏīÎ½
Îĳ C
Îĳ á½Ĳ
Ġá½ĦÎ½ ÎµÎ¹Î´Î¿ÏĤ
Ġá¼ĦÏģ Î¾Î·ÏĦÎ±Î¹
ĠÎ¸ÎµÏģÎ¼Î± á¿ĸÏĤ
ĠÎ¸ÎµÏģÎ¼Î± á¿ĸÎ½Î¿Î½
Î¤ ÏĮÏĦÎµ
Î·Î¼Î± ÏĦá½·
ĠÎ§ Î±Ïģ
ĠÏĥÎºÎ»Î· Ïģá½°Î½
Ġ5 2
ĠÎºÎµÎ½ Ïī
ĠÎ»ÎµÏĢÏĦ á¿ĨÏĤ
ÏģÎ¹Î¸ Î¼
us es
ĠÎºÏģá½· Î½ÎµÏĥÎ¸Î±Î¹
ro y
Ġ9 0
ĠÎºá½¹ ÏĪÎ±ÏĤ
ĠÎµá¼°Ïģ Î·Î½
ĠÏĦÎµÎ»Îµ á½·ÏīÏĤ
ĠÏĥá½»Î¼ÏĢ Î±ÏĤ
Ġal one
Î¸á½³Î½ ÏĦÎ±ÏĤ
Î±á½Ĳ ÏĦá½¸Î½
ÏĦÎ® ÏģÎ¹Î¿Î½
ĠÏĥÏĨÎ¿Î´Ïģ Î¿á¿¦
ĠÎ´Î¹Îµ ÏĨÎ¸Î±Ïģ
ĠÎ±á¼°ÏĦá½· Î¿Ïħ
ĠÎ¼á½· Î¾Î¹Î½
ĠÏĢÎµÏĢ ÏĦÏī
ÏīÎ´ ÏħÎ½
ĠÏĢÎ»á½µ ÏģÎ·ÏĤ
Ġá¼¡Î³ Îµá¿ĸÏĦÎ±Î¹
Ġ23 9
ĠÎ´Î¹Î±ÏĨá½³Ïģ Î¿ÏħÏĥÎ¹Î½
ĠÎ»á½» ÎµÎ¹
Î¿á½Ķ ÏĦ
ĠÎ¼Î® ÏĦ
ĠÏĨÏį ÏĥÎµÎ¹
Ġv oice
ĠÎµá½ķ ÏģÎ¿Î¹
ĠÎ¸ÏħÎ³Î± ÏĦá½³ÏģÎ±
ĠÎ¸ÏħÎ³Î± ÏĦÎŃÏģÎ±ÏĤ
Ġá¼ĲÎ½Îµ Î´Îµá½·Î¾Î±ÏĦÎ¿
Ġst ra
Ġá½ĳÎ³Î¹ÎµÎ¹Î½ Î¿á¿ĸÏĤ
Ġá½ĳÎ³Î¹ÎµÎ¹Î½ á½¸Î½
ĠÏĢÎ¯ ÏĥÏĦÎµÎ¹
ĠÏĥÏħÎ³Î³ ÏģÎ±Î¼
Ġcl a
ÏĥÎ¬ Î¼Î¿Ïħ
ÎºÎ¿ÏĥÎ¹ Î¿Î¹
ĠÏĢá½³ÏģÎ± ÏĥÎ¹
Ġá¼ĶÏĨÎ± ÏĥÎ±Î½
ĠÎ´Î¹Î±ÏģÎ¸Ïģ á½½ÏĥÎµÎ¹ÏĤ
ĠÏĢÎ±á½» ÏĥÎ±ÏĥÎ¸Î±Î¹
ĠÎºÏģÎ¹Î¸ á¿ĨÎ½Î±Î¹
ĠÏĥÏĦÏģÎ± Î³Î³Î¿Ïħ
ĠÏĨÎ» á½¹
Ġá¼ĢÏģá½· ÏĥÏĦÎ·ÏĤ
ĠÏĢÎ¹ÏĥÏĦÎµ á½»
ĠÎ¿á¼°ÎºÎ¿Î´Î¿Î¼ á¿ĨÏĥÎ±Î¹
Î·Î¼ÎŃÎ½ Î¿ÏĤ
Ġá¼ĢÎ»Î·Î¸Îµ Î¯á¾³
Ġá¼ĢÎ¼ÏħÎ´Ïģ á¿¶ÏĤ
á½½ÏĦÎµÏģÎ± Î¹
ĠÎ¼ÏħÏģ Î¼Î·Îº
Ġá½ĦÏĩ Î»Î¿ÏĤ
Ġá¼ĳÏĦÎ¿Î¹ Î¼Î¬
ĠÏĢÏĦÎµÏģ á½»Î³
Ġá¼ĲÎ»ÎŃ Î³Ïĩ
Ġá¼Ń ÏģÎ±
ĠÏĢÎµÏĥ Îµá¿ĸÏĦÎ±Î¹
Î¾Î¬ Î¼ÎµÎ½Î¿ÏĤ
ĠÏĥÏīÏĦÎ·Ïģ Î¯Î±ÏĤ
Ġá¼ĲÎ¼ÏĢÎµÎ¹ÏģÎ¹Îº á¿¶Î½
ĠÎ´Î¹Î±ÏĨÎ¸Îµá½· ÏģÎµÏĦÎ±Î¹
ĠÎ¸ÎµÏī ÏģÎ·
Ġá½ĳÏĥÏĦ á½³ÏģÎ±ÏĤ
Ġá¼ĢÏĨÎµÎ» Îµá¿ĸÎ½
Ġá¼ĢÏģÎ¾á½± Î¼ÎµÎ½Î¿Î¹
ĠÎľÎ±Îº Îµ
Ġá¼ĢÎ½Î±ÏĢÎ½ Îµá¿ĸÎ½
pos ed
ĠÎ´Î¹Î±Î¼á½³Î½ ÎµÎ¹
Ġá¿¥Î· ÏĦÎ¿
Ġrepresent s
ĠÎ´Î¹ÎµÏĥÏĦ ÏģÎ±Î¼
ĠÎµá½ĲÏģÏħÏĩ ÏīÏģá½·Î±Î½
ĠÎ¿á¼°Î´ á½µÎ¼Î±ÏĦÎ±
ĠÎ½ÏīÏĦÎ¹Î± á¿ĸÎ¿Î½
Ġá¼ĢÎ½ÏīÎ´ á½»Î½
Ġá¼ĢÎ»á½¹Î³ ÏīÏĤ
Ġá¼ĲÎ¾Î¹Îº Î½
Î¸Î±ÏħÎ¼Î± ÏĥÏĦá½¸Î½
Ġá¿¥Î¹Î¶ á¿¶Î½
Ġá¼ĪÏĥÏĥÏħ Ïģá½·ÏīÎ½
Ġá¿¬Î¿ÏħÎ² á½´Î½
B b
i er
m s
ÏĦ á½·Î±Î½
ÏĦ ÎµÎ¹Î»
ÏĦ ÏģÎ±ÏĨ
Îµ ÏĦÎ¹
Ïģ Î·ÏĥÎ±Î½
á¿ ¡
ÏĢ á½µ
Î» á½´
Î¼ ÏĢÎ¿Î»Î»
Ïī Î´ÎµÏĥÏĦ
Î· ÏĦÎ±
ĠÎ´ á½±
Î¸ á¿¶ÏĥÎ¹Î½
Î´ ÏģÎµÏĤ
á¿¶ Î´ÎµÏ²
á½» Î¼ÏīÎ½
Ġá¼ĲÎ½ Î¸ÏħÎ¼
ĠÎ´Î¹ ÏĢÎ»á½±ÏĥÎ¹Î¿Î½
á½µ ÏĥÎ±Î½ÏĦÎ±ÏĤ
Ġá¼Ķ Î±
Ġá¼Ķ ÏģÎ¹Î¿Î½
ÎŃ Î²
ĠÎµá¼° Ïĥá½·
ĠÎµá¼° Î¼á½¶
Î¬ Î´
Î¬ ÏĥÎµÏīÏĤ
ĠÏĩ ÏĮÏģ
ĠÎ¿á½Ĳ Ï²
á½½ ÏĥÎµÏĥÎ¹
ĠÎ¸ ÎµÎ¹
ĠÏĦÎµ ÏĥÏĥÎµÏģÎ±
á½¹Î½ Î¹
Î»Îµ Î³Î¼Î±
ÏĪ Î¹
ÏĪ Î·Î¼Î±
ĠÎ² á¿Ĩ
ÏĥÎ± ÏĥÎ¹
ĠÏĢÎ¿ ÏĦá½·
Ġá¼ĢÏĢ á½³Î½Î±Î½ÏĦÎ¹
á½±Î½ ÏĦÎ¹Î¿Î½
ÏģÎµ á¿¦ÏĥÎ±Î¹
Ï² Î±Î½
Î»Î· Î´á½¹
Î»Î· ÏĢÏĦá½³Î¿Î½
ÏĦÎµÏģ ÏĮÎ½
ÏĥÎº ÎµÏĥÎ¸Î±Î¹
Ġá¼ķ Î¾Î¹ÏĤ
á¼Ĳ Î¼Î²
á¼Ĳ Î¾Îµ
Ġá¿¥ Î¿á¿¦
Ġá¿¥ Î¬Î²
Ïİ Î¼Î¿Ïħ
Ġs he
Ġá¼¸ Î±
ĠÎºÎ±ÏĦÎ± Î³Î¼Î±
Ġá¼ħ ÏĢÏĦÎµÏĦÎ±Î¹
Î´Î¹ Î±ÏĤ
ĠÎºÎ±ÏĦ ÎµÎ½
ĠÏĢÎ¿Î¹ Î·Ïĥ
ĠÏĢÎ¿Î¹ Î·ÏĥÎ±Î¹
ĠÏĥÏħÎ½ Î·Î¸
ĠÏĢÎµÏģÎ¹ ÏĥÏĥÎµ
ĠÏĢÎµÏģÎ¹ á½¹Î´Î¿Ïħ
ĠÏĢÎ±ÏģÎ± ÏĥÏĦ
ĠÏĢÎ±ÏģÎ± Î»á½³
ĠÏĢÎ±ÏģÎ± Î²Î¿Î»
ĠÎ¾ á½»Î»
ĠÎ¼Î· ÎºÎŃ
ĠÎºÎµ ÎºÎ¿Î¼
ĠÎ£ ÎµÎ½
it er
Î¬Î½ Î·ÏĤ
ÏĥÎ¼ Î¬ÏĦÏīÎ½
ĠÏĥÏĨ á½±Î»Î»
ÏĨÎ¸ Î·ÏĥÎ±Î½
Î´Î¿ ÏĦÎ¿Î½
Î´Î¿ ÏĥÎ¹ÏĤ
Ġá½ĳÏĢÎ¿ Î»Î±Î¼Î²á½±Î½
Î¼Î¹ Î±Î½
ÏĢÏĦ Î¿ÏħÏĤ
á½³Î¿Î½ ÏĦÎ±Î¹
ĠÎ¼ÎµÏĦÎ± Î²á½±Î»Î»ÎµÎ¹
ĠÎ´ÏħÎ½á½± Î¼ÎµÎ½Î¿Î¹
ĠÎ»á½³Î³ Î¿Î¹ÏĦÎ¿
Î±Ïħ ÏĥÏĦ
Î³Î¼Î± ÏĥÎ¹Î½
á½·Î± Î¼Î±
Ġá¼ĢÎ³ Î¿Ïģ
Ġá¼ł Î¸ÎŃ
ĠÎĵ Î±Î´
ĠÏĩÏħÎ¼ Î¿á½»ÏĤ
at t
Î»Î¸ Î±Î½
ĠÎ¾Î· Ïģá½±
Î¹Î» Î¹Îº
ĠÎ´ÏħÎ½á½±Î¼Îµ ÏĥÎ¹
ĠÏĥÏħÎ¼ÏĢ Î±Î¸
ĠÎ¾Î·Ïģ Î¿á¿ĸÏĤ
Ġá½ĢÎ¾ Îµá½·Î±ÏĤ
ĠÏĢÎ±Ïĩ ÏħÎ½
ÏĥÏĢ Î¬
Ġha st
ĠÎ»ÎµÏĢÏĦ á¿·
Î»Î¿Î³ á½¹Î½
ĠÏĩÏīÏģ á¿¶Î½
ĠÎ²Î¿ ÏĥÎº
ĠÎ³ÎµÎ½á½³ ÏĥÎµÎ¹
Ġá¼ĢÎ» ÏĨá½·
á½»Ïĩ ÏģÎ·
ĠÎ»Î¿Î³ Î¿ÏĤ
ĠÎļÏħ ÏģÎ·Î½Î±
ĠÏĢÎ±Î»Î±Î¹ á¿·
Ġhe a
ĠÏĥÏħÎ½Î± ÏĩÎ¸
á¼ĺ ÏĢÎ¹
ĠÎ¸Î±Ïħ Î¼Î±
Ġá¼ĢÎ¾Î¹ á¿¶Î½
ĠÏĢÏħÎºÎ½ á½¹ÏĦÎµÏģÎ¿Î½
ĠÏĢÏħÎºÎ½ á½¹ÏĦÎ·ÏĦÎ¿ÏĤ
Ġá¼ĲÎ½Î±ÏģÎ³ á¿Ĩ
ĠÎºÎ·Ïģ á½¸ÏĤ
Ġá¼ĲÎ´ Î¯Î´Î±
ĠÎºÎ±ÏģÏĢ á¿·
Ġá¼ĲÏĥÏĩ Î¬
ĠÎºÎ±Î¸Î±Ïģ Î¿á¿¦
ĠÏĢÎµÏĢ ÎŃÏģÎµÏīÏĤ
ĠÎ³ÏħÎ½Î±Î¹ Î¾á½¶Î½
ĠÎ¶Ïī á¿ĩ
ĠÎ´Î¹Î±Î¹ Ïģá½³
ĠÎ²Î¿ÏħÎ» Î¿Î¼á½³Î½á¿³
Ġá¼ĪÎ½ ÏĦÎ¯
ĠÏĢÎŃ ÏģÎ±Î½
Î·Ïĥá½± Î¼ÎµÎ½Î¿Î½
ĠÏĨÎ¿Î² Î¿á¿¦
Ġá¼ĲÎ¾Î± ÏĢá½³
ĠÏĦÎ±ÏĢÎµÎ¹Î½ á½¸ÏĤ
ÏģÎ¹Ïĥ Î¼á½±ÏĦÏīÎ½
ĠÎ¼Î·Î½ Î¹
ĠJ ob
ĠÏĥÏħÎ³Î³ ÏģÎ±ÏĨ
ĠÏĢÎ±ÏģÎ±Îº Î¼á¿ĨÏĤ
ĠÎºÎ±ÏĦÎŃ ÏĥÏĦÎ·ÏĥÎµÎ½
Ġá¼ĶÏĥÏĩ Î¿Î½
ĠÎ»ÎµÏĢÏĦÎ¿Î¼ÎµÏģ á¿Ĩ
ĠÎ¿á½ĲÎºá½³ Î¸
ĠÎ³ÎŃÎ½ Î¿Î¹ÏĦÎ¿
ĠÎ³Î»á½·ÏĥÏĩ ÏģÎ±
ĠÎ£Î±Î»Ïī Î¼ÏīÎ½
Ġverb s
ĠÏĢÎ±ÏģÎµÎ¼Î² Î¿Î»á½´Î½
Ġá¼ĶÎ¼Îµ ÏĦÎ¿Î½
ĠÎ³Î»á¿¶ ÏĥÏĥÎ±Î½
ĠÏĥÏĦÎµ Î³
Ġá¼ĲÏĢÎ¹ÏĨá½³Ïģ ÎµÎ¹Î½
Ġá¼ĲÎ½Î´Îµá½· Î¾ÎµÏĦÎ±Î¹
Ġá¼ĲÏĢÎ±Î¹Î½ Îµá¿ĸÎ½
Î¸ÎŃÎ½ ÏĦÎµÏĤ
Ġá¼ĲÎºÏĨá½» ÏĥÎµÎ¹ÏĤ
Î¿ÏĦá½± ÏĦÎ·
ĠÏĥá½· Î´Î·
Ġá¼ĢÎ³ÏģÏħÏĢÎ½ á½·Î±ÏĤ
ian ic
ĠÏĦÏģá½³ÏĨ ÎµÏĦÎ±Î¹
Ġá¼ĳÏĦÎŃ ÏģÎ±Î½
Î»Î·ÏĨ ÎµÎ½
ĠÎ§Ïģá½»ÏĥÎ¹ÏĢ ÏĢÎ¿Î½
Ġá¼¡Î¼Îµ ÏĦá½³ÏģÎ±Î½
Ġá½ĳÏĢÎ¿Ïĩá½¹Î½Î´ ÏģÎ¹Î±
ĠÏĢÎ¹Î¼ÎµÎ» á¿ĨÏĤ
ĠÎºÎ±Î½ Î¸
Ġá½ģÎ»Îº á½´Î½
Î¿á¼¶ Î´Î±
ĠÏĢÏģÎµÏĥÎ²ÏħÏĦ ÎŃÏģÏīÎ½
Ġá¼ĲÎ´ÏīÎ´ á½´Î½
ĠÎ¼ÎµÏĦÎ±Î»Î» Î¹Îºá¿¶Î½
ĠÎ¼Î±Î½Î¸ á½±Î½ÎµÎ¹Î½
Ġá¼ĢÎ½ÏīÎ´ ÏħÎ½
Ġá¼ĲÏĨÎ·Î¼ á½³ÏģÏīÎ½
ĠÏĢÏģÎ¿ÏĥÎµÎ½ á½³Î³
ĠÏĢÏģÎ¿Î³Îµ Î³Î¿Î½
ĠÏĢÎ»Î±ÏĦá½³ Î¿ÏĤ
Ġant e
Ġá¼°Î½ á½·Î¿Î½
Ġá¼łÎºÎ¿Î» Î¿á½»
Ġá¼ĲÎ¼á½± Î¸Î¿Î¼ÎµÎ½
Ġá¼ĢÎºÏģá½· Î²ÎµÎ¹Î±Î½
Ġá¼ĶÎºÎºÏģÎ¹ ÏĥÎ¹ÏĤ
ĠÎľÎ±ÏģÎ´Î¿ ÏĩÎ±
ÎºÏħÏĥÏĦ á½·Î´Î¿ÏĤ
Ġá½ĢÏĥÏĨá½» Î¿ÏĤ
ĠÎ´Î¹Î·Î½Îµ Îº
á¼ĢÎ½Î±Î³ÎºÎ± á¿ĸÎ¿Î½
reng th
ĠÃ ·
ĠÏĥÎ±ÏĨÎ·Î½Îµ á½·Î±ÏĤ
7 7
Ġ ÏģÏħ
Î± á¼µ
Îµ á½¹Î½ÏĦÏīÎ½
Î» ÏħÏĥÎµÎ½
Ïħ ÏĥÏĦ
ĠÎº Î»Î¬
á½¶ Ï²
Ġá¼Ĳ Ïģá½·
Ġá¼Ĳ Î¼Î¿á½·
Î¸ á½·
Î³ Î¿ÏħÏĥÎ¹Î½
Î¿á¿ ¶
Î´ á¾¶
Ġá¼Ģ ÏģÎ¹ÏĥÏĦÎ¿Î»Î¿Ïĩ
ÏĨ á½½Î½
á½¹ ÏĢÎµÏģ
ĠÏĥ ÏĦÎ¹
á½² Ï²
ÏīÎ½ á½·Î±ÏĤ
á½» Î»Î¿Î½
ÏĥÏĦ Î¿Î»
ÏĥÏĦ á½´ÏĤ
ĠÎ±á½ĲÏĦ á½³
Î¾ Î±Î¹ÏĤ
Ġá¼ĲÎ½ Ïį
ĠÏĢÏģ ÏĮÏĤ
Î² Î»Î±
Î¯ ÏĥÎ±ÏĦÎ¿
ÏĦÎµ ÏħÏĥÎµÎ½
ĠÎ´Î¹ Î·
Ġá¼Ķ Î¸Î±
Ġá¼Ķ Î¸ÎµÎ½ÏĦÎ¿
ÎŃ Ï²
ĠÏĩ ÏīÎ½
ÏģÎ¹ ÏĥÎ±
ĠÎ¸ Î»Î±
ÏĮ ÏĦÏīÎ½
Î»Îµ ÏĤ
Ġá½ħ ÏĥÎ±ÏĤ
ĠÎ² Ïģá½³
ĠÏĦÎ¿ Î»
Ġá¼ĲÎº ÏģÎ¬
Ġá½Ģ ÏĨÏģ
Î® Î¼Î±ÏĦÎ¹
á¾¶ ÏģÎ±Î¹
ĠÏĢÎ¿ Ïĥá½¶Î½
Ġá¼ĢÏĢ ÏħÏģ
Ġá¼ĢÏĢ ÎµÏħ
Î·Ïĥ á½¹Î¼ÎµÎ½Î±
Ġá½ĳÏĢ Î¿Î½Î¿
ĠÏĢÎ± Ïį
Ġá¼ĲÏĢÎ¹ ÎµÎ¹
Ġá¼ĲÏĢÎ¹ ÏĨá½»
Ġá¼ĲÏĢÎ¹ ÏĦÎµÏĦÎ±
ÏĥÎµÎ¹ Îµ
á½·Î½ Î¿Î¹
Ġá¼ķ ÏīÎ¸ÎµÎ½
Î»Î¹ Î³
Î¼Îµ Î¸
á½±Ïģ Î¿Ïħ
in c
ĠÎºÎ±Î¸ Î±Î¯
ÏĥÏĩ Î¹Î»
ĠÎ³Îµ á½½Î´Î¿ÏħÏĤ
ĠÏĢÎ±Ïģ Î¸á½³Î½
ĠÏĢÎ±Ïģ á½³ÏĩÎµÎ¹Î½
Ġá¼ĢÏĢÎ¿ Î»Î»Ïħ
Ġs ea
á¼Ģ ÏĨÏģÎ¿Î½
Î³Î¿Î½ Î¿Î½
Ġá½Ħ Î½Î¿Î¼á½±
ĠÎºÎ±ÏĦ á½³Ïĩ
ĠÏĥÏħÎ½ á½µÎ¸Î·
ĠÏĢÎµÏģÎ¹ ÏīÎ´ÏħÎ½
ĠÏħ Î¹Î¿Î½
ĠÏĢÎ±ÏģÎ± Î½Î¿Î¼
ÏĢÎ» Î±Î½
Î¬Î½ Î¸Î·
ĠÎ³ÎµÎ½ Î¿Î¼á½³Î½Î·Î½
Ġá½ķ ÏĢÏĦÎ¹Î¿Î½
Ġá¾ ¦
Ġá½ĳÏĢÎ¿ Î´Îµ
ÎºÎ¿ Î»Î»
ĠÎºÎ±Î» á½»
á¿¦Î½ Î¿Î½
Î¯Î½ á¿³
ĠÏĦÏģ Î¯Î±
á½¹ÏĦÎ· ÏĦÎµÏĤ
á½±ÏģÏĩ ÎµÎ¹
ĠÏĢÎ¿Î» ÎµÎ¹ÏĤ
á½µÎ» Î¸Î¿Î¼ÎµÎ½
ĠÎĵ Î±Î¹
ĠÎºÏģ Îµá¿ĸ
Îºá½¹ ÏĥÎ¹
Ġl atter
ĠÎ¼ÎŃ Î»Î»
ĠH osts
Ġá¼ĲÎ¼ ÏĪá½»
ĠAQ áµĥ
ĠÏĥÏĩ Î¹Î¶
ĠÏĥÎºÎ»Î· Ïģá½¹Î½
ĠÎ¿Ïħ Î´ÎµÎ½
ĠÏĦÏģÎ¿ÏĨ á¿¶Î½
ĠÎµá¼°ÏĢ á½¹Î½ÏĦÎµÏĤ
ĠÏĢÎ±Î¹ Ïĥá½¶Î½
Ġá¼°Î±ÏĦÏģ á¿·
ĠÎ¦ á½·
ÏĩÎµÎ¹ ÏģÎ¿Î½
Ġh il
Ġá¼ĲÎ»Î± ÏĦÏĦ
ĠÎ²Î¹Î² Î»Î¯Î¿Ïħ
ĠÎºÎ¿Î¹Î» á½¹ÏĦÎ·ÏĦÎ¿ÏĤ
ĠÎºÎ¿Î¹Î» á½¹ÏĦÎ·ÏĤ
ĠÎ´á½· ÎµÎ¹Î¼Î¹
ĠÏĢÎ»á½³Î¿Î½ Î¿ÏĤ
ĠÎ±Î½ Î¿Î¹
ĠÎľÏī Î¬Î²
ĠÎ´ÎµÏħÏĦ ÎŃÏģ
ĠÏĥá½»Î¼ÏĢ Î±ÏĥÎ±
ÏĢá½¹ Î»ÎµÏīÏĤ
ent ion
ĠÎĺ á½³ÏīÎ½
Î¬Î¶ Î±Ïģ
Î¬Î¶ Î¿Î½ÏĦÎµÏĤ
Îķ Î©Î£
ÏĦÎµÎ¹ Î±Î½
ÏĦá½¹ ÏĦÎµ
Ġá¼ĲÏĢÎµ ÏĥÎºá½³
ow th
ĠÎ´Î·Î» á½½ÏĥÎµÎ¹
Ġá¼ĲÎ¼Î² á½±
Ġwh om
ĠÏĨÎ¹Î» Î¿ÏĢ
ĠÏĥÏĦÎ¿ Î¼á½±ÏĦÏīÎ½
ĠÏĢÏģÎ¿ÎµÎ¹ÏģÎ· Î¼á½³Î½á¿³
ÏĢÏĦÎ¿Î½ ÏĦÎ±ÏĤ
ĠÎ¼á½· ÏĥÏħÎ¿ÏĤ
Ġá¼ĢÏĢÎ¿ÏĥÏĦ Ïģá½³
ĠÏĢÎ¹Îº Ïģ
ĠÎ²Î¿ÏħÎ» á½¹Î¼ÎµÎ½Î¿Î¹
ĠÎ²ÏģÎ±Î´ á½»
ĠÎ²ÏģÎ±Î´ Îµá¿ĸÏĤ
Î¼á½· Î³Î½ÏħÏĦÎ±Î¹
Ġá¼ĢÎ»Î»Î¿Î¹ á½½ÏĥÎµÎ¹ÏĤ
Ġá¼ģÎ³ Î¹Î±
Ġá¼ĦÎº ÏģÎ¿Ïħ
ĠÏĨÎ»ÎµÎ²Î¿ÏĦÎ¿Î¼ á½·á¾³
ĠÎ¸ÏħÎ³Î± ÏĦÎŃÏģÎµÏĤ
ĠÏĥÎ¹ÏĦá½· Î¿Î¹ÏĤ
Ġá¼ĲÏģÎ³Î±Î¶ Î¿Î¼á½³Î½Î·
ĠÏħÎ¹ Î¿ÏħÏĤ
ĠÏĦá½¹Î½ Î¿Ïħ
Ġá¼ĢÏģÎ¹ÏĥÏĦÎµÏģ á½°Î½
Î²Î¿ Î»Î±á½¶
ĠÎ¼ÎŃÎ½ ÎµÎ¹
Ġcl ear
ĠÎ´Î¹ÎµÎ¾ ÎµÏģÏĩ
á½·Î½ÏīÎ½ ÏĦÎ±Î¹
Î»Î¹Î² Î±Î½Ïī
ĠX L
Ġá¼ĲÎ¸Îµ Î»á½µ
ĠÏĪá½»Ïĩ Î¿Î½ÏĦÎ±
ĠÎ±á¼±Î¼Î¿á¿¤á¿¥Î±Î³ á½·Î±Î½
Ġá¼ĢÎ½Î¿Î¼ Î¿Î¹
á½³ÏĥÎ¸Ïī ÏĥÎ±Î½
Ġá¼ĢÏĢÎ¿Î¸Î±Î½ Îµá¿ĸÏĦÎ±Î¹
ĠÎ¼ÎµÎ»Î±Î³ÏĩÎ¿Î» Î¹Îº
Ġá¿¥ÏħÏĢ ÏĦÎ¹Îºá½¸Î½
ĠÎ´Î±ÎºÎ½ á½½Î´Î·
ÏĥÎ¼ÎŃÎ½ Î¿Î¹
ÏĥÏĦÎµÎ¹ Î»Î±
Ġá¼ĢÏĢÎ¿ÏĨÎ± á½·Î½ÎµÏĥÎ¸Î±Î¹
ĠÏĢÎ»ÎµÎ¹ ÏĥÏĦ
ĠÏĢÏģÏİ ÏĦÎ·Î½
ant s
Ġá¼ĶÎ½Îµ ÏĥÏĦá½·
Ġá¼ĢÎ¸ÏģÎ¿ á½·
ĠÏĢÎ·Î³ á½±Î½Î¿Ïħ
Ġá¼ķÏĦÎµÏģÎ± Î¹
ÏĥÎºá½³ ÏĪÎ±ÏĥÎ¸Î±Î¹
ÎºÎ¹Î½ Î½Î±
Î²á½±Î»Î»Î¿Î½ ÏĦÎ±
ĠÎ´ÏħÏĥÎµÎ½ÏĦÎµÏģ á½·Î±ÏĤ
Ġá¼ĲÏĢÎ¿ÏģÎµá½» Î¸Î·ÏĥÎ±Î½
ĠÎ¼Î·ÏĦÏģ á½¶
ĠÎºÎ¹Î²Ïī ÏĦÎ¿á¿¦
ĠÎ´ÏģÎ¹Î¼á½³ Î¿ÏĤ
Ġá¿¥á¾· ÏĥÏĦÎ¿Î½
ĠÏĢá½¹Î»Îµ ÏīÎ½
Ġá½ĦÎ³Îº á¿³
á½ĳÏĢÎ¿ ÎºÎµá½·ÏĥÎ¸Ïī
ĠÎ¸Ïį ÏģÎ±ÏĤ
ĠÎłÎ¿ ÏĥÎµÎ¹
Ġá¼Ĩ Ïģá½±
á¼ĢÎº ÏģÎ¹Î²
ĠÏĥÏħÎ¼ÏĢá½· ÏĢÏĦÎµÎ¹Î½
ĠÎ¶á½µ ÏĦÎ·ÏĥÎ¹Î½
Ġá¼ĲÎ³Î½ Ïİ
ĠÎºÎ±ÏĦá½±Î³ Î¼Î±ÏĦÎ¿ÏĤ
ĠÎ´Î¹Î±Î¹ÏĦ á¾·Î½
ĠÏĩÎ±Î»Î² á½±Î½Î·Î½
Ġá¼´Î´ á¿ĥÏĤ
Ġá¼ĿÎ»Î» Î·ÏĥÎ¹Î½
ĠÎ½Ïį ÎºÏĦÎ±
Ġá¼ĳÏĦÎ¿Î¹Î¼ á½¹ÏĦÎµÏģÎ¿Î½
ĠÎĵÎµ Î´Îµ
Ġá¼ĢÎ½á½¹ Î¼Î¿Î¹
ĠÏĥÎ¼á½»Ïģ Î½Î±Î½
Ġá½ĢÎ¸á½¹Î½ Î¹Î¿Î½
ÏĦÎ¹Î±Î½ á¿ĨÏĤ
Î´Î¹Î¬ ÏĪÎ±Î»Î¼Î±
ĠÏĥÏĢá½±Î½ Î¹Î¿Î½
ĠÎ²á½³Î»ÏĦÎ¹ á½¹Î½
ĠÏĢÏģÎ¿ÏĥÎ¸á½µ ÎºÎ·ÏĤ
ĠÎ¼ÎµÎ»Î¯ ÎºÏģÎ±ÏĦÎ¿Î½
ĠÏĥÏĦá¿¦ ÏĨÎ¿Î½
ĠÏ²ÏĢ ÎŃÏģÎ¼Î±
ĠÎĳá¼°Î¸Î¹ Î¿ÏĢ
ĠÏĩÎ±Î»Îµ ÏĢÏī
ĠÎ¥á¼± á½²
ĠÎ½á½± ÏĢÏħ
Ġá¿¥á¾³Î´ Î¯ÏīÏĤ
Ġá¼ĢÎ»Î»á½¹ÏĨ ÏħÎ»Î¿Î¹
ĠÏĢÏģÎ¿Î¸Îµ ÏĥÎ¼
r ing
Ġ iv
ÏĦ á½´Ïģ
Î¿ Î»Î±á¿ĸÏĤ
á¼ ¬
Ïģ Î¿ÏħÏĥÎ¹
Ïĥ ÎºÎ±
Ïĥ ÎºÎ±Î»
ĠÏĦ ÏģÎ±ÏĨ
ÏĢ Î»Îµ
ÏĢ Î»ÎµÎº
Î¼ Îµá½·
ĠÎº á¿¶Î¼Î±
ĠÎº Î»á½»
ĠÎºÎ± ÏģÎ·
Ïī ÏĦÎ¬
Ġá¼Ĳ Î¿á½·
ĠÏĢ á¿¶
á½³ Î¿ÏħÏĥÎ¹
á½³ Î»Î»Î¿Î½ÏĦÎ±Î¹
á½¸ Î¾
Ïĩ á½¹Î¼ÎµÎ½Î¿Î½
Î´ ÏģÎ±ÏĤ
Î´ Î¿Î½ÏĦÎ±Î¹
ÏĨ Î·ÏĥÎ±Î½
ĠÎµ ÏĥÏī
á½» Î¸Î¹Î¿Î½
ÎµÏģ Î³Îµ
ĠÎ±á½ĲÏĦ Î¿ÏĨÏħ
âĢĻ Îĩ
Î¯ Î·ÏĤ
Ġá¼ĲÏĢ ÎµÎ¾
á½³Î½ ÎµÏĤ
ÎŃ Î¿ÏĤ
ĠÎ» Î·Î½
Ġá¼Ħ ÏģÎ±ÏĤ
ÏĪ Î¿Î¼ÎµÎ½
Ġá¼ĲÎº Î¸ÎµÏģÎ¼Î±
Î¶ á¿ĥ
Î¶ ÎµÏĦÎµ
ĠÏĢÏģÎ¿ ÏĢÎ±ÏģÎ±
á¿¦ ÏģÎ¿ÏĤ
ÏĥÎ± ÏĦÎŃ
Î® Î»Î¿Ïħ
ĠÏĦÎ± Î´Îµ
ĠÏĦÎ± ÏħÏģ
ĠÏĢÎ¿ Î¼á½±ÏĦÏīÎ½
ĠÎ±á¼ ³
Ġá¼ĢÏĢ ÎµÎ¹Î»
Î´Îµ á½»
Ġá¼ĢÎ½ Î±Î½
ĠÏĢÎ± Î¯Î´ÏīÎ½
Ġá¼ĲÏĢÎ¹ ÏĦÎ¿
ĠÎĳ Ïĩ
Î»Î· ÏĨÎµ
ÏĦÎµÏģ ÏīÎ½
ĠÎºÎ±Î¸ ÎµÏĥÏĦ
ÏĥÏĩ Î¹ÏĥÏĦá¿ĨÏĤ
ĠÏĢÎ±Ïģ Î¸ÎŃÎ½
Ïİ ÏĥÎ¿ÏħÏĥÎ¹Î½
Ġá¼ĢÏĢÎ¿ ÏĢÎ±
ĠÎµá¼´ Î´Îµ
Ïģá½± ÏĨÎ·
ĠÎºÎ±ÏĦÎ± ÏĪá½»Ïĩ
ÏĢÎ± ÏĥÎ¹Î½
ĠÎºÎ±ÏĦ Î¬Î»
ĠÏĢÏģÎ¿Ïĥ Î´á½³ÏĩÎµÏĥÎ¸Î±Î¹
ĠÏĢÎµÏģÎ¹ ÏĨá½³Ïģ
Î³Î½ á½½
ÏĦá½· Î½Î±
á½±Î» Î¿Î¹ÏĤ
Î¸Î± á½¶
ĠÎ£ Î±ÏĨ
ĠÏĢÎµ ÏĦÏģÎ¿
Î¼Î½ Î·Î¼Î±
Ġá¼ĢÏģÏĩ Î¿Î¼á½³Î½ÏīÎ½
ĠÎ»Î± á¿¶Î½
ĠÎºÎ¿ Îº
ĠÎĶ á¾·
ĠÏĢá½¹ Î´ÎµÏĤ
ĠÎł ÏģÎ¿
ĠÎł ÏħÎ¸
á½µÎ» Î¿Ïħ
ÏĦÎ¿á¿¦ Î¼ÎµÎ½
ĠÏĥÏħÎ½Îµ ÏĦÎµ
ĠÎ½Î¿Ïĥ Î¿á¿¦Î½ÏĦÎ±ÏĤ
ĠÏĢÎ¬Î½ ÏĦÎ¿
Ġá¼ł ÎºÎ¿Ïį
Î¼Î¹Î½ Î±
ÏĩÎ¸ á½³Î½ÏĦÎ¿ÏĤ
ĠÎ´Î¹Î±ÏĨÎ¿ Ïģá½±
Ġl ast
Ġl ater
Î»Î¸ á¿ĥÏĤ
ĠÎ´Î¹á½± á¿¤á¿¥
Î´Ïī ÎºÎ±Î½
ÏĢá½· ÏĥÏĥÎ·ÏĤ
ĠÎ´Î¿ Îºá½³
ĠÏĢá½³ ÏĦÏĦÎµÎ¹Î½
ĠÎ¿á¼°Îº Îµá½·
ĠÎµÎ¹ ÏĢÎ±Î½
ĠÎµÎ¹ Î´ÎµÎ½
Ġá½ĢÏĨÎ¸Î±Î» Î¼Î¿ÏįÏĤ
ĠÏĢÎ±Ïĩ Îµá¿ĸ
ÎŁ á½ķÏĦÏīÏĤ
ĠÎ±á¼µ ÏģÎµÏĥÎ¹Î½
Ġá¼±ÎºÎ±Î½ á½´
ĠC heyne
ĠT y
ĠÏĨÎ»ÎµÎ³Î¼Î¿Î½ á½µ
ĠÎ´ÏħÏĥ ÏĢÎ±Î¸
ÎºÎ±Î» Ïħ
Ġá¼ĢÎ¼ÏĨ Î¹
ĠÏĢÎ±Î»Î±Î¹ á½°
ĠÎŁ á½Ĺ
Ġá¼ĲÎ¾Îµ Î»ÎµÏįÏĥÎµÏĦÎ±Î¹
Ġg ives
á¼ĢÎ½ á½±Î³
ÏĩÎµ ÏĦÎµ
Î¸ÏħÎ¼ Î¿ÏĤ
ĠÎ´Î¹Î±ÏĥÏĦ á½µÎ¼Î±ÏĦÎ¿ÏĤ
Î¯Î¶ Ïī
Ġá¼ĲÎ¼ÏĨ ÏħÏĥ
ĠÏĨÎ¸ á½±
Ġá¼ĲÏĢÎ¹Îº Ïģá½±
Ġá¼ĢÎ½Îµ Î²
Ġá¼¸Ïī á½°ÏĤ
ĠÎ´Î¹Îµ á½¶ÏĤ
ĠÏĢÎ»Î± ÏĦá½»
ĠÎºÏī Î»Ïħ
ĠÏĦÎ±á½Ĳ ÏĦÎ¿á¿¦
ĠÎ´ÏģÎ¹Î¼ á½»ÏĦÎ·ÏĦÎ±
ĠÏĢÏģÎ¿ÏĨ á¿ĨÏĦÎ±Î¹
ĠÏĥÎ·Î¼Î± á½·Î½ÎµÎ¹Î½
Ġá¼¡Î³ Î·ÏĦá½³Î¿Î½
Ġá½ĳÏĪÎ·Î» Î¿á¿¦
ĠÎ²ÏģÎ±Î´ á½»ÏĦÎ·ÏĦÎ±
Î¼á½· ÏĥÏħÎ¿ÏĤ
Ġex act
ĠÎ´ÏįÎ½Î± ÏĥÎ¸Î±Î¹
Ġá¼ĲÎ¾Î± ÏĢ
Ġá½ĦÎ³ Î´Î¿
Ġx iii
á¼ĦÎ»Î» Î¿Î¹
ĠÎºÎ±Î»Î¿Ïħ Î¼á½³Î½Î¿Ïħ
ÏģÎ¿á½» Î¼ÎµÎ½Î¿ÏĤ
Ġá¼¸Î¿ÏħÎ´Î± Î¯Î¿Î¹ÏĤ
ĠThe re
.) .
Ġá½ĳÎ´ Î¬ÏĦÏīÎ½
Ġá¼ĢÎºÎ¿Î»Î¿Ïħ Î¸Îµá¿ĸÎ½
ĠÎ´Î¹Î±ÏĨ á½¹
ĠÎ±á½ĳ ÏĦá¿·
ĠÎ¾Î·ÏģÎ±Î½ ÏĦÎ¹Îºá¿ĨÏĤ
ĠÎ´Î± ÏĢÎ±Î½
ÏĢÎ±ÏģÎ± ÏĢÎ»
ĠÎ´Î¹Î±ÏĨÎ¿ÏģÎ· ÏĦÎ¹Îºá½¸Î½
Ïģá½¹ÏĦÎ± ÏĦÎ¿ÏĤ
ĠÎ£Îµ Î¼Îµ
Ġá¿¥ÏħÏĢ ÏĦÎ¹Îºá¿ĨÏĤ
ĠÏĥÏħÎ¼Î¼ÎµÏĦÏģá½· á¾³
ĠÎºÎ¿Î¹Î»á½· Î±Î¹
ĠÏĢÏį ÏģÎ³
ĠÎ»Î¿ÏħÏĦÏģ á¿¶Î½
ĠÏĨÏħÏĦ Î¿á¿ĸÏĤ
Ġá¼ĲÎ¼Î½Î·Î¼ ÏĮ
Ġï¬ģ n
Ġá¼ĦÏĢÎ¿ ÏģÎ¿Î½
á¼ģ Î»á½¸ÏĤ
ĠÎ´Î·Î¼Î¹Î¿ÏħÏģÎ³ Î¿á¿¦
ĠÏĥÏĦÎµÏģÎµ á½°
Ġá¿¥á½½ Î¼Î·ÏĤ
ĠÏĥÎºÎµ ÏĢÎ±
ĠÏĥÎºÎµ ÏĢÏĦá½³Î¿Î½
ĠÎ¼ÏħÏģ Ïĥá½·Î½
Ġá¼ĳÏī ÏħÏĦ
ĠÎĵÎ±Î»Î± Î±Î´
Ġá½ĦÎ³Îº Î¿Î¹ÏĤ
ĠÎķá½Ĳ Î»Î¿Î³
Ġá¼ĢÎ½ÏĦÎ± ÏĢÎ¿
Ġá¼´Î´Î¹ á½¹Î½
ÏįÏĦÎ· ÏĦÎ±
ĠÏĢÏĦá½³Ïģ Î½Î±Î½
ĠÏĢÎ±ÏģÎ±Î»Îµ Î»Îµá¿ĸ
ĠÏĢÎ¿ÏģÎµÏħÎ¸ á¿ĨÎ½Î±Î¹
ĠÏĦÏģÎ¿ÏĢ á½´Î½
ĠÎºÎ»ÎµÎ¹ Î´á½¸ÏĤ
ĠÎ¸á½µ Î»ÎµÎ¿ÏĤ
ĠÏĢÎ»Î·ÏĥÎ¹á½±Î¶ Î¿Î½ÏĦÎ±
Ġpassa ges
Ġá¼ĢÏģÏĩÎ± á½·Î±Î½
ef t
ĠÎ´á½»Î½Î±Î¹ ÏĦ
Ġá¼ĢÏĢÎµÏģÎ³ á½±Î¶ÎµÏĦÎ±Î¹
ĠÎºÎ±Î¸Î±Î¹Ïģ á½¹Î½ÏĦÏīÎ½
Ġá¼ĢÏĢá½¹Î»Î»Ïħ ÏĦÎ±Î¹
á¼°ÏĥÏĩ ÏħÏģ
ĠÎ²Î»ÎµÏĨ á½±ÏģÏīÎ½
Ġmis read
Ġá½ĢÎ¼ÏĨÎ±Î» á½¸Î½
Ġá¼ĢÎ³Î±Î³ Îµá¿ĸÎ½
Ġá¼ĲÏĢÎ¹Î³ÏģÎ±ÏĨ á½¹Î¼ÎµÎ½Î¿Î½
Ġá½ģÎ¼ÏīÎ½ ÏħÎ¼
Ġá¼ĲÎ½Î±á½· Î¼ÏīÎ½
Ġgiv en
Ġá¼ĢÎ¼Î¼ÏīÎ½Î¹ Î±Îºá½¸Î½
Ġá¼ĢÏĪÎ¹Î½ Î¸á½·Î¿Ïħ
Ġfre qu
Ġá¼ĲÎ³ÎµÎ³ á½¹Î½ÎµÎ¹
ĠÏĥÏħÎ³Î³ÏģÎ±Î¼ Î¼á½±ÏĦÏīÎ½
á¼ĢÏĨÏģÎ¿Î½ á½·ÏĦÏģÎ¿Ïħ
ĠÎĶá¾· Î´
3 2
b le
i ent
i el
ÏĦ á½·Î±ÏĤ
ÏĦ ÏħÎ»Î¿Î¹
Îµ Î¿ÏĤ
Îµ ÏĦÎ¿á¿¦ÏĤ
ĠÏĦ Î¬Î»
Ïħ ÏĢÎ¿
ĠÎº ÏħÎ¼
Ïī Î¼á½³Î½Î±
Ġá¼Ĳ ÏģÎ±
Î¸ ÏħÎ¼Î±
á½· á¿ĥ
Î³ Î¹Î±
Ïĩ Î±Î½Î¿Î½
á½± Î´Î±
Ġá¼Ģ ÏģÎ¹ÏĥÏĦÎ¿Î»Î¿Ïĩá½·Î±ÏĤ
ÏĨ Î¬Î»
ÏĨ á½·Î´Î¿ÏĤ
Î¹Î½ á½¹Î¼ÎµÎ½Î±
ĠÎ¿ ÏĥÎ±
ĠÎµ ÏĦÎ±
ĠÎµ ÏĦÎ·
ĠÎµ ÏħÎ¸
ĠÎµ ÏĥÏĩÎ±
ĠÏĥ ÏĦÎ¿Î¼
ĠÏĥ ÏĢÎµÎ¯
á½» ÎºÎ¿Ïħ
Î¿Î¹ Î±Î¹
Ġá¼ĲÎ½ á½±Î½ÏĦÎ¹Î¿Î½
ĠÎ´Î¹ ÎµÏģ
Ġá¼Ķ Î¸Î¿ÏħÏĤ
ÎŃ ÎµÏĥÎ¸Î±Î¹
ÏĥÎ¸ á¿¶Î¼ÎµÎ½
ĠÏĨ Ïģá½±
ĠÎ» Îµá½·Î±Î½
ĠÎµá¼° Î´ÎŃ
Î¬ ÏģÎ¹Î¿Î½
ĠÏĩ Î®
ĠÎ¿á½Ĳ ÏģÎ±
Ġá½ĳ Î¼á½³Î½Î¿ÏĤ
á½½ Î¸
ĠÎ¸ Îµá½·Î¿Ïħ
ĠÏĦÎµ ÏĦÏģÎ¹Î¼
ÏĮ ÏĦÎµÏģÎ¿Î¹
Î»Îµ Î¸Ïģ
Ġá½ħ ÏĢÎ»
Ġá¼ĲÎº ÎµÎ¯
Ġá¼ĲÎº ÏĩÎµ
Ġá¼ĲÎº ÎºÎ±Î¸
Ġá¼ĲÎº ÏĢÎµÏĥ
Ġá¼ĲÎº ÏĦÏģÎ¿ÏĢ
Î¶ ÎµÏģ
Î¶ ÏĮÎ¼ÎµÎ½Î¿ÏĤ
ĠÏĥÏħ ÏģÎ¹
ĠÏĢÏģÎ¿ ÏĥÏĦÎ±
ĠÏĢÏģÎ¿ Î²Î±
Î® ÏģÎ¹Î±
Î·Ïĥ ÏĮÎ¼ÎµÎ¸Î±
ĠÎ´Î¹Î± ÏĢÎ½Î¿
ÏģÎµ ÏĪ
Ï² Î¼Î¬ÏĦÏīÎ½
ÏģÎ· ÏĥÎµ
Ġá¼ĢÎ½Î± Îº
Ġá¼ĢÎ½Î± ÏĢÎµ
ĠÎ³Îµ á¿¶Î´ÎµÏĤ
Ïİ Î¼ÎµÎ½Î¿Î¹
ĠÎµá¼´ ÏĢÎ±ÏĦÎµ
ÏĢÎµ Ïį
ĠÏĪ Ïī
ĠÎºÎ±ÏĦÎ± ÏĩÏģ
ÏĢÎ± á¿ĸÏĤ
ÏĦÏģ Î¬
Ġá½Ħ ÏĦÎ¹
Ġá¼¤ Î½ÎµÎ³ÎºÎ±Î½
ĠÏĥÏħÎ½ Î·Î³
Î³Î½ ÏħÎ½ÏĦÎ±Î¹
ĠÏħ ÏĢ
ĠÏĢÎ±ÏģÎ± ÏĢÎ»Î·
ĠÏĥÏĦ Î®
ÏĥÏī ÏĥÎ¹
ĠÎºÎµ ÏĩÏģá¿ĨÏĥÎ¸Î±Î¹
ĠÎ£ á½±
ĠÎ£ Î±Î»Î±
Î¬Î½ Î·Î½
Î¬Î½ ÏĦÎµÏĤ
Ġá½ĳÎ³ ÏģÎ¿ÏĦá½³ÏģÎ±
ÎµÎ» Îµá¿ĸ
ÏĥÎ¼ ÏĮÎ½
Ġc od
Ġw ar
Ġin d
ĠÎ»Î± Î³Ïī
Ġá¼± ÎµÏģÎ±
ĠÎºÎ¿ Î»Î±
ĠÏĢÏģá½¹ ÏĥÎºÎµÎ¹ÏĦÎ±Î¹
Ġm ain
Ġá½ħÎ» Î±ÏĤ
ĠÎ¼ÎµÏĦÎ± Î²Î±
Ġá½§ Î´á½³
Î±á½· ÏĦÎµÏģÎ¿Î½
ĠÎ¿á¼¶ Îº
Ġá½ĳÏĢá½±ÏģÏĩ Î¿ÏħÏĥÎ¹
ÏĦÎŃ Ïģá¿³
Î¿Î¼ÎµÎ½ Î¿Î¹
ĠÎµá¼°ÏģÎ· Î¼á½³Î½Î¿Ïħ
ĠÎ²ÏģÎ±Ïĩ á½³Î±
Î¯Î± ÏĥÎµÎ½
Î¿á½· Î·
ÏĥÏĦÎµÏģ Î¿Î¹
ÏĥÏĦÎµÏģ Î¿ÏĤ
Îºá½¹ ÏĦÎ¹
ĠÎ»ÎŃ Î¾Î¹Î½
ÏĦÏĦÎ¿Î½ ÏĦÎ±Î¹
ÏĦá½µ ÏģÎ¹Î±
ĠÎ¼Ïħ á½¹ÏĤ
Î¾ÎµÎ¹ ÎµÎ½
ĠÎ´Î¿ ÏĦá½³Î¿Î½
ĠÏĢá½³ ÏĪÎ¹ÏĤ
Î¤ á¿ĩ
ĠÎ¹ Î´ÎµÎ½
ĠÏĥÎºÎ»Î· ÏģÏħÎ½
Ġá¼ĢÎ³Î± ÏĢÎ·
Ġha b
ĠÏĢÏĮ ÏĦÎµ
á½±Î»Î» ÎµÎ¹Î½
ĠÎ¦ Î¿Î¹Î½
ĠD e
ĠÎĿ á¿¶Îµ
ÎºÎ±Î» á½»
ĠÎļÏħ Ïģá½·á¿³
al so
ĠÎºá½¹ ÏĥÎ¼Î¿Î½
ĠÏĢÎ»Îµá½· Î¿ÏĥÎ¹
th y
Ġhe ar
Î»Î±Î¼Î² á½±Î½ÎµÏĥÎ¸Î±Î¹
ÏĦÎ¿á½» ÏĦÎ¿ÏħÏĤ
ĠÎ±á¼°ÏĥÎ¸ á½µÏĥÎµÎ¹ÏĤ
ÏĪÎ± Î¼ÎµÎ½
ĠÏĥÎ¿ÏĨ Î¹ÏĥÏĦÎ±
Ġá¼ĢÎ½á½±Î³ ÎºÎ·Î½
ĠÎ´Î·Î» Ïī
ĠÏĢÎ¬ ÏĥÏĩ
Ġá¼ĢÏĥÎ¸ÎµÎ½ á½²ÏĤ
ÏĢÏĦÎ¿Ïħ ÏĥÎ±
Ġá¼ĢÏĢÎ¿Îº ÏĦÎµ
Ġá¼ĢÎ¼ÏĨÎ¿ ÏĦá½³ÏģÎ±Î¹ÏĤ
ĠÎ´ÎµÎ¾Î¹ Î¿á¿ĸÏĤ
ĠÎ´Î¹Î±Î» ÎµÎ¹
Ġá¼ĲÎ³Î³ ÏħÏĦá½³ÏģÏī
ĠÎ²Î¿ÏħÎ» á½´
ĠÎ²Î¿ÏħÎ» á½¹Î¼ÎµÎ¸Î±
Î¹Ïĥ Î¼Î¿á½ºÏĤ
ĠÏĢÏģÏī ÏĦá½¹ÏĦÎ¿
ĠÏĢá½±ÏĥÏĩ Î¿Î½
Î¡ ÎĳÎ¤
ĠÎºÏģÎ¯ ÏĥÎµÏīÏĤ
Î¿á½º Ïģ
ÏĢÎµÏĢ Î»ÎµÎ³
ĠÎ¸ÏħÎ³Î± ÏĦá½³ÏģÎ±ÏĤ
Ġá¼ĲÏĥÏĩá½± ÏĦÏīÎ½
ÎĲ Î½Î·ÏĤ
Ġá½ĳÎ³Î¹Î± á½·Î½Î¿ÏħÏĥÎ¹Î½
Î±Î¶ Î±Ïģ
Ġá¼ĢÎ½Î±ÏĥÏĦ á½°ÏĤ
Ġá¼ĢÎºÎ¿Î»Î¿Ïħ Î¸Îµá¿ĸ
Ġá¼¤ÎºÎ¿Ïħ ÏĥÎ±ÏĤ
ĠÏĥÏħÎ¼ÏĢÏĦá½½ Î¼Î±ÏĥÎ¹Î½
Ġá¼°Î´á½³ Î±
ĠÎ´á½µÏĢÎ¿Ïħ Î¸ÎµÎ½
ĠÎ´Î¹ÏĦÏĦ á½´
ĠÏĢÎµÏģÎ¹ÎµÏĩ Î¿Î¼á½³Î½ÏīÎ½
Ġá¿¥Î·ÏĦ á½³Î¿Î½
ĠÎ¸ÏħÏĥ á½·Î±ÏĤ
Ġá¼ĢÏĥÏĨÎ±Î» á½²ÏĤ
ĠÎ±á½ĲÏĩ Î¼Î·Ïģ
ĠK ay
ĠÎ»Î¯ Î¸Î¿Î½
ac ob
ĠÎ¼á½³Î»Î»Î¿Î½ ÏĦÎ¿ÏĤ
á½¹Î½Î´ ÏħÎ»Î¿Î¹
ĠÏĢÎ±Î¼ÏĢá½¹ Î»Î»ÏīÎ½
Ġvi ew
ĠÎºÎ±Î¼ÏĢ á½´Î½
ĠÏĩÏī ÏģÎ¹
ĠÏĢÏĦÎµÏģ ÏħÎ³
Ġá¼ĲÏĢÎ¿ÏģÎµÏį Î¸Î·ÏĥÎ±Î½
Ġá¼ĦÎ³Î³ÎµÎ» Î¿Î¹
ĠÎ¼ÎµÎ»Î¹Îº Ïģá½±ÏĦá¿³
Ġá¼¤Î½ Î¿Î¹
Î¼ÎµÎ³ Î±Î»
ĠÏĢÏģÎ¿Ïĥá½³Ïĩ ÏīÎ½
Î¿á¼´ Î½á¿³
Ġá¼ĲÎ¼Î±ÏħÏĦ á½¸Î½
Ġá¼ĲÎ»Î»Î¹ ÏĢá¿¶ÏĤ
Ġá¿¥ÎµÏħ Î¼Î±ÏĦÎ¹
ĠÎ²Î¹ Î±Î¹
ÏīÎ´á½³ ÏĥÏĦÎµÏģÎ¿Î½
ĠÏĦÏģÎ±á½» Î¼Î±ÏĦÎ¿ÏĤ
Ġá¼ĢÏĢÎµÎº Ïģá½·Î¸Î·
Ġá¼ĢÏĢÎ¿Î½ ÎµÏħÏģ
Ġá½ĢÎ¾ÏħÎ¼ ÎŃ
ĠÏĩÎ»Î¹Î±Ïģ á½¸Î½
Ġá¿¥á¾´ Î´Î¹Î¿Î½
ĠÏĨÎµá½» Î³ÎµÎ¹Î½
Ġá¼ĲÎ½Î´ÎµÎ¹ÎºÎ½á½» Î¼ÎµÎ½Î¿ÏĤ
ĠÎ´Î±Î¹ Î¼Î¿Î½
Ġexpl an
ĠÏĦÎ¿ÏĥÎ± á¿¦ÏĦÎ±
ĠÎºÏģÎ±Î½ á½·Î¿Ïħ
ĠÏĥÏĦÏģÎ¿Î³Î³á½»Î» Î·ÏĤ
ĠÏĢÏģÎ¿ÎµÎ¹ÏĢ á½¼Î½
ĠÎ¼ÎµÎ¹Î¶ á½¹Î½ÏīÎ½
Ġá¼ĪÏĩÎ± á½°Î²
ĠÏĢÏģÎµÏĥÎ²Ïį ÏĦÎµÏģÎ¿Î¹
ĠAssyrian s
Ġbegin ning
Ġá½ĢÏģÎŃ ÏīÎ½
ĠJud ah
Î¿ÏĥÏĮ Î»ÏħÎ¼Î±
á¼ĢÎ½á½±Î³ ÎºÎ·
* ]
c or
p ec
u nd
ĠÎ ¨
Ïĥ ÏĥÎ¹
Ïĥ Î¯ÏīÎ½
ÏĢ Î¿á¿¦
Ïħ Î»á½±
Ġá¼Ĳ Î¼Î½Î®
Î¸ á¿Ĩ
Î¸ Î¹Î½Î¿Î½
Î³ á½°Ïģ
Î³ Î·Î½
Î´ ÏģÎ±Ïĩ
Ġá¼Ģ á½µ
ÏĨ Î·Ïĥ
ÏĨ ÎµÏĦÎ±Î¹
ĠÎ± Îº
Î¹Î½ á½¹Î¼ÎµÎ½Î¿Î½
ĠÎµ Î»Î±
ÏīÎ½ Î½
ÏĥÏĦ á¿ĥ
ÎµÏģ á½¸Î½
Î±Î½ Î¿ÏĤ
ĠÎ±á½ĲÏĦ á½µ
ĠÏĢÏģ Î·Î½
ĠÎ´Î¹ Ïĩ
Ġá¼ĲÏĢ ÎµÏĥÏĦ
á½³Î½ Î·ÏĦÎ±Î¹
ÏĦÎ¹ Î¸á½³Î½Î±Î¹
ĠÎ» á½»Ïĩ
Î¬ Î»Î»
ĠÏĩ á½±
Î½Îµ ÏĥÎ¹ÏĤ
ÏĦÎ¿ ÏįÏĤ
Ġá¼Ħ ÏĥÏĦ
Ġá¼Ħ Î¼Î¹Îº
Ġá¼ĲÎº Î´Î¯
Ġá¼ĲÎº Î»ÏħÎ¸
Ïģá½· Î¶ÎµÏĥÎ¸Î±Î¹
á¾¶ Ï²
ĠÏĢÎ¿ Î»ÎµÏīÏĤ
Ġá¼ĢÏĢ á½³ÏĩÎµÏĥÎ¸Î±Î¹
á½±Î½ ÏĦÎ¿ÏĤ
ĠÎ´Î¹Î± Î¸Î·
ĠÎ´Î¹Î± ÎºÏģÎ¹Î½
ĠÎ´Î¹Î± Î³Î¹Î³Î½
ĠÎ½ Î¿á¿ĨÏĥÎ±Î¹
ĠÏĢÎ± ÏģÎ¹
ĠÏĦÎ¹ Î¼á½´Î½
ĠÎµá¼¶ ÏĢÎ±ÏĤ
ÏħÎ½ Î±Î½
ĠÎºÎ±Î¸ ÏĮÎ»Î¿Ïħ
ĠÎºÎ±Î¸ á½¹ÏĥÎ¿Î½
Î¼ÏĢ Îµ
Ïİ Ïĥá¿ĥ
Ġá¼ĢÏĢÎ¿ Ïģá½·Î±ÏĤ
á¼Ģ ÎºÎ¿Ïį
ĠÏĪ ÏħÎ³
ĠÏĪ Îµá½»
Î¿Î» ÏĮÎ³
ĠÎºÎ±ÏĦÎ± Î½Î¿
Ġá¼ħ ÏĪÎ±ÏĥÎ¸Î±Î¹
ĠÎ¼á½³ ÏĦÏģÎ¹Î¿Î½
ĠÏĢÎ» Î¿á½»
Ġá½Ħ ÏĨÎµÎ»
Ġá¼¤ Î¼Îµ
ĠÏĢÎ¿Î¹ Îµá¿ĸÏĦÎµ
ĠÏĢÎµÏģÎ¹ Î²ÎµÎ²Î»Î·
Ġá¼ĢÎº á½±Î½Î¸Î·ÏĤ
ĠÎ±á¼° ÏīÎ½
Ġá¼ĦÎ½ Î¹
Î³Î³ ÏģÎ±Î¼Î¼Î±
ĠÎºÎµ ÎºÏģÎ¹
is hed
ĠÏĢÎµ ÏĢá½·
Î¼ÏĨ Î±
Ġw ra
Ġá¾ Ħ
Î¼Î¹ Î±ÏĤ
ÏĦá½± ÏĦÎ·
Î¿Ïĥ Î¿á¿¦Î½
ĠÎĴ Î±Îº
Î»á½³ ÏīÎ½
Î·Î» Î¿Ïħ
Î·Î¼ Î±Î¹
Ġá½ł Î¼Î¹Î±
ĠÏĢá½¹ Ïģ
ÏĨÎ± Î³ÎµÎ½
ĠÎµá¼°Ïĥ ÏĢÎ½Î¿á½´Î½
st and
ĠÎºá½» ÏģÎ¹
ĠÎºá½» ÎºÎ»
á¿ĨÎ½ Î¿ÏĤ
Ġl eft
ĠÎ¼ÎŃ ÏģÎ·
ĠÎ¼Ïħ ÏĥÏĦ
ÎºÏģá½± ÏĦÎ¿ÏħÏĤ
ÏĢÎ½ Î¿ÏħÎ½
Ġá¼ĲÎ» á½³ÏĩÎ¸Î·
ĠÎ¿á¼°Îº Îµá¿ĸÎ±
Î¬Ïģ Î´Î¿Ïħ
ĠÎ³Î» á½µÏĩÏīÎ½
ĠÎ´ÏħÎ½Î± Î¼á½³Î½Î¿Î¹ÏĤ
Î¾Î±Î½ ÏĦÎ±ÏĤ
ÏģÏī ÏĥÎ¹ÏĤ
ÎºÎ¹ ÏĥÎµÎ½
ĠÎ»ÎµÏĢÏĦ á½´Î½
ĠÎµá¼°ÏĢ á½¸Î½
ĠÎ½á½¹ Î¼Î¹
ĠÏĢÏħÏģ ÏĮÏĤ
ĠÎ³Ïģá½± ÏĪÎ±Î½ÏĦÎ¿ÏĤ
Î³Î½Ïī ÏĥÎ±Î½
ĠÎ£Î± Î¿ÏħÎ»
ÎµÎ¯ Î¼
Ġá¼ĢÎ½ÏĦÎ¹ Î´Î¹
Ġá¼ĢÎ³Î±Î¸ á½¸ÏĤ
ĠÎ³Î¹Î³Î½ Î¿Î¼á½³Î½Î¿Ïħ
Ġá¼±ÎµÏģ Îµá½»ÏĤ
ĠÎ½Î¿Î¼ Î¹ÏĥÏĦ
Ġá¼¸ÎµÏģ ÎµÎ¹
ĠÎ¸á½½ÏģÎ± Îºá½¹ÏĤ
ĠÎĺ Î±
Ġá¼°Î´ Î¯Î±Î½
ÏĪÎ± ÏĥÎ±
Ġá¼ĲÏĢÎµ Î³Îµá½·
ĠÏĩÏģÎ· ÏĥÎ±
ĠÎ³ÎµÎ½Î½ á¾·
ĠÎºÎ·Ïģ Ïį
ĠÏĢÎ±Î¸ á½µÎ¼Î±ÏĦÎ¿ÏĤ
ĠÎ»ÎµÎ¹ Ïĩ
ĠÏĢÎµÏģÎ¹ÏĦÏĦ á½½Î¼Î±ÏĦÎ¿ÏĤ
Ġá½ĢÎ½Î¿Î¼Î±Î¶ á½¹Î¼ÎµÎ½Î¿ÏĤ
Ġá½ĳÏĪÎ·Î» á¿¶Î½
ĠÎ´Î¯ Î±Î¹
Ġá¼ĪÎ½ Î¬
ĠÎ»Î±Î» á¿¶Î½
Ġá¼ģÎ¼Î±ÏģÏĦ Î¯Î±
[...]
