{"<s>":0,"<pad>":1,"</s>":2,"<unk>":3,"<mask>":4,"!":5,"\"":6,"#":7,"$":8,"%":9,"&":10,"'":11,"(":12,")":13,"*":14,"+":15,",":16,"-":17,".":18,"/":19,"0":20,"1":21,"2":22,"3":23,"4":24,"5":25,"6":26,"7":27,"8":28,"9":29,":":30,";":31,"<":32,"=":33,">":34,"?":35,"@":36,"A":37,"B":38,"C":39,"D":40,"E":41,"F":42,"G":43,"H":44,"I":45,"J":46,"K":47,"L":48,"M":49,"N":50,"O":51,"P":52,"Q":53,"R":54,"S":55,"T":56,"U":57,"V":58,"W":59,"X":60,"Y":61,"Z":62,"[":63,"\\":64,"]":65,"^":66,"_":67,"`":68,"a":69,"b":70,"c":71,"d":72,"e":73,"f":74,"g":75,"h":76,"i":77,"j":78,"k":79,"l":80,"m":81,"n":82,"o":83,"p":84,"q":85,"r":86,"s":87,"t":88,"u":89,"v":90,"w":91,"x":92,"y":93,"z":94,"{":95,"|":96,"}":97,"~":98,"¡":99,"¢":100,"£":101,"¤":102,"¥":103,"¦":104,"§":105,"¨":106,"©":107,"ª":108,"«":109,"¬":110,"®":111,"¯":112,"°":113,"±":114,"²":115,"³":116,"´":117,"µ":118,"¶":119,"·":120,"¸":121,"¹":122,"º":123,"»":124,"¼":125,"½":126,"¾":127,"¿":128,"À":129,"Á":130,"Â":131,"Ã":132,"Ä":133,"Å":134,"Æ":135,"Ç":136,"È":137,"É":138,"Ê":139,"Ë":140,"Ì":141,"Í":142,"Î":143,"Ï":144,"Ð":145,"Ñ":146,"Ò":147,"Ó":148,"Ô":149,"Õ":150,"Ö":151,"×":152,"Ø":153,"Ù":154,"Ú":155,"Û":156,"Ü":157,"Ý":158,"Þ":159,"ß":160,"à":161,"á":162,"â":163,"ã":164,"ä":165,"å":166,"æ":167,"ç":168,"è":169,"é":170,"ê":171,"ë":172,"ì":173,"í":174,"î":175,"ï":176,"ð":177,"ñ":178,"ò":179,"ó":180,"ô":181,"õ":182,"ö":183,"÷":184,"ø":185,"ù":186,"ú":187,"û":188,"ü":189,"ý":190,"þ":191,"ÿ":192,"Ā":193,"ā":194,"Ă":195,"ă":196,"Ą":197,"ą":198,"Ć":199,"ć":200,"Ĉ":201,"ĉ":202,"Ċ":203,"ċ":204,"Č":205,"č":206,"Ď":207,"ď":208,"Đ":209,"đ":210,"Ē":211,"ē":212,"Ĕ":213,"ĕ":214,"Ė":215,"ė":216,"Ę":217,"ę":218,"Ě":219,"ě":220,"Ĝ":221,"ĝ":222,"Ğ":223,"ğ":224,"Ġ":225,"ġ":226,"Ģ":227,"ģ":228,"Ĥ":229,"ĥ":230,"Ħ":231,"ħ":232,"Ĩ":233,"ĩ":234,"Ī":235,"ī":236,"Ĭ":237,"ĭ":238,"Į":239,"į":240,"İ":241,"ı":242,"Ĳ":243,"ĳ":244,"Ĵ":245,"ĵ":246,"Ķ":247,"ķ":248,"ĸ":249,"Ĺ":250,"ĺ":251,"Ļ":252,"ļ":253,"Ľ":254,"ľ":255,"Ŀ":256,"ŀ":257,"Ł":258,"ł":259,"Ń":260,"á½":261,"Î½":262,"ÏĦ":263,"ĠÎ":264,"Î±":265,"Î¿":266,"á¼":267,"Î¹":268,"Îµ":269,"Ġá¼":270,"Ïģ":271,"ÏĤ":272,"á¿":273,"Ïĥ":274,"ĠÏĦ":275,"ÏĢ":276,"Î»":277,"Î¼":278,"Ïħ":279,"ĠÎº":280,"Îº":281,"á½¶":282,"ĠÎºÎ±":283,"Ïī":284,"Î·":285,"Ġá¼Ĳ":286,"ĠÏĢ":287,"ĠÎ´":288,"Î¸":289,"Ġá½":290,"á½·":291,"Î¿Î½":292,"á½³":293,"Î³":294,"á½¸":295,"ĠÎºÎ±á½¶":296,"ĠÎ¼":297,"Ïĩ":298,"Î¿á¿":299,"ÏĦÎ±":300,"Î´":301,"á½°":302,"á¿¶":303,"á½±":304,"Î¿Ïħ":305,"Ġá¼Ģ":306,"á½Ĳ":307,"ÏĨ":308,"Î¿á¿¦":309,"ĠÎ±":310,"Î¹Î½":311,"á½¹":312,"á¿¶Î½":313,"ĠÎ¿":314,"ĠÎµ":315,"ĠÏĥ":316,"á½²":317,"ÏīÎ½":318,"á½´":319,"á½»":320,"ÎµÎ½":321,"Î¿Î¹":322,"á¿Ĩ":323,"ÏģÎ±":324,"ÎµÎ¹":325,"Î¿ÏĤ":326,"ĠÎ³":327,"Î±Î¹":328,"ÏĥÏĦ":329,"ÎµÏģ":330,"âĢ":331,"ĠÎ±á½Ĳ":332,"Î±Î½":333,"ĠÏĦá½¸":334,"ĠÎ±á½ĲÏĦ":335,"âĢĻ":336,"ĠÎµá¼":337,"Î¼Î±":338,"á¿ĸ":339,"á½´Î½":340,"á¿ĨÏĤ":341,"Î¾":342,"Ġá¼ĲÎ½":343,"Î»Î»":344,"ÏĦÎ±Î¹":345,"ĠÏĢÏģ":346,"Î²":347,"ĠÏĦá¿¶Î½":348,"Î¯":349,"ĠÏĦÎ¿á¿¦":350,"ÏĦÎµ":351,"ĠÎ´Î¹":352,"Ġá¼ĲÏĢ":353,"á½³Î½":354,"á½µ":355,"ĠÎ´á½²":356,"Ġá¼Ķ":357,"ÎºÎ±":358,"ÏĦÎ¹":359,"ÏīÏĤ":360,"ÎŃ":361,"ÏĥÎ¸":362,"Îµá¿ĸ":363,"á¾":364,"ĠÏĨ":365,"ĠÎ»":366,"ĠÏĦá½´Î½":367,"ĠÎµá¼°":368,"Î±ÏĤ":369,"Î¬":370,"ĠÏĩ":371,"ÏģÎ¹":372,"ĠÎ¿á½Ĳ":373,"á½²Î½":374,"Î¿á¿ĸ":375,"ÏĥÎ¹Î½":376,"á½¸ÏĤ":377,"ĠÏĦá¿ĨÏĤ":378,"á¿·":379,"Ġá½ĳ":380,"ĠÏĦá½°":381,"á½½":382,"ÏĥÎ¹":383,"Ġá¼¡":384,"ĠÎ¸":385,"Î½Îµ":386,"ÏĦÎ¿":387,"á½º":388,"Î¼á½³Î½":389,"ĠÏĦÎµ":390,"ĠÎ¼á½²Î½":391,"ÏĦÎ·":392,"ÏĮ":393,"Î¿á¿ĸÏĤ":394,"Î½Î±":395,"ÏĦá½°":396,"Ġá¼Ħ":397,"Ġá½ģ":398,"Î¼ÎµÎ½":399,"á½¸Î½":400,"ÏĦÏīÎ½":401,"á½¹Î½":402,"ĠÎ¿á½":403,"Î»Îµ":404,"Ġá½ħ":405,"ÏĪ":406,"Î±Ïģ":407,"ÏĢÎ¿":408,"Ġ|":409,"ĠÎ²":410,"Ïį":411,"ÏĦÎ¿ÏĤ":412,"ĠÏĦÎ¿":413,"ÏĥÎµ":414,"Ġá¼ĲÎº":415,"ĠÎ¿á¼":416,"ĠA":417,"Ġá½Ģ":418,"Î·ÏĤ":419,"ĠÎ¼Îµ":420,"Î¶":421,"á¿³":422,"á½ºÏĤ":423,"Îĩ":424,"Ïģá½·":425,"ÏĥÎ¸Î±Î¹":426,"á½°Ïģ":427,"Î¿ÏħÏĤ":428,"Î±Î»":429,"05":430,"ĠÎ³á½°Ïģ":431,"ĠÏĦá¿·":432,"ĠÏĦá½¸Î½":433,"ĠÏĥÏħ":434,"á¿ĩ":435,"ÎºÎ±á½¶":436,"ĠÏĢÏģÎ¿":437,"á½³Ïģ":438,"á¿¦":439,"Îµá½·":440,"ÏĥÎ±":441,"ĠÎºÎ±ÏĦá½°":442,"Î¿Î¹ÏĤ":443,"Î®":444,"Î·Î½":445,"ĠU":446,"Ġá¼¢":447,"ĠÎµá¼°ÏĤ":448,"ĠÏĦÎ±":449,"Ġá¼ĳ":450,"ĠÏĦÎ¿á¿ĸÏĤ":451,"á¾¶":452,"ĠÏĢÎµÏģ":453,"ÎµÎ¹Î½":454,"ĠÏĢÎ¿":455,"Ġá¼ĲÏĥÏĦ":456,"ÏĦÎ¿Î½":457,"Î¹Îº":458,"ĠÎ±á¼":459,"Ġt":460,"Ġá¼ĢÏĢ":461,"Ġá½¡":462,"á½±Î½":463,"Î´Îµ":464,"Ġá¼ĲÏĢá½¶":465,"á¿¥":466,"Ġá¼ĢÎ½":467,"Î·Ïĥ":468,"Î»Î±":469,"ĠÎ´Î¹Î±":470,"Ġo":471,"Ġá½ĳÏĢ":472,"ĠÎ½":473,"ĠÏĩÏģ":474,"ÏģÎ¿":475,"ĠÏĢÎ±":476,"á¿ĥ":477,"Ġá½¡ÏĤ":478,"ÏģÎµ":479,"Ï²":480,"Ġ(":481,"Ġá¼ĲÎ¾":482,"Ġá¼ĲÏĢÎ¹":483,"ĠÎĳ":484,"ÏĥÎµÎ¹":485,"Ġ1":486,"he":487,"ĠÎ±á½ĲÏĦÎ¿á¿¦":488,"ĠÏĦÎ¹":489,"Ġa":490,"ĠÎµá¼¶":491,"Î»Î·":492,"Ġá¼ĢÎ»Î»":493,"ÏĦÎµÏģ":494,"Ġá¼¡Î¼":495,"ÏħÎ½":496,"á½·Î½":497,"ĠÏĢÏģá½¸ÏĤ":498,"á¿¶ÏĤ":499,"ÏħÏĦ":500,"ÏĥÎº":501,"Î¼á½±":502,"Â·":503,"Ġá¼°":504,"áµ":505,"ĠÎ¿á½ĸ":506,"Ġá¼ķ":507,"ÏĦÎµÏĤ":508,"ÏĢÎµÏģ":509,"á¼Ĳ":510,"Î»Î¹":511,"ĠÏĦá½°ÏĤ":512,"Î½Î±Î¹":513,"ĠÏĦá¿ĩ":514,"ĠÎ±á½ĲÏĦá¿¶Î½":515,"ĠÎ´Î¹á½°":516,"Î¼Îµ":517,"ÏĦÏī":518,"á½±Ïģ":519,"in":520,"Î¿á½»":521,"Îµá¿ĸÎ½":522,"ĠÎºÎ±Î¸":523,"ĠÎ¿á½ĸÎ½":524,"ÏģÎ·":525,"ÏĥÏĩ":526,"Ġá¿¥":527,"ÏģÎ±Ïĩ":528,"Ġá¼ĢÎ½Î±":529,"ĠÎ³Îµ":530,"Ġp":531,"Î¼ÏĢ":532,"ĠÎ¿á¼±":533,"ĠÏĦÎ¿á½ºÏĤ":534,"ĠÎ¿á½ĲÎº":535,"ĠÏĢÎ±Ïģ":536,"Ïİ":537,"á½·Î±ÏĤ":538,"Ġá¼ĢÏĢÎ¿":539,"Ġá¼ĢÏģ":540,"Ġ2":541,"ÏĥÎ±Î½":542,"ÏħÎ¼":543,"Ġs":544,"ĠÎµá¼´":545,"ÏħÏģ":546,"Î¿Î¼á½³Î½":547,"á¼Ģ":548,"Ġá¼¸":549,"ĠÎ¼á½´":550,"á¿ĸÏĤ":551,"Ġá¼ĦÎ»Î»":552,"á½³ÏģÎ±":553,"Î¿á¿¦Î½":554,"ĠÎ¿á½ĲÎ´":555,"Ïģá½±":556,"ÏĦÎ¿Î¹":557,"Ġá¼ģ":558,"re":559,"Ïģá½¹":560,"ĠÏĢÎµÏģá½¶":561,"ÏĥÎµÏīÏĤ":562,"Î¸Î·":563,"á½¼":564,"ÏĢÎµ":565,"á½¹Î¼ÎµÎ½":566,"Î¿Î¼":567,"Ġthe":568,"ĠÏĪ":569,"á½·Î±Î½":570,"ĠB":571,"Ġá¼ĶÏĩ":572,"Î¼Î±ÏĦÎ¿ÏĤ":573,"ĤÎ½":574,"Î¿Î»":575,"Î³Î¿Î½":576,"ĠÎºÎ±ÏĦÎ±":577,"Ġá¼ĲÎ³":578,"Ġá¼ħ":579,"ĠÎ¸Îµ":580,"ÏĢÎ±":581,"ÏĦÏīÏĤ":582,"ÏĦÏģ":583,"ÏĥÏĦÎ±":584,"ĠÏĦÎ¿Î¹":585,"ĠÎ¼á½³":586,"ÏĥÎ±Î¹":587,"ĠÏĢÎ»":588,"ÎŃÎ½":589,"ÏħÏĩ":590,"Ġom":591,"Ġá½Ħ":592,"ÏĦÎ¹Îº":593,"ĠÎļ":594,"ĠÏĦÎ¹Î½":595,"ĠÏĦÎ¿á¿¦ÏĦÎ¿":596,"Î¹ÏĤ":597,"ÏĢÎ¿Î½":598,"Î´Î¹":599,"ÏĦÎµÏģÎ¿Î½":600,"Î¸Ïģ":601,"Ġá¼¤":602,"ĠÏĦÎ¿á½»":603,"ÏħÏĥ":604,"Î³Î±":605,"Ġá½ħÏĦÎ¹":606,"ÏĦÎ¿Ïħ":607,"ÏĨÎ¿":608,"ĠÏĥÎº":609,"â¸":610,"ĠÎºÎ±ÏĦ":611,"Î´Î±":612,"á¼°":613,"ĠÏĢÎ¿Î¹":614,"ÎĦ":615,"Î´Î·":616,"ĠÏĥÏħÎ½":617,"ÏĮÎ½":618,"er":619,"á¾³":620,"Î½Î¿":621,"á½·Î½Îµ":622,"Ġá¼ĤÎ½":623,"ĠÏĢÏģÎ¿Ïĥ":624,"ha":625,"ĠÎµá½Ĳ":626,"Î±Îº":627,"ÏĦÎ±ÏĤ":628,"ĠÎ¸ÎµÏģ":629,"ÎµÏĦÎ±Î¹":630,"ĠÏĢÎ¿Î»Î»":631,"ĠÏĢÎµÏģÎ¹":632,"Ġá¼ĢÎº":633,"á¼±":634,"ĠÏĥÎ¿Ïħ":635,"ĠÎ¿á½ķ":636,"ÏĥÎ¿Î½":637,"Î¸Îµ":638,"ÏĦÎ·ÏĤ":639,"Î¼Î¿":640,"Î¸ÎµÎ½":641,"á½°ÏĤ":642,"Ġá½¥":643,"ĠÎ¶":644,"Î³Î½":645,"ÏħÎº":646,"Ġpr":647,"ĠÏħ":648,"nd":649,"ĠÏĢÎ±ÏģÎ±":650,"ĠÎ±á¼°":651,"ÏĢÎ»":652,"ĠÎ¾":653,"ÏĦá½·":654,"ĠÎ´Îµ":655,"ĠÎ¼Î·":656,"Ġá¼ĦÎ½":657,"ĠÎºÎ±Î¹":658,"Î»Î¿Î½":659,"á¿¦ÏĦÎ±":660,"ĠÏĢá½±Î½":661,"Î¼Î²":662,"Ġá¼ĢÏĢá½¸":663,"ĠÎ»Îµ":664,"á½±Î»":665,"ĠÏĥÏĦ":666,"Î»á½·":667,"ĠÎ´ÏģÎ±Ïĩ":668,"Ġá¼Ī":669,"Î¼Î¿Î½":670,"Î³Î³":671,"ĠÏĨá½»":672,"ÏģÎ³":673,"ÏĥÏī":674,"ÏĢÎ¹":675,"ÏĥÎ¹ÏĤ":676,"ĠÎºÎµ":677,"á¾¶ÏĤ":678,"Î¸Î±":679,"á½°Î½":680,"Î¿ÏħÏĥÎ¹Î½":681,"ĠQ":682,"Î¼Î±ÏĦÎ±":683,"ĠÎ£":684,"ÏīÏģ":685,"ĠÏĦÎ±á¿ĸÏĤ":686,"it":687,"ÏĦá½³Ïģ":688,"ÏģÎ±Î½":689,"ĠÎ²Î±":690,"Î¬Î½":691,"Ġá¼ĲÏĥÏĦÎ¹Î½":692,"ÏħÎ³":693,"ÏģÎ±ÏĤ":694,"ĠÎ´á½»":695,"Ġâ¸":696,"Ġá½ĳÎ³":697,"ĠÎ¼Î¿Ïħ":698,"Î·Ïģ":699,"ÎµÎ»":700,"ĠÎ¼á½¹Î½":701,"ĠÏĪÏħÏĩ":702,"ÏĥÎµÎ¹ÏĤ":703,"Î¿á½ºÏĤ":704,"á½³Î³":705,"ĠÎ»á½¹":706,"is":707,"Ġá¼ĢÎ»Î»á½°":708,"or":709,"ĠÏĢÎµ":710,"ĠÎ¿á½Ķ":711,"ĠÎ³ÎµÎ½":712,"ÏĥÎ¼":713,"ĠÎ±á½ĲÏĦá¿·":714,"ÏĥÎµÏĦÎ±Î¹":715,"ÏģÎ¿Î½":716,"Ġc":717,"ĠÎµá¼¶Î½Î±Î¹":718,"Ġ+":719,"á½¶Î½":720,"Ġb":721,"Î¼á½±ÏĦÏīÎ½":722,"Ġá½ķ":723,"ÎµÏĥÎ¸Î±Î¹":724,"ĠÏĦÎ¹ÏĤ":725,"Î¼ÏĨ":726,"Ġá¼ĲÏĥÏĦÎ¹":727,"ÎµÎ¹ÏĤ":728,"ĠÎ±á¼±":729,"Î¿Î³":730,"¤á¿¥":731,"Î¼Î½":732,"áµĥ":733,"Ġw":734,"ÏĦÎ·Î½":735,"Ġá¾":736,"Î»á½±":737,"Îµá¿ĸÏĤ":738,"ÎºÎ¿Î½":739,"Î¼á½³Î½ÏīÎ½":740,"Îµá¼°":741,"Ġin":742,"Ġá½ĳÎ¼":743,"Ġ3":744,"ĠÎ±á½ĲÏĦá½¸Î½":745,"ÏĦÎ±Î½":746,"ĠÏĥÏĨ":747,"ĠÎ±á½ĲÏĦÎ¿á¿ĸÏĤ":748,"ĠÎ²Î±ÏĥÎ¹":749,"ĠÎĻ":750,"á½¹ÏĤ":751,"Ġá¼¦":752,"ÏĨÎ¸":753,"Î´Î¿":754,"Ġá½ĳÏĢÎ¿":755,"ÎºÎ¿":756,"ĠÎ½Îµ":757,"Î¼Î¹":758,"Ġá¼ĢÏģÏĩ":759,"á½¹Î½ÏĦÏīÎ½":760,"ĠÎ»Î±":761,"ĠÎ¼ÎµÏĦá½°":762,"ra":763,"ÏĢÏĦ":764,"Ġá¼´":765,"á¿ĸÎ½":766,"ĠÏħá¼±":767,"Ġá¼ĲÏĨ":768,"ĠÎľ":769,"ÏĥÏĢÎµÏģ":770,"ÏĦá½±":771,"Ġá¼ĶÎ½":772,"ĠÎ·":773,"ĠÎ±á½ĲÏĦá¿ĨÏĤ":774,"ĠÎ¿á¼·":775,"ÏĥÎ±ÏĤ":776,"ĠÎ¸ÎµÏģÎ¼":777,"ÏĥÎ·ÏĤ":778,"Î»Î»Î¿Î½":779,"á½³Ïĩ":780,"ĠÏĨÎ±":781,"ĠÎºÎ±Ïģ":782,"Î¯Î±ÏĤ":783,"on":784,"á½ħ":785,"ĠÎµá½":786,"ÎµÏħ":787,"ĠÎ´ÏħÎ½":788,"Ġá¼±":789,"ĠÎºÎ¿":790,"ÏĨÎ±Î»":791,"Î±ÏħÏĦ":792,"ĠÎ¿á½ķÏĦÏīÏĤ":793,"Ġâ¸Ģ":794,"Î¿Ïĥ":795,"á½³Î¿Î½":796,"ĠÏĢÏģá½¹":797,"ÏĥÎ¸ÎµÎ½":798,"ÏģÎ¹Î¿ÏĤ":799,"ÎºÎ¿Ïħ":800,"Î´ÎµÎ¹":801,"Î¸á½³":802,"Ġá¼¥":803,"á½¶ÏĤ":804,"Ġof":805,"Î²Î±":806,"ÏĢÎµÎ½":807,"ĠÎºÎ±Î»":808,"âĢĺ":809,"ÎĦ.":810,"ĠÏĢá½±":811,"Ġm":812,"ĠÏĨÎ»Îµ":813,"ÏĢÎ±Î½":814,"ÎµÏĤ":815,"ÎºÎµÎ¹":816,"ĠÏĢÎ±Î½":817,"Ġf":818,"ĠÎ¼á½µ":819,"ĠÎĴ":820,"ÏģÎ¹Î¿Î½":821,"á¿¤á¿¥":822,"Î»á½³":823,"Î±Î¹ÏĤ":824,"ĠÏĦÎ±á¿¦ÏĦÎ±":825,"á¿¦Î½":826,"ÏĥÏĦÎµ":827,"Î»ÎµÎ¹":828,"Îºá½±":829,"Ġá¼ĢÏĨ":830,"Î¿Ïį":831,"Î´Ïģ":832,"Î¿á½¶":833,"Ê¼":834,"Î·Î»":835,"Î¸Î¿ÏĤ":836,"Î´á½·":837,"Î¿á½Ĳ":838,"á½·Î½ÎµÏĦÎ±Î¹":839,"Î¼Î±ÏĦÎ¹":840,"ÏĥÎµÎ½":841,"ĠÎ¼Î·Î´":842,"ÏĦá½³ÏģÎ±":843,"Î¿Î½ÏĦÎ±Î¹":844,"á½±Î³":845,"en":846,"á¼Ķ":847,"ĠÎ¼ÎµÎ³":848,"Î¼ÎµÎ½Î¿Î½":849,"Î¹Î±":850,"á¼ĢÎ»Î»":851,"á½¹Î¼ÎµÎ½Î¿Î½":852,"Ġá½ĳÏĢá½¸":853,"Î·ÏĥÎ±Î½":854,"ĠÎ»á½¹Î³":855,"ĠÎ´Ïħ":856,"Ġá½ĥ":857,"ĠÏĢÎ»Îµ":858,"ĠÎ´á½´":859,"á½»Î½":860,"Ïģá½¸Î½":861,"Î·ÏĥÎµÎ½":862,"Ïĥá¿ĥ":863,"ĠÎºá½±":864,"Î¿ÏħÏĥÎ¹":865,"Î·Î¸":866,"es":867,"Ġand":868,"ÏĦá¿³":869,"ĠÎºÎ¹Î½":870,"ĠÏĦÎ¿Ïħ":871,"Ġá½ħÎ»":872,"up":873,"Ġá½¥ÏĥÏĢÎµÏģ":874,"Î¯Î±Î½":875,"ll":876,"ÏĦá½¸ÏĤ":877,"ĠÎ¼ÎµÏĦÎ±":878,"ÏħÎ»":879,"ĠÎ¼á¾¶":880,"ĠÎ±á½":881,"Î·Î¼":882,"á½¼Î½":883,"Î¯Î½":884,"á¿ĨÎ½Î±Î¹":885,"ÏĥÏĦÎ¿Î½":886,"Ġá¼°ÏĥÏĩ":887,"Ġá½§":888,"á¾¿":889,"ĠÎ±á½ĲÏĦá½¸":890,"ÏĢÎ¿Ïħ":891,"âģ":892,"ĠÏĢá¾¶":893,"ÎµÎ¹Î´":894,"ĠÎ¼Î¿":895,"Î±á½·":896,"ĠÏĥá½½":897,"ÏĦá¿¶Î½":898,"ÎºÎµÎ½":899,"ÏģÏĩ":900,"á½µÎ½":901,"Ïĥá½·":902,"ĠÎ¿á½Ĺ":903,"ĠÎ¼ÎµÏĦ":904,"Î¯Î¿Ïħ":905,"ĠÎºá¾":906,"Î¼ÎµÎ½Î¿ÏĤ":907,"ĠÎ½á¿¦Î½":908,"ĠÎ³á½³Î½":909,"ed":910,"Ġá¼ĶÏĦÎ¹":911,"ÏģÎ¿Ïħ":912,"ing":913,"ĠÎ¼á½³Ïģ":914,"ÏĦá½¸":915,"ÎºÎµ":916,"Î³ÏģÎ±":917,"á½·Î¶":918,"ĠÎ¿á¼°":919,"ÏģÏīÎ½":920,"Ġá½ł":921,"ĠÎ¼á½¹Î½Î¿Î½":922,"ĠÏĦÏģ":923,"ĠÎ¼á¾¶Î»Î»Î¿Î½":924,"á½¹ÏĦÎ·":925,"ĠÏĦÎ¿á½»ÏĦÏīÎ½":926,"Ġá¼ĲÏģ":927,"ĠÏĦÎ¿Î¹Î±":928,"ĠÎ´ÏħÎ½á½±":929,"ĠÎĶ":930,"ĠÎ¼á½±":931,"ĠÏĢÏħ":932,"ĠÎ¿á¼¶":933,"ĠâĢĺ":934,"ĠÎ±á½ĲÏĦá½´Î½":935,"Î·Î³":936,"ÏĥÏĥ":937,"ĠÎµá¼¶ÏĢÎµÎ½":938,"ÏĥÏĦÎ±Î¹":939,"ĠÎ»á½³Î³":940,"Ġá½§Î½":941,"om":942,"Î±Ïħ":943,"Ġá¼¤Î´Î·":944,"Î¿Ïģ":945,"Ġá¼¦Î½":946,"ĠÏĢÎ½Îµ":947,"ĠÎ´á½»Î½Î±":948,"á½±ÏģÏĩ":949,"Î¿Î½ÏĦÎ±":950,"Ġá½ħÏĦÎ±Î½":951,"ĠÏĩÏģá½´":952,"Î±ÏĥÏĦ":953,"ĠÏĢá½¹":954,"Ġá¼ĳÎ±ÏħÏĦ":955,"ĠÎºÏħ":956,"ĠÎºÎµÏĨÎ±Î»":957,"ÏĦÎ¿Î¹ÏĤ":958,"ĠF":959,"ÏģÎ¹Î²":960,"Î³Îµ":961,"ĠÏĨÎ±Ïģ":962,"Â°":963,"ĠÎ¼á½³Î½":964,"ĠÎµÎ½":965,"Î´á½³":966,"ÎµÎ¹Ïģ":967,"ĠV":968,"Îµá½·Î±ÏĤ":969,"áµĩ":970,"ÏĨÎ±":971,"ĠÏĢÎ¿Î»":972,"ĠÎł":973,"ĠÎ¿á½ĲÎ´á½²":974,"ĠÏĦÎ±á½»":975,"ou":976,"á½·Î¿Ïħ":977,"Ġá½ĢÎ½Î¿":978,"ÏĦÏĦ":979,"ĠÎ´á½³":980,"Î¿á½":981,"Î³Î¼Î±":982,"á½±Îº":983,"ÏĥÏĦÎ¹":984,"Ġá½ĳÏĢá½±ÏģÏĩ":985,"Îµá½·Î½":986,"ÏĥÏģÎ±":987,"Îµá¿ĸÏĦÎ±Î¹":988,"ĠÎ¼Î¿Î¹":989,"Ġá¼§":990,"Ġá¼ģÏĢ":991,"Î·ÏĦÎ±Î¹":992,"á½µÎ»":993,"á¼ĲÎ½":994,"ÎµÏīÏĤ":995,"ras":996,"ÏĦÎŃ":997,"ĠÎ¿á¼´":998,"ĠÎ¿á½ĲÏĩ":999,"Î¿Î¼á½³Î½ÏīÎ½":1000,"ÏĦÎ¿á¿¦":1001,"Ġá¼ħÎ¼Î±":1002,"Î¾Î±":1003,"Î¼ÎŃÎ½":1004,"ĠÏĥÏħÎ½Îµ":1005,"Ġn":1006,"ĠÎ±á½ĲÏĦÎ¿á½ºÏĤ":1007,"ĠÎ±ÏħÏĦ":1008,"Î¿Î½ÏĦÎµÏĤ":1009,"ĠÎ¼Î¹Îº":1010,"ea":1011,"ĠÎ¿á½ĲÎ´á½²Î½":1012,"Î¸ÏģÏī":1013,"ÎµÎ¾":1014,"ĠÎ½Î¿Ïĥ":1015,"ĠÏĨá½»ÏĥÎ¹Î½":1016,"ĠÎµá¼°Ïĥ":1017,"ĠÏĦá½³":1018,"ÏīÎ¸":1019,"ĠÏĥÎµ":1020,"ÏĦÎ·Ïģá½·":1021,"ÏĦÎ¿ÏħÏĤ":1022,"Ġto":1023,"á½·Î±":1024,"ĠÎ³Î½":1025,"Î´Îµá½·":1026,"á½½Î´":1027,"Î¿Î¼ÎµÎ½":1028,"á½ģ":1029,"ĠÏĢÎ¬Î½":1030,"Î»ÎŃ":1031,"Ġá¼ĢÎ³":1032,"Ġá¼¡Î¼á¿¶Î½":1033,"ĠÎµá¼°ÏģÎ·":1034,"vi":1035,"ĠÏĢÎ±Ïģá½°":1036,"ÏħÏĢ":1037,"ĠÏĦÏģá½·":1038,"st":1039,"á½±Î¶":1040,"Î´Î¿ÏĤ":1041,"Îµá½¶":1042,"Î»Îº":1043,"ĠAF":1044,"ÏĥÏĦÎ¹Î½":1045,"Î±á½¶":1046,"Ġ4":1047,"Ġá¼ł":1048,"ÎºÏģ":1049,"á½»Î»":1050,"ĠÎ¿á½ķÏĦÏī":1051,"ĠÎĵ":1052,"á¾·":1053,"Î¼Î¹Î½":1054,"Î¾Ïī":1055,"ic":1056,"ÏĥÎ¸Î·":1057,"á½²ÏĤ":1058,"Ġre":1059,"ĠÏĥÎ¿Î¹":1060,"ĠÎºá½»":1061,"ÏĩÎ¸":1062,"ĠÎ²ÏģÎ±Ïĩ":1063,"ĠÏĥÏĨÏħÎ³":1064,"Î¼ÎµÎ¸Î±":1065,"Î¯Î±":1066,"ĠÏĥá½»":1067,"ĠÏĩÏħÎ¼":1068,"ĠÎ¼á½±Î»Î¹":1069,"âģ°":1070,"Î¿á½·":1071,"Îļ":1072,"Ġá¼ĢÎ¼":1073,"ĠÏĢÏģá½½":1074,"ĠÎºÏģ":1075,"ĠÎ¼á½´Î½":1076,"ÏĥÏĦÎµÏģ":1077,"Ġá¼ĶÏĩÎµÎ¹":1078,"Ġá¼°Î±":1079,"Î³ÎµÎ¹":1080,"ÎºÏīÎ½":1081,"Î´Î¿Î½":1082,"ÏĮÏĤ":1083,"ÏĦÎµÎ¹Î½":1084,"ĠÏĢÏħÏģÎµ":1085,"Î´ÎµÏĤ":1086,"á½±ÏĢÎµÏģ":1087,"Îºá½¹":1088,"á¿¶Î¼Î±":1089,"ĠÎ»ÎŃ":1090,"Ġá¼ĢÎºÏģÎ¹Î²":1091,"Î¹Î²":1092,"ĠÏĦá½±":1093,"ÏĩÏģÎ¹":1094,"Î±ÏĨ":1095,"Ġá¼ĲÏĥÏĦá½¶":1096,"ĠÎ´Î¹Î±ÏĨÎ¿":1097,"ĠÏĦá½¹":1098,"Ġá¼ĲÎºÎµá½·Î½":1099,"ĠÎ¼á½¹":1100,"á¿ĨÎ½":1101,"Ġd":1102,"ÏĢÎ¿Î¹":1103,"ĠÎ¿á½ĶÏĦÎµ":1104,"ÏģÎ¿ÏĨ":1105,"Ġá¼ĳÎºá½±":1106,"ÏĦÏĦÎ¿Î½":1107,"Ġl":1108,"Ġá¼ĺ":1109,"Ġá¼¸ÏĥÏģÎ±":1110,"Ġsup":1111,"ĠÎ²Î±ÏĥÎ¹Î»Îµ":1112,"Î¼ÏīÎ½":1113,"ĠÏĨÏħ":1114,"ĠÏĨÎ±ÏģÎ¼á½±":1115,"Î¾Î¹":1116,"Î½Î·":1117,"á½µÏĥÎµÏĦÎ±Î¹":1118,"Ġá¼ħÏĢÎ±Î½":1119,"Ġá¼ĲÏĩ":1120,"Ġras":1121,"ÏħÎ¸":1122,"ÏĦá½³":1123,"..":1124,"Î¼á¿¶Î½":1125,"at":1126,"Îµá¿ĸÏĥÎ¸Î±Î¹":1127,"ĠÏĢÏģá¿¶":1128,"á¼¡":1129,"Î»Î¸":1130,"Ġbe":1131,"Î¿á¿¦ÏĦÎ¿Î½":1132,"ĠÎ¾Î·":1133,"ĠÎ´Î¹á½±":1134,"ÏĥÏĦÎ·":1135,"ÎºÎ±Î½":1136,"ĠÎ¼ÎŃ":1137,"ÏģÎ·ÏĦÎ±Î¹":1138,"Ġá¼¹":1139,"ĠÎºá¾Ģ":1140,"Î»Î·Î¸":1141,"Î´Ïī":1142,"Î¼á½±Î¶":1143,"Ġá¼µ":1144,"ÏĢá½·":1145,"ĠÏĩÏģá½¹Î½":1146,"Ġá½ĢÏĥÏĦ":1147,"ÎºÎ±Î¹":1148,"ĠH":1149,"ĠÎºÎ±Î¸á½±ÏĢÎµÏģ":1150,"Î¼Î±Ïģ":1151,"Ġá¼ĲÎ¼":1152,"Îĳ":1153,"ÏĥÎ¸Îµ":1154,"Î¼Î·Î½":1155,"ÏĦá½µ":1156,"Ġá½ĦÎ½":1157,"ÏĦá½¸Î½":1158,"ÏĢÏĢÎ¿":1159,"ÏģÎ¹Î±":1160,"ÏĦÎµÏģÎ±":1161,"Ġá½ĢÎ»á½·":1162,"ĠÎ¼Ïħ":1163,"ĠÏĦá½·":1164,"ÎºÏģá½±":1165,"ĠÎļÏį":1166,"ĠÎ±Ïħ":1167,"ĠÏĦÏģÎ¹":1168,"ĠÎ¼Î¿Ïģá½·":1169,"Ïģá½¸ÏĤ":1170,"Ġá½ħÏĥÎ±":1171,"Ġá¼ĲÏĥÏĦá½¶Î½":1172,"ĠÎķ":1173,"Ġis":1174,"ĠÏĢá½±Î½ÏĦÎ±":1175,"Ġá¼ĢÎ½Î¸Ïģ":1176,"se":1177,"Ġá¼¹ÏĢÏĢÎ¿":1178,"ot":1179,"ÎºÎ½":1180,"Ġá½ģÎ¼Î¿":1181,"ĠAQ":1182,"Ġá¼ĶÎ¼ÏĢ":1183,"ĠÏĥá¿¶Î¼Î±":1184,"Î¼á½³Î½Î¿Ïħ":1185,"ĠÏĥÏĩ":1186,"ĠÎºÎ¿Î¹":1187,"Î¼á½³Î½Î¿Î½":1188,"ÏĢÎ½":1189,"á½·ÏīÏĤ":1190,"Ġá¼ĶÏĥÏĦÎ±Î¹":1191,"á¼Ħ":1192,"á½±Î½ÏĦÏīÎ½":1193,"Î¾ÎµÎ¹":1194,"ĠÏĥÏĢ":1195,"ÏĦá¿ĥ":1196,"Î¼Î¿Ïħ":1197,"Î½ÎµÏĦÎ±Î¹":1198,".]":1199,"ÎºÎ¿ÏĤ":1200,"ÏīÏģá½·":1201,"Î³ÎµÎ½":1202,"Ġá¼¡Î¼á½³ÏģÎ±":1203,"Î¹Î¿Î½":1204,"Ġá¼¡Î¼á¿ĸÎ½":1205,"Ġá¼ĦÎ»Î»ÏīÎ½":1206,"Ġá½ĳÎ¼á¿¶Î½":1207,"ÏīÏĥÎ¹Î½":1208,"Ġá¼ĦÏģ":1209,"Î´Î¿Ïħ":1210,"ĠÎ¼á½±Î»Î¹ÏĥÏĦÎ±":1211,"Î¸ÎµÎ¹":1212,"ĠÎ´Î¿":1213,"ĠÎ¸ÎµÏģÎ¼Î±":1214,"ĠÎºÎ±ÏģÎ´":1215,"Ġe":1216,"Î¿ÏħÏĥ":1217,"ĠÎ³Î±ÏĥÏĦ":1218,"ĠÏĢá½³":1219,"ĠÎ¤":1220,"Î»Î±Î²":1221,"Î¾Î¹Î½":1222,"á½ºÎ½":1223,"ÏĨá½³Ïģ":1224,"Î¹Î»":1225,"Ïģá½¹ÏĦÎ·":1226,"ĠÎ³Î¹Î½":1227,"Î¼ÎµÎ½Î¿Î¹":1228,"Î¿ÏĨ":1229,"Î¤":1230,"á¿ĨÏĥÎ±Î¹":1231,"á½·Î¿Î½":1232,"ĠÎ´ÏħÎ½á½±Î¼Îµ":1233,"Ġá¼ĢÎ½Î±Î³":1234,"ÏĦÎ¿Î¼":1235,"ĠÏĨá½±Ïģ":1236,"Î·Î¼Î±":1237,"Î½Î·ÏĤ":1238,"ÏĨÎ¸Î±Î»":1239,"ĠÏĦÏģá½¹":1240,"ÏĥÏĦá½±":1241,"ĠÎ§":1242,"á½·Î³":1243,"Ġá¼ĲÎ»":1244,"Î¼Î¿Î¹":1245,"Î¿Î½ÏĦÎ¿ÏĤ":1246,"ĠÎ±á½ĲÏĦá½¸ÏĤ":1247,"ĠÎ¹":1248,"Îł":1249,"Ġá¼ĢÏģÏĦÎ·Ïģá½·":1250,"á½±ÎºÎ¹ÏĤ":1251,"Î·ÏĥÎ¹Î½":1252,"ÎµÏĦÎ¿":1253,"ĠÎµá½ĳ":1254,"ÏĦÎ¯":1255,"Î¹Î³Î½":1256,"Î»Î¿Ïħ":1257,"ĠÎ¿á¼°Îº":1258,"Ġá¼ĦÎ½Î¸ÏģÏī":1259,"á½¹ÏĦÎ¹":1260,"Î¿ÏĢ":1261,"ĠÏĦÎ¹Î½Î±":1262,"Ġá¼£":1263,"á½´Î»":1264,"Ġá¼ĲÏĢá½·":1265,"Î¿á¿¦ÏĤ":1266,"ver":1267,"ÏĥÎ¿Î½ÏĦÎ±Î¹":1268,"Ġï":1269,"Î±Î²":1270,"á½·ÏīÎ½":1271,"ÎµÎ²":1272,"ĠÏĢÎ¹":1273,"á½µÏĥÎµÏīÏĤ":1274,"ĠHe":1275,"ÎŃÏģ":1276,"Îµá¼":1277,"Ġá¼¹ÏĢÏĢÎ¿ÎºÏģá½±":1278,"ly":1279,"ĠÎ´á½»Î¿":1280,"á½²Ïģ":1281,"Î¬Ïģ":1282,"ĠÎ¼Î±":1283,"Ġá¼ĶÎ¾Ïī":1284,"ĠÏĥÏħÎ¼ÏĢ":1285,"ÏģÎ¿á¿¦":1286,"ĠÎµÎ¹":1287,"Ġá¼ĲÎ¼ÏĢ":1288,"Ïģá¿¶Î½":1289,"ĠÏĥÎºÎ»Î·":1290,"ar":1291,"Ġ5":1292,"Ġá¼ħÏĢÎ±":1293,"Ġá¼¤ÏĦÎ¿Î¹":1294,"ĠL":1295,"Ġá¼ĢÎ³Î±":1296,"Ġth":1297,"á½¹Î¼ÎµÎ½Î¿ÏĤ":1298,"ĠÎ¿Ïħ":1299,"á½µÏĥÎµÎ¹":1300,"Î¼á½³Î½Î¿Î¹ÏĤ":1301,"ÏĢÎµÎ¹":1302,"ĠR":1303,"ĠÎ³Î»":1304,"ÏĢÎ¿ÏĤ":1305,"Î¿Î¼Î±Î¹":1306,"ĠÎ¾Î·Ïģ":1307,"ĠÎ¶á½½":1308,"á½¹Î¼ÎµÎ½Î±":1309,"Ïģá½·Î¿Ïħ":1310,"Î½ÎµÎ¹Î½":1311,"Ġá¼ĲÎ½Î±Î½":1312,"ÎºÎ»":1313,"Ġá½ĢÎ¾":1314,"ÏģÎ¿ÏĥÎ¸ÎµÎ½":1315,"ĠÏĨá½±ÏģÎ¼Î±":1316,"ĠÏĥÏī":1317,"Ġá½ĢÏĨÎ¸Î±Î»":1318,"ĠÎ³á½·Î½ÎµÏĦÎ±Î¹":1319,"ĠÏĥá½½Î¼Î±ÏĦÎ¿ÏĤ":1320,"Ġá¼£Î½":1321,"Ġá¼ģÏĢÎ»":1322,"ĠÎ´ÏħÎ½Î±":1323,"ĠÎ¼Î±Î»":1324,"Ġá½ĳÏĢá½²Ïģ":1325,"Î¼Î·":1326,"Ġá½ĢÎ´":1327,"ĠÎ»á½¹Î³Î¿Î½":1328,"ĠÎºÎ¿Î¹Î½":1329,"xx":1330,"Ġá¼ĥ":1331,"ĠÎ±á½ĲÏĦá½°":1332,"ĠÎºÎµÎ½":1333,"ĠÎ¼á½³ÏģÎ¿ÏĤ":1334,"Î¼á½³Î½Î·ÏĤ":1335,"Ġá¼ķÎºÎ±":1336,"ĠHeb":1337,"ĠÏĢÎ»Î·":1338,"ÏĦÎ±á½·":1339,"Î¾Î±Î½":1340,"Î¿á¿¦ÏĥÎ¹Î½":1341,"á¼ĲÏĢ":1342,"ĠÏĥÏĨÎ¿":1343,"ĠÎºÎ±Îº":1344,"Ġas":1345,"Ïģá½°":1346,"ĠÏĢÎ±Ïĩ":1347,"mg":1348,"ut":1349,"ÎµÎ¾á¿ĨÏĤ":1350,"Ġá¼ĶÎ¼ÏĢÏģÎ¿ÏĥÎ¸ÎµÎ½":1351,"Ġá¼ĢÎºÏģÎ¹Î²á¿¶ÏĤ":1352,"ĠÎ»ÏĮ":1353,"Ġá¼ĳÎºá½±ÏĥÏĦ":1354,"ĠÎ¸ÎµÏģÎ±":1355,"á¼ĢÎ»Î»á½°":1356,"Ġ(-":1357,"ÎļÎ±á½¶":1358,"ÎŁ":1359,"Ġfor":1360,"Î¬Î»":1361,"an":1362,"á½±Î»Î¹Î½":1363,"ve":1364,"á½³Î½Î±Î¹":1365,"ĠÏĦÎ¿Î¹Î¿á½»":1366,"Îµá½»":1367,"ĠÏĥÎ±ÏĨ":1368,"ÏĢÏīÏĤ":1369,"ÏĥÏĢ":1370,"ĠÎ¿á¼·Î¿Î½":1371,"ĠÏĦÎ¿á¿¦ÏĦ":1372,"ÏĦÎ±á¿¦":1373,"ĠÎµá¼´Î·":1374,"ĠÎ±á½ĲÏĦá¿ĩ":1375,"ĠS":1376,"ĠÎºÎ±ÏĦá½±":1377,"ion":1378,"Ġá½ĢÎ½Î¿Î¼á½±Î¶":1379,"ĠÎ±á¼·":1380,"ĠÎĽ":1381,"ĠÎ±á¼µ":1382,"Ġha":1383,"Î³Ïĩ":1384,"Ġá½ĢÎ½":1385,"ÎµÏģÎ³":1386,"Ġá¼ķÏīÏĤ":1387,"»¿":1388,"á½µÏĥÎµ":1389,"áµį":1390,"ĠÎ»á½³":1391,"Î¸Î¿ÏħÏĤ":1392,"ĠÎ»á½·":1393,"Ïģá½³":1394,"Ġá¼±ÎºÎ±Î½":1395,"ĠÏĢÏĮ":1396,"ÏģÎ±Î¹":1397,"ÏģÏī":1398,"ĠÏĦÏģÎ¿ÏĨ":1399,"ÎºÎ¹":1400,"RE":1401,"ÏħÏģÎ¯Î¿Ïħ":1402,"ĠÎ»ÎµÏĢÏĦ":1403,"REV":1404,"ĠÏĥÏħÎ¼Î²":1405,"Î»Î¿Î³":1406,"ĠÎ³á¿ĨÏĤ":1407,"ĠBáµĥ":1408,"ĠÎ±á½ĸ":1409,"ÏĥÎ±ÏĥÎ¸Î±Î¹":1410,"Î¿á½ķ":1411,"Ġ10":1412,"á½µÏĥÎµÎ¹ÏĤ":1413,"Î²Î¿Î»":1414,"vid":1415,"ĠÏĢÏģá¿¶ÏĦÎ¿Î½":1416,"Î¼Î±ÏĥÎ¹Î½":1417,"Î¼Î±Î¹":1418,"ĠÎµá¼°ÏĢ":1419,"ĠÎ½á½¹":1420,"ÏĦá½³ÏģÏīÎ½":1421,"BB":1422,"Ïĥá½·Î±ÏĤ":1423,"ĠÎºá½±ÏĦÏī":1424,"ÏĨÏħ":1425,"Î±Î³":1426,"Î´ÎµÎ»":1427,"BBREV":1428,"Ġ6":1429,"Î¿Î¯":1430,"á½±Î»Î»":1431,"im":1432,"Î¹Î¿Î¹":1433,"Î¼ÎµÎ½Î±":1434,"ĠÎ¸ÎµÎ¿á¿¦":1435,"Ġá¼ģÏĢá½±Î½ÏĦÏīÎ½":1436,"Î»Îµá½·":1437,"ĠÏĢÎ±Î¹":1438,"Î¯ÏīÎ½":1439,"á½ħÏĦÎ¹":1440,"Ġá½ĳÏĢÎµÏģ":1441,"ĠÎ´Î·":1442,"ĠÏĢÎ¿ÏĦ":1443,"ĠÎµá¼´ÏģÎ·ÏĦÎ±Î¹":1444,"Î¸Î±Î½":1445,"Îµá¿ĸÎ¿Î½":1446,"Î¿Î¼ÎŃÎ½":1447,"Î®Î»":1448,"ÏģÎ¿ÏĤ":1449,"Ġá¼ĢÎ´":1450,"ĠC":1451,"ĠÏĦÎ¿á½»ÏĦÎ¿Î¹ÏĤ":1452,"Ġá¼¡Î¼á¾¶ÏĤ":1453,"ĠÏĩÎµá¿ĸ":1454,"ĠT":1455,"Ġá¾ĸ":1456,"Ġá¼°Î±ÏĦÏģ":1457,"Î½Î¿Ïħ":1458,"ĠÏĩÏīÏģ":1459,"Â°]":1460,"ĠÏĢá½±Î»Î¹Î½":1461,"á¿¶Î´ÎµÏĤ":1462,"ĠÎļÏįÏģÎ¹Î¿ÏĤ":1463,"ÏģÎ¹Î¸":1464,"ĠÎ²Î¿":1465,"â¸ĥ":1466,"ÎĻ":1467,"Î¿ÏĦÎµ":1468,"ĠÎ¦":1469,"á½·Î½ÎµÏĥÎ¸Î±Î¹":1470,"ĠÏĨÎ»ÎµÎ²":1471,"Ġ8":1472,"ĠÏĨÎ»ÎµÎ³":1473,"Ġá¼ĲÎ³á½¼":1474,"ÏĩÎµÎ¹":1475,"Ġá¼°ÏĥÏĩÏħÏģ":1476,"ĠÏĢÎ±ÏģÎµ":1477,"ĠÏĦÎ¿Î¹Î±á½»":1478,"ĠÏĥÎ¼":1479,"Ġá¼ĲÏģÎ³":1480,"ÎµÏģá¿¶Î½":1481,"Ġï»¿":1482,"ĠÏĢÎ¿Î»Î»á½±ÎºÎ¹ÏĤ":1483,"ĠÎ´ÏħÎ½á½±Î¼ÎµÏīÏĤ":1484,"ĠÎµÏĢÎ¹":1485,"ĠÎ¼ÎµÎ³á½±Î»":1486,"Îĵ":1487,"á¿ĨÏĥÎ¸Î±Î¹":1488,"ĠâĢĻ":1489,"ĠI":1490,"ĠÏĢÏħÏģ":1491,"Ġ?":1492,"á½·Î½ÎµÎ¹":1493,"á½¥":1494,"ÏĢÏī":1495,"ĠÏĢÎ±Î»":1496,"Î¼á½³Î½Î±":1497,"Î³ÏģÎ±Î¼":1498,"ĠÏĢÏģÎ±":1499,"ĠÏĩÎµÎ¹":1500,"ĠABBREV":1501,"us":1502,"ĠÏĨÏīÎ½":1503,"Î¯á¾³":1504,"Ġá½ķÎ´Î±":1505,"ĠÎµá½ĲÎ¸":1506,"Ġá¼ĲÏĨÎµÎ¾á¿ĨÏĤ":1507,"ĠÎºÎ±ÏĦÎµ":1508,"Î¿Î¹ÏĦÎ¿":1509,"Î´ÏģÎ±":1510,"ĠÎ³Ïģá½±":1511,"ĠÎ³á½±Ïģ":1512,"ÏĢÏīÎ½":1513,"Ġá¼ĳÎºÎ±":1514,"ÏĪÎµÎ½":1515,"ÏģÎ¬":1516,"Î´ÏīÎ½":1517,"Î·ÏĦ":1518,"Ġá½ħÏĥÎ¿Î½":1519,"ĠÎ¸Ïħ":1520,"Î½ÎµÏħ":1521,"ÏĦÎµÏģÎ¿ÏĤ":1522,"ĠÏĢÎ½Îµá½»":1523,"ĠÎ²Î¿Ïħ":1524,"áµĲ":1525,"ĠÏĨÎ»ÎµÎ³Î¼Î¿Î½":1526,"ĠÎ³á½·Î³":1527,"ĠÎ³Î¿á¿¦Î½":1528,"ÏĥÎºÎµÏħ":1529,"hat":1530,"ĠÎ³ÎµÎ½á½³":1531,"Ġá¼ĢÎ»":1532,"ĠÎ¼á½µÏĦÎµ":1533,"ĠD":1534,"ÏĥÎ¿Î¹":1535,"Ġá¼Ĳá½°Î½":1536,"AQ":1537,"ĠÎĿ":1538,"Î¼Î¬":1539,"ĠÎ¼Î±Îº":1540,"ĠÏĩÎ¿Î»":1541,"ĠÎ±ÏħÏĦÎ¿Ïħ":1542,"Î¼á½³":1543,"Î³Ïī":1544,"Ġâ¸Ĥ":1545,"ĠÏĥÏĨÏħÎ³Î¼":1546,"ÏģÎ¸":1547,"Î³Î½Ïī":1548,"ĠÎºÏģá½·":1549,"ĠÏĩÎµÎ¹Ïģ":1550,"Ġá½ģÎ´":1551,"ĠÏĦÎ¿Ïį":1552,"Ġh":1553,"ĠÎ´á½»Î½Î±Î¼Î¹Î½":1554,"ĠÏĩÎ±Î»":1555,"ÏģÎ¹ÏĥÏĦ":1556,"âĻ":1557,"Î¿á½»ÏĥÎ·ÏĤ":1558,"âĻĥ":1559,"ĠÎ´ÏħÏĥ":1560,"ÏĩÎ¸Î·":1561,"Î¾Îµ":1562,"ÏĢÎ±Ïģ":1563,"Ġá¼ĦÎ½Ïī":1564,"ith":1565,"ĠÏĥÎ¹":1566,"Ġá¼ģÎ¼Î±Ïģ":1567,"ĠÎ£Î±":1568,"Î±ÏģÎº":1569,"ÏĥÏĦÎµÏģÎ¿Î½":1570,"Î¼Î¼Îµ":1571,"ÎºÎ±Î»":1572,"Ġá¼µÎ½Î±":1573,"Ġá½ĢÏģÎ³":1574,"ĠÎ¼á½³Î½ÏĦÎ¿Î¹":1575,"á½»Ïĩ":1576,"ÎµÎ¯":1577,"Î®Î½":1578,"ĠÎ´Î¹Î±Î¸á½³":1579,"Ġá½¥ÏĥÏĦÎµ":1580,"ÏĦá½¶":1581,"ĠÏĨÎ±ÏģÎ¼á½±ÎºÏīÎ½":1582,"ĠÎ±á¼´":1583,"á½·Î½ÎµÎ¹Î½":1584,"ĠÎ´á½³Ïģ":1585,"ab":1586,"áµĲáµį":1587,"á½´ÏĤ":1588,"ÏĦÏģÎ¹":1589,"ĠÏĢÏģá½¸":1590,"Ġsha":1591,"Ġá¼ĲÎ»Î±":1592,"Î±ÏģÎ³":1593,"ĠÎ³ÏħÎ¼":1594,"ĠÏĢÎ¿Î»á½º":1595,"á½½Î½":1596,"ĠÏĦÎ¿Ïĥ":1597,"ĠÎ¿á¼·ÏĤ":1598,"ÏĥÏĦÎ¹Îº":1599,"Î¸Î¹":1600,"ĠÎ²Î¹Î²":1601,"Î®ÏĥÎµÏĦÎ±Î¹":1602,"ĠÎºÎ¿Î¹Î»":1603,"Ġá¼ĲÎ½á½·":1604,"ord":1605,"Ïĥá½·Î±Î½":1606,"Î¿Ïĩ":1607,"Î¼á½³Î½Î·Î½":1608,"ĠÏ²":1609,"Ġá¼ķÏĦÎµÏģÎ¿Î½":1610,"ĠÎ¼Î·Î´á½²Î½":1611,"Î»Î¿ÏĤ":1612,"Ġá¼ĢÎ¼ÏĨ":1613,"Ġá¼ĢÎ³Î³":1614,"ĠÎ»Î¿Î³":1615,"ĠÎļÏħ":1616,"Ġá¼ĢÎ½Î±Î³ÎºÎ±":1617,"Ġá¾§":1618,"Ġ??":1619,"Ġá¼ĢÎ½ÏĦÎ¹":1620,"ĠÎ±á¼°ÏĦ":1621,"ĠÎ±á¼·Î¼Î±":1622,"Ġá½ħÏĢÏīÏĤ":1623,"ro":1624,"Î½Î¿Î¼Î±":1625,"Î³Î¹":1626,"ÏĨá½»":1627,"al":1628,"Ġá¼ĲÎ½ÎµÏģÎ³":1629,"Ġá¼ĶÏĥÏĦÎ¹Î½":1630,"Î¿ÏħÏĥÎ±":1631,"Î½ÎµÏĥÎ¸Î±Î¹":1632,"ĠÎ¼Î¹":1633,"Î´Î±ÏĤ":1634,"ĠÏĦÎ¿Î¹Î±á¿¦ÏĦÎ±":1635,"ĠÎ´á½·":1636,"á½µÎ¼Î±ÏĦÎ±":1637,"á½½ÏģÎ±":1638,"á½¹ÏĦÎ·ÏĦÎ±":1639,"ÏĥÎ±ÏĦÎ¿":1640,"ÏĦá½¹Î½":1641,"ĠÎºÎ±á½·":1642,"Ġit":1643,"ĠÎµÎº":1644,"ĠÎ¸Îµá½¸ÏĤ":1645,"ĠÎ´Î¹Î±ÏĨÎ¿Ïģ":1646,"ĠÏĦÎ·Î½":1647,"ĠÏĦÎ¿á½»ÏĦÎ¿Ïħ":1648,"á½´Ïģ":1649,"ĠÎ¼Î¿Ïģá½·ÏīÎ½":1650,"Ġ9":1651,"ÎºÏĦÎ±Î¹":1652,"ĠÏĢÎ¿ÏĦÎµ":1653,"ÏģÎµá½»":1654,"á½½ÏĥÎº":1655,"ĠÎ¼Î±Î»Î±Îº":1656,"Î²Î·":1657,"ÏĦÎ±á¿¦Î¸Î±":1658,"Ġá¼¡Î¼ÎŃ":1659,"ĠÏĥÏĦá½¹":1660,"ÏįÎ½":1661,"ĠÏĢÎ»á½³Î¿Î½":1662,"Î¿Î¾":1663,"ĠQmg":1664,"á¿ĸÎ¿Î½":1665,"ce":1666,"ÏĦÏģá½·":1667,"hab":1668,"ÏĦá½³ÏģÎ±ÏĤ":1669,"ĠÏĦÏģá½¹ÏĢÎ¿Î½":1670,"Ġá¼ĢÎ»Î»á½µÎ»":1671,"ĠÏĦÎ¿á¿ĸ":1672,"á¿¦Î¼Î±":1673,"Ġá¼ĶÏĩÎµÎ¹Î½":1674,"Ġá¼ĦÎ»Î»Î±":1675,"Ġá¼ĢÎ³Î±Î¸":1676,"ÎµÎ¹Î»":1677,"ĠÎ¸ÏħÎ¼":1678,"Î¿Î¼á½³Î½Î·ÏĤ":1679,"ĠÏĩÏīÏģá½¶ÏĤ":1680,"Îºá½³":1681,"Î¾ÎµÎ½":1682,"ÎµÏĥ":1683,"ÎºÎµá¿ĸ":1684,"ĠÎ±Î½":1685,"Ġá¼ĶÏĨ":1686,"Î»Ïħ":1687,"Î»Î»Î±":1688,"ĠÎºá½¹":1689,"ĠBáµĥáµĩ":1690,"em":1691,"ÎµÎº":1692,"ĠÎ´Î±Îº":1693,"ĠÎ»Î¹":1694,"ĠÎµá¼°Ïģ":1695,"ĠÎµá½Ķ":1696,"Î»Î¸ÎµÎ½":1697,"Î¿Î½ÏĦÎ±ÏĤ":1698,"Î³ÏīÎ½":1699,"ii":1700,"Î¼Î¿á½¶":1701,"ĠÏĦÎ¿Î¹Î¿á¿¦ÏĦÎ¿Î½":1702,"ÎºÎ±ÏĦá½°":1703,"ÏĥÎ·":1704,"ĠÎ³Î¹Î³Î½":1705,"ĠÎ»á½¹Î³á¿³":1706,"ĠÏĦÎŃ":1707,"Ġá¼ĲÏĢÎµÎ¹Î´":1708,"ÏĦá½³ÏģÎ±Î½":1709,"Î»Î¹Îº":1710,"Ġá¼ķÎºÎ±ÏĥÏĦÎ¿Î½":1711,"ÏģÎ¼":1712,"Î±Î½Î±":1713,"ĠÎ´Î¹Î´":1714,"á½½Î´Î·":1715,"ĠÏĩÎ¹":1716,"Ġá¼ĢÎ½Î¸Ïģá½½":1717,"ĠE":1718,"ĠÎľÏī":1719,"ĠÎºá¾ĢÎ½":1720,"Î¿á¼±":1721,"ĠÎ³á¿ĨÎ½":1722,"á½·Î½ÏħÎ½":1723,"ĠÏĨá½±ÏģÎ¼Î±ÎºÎ¿Î½":1724,"ÏĦÎ¹Î¿Î½":1725,"ĠÏĦÎ¿á½·Î½ÏħÎ½":1726,"ĠÏĢá½±Î½ÏĦÏīÎ½":1727,"ÏĦÎ¬":1728,"Ġshall":1729,"Ġá¼ĢÎ´ÎµÎ»":1730,"Ġá½ħÎ»ÏīÏĤ":1731,"il":1732,"Ġá¼ĲÎ³á½³Î½":1733,"ĠÏĢÎ±Î½ÏĦá½¸ÏĤ":1734,"ĠÏĢÎ»Îµá½·":1735,"ÎºÏģÎ±":1736,"Î´Î¹á½°":1737,"ĠÏĦÎµÎ»Îµ":1738,"ÏĩÎ½":1739,"Ġá¼ĵ":1740,"ĠÎºá½·Î½":1741,"Ġá½ĥÎ½":1742,"Ġá¼ĢÏĥ":1743,"ĠÏĢÎ±Î»Î±Î¹":1744,"th":1745,"ers":1746,"Î´á½¹":1747,"ÏħÏĨ":1748,"ĠÎ´Ïį":1749,"Î¼Î¿á½ºÏĤ":1750,"ĠÎ³ÏħÎ½":1751,"cr":1752,"ÏĥÎ¿Ïħ":1753,"Ġá¼ĲÎºÎµá¿ĸ":1754,"ĠÎ¿Î¹":1755,"á½¼ÏĤ":1756,"ĠÎ´ÎµÏħÏĦ":1757,"ÏĩÏģ":1758,"Ġá¼ĦÎ»Î»Î¿":1759,"Î¿Î¼á½³Î½Î¿Ïħ":1760,"Î»Îµá½»":1761,"ĠÏĦÎ±Ïĩ":1762,"Ġá¼¸ÏĥÏģÎ±á½´Î»":1763,"ĠÎŁ":1764,"Î»Î¿":1765,"Ġnot":1766,"Î·Îº":1767,"Ġá¼ĲÎ¾Îµ":1768,"ĠÏĢá¾¶Î½":1769,"Ġá½ģÎ¼Î¿á½·ÏīÏĤ":1770,"ĠÏĦÎ¿á½»ÏĦá¿³":1771,"ĠÏĢÎ¿ÏĦá½²":1772,"Îµá½·ÏīÎ½":1773,"ĠÏĢÎ»Îµá¿ĸ":1774,"ĠÏĦÎµÏĦ":1775,"Ġ14":1776,")]":1777,"Ġhe":1778,"Î¿Î²":1779,"Ġá¼ĳÏĦá½³Ïģ":1780,"Ġg":1781,"Ġthat":1782,"ĠÏĥá½»Î¼ÏĢ":1783,"ÏĦÎµÎ»":1784,"ĠÏĥÏĢÎ»":1785,"ÏĦÎ¹Îºá½¸Î½":1786,"ad":1787,"ĠÏĢÎ»á¿Ĩ":1788,"Ġá¼ĶÏģ":1789,"Ġá¼±ÎµÏģ":1790,"Î´ÏīÏģ":1791,"Î¿á¿ĸÎ½":1792,"ÏĩÎ±":1793,"á¼ĢÎ½":1794,"á½¡":1795,"Ġ7":1796,"á½ĳ":1797,"Îµá¿ĸÎ±":1798,"ÏĥÎ¸Ïī":1799,"Îµá½·Î±Î½":1800,"ĠÎ½Î¿Î¼":1801,"ÏħÎ½Î±":1802,",âĢĻ":1803,"ÏĩÎµ":1804,"Ġ11":1805,"ĠÏĦá¿Ĩ":1806,"Ġá¼ĢÎ½á½°":1807,"Ġá¼¸ÎµÏģ":1808,"Ġá½ĳÎ¼á¿ĸÎ½":1809,"Ġá¼ĶÎ¾ÏīÎ¸ÎµÎ½":1810,"á½µÎ¼":1811,"ÏĦá½»Î»":1812,"á½»Ïģ":1813,"Î±Î½Î¸":1814,"Ġal":1815,"ÏĢá½¹":1816,"ĠÏĥÏħÎ½Î±":1817,"á½½ÏĥÎµÏīÏĤ":1818,"ĠÏĥá½ºÎ½":1819,"ĠÎ´á½¹":1820,"Ġá¼ĳÎ½":1821,"ÏħÏĥÎµÎ½":1822,"ĠÏĨÎ±á½·Î½ÎµÏĦÎ±Î¹":1823,"ĠÏĥÎ·Î¼":1824,"ÎºÎ±ÏĦÎ±":1825,"Ġá¼ĢÏĢá½¹":1826,"ÏĩÏīÏģ":1827,"ĠÎ±ÏĢÎ¿":1828,"ÏĪÎµ":1829,"Ġ2âģ°":1830,"Î´Î¿á½º":1831,"Î¾ÎµÏīÏĤ":1832,"ÏĥÎ¸Î±á½·":1833,"Ġse":1834,"Ġá½ħÎ»Î¿Î½":1835,"ĠÏĦÎ¿Î½":1836,"ĠÏĢÏħÎº":1837,"ĠÏħá¼±Î¿á½¶":1838,"á¼ĺ":1839,"ĠÎ¼ÎµÎ¸":1840,"ÎºÎ¿Î½ÏĦÎ±":1841,"Ġá¼ĶÎ³ÏģÎ±":1842,"Î¸ÏħÎ¼":1843,"Ġá¼ĶÎº":1844,"á½¹ÏĦÎ±":1845,"ÏĦÎ¹Î½":1846,"ĠÎ´Î¹Î±ÏĥÏĦ":1847,"Î»Î±Î¼Î²":1848,"Ġver":1849,"ÏĦá½¹ÏĤ":1850,"ĠÎ¿á½ĹÏĦÎ¿ÏĤ":1851,"Î»Î¿Î¹":1852,"ent":1853,"ĠÎ´ÎŃ":1854,"ĠÎļÏħÏģÎ¯Î¿Ïħ":1855,"Î¿á¿¦Î½ÏĦÎµÏĤ":1856,"ĠÎ»ÎµÏħÎº":1857,"Ġwith":1858,"ÏģÎ±ÏĨ":1859,"ĠÎ±á¼µÎ¼Î±ÏĦÎ¿ÏĤ":1860,"ĠÏĥÏħÎ½ÎµÏĩ":1861,"á¿ĨÎ¼Î±":1862,"Î¯Î¶":1863,"ĠÎ²Î»á½±":1864,"ÏĢÎµÎ¹Î½":1865,"ĠÎºÏį":1866,"ÏĦÎ¿á½»":1867,"Ġá¼ĲÎºÎµá¿ĸÎ½":1868,"ÏģÎµÏħ":1869,"ÎµÏĥÏĦ":1870,"ĠÎ¸á½½ÏģÎ±":1871,"Î¼á½³Î½Î·":1872,"Î½ÏĦÏīÎ½":1873,"á½Ģ":1874,"?)":1875,"ķÏĦÎ·":1876,"Ġá¼ķÎ»Îº":1877,"ĠÎ¼Ïħá¿¶Î½":1878,"ay":1879,"Î»Ïī":1880,"Ġá¼ĢÏģÏĩá½´Î½":1881,"Î¾Î±Î¹":1882,"Ġá¼§ÏĦÏĦÎ¿Î½":1883,"ÎĿ":1884,"ĠÎĺ":1885,"ĠÏĢÏģá½¹ÏĥÎ¸ÎµÎ½":1886,"ÏĥÎ±ÏĦÎµ":1887,"Î¬Î¶":1888,"Î»á½»":1889,"ÏģÎµÏĤ":1890,"ĠÏĢÎ¿Î»Î»á½°":1891,"ĠÎ¸ÎµÏģÎ±ÏĢÎµ":1892,"Ġá¼ĶÎ¸":1893,"Ġá½ĢÎ»á½·Î³Î¿Î½":1894,"ĠÎ»á½¹Î³Î¿ÏĤ":1895,"ÏĩÎ¿ÏĤ":1896,"ÎµÏģá½¶":1897,"Î¸ÎµÏĥÎ¹Î½":1898,"ĠÏĦÎ¹Î½Î¿ÏĤ":1899,"ĠÏĥÏĢá½³Ïģ":1900,"ĠÎ»ÏĮÎ³":1901,"Î¼Î¿ÏĤ":1902,"Ġá¼°Î´":1903,"ĠÎĶÎ±Ïħ":1904,"ÏĦÏħ":1905,"á¼¢":1906,"ÏĥÎµÏīÎ½":1907,"Î»Î¯":1908,"âĦ":1909,"ĠÎ»ÎµÏĢ":1910,"ĠÎ¸ÎµÏģÎ¼á½¸Î½":1911,"âĦµ":1912,"Î¿á¿¤á¿¥":1913,"ĠÏĢÏģÏĮ":1914,"ĠÎ»Î¿Î¹":1915,"gh":1916,"Îķ":1917,"ĠÏĨá½»ÏĥÎµÏīÏĤ":1918,"ĠÏĢÎ»á¿ĨÎ¸Î¿ÏĤ":1919,"ÏĪÎ±Î½":1920,"Î¸á½³Î½":1921,"Î¼ÎµÎ¹Î½":1922,"á½³Î»":1923,"Î¿á¿¦ÏĥÎ¹":1924,"ĠÎ³ÎµÎ³ÏģÎ±Î¼":1925,"ÏĦá½´Î½":1926,"ĠÎ±á¼°ÏĥÎ¸":1927,"ĠÏĢÏģÎ¿ÏĥÎµ":1928,"Ġ13":1929,"á½·Î½Î¿Î½ÏĦÎ±Î¹":1930,"ÏĦÎµÎ¹":1931,"Ġá¼ķÎ½Îµ":1932,"Î¿Î¼á½³Î½Î·":1933,"Ġá½łÏĨ":1934,"Î±Ïĥ":1935,"Ġá½ĳÏĢá½±ÏģÏĩÎµÎ¹Î½":1936,"ĠÏĢÎ¬Î½ÏĦÎ±":1937,"the":1938,"ĠÎ²á½±":1939,"ĠÏĦÏī":1940,"Î¸Î¹ÏĤ":1941,"Ġá¼ĢÏģÏĩá¿ĨÏĤ":1942,"ĠÎ´á½µ":1943,"ÏĪÎ±":1944,"ĠÏĥÎ¼Î¹Îº":1945,"ÎºÎ·ÏĤ":1946,"ÏĨÎµÏģ":1947,"á½µÎ¼Î±ÏĦÎ¿ÏĤ":1948,"á½¹ÏĦÎµÏģÎ¿Î½":1949,"Ġá¼ĲÎ½Î±Î½ÏĦá½·":1950,"Ġá¼ĲÎ¼ÏĨ":1951,"Ġá½ħÏĢÎµÏģ":1952,"Ġá¼ĲÎ¾Î·Î³":1953,"and":1954,"Î¿á½ķÏĦÏī":1955,"Î¸Îµá¿ĸÎ½":1956,"Î¼Î±ÏĥÎ¹":1957,"Ġá¼ĲÎ½á½·Î¿ÏĦÎµ":1958,"ĠÎ´ÏģÎ¹":1959,"ĠÏĥÎ±ÏģÎº":1960,"ĠÏĦÎ¹Î½á½°":1961,"ĠÎ¼á½¹ÏģÎ¹Î±":1962,"Î¼á½°ÏĤ":1963,"le":1964,"ĠÎµá¼´ÏĦÎµ":1965,"Ġá¼ĢÏģÏĦÎ·Ïģá½·Î±ÏĤ":1966,"ĠÎ¿á½ĶÏĦ":1967,"Ïģá¿·":1968,"Ġá½ķÎ´ÏīÏģ":1969,"ĠÎ¿á½ĲÎ´Îµ":1970,"Ġá¼ĢÎµá½¶":1971,"ĠÎ¼á½³ÏĩÏģÎ¹":1972,"ĠÏĨÎ¸":1973,"Ġá¼¡Î¼á½³ÏģÎ±ÏĤ":1974,"ĠÎ¸Î±Ïħ":1975,"Â¹":1976,"ĠÎ¼á½µÏĦ":1977,"ÏĨÏħÎº":1978,"ĠÎ³ÎµÎ½á½³ÏĥÎ¸Î±Î¹":1979,"á¼´":1980,"ĠÎ¾Î·ÏģÎ±":1981,"Ġ12":1982,"ÏĨÎ±Î½":1983,"Ġá¼ĵÎ½":1984,"ÏĪÎµÎ¹":1985,"Î¼á½¸Î½":1986,"ur":1987,"ÏĢá½³":1988,"Î±á½Ĳ":1989,"Ġá¼ĢÎ¾Î¹":1990,"ĠÎ²Î±ÏĥÎ¹Î»ÎŃ":1991,"á¿¶ÏĥÎ¹Î½":1992,"ĠÏĥÎ¿ÏĨ":1993,"ÎºÎ±Î¸":1994,"ÏĢÎ»Î±":1995,"ĠâĦµ":1996,"ÏĨá½±Î»":1997,"Î¼á½³Î½Î¿ÏħÏĤ":1998,"ĠÏĦÎ¯":1999,"Î¼Î±Î¶":2000,"Ġá¼ħÏĢÎ±Î½ÏĦÎ±":2001,"ĠÎ´Î·Î»Î¿Î½":2002,"ÎłÎµÏģá½¶":2003,"Ġá¼¸Î·Ïĥ":2004,"ĠÎºÎ±Î»á¿¶ÏĤ":2005,"Ġá¼¹ÏĢÏĢÎ¿ÎºÏģá½±ÏĦÎ·ÏĤ":2006,"ĠÎ´Îµá¿ĸ":2007,"Ġá¼ĢÎ½á½±Î³":2008,"âĢĻ,":2009,"Ġá½ĢÏģÎ¸":2010,"ÏĦá½¹":2011,"ĠÎ²Î¹Î²Î»á½·":2012,"ÏĦÎ¹Îºá¿ĨÏĤ":2013,"Ġá½ĳÎ¼á¾¶ÏĤ":2014,"á½·á¾³":2015,"Ġá¼ĲÏĢÎµ":2016,"ÎºÎ±ÏĤ":2017,"á¼ĲÏĢá½¶":2018,"ÏĥÎ¿ÏħÏĥÎ¹Î½":2019,"á½µÏĥÎ¹":2020,"ow":2021,"Î²Î±Î»":2022,"ĠÏĢÏħÎºÎ½":2023,"ÏģÎ¿Ïĥ":2024,"Ġá¼ĳÎ»Îº":2025,"á½¹Î¼ÎµÎ½Î¿Î¹":2026,"Ïĥá¿³":2027,"á¼ĶÏĥÏĦÎ¹":2028,"ĠÎµÎ¹ÏĤ":2029,"ĠÏĩÏģÎ·":2030,"Î¿Î»Î¿Î³":2031,"Îµá¼¶":2032,"Î¸Î·ÏĥÎ±Î½":2033,"Î¹ÏĥÏĦ":2034,"Î³Îº":2035,"Ġá¼ĲÏĢÎ¹Îº":2036,"Î²á½±Î»Î»":2037,"...":2038,"Ġá¼ĳÎ¾":2039,"ĠÎĳá¼°":2040,"Ġ15":2041,"Ġá¼ģÏĢÎ»á¿¶ÏĤ":2042,"ĠÎ´Î·Î»":2043,"Ġá½ĳÏĪ":2044,"ĠÎ±á½ĸÎ¸Î¹ÏĤ":2045,"nt":2046,"ÏĨÏīÎ½":2047,"ĠÏĢÏģÎ¿ÎµÎ¹":2048,"Ġá¼ĲÏģÎ³á½±Î¶":2049,"á½³ÏīÎ½":2050,"Ġá½ĦÎ½Î¿Î¼Î±":2051,"Ġá¼ĢÎ½Î¸ÏģÏİ":2052,"ÎºÎ½Ïħ":2053,"ÎºÎ±á½·":2054,"ĠÎ³ÎµÎ½Î½":2055,"ĠÎµá¼°ÏĢÎµá¿ĸÎ½":2056,"Ġá¼ĢÎ½Îµ":2057,"Ġ1âģ°":2058,"Î¿Î¼á½³Î½Î¿Î¹ÏĤ":2059,"Ġá¼¸Ïī":2060,"Ġá¼ĲÎ¼Î²":2061,"á½³Î±":2062,"Î®Î¼":2063,"Ġ16":2064,"Ġ22":2065,"á½Ķ":2066,"Î³á½¼":2067,"ĠÏĦÎ¿á¿¦ÏĦÎ¿Î½":2068,"as":2069,"ĠÎ³Î¿":2070,"á¿ĥÏĤ":2071,"ĠÎ½Îµá½»":2072,"ÏĦÏĦÎµÎ¹Î½":2073,"ĠÏĥÎ±ÏĨá¿¶ÏĤ":2074,"Ġá½¦":2075,"ÏģÎµÎ¹":2076,"ÏĥÎ¿Î¼Î±Î¹":2077,"á¿¤á¿¥Ïī":2078,"Î¿ÏħÏĥÎ±Î»":2079,"Î¹Î³":2080,"Î¯á¿³":2081,"Ġor":2082,"ĠÎ»ÎµÎ³":2083,"ĠÏĢÎ¬":2084,"ÏĪÎ±Î¹":2085,"ĠÎµá½ĳÏģ":2086,"Î»Î±Î¹":2087,"Ġá¼ĲÎ³á½³Î½ÎµÏĦÎ¿":2088,"Ġá¼ĲÏĢÎ±":2089,"ĠÏĩÎ±":2090,"ct":2091,"ĠÎ»á½·ÏĦ":2092,"Ġá¼ĲÎ½Î±ÏģÎ³":2093,"ÏĦÎ®":2094,"Ġá¼ĢÎ¸":2095,"ĠÏĥÏĨÎ¿Î´Ïģ":2096,"Î£":2097,"á½»ÎµÎ¹Î½":2098,"Î·Î¼á½±ÏĦÏīÎ½":2099,"ĠÏĢÎ½Îµá¿¦Î¼Î±":2100,"ÏĬ":2101,"ÏģÎ±Î¼":2102,"ĠÏĨÎ»á½³":2103,"ĠÏĢÎ¿Î½":2104,"ÏģÎ¹Îµ":2105,"á½¹ÏĦÎ·ÏĦÎ¿ÏĤ":2106,"ĠÎµá¼°ÏģÎ·Î¼á½³Î½ÏīÎ½":2107,"Ġ17":2108,".,":2109,"Ġá¿":2110,"ÏĥÎ¼Î±":2111,"rom":2112,"ĠÏĦÏīÎ½":2113,"Î´Î¹Îº":2114,"ĠÎºÏģÎ±":2115,"Ġ19":2116,"ÏĥÏħ":2117,"Ġá¼ĦÏģÏĩ":2118,"Ġá¼ĢÏĥÎ¸ÎµÎ½":2119,"ÏĥÏĦÏģÎµ":2120,"ÏĦÎ·ÏģÎ¹":2121,"ĠÏĩÏħÎ¼á¿¶Î½":2122,"Ïģá½¹Î½":2123,"ĠÎ´Î¹Îµ":2124,"ÏĥÎ±á½»":2125,"ÏĢÏĦÎ¿Ïħ":2126,"á½»ÏĦÎµÏģÎ¿Î½":2127,"ĠÎ´á¿Ĩ":2128,"ÏĦÎ±Î¹ÏĤ":2129,"ĠÎ¶á¿¶":2130,"Ġá¼ĦÏĩÏģÎ¹":2131,"Î¼ÏīÏĤ":2132,"á½½Î´Î·ÏĤ":2133,"ĠÏĦá½³Ïĩ":2134,"ĠÎºÎ·Ïģ":2135,"ĠÏĢÎ»Î±":2136,"ÏģÎ¹Îº":2137,"á¼ĲÎº":2138,"Î»ÏīÎ½":2139,"ĠÎºÏī":2140,"ÏĦÎ±á¿ĸÏĤ":2141,"ĠÎºÎµÏĨÎ±Î»á¿ĨÏĤ":2142,"Ġá¼±ÎºÎ±Î½á¿¶ÏĤ":2143,"ĠG":2144,"ÏģÎ¿ÏħÏĤ":2145,"ĠÎºÎµÏĨÎ±Î»á½´Î½":2146,"ÏĩÎ¿Î½":2147,"ĠÏĦÎ±á½»ÏĦÎ·Î½":2148,"Ïģá½¹ÏĦÎ·ÏĦÎ±":2149,"Ġwh":2150,"á½¹Î¼ÎµÎ¸Î±":2151,"ĠÏĩÏħÎ»":2152,"Ġá½ĳÏĢá½¹":2153,"ĠÎ´Î·Î»Î¿Î½á½¹ÏĦÎ¹":2154,"ÎµÏĦÎµ":2155,"ÏĢÏĦÎµ":2156,"ĠÎ²Î±ÏĥÎ¹Î»Îµá½ºÏĤ":2157,"á½·Î½Î¿Ïħ":2158,"ĠÏĢÎ±ÏģÎ¿Î¾":2159,"Î´Î·Î»Î¿Î½":2160,"Î¿á¿¦Î½ÏĦÎ±Î¹":2161,"Î»á½³ÏīÏĤ":2162,"id":2163,"Ġá¼ĦÎ»Î»Î¿Î¹ÏĤ":2164,"ĠÎ¼Î·Î´á½²":2165,"ĠÏĨÎ¹Î»":2166,"Î¿á½»ÏĤ":2167,"ĠÎ½Îµá¿¦":2168,"ĠÏĢÏģá½¹ÏĦÎµÏģÎ¿Î½":2169,"ĠÏĦÎ¿ÏĥÎ¿á¿¦ÏĦÎ¿Î½":2170,"á¾¶ÏĥÎ¸Î±Î¹":2171,"ĠÎºÏģÎ¹":2172,"ĠÎºÏģá½±":2173,"ÏģÎ¿á½ºÏĤ":2174,"Î¿á½»Î¼ÎµÎ½Î¿Î½":2175,"á½¡ÏĤ":2176,"ĠÎ¿á½ĲÏģÎ±Î½":2177,"ÏĢá¿³":2178,"ÏĪÎµÏīÏĤ":2179,"Ġá¼¢Î½":2180,"Ġá¼ĢÏĢá½³":2181,"Ïĥá¿¶Î½":2182,"ĠÎ´ÏģÎ±ÏĩÎ¼á½°ÏĤ":2183,"ĠÏĨÏħÎ»á½±":2184,"ĠÎ¶Î·":2185,"ĠÏĢÎµÏĢÎ¿Î½":2186,"ÏĦá½½":2187,"Î¼á½´":2188,"Ġá¼ĢÏĢÎµ":2189,"ĠÏĦÎ¿Î¹Î¿á¿¦":2190,"Ġá¼ĶÎ½Î¹Î¿Î¹":2191,"ÏĦÎ±Ïģ":2192,"ĠÏĢÎ±Î¸":2193,"á½·Î½Î·ÏĤ":2194,"Ïģá½°Î½":2195,"Ġá½ĳÎ³Î¹":2196,"Ġá¼ĲÏĢÊ¼":2197,"ĠÏĥÏĦÎ¿":2198,"am":2199,"Ġ18":2200,"Î¼Î¿á¿¦":2201,"ĠÏĩÏīÏģá½·":2202,"XX":2203,"Ġá¼ĢÏĢÎ¿Îº":2204,"od":2205,"Ġá¼ĦÎ½ÎµÏħ":2206,"ĠÏĢÎµÏĢÎ¿Î½Î¸":2207,"á½·á¿³":2208,"Îµá½·Î·":2209,"ÏģÎµÏį":2210,"Î´Î¹Î±":2211,"ĠÎºá½»ÏģÎ¹Î¿ÏĤ":2212,"Îµá¼´":2213,"ost":2214,"âĢĶ":2215,"ÏĦÎ¿á½ºÏĤ":2216,"Ġ20":2217,"ĠÎ±á¼°ÏĦá½·":2218,"ÏģÏħ":2219,"Ġá¼ĢÎ¼ÏĨÎ¿":2220,"ĠÎ´Î¹ÎºÎ±Î¹":2221,"ÎºÎ¬":2222,"ĠÏĥá½º":2223,"ÏĦÎ¿á¿ĸÏĤ":2224,"á¿ĨÎ»Î¸ÎµÎ½":2225,"Î¼á½³Î½á¿³":2226,"Ý²":2227,"á¼Ĳá½°Î½":2228,"ĠÏħá¼±á½¸ÏĤ":2229,"Î¹ÏĥÎ¼":2230,"ĠÏĢÏģÎ¿ÎµÎ¹ÏģÎ·":2231,"á½³ÏģÎ±ÏĤ":2232,"ĠÏĦÎ¿Î¹Î¿á½»ÏĦÏīÎ½":2233,"Ġá¼ĢÏģÎ¹Î¸":2234,"ĠÎ±Î¹":2235,"ĠÎ¼á½¹ÏģÎ¹Î¿Î½":2236,"ÏĪÎ±ÏĤ":2237,"ĠÏĩá½½":2238,"ĠÎ´ÏĮ":2239,"Î³ÎµÎ¸Î¿ÏĤ":2240,"ÏĥÏĦÎ¿ÏĤ":2241,"Ġá½ĢÎ»á½·Î³":2242,"ÎºÎµá½·":2243,"ÏĢÎ»á½±":2244,"Ġá¼ĲÎ´":2245,"Ġá¼ĢÏĢÎŃ":2246,"ĠÎ³á½·Î³Î½ÎµÏĦÎ±Î¹":2247,"Î¿Î½ÏĦÎ¿":2248,"ĠÎµÎ¾":2249,"Î¿Ïģá½·":2250,"Ġá¼ĢÎ»Î·Î¸":2251,"ĠÏĥá½»Î½":2252,"ĠÏĦÎ±á½Ĳ":2253,"á¾¶ÏĦÎ±Î¹":2254,"ĠÏĨÎ»ÎµÎ³Î¼Î±":2255,"Ġá¼¸ÎµÏģÎ¿ÏħÏĥÎ±Î»":2256,"ĠÎºÎ±ÏģÏĢ":2257,"Ġá¼ĲÏĥÏĩ":2258,"ÏĥÏĦÎ¿Ïħ":2259,"ĠÏĥÎºá½³":2260,"ĠÏĢá½±Î½ÏĦÏīÏĤ":2261,"ĠÎºá¾ĤÎ½":2262,"ĠÎºá½±Î¼Î½":2263,"ÏĢÏĦÎ¿Î½":2264,"ĠÎ¼á½·":2265,"ere":2266,"Î³Ïģá½±":2267,"ÏĥÎ±Î½ÏĦÎµÏĤ":2268,"ÏĮÎ½ÏĦÏīÎ½":2269,"Î¹Î¶":2270,"ĠÎ¼ÎµÏĦÎ±Î¾":2271,"á½½Î´Î¿ÏħÏĤ":2272,"ÏĪÎ¹Î½":2273,"ĠÎ´ÎµÎ¾Î¹":2274,"ÎºÎ·":2275,"Îºá¿³":2276,"ĠÎºÎ±Î¸Î±Ïģ":2277,"Ġá¾Ĺ":2278,"ĠÏĢÎµÏĢ":2279,"Ġá¼ĦÎ½Î¸ÏģÏīÏĢÎ¿ÏĤ":2280,"ĠÏĦÎ·":2281,"ĠÏĦÎ·ÏĤ":2282,"ĠÏĨÎ±Î½":2283,"Ġon":2284,"ĠÏĨá½»ÏĥÎ¹ÏĤ":2285,"ÎµÎ´":2286,"ĠÎ½ÎµÏĨ":2287,"ĠÎ³ÏħÎ½Î±Î¹":2288,"Ġá¼§ÏĤ":2289,"ich":2290,"Î¿Î¼á½³Î½Î·Î½":2291,"ÏīÎ´":2292,"ÏĦÎµÏģÎ¿Î¹":2293,"á½±Î»Î±":2294,"Ġá¼ĢÏģÎ³":2295,"ĠÏĦÎ±á½»ÏĦÎ·ÏĤ":2296,"ÏĦá¿·":2297,"ÏĦÎ¹Îºá¿¶Î½":2298,"ĠÎ³Î»ÏħÎº":2299,"Ġá¼ĢÎ´ÎµÎ»ÏĨ":2300,"ĠÏĥÏħÏĥÏĦ":2301,"ĠÎ³ÎµÎ³Î¿Î½":2302,"ĠÏĨá½»ÏĥÎµÎ¹":2303,"Î¸Îµá½¶ÏĤ":2304,"ÏĦá¿ĨÏĤ":2305,"Ġá¼ĲÏĢÎ¹ÏĥÏĦ":2306,"ÏīÎ¼Î±":2307,"á½¹Î³":2308,"ĠÎ²ÏģÎ±":2309,"Ïģá½¹ÏĦÎµÏģÎ¿Î½":2310,"ĠÎ´ÏģÎ¹Î¼":2311,"á½µÎ¸Î·":2312,"ĠÏĢÏģÎ¿ÏĨ":2313,"á½±Î½ÏīÎ½":2314,"ĠÏĢá½±Î½Ïħ":2315,"ĠÏĩÏģá½¹Î½á¿³":2316,"ĠÏĦÏĮ":2317,"ĠÎ»ÎµÎ¹":2318,"ÏĦÏģÎ¿Î½":2319,"Ġfrom":2320,"ĠÎ»ÎŃÎ³ÎµÎ¹":2321,"ĠÎºÎ±ÏĦÎ¿Î¹":2322,"ĠÏĢÎ»á½µ":2323,"The":2324,"ÏģÎŃ":2325,"Î±Î¸":2326,"Ïĥá½¶":2327,"ĠÏĦÏģÎ±Ïĩ":2328,"ÏĢÎ·":2329,"ĠÏĥÎºÎ¿ÏĢ":2330,"Î¿á¿Ĩ":2331,"ĠÎ¼Î±Ïģ":2332,"Ġá¼¡Î¼Îµá¿ĸÏĤ":2333,"ĠÎ¼á½³Î³ÎµÎ¸Î¿ÏĤ":2334,"Î®ÏĥÎµÎ¹":2335,"ĠÏĢÏģÎ¿ÏĥÎ¸":2336,"Ġá¼ĢÏĢÎ¿ÏĥÏĦ":2337,"á¾·Î½":2338,"Î´á½·ÏīÏĤ":2339,"Î½ÎµÏĦÎ¿":2340,"ÏĦÏģá½³":2341,"ĠÎ´ÏħÎ½á½±Î¼":2342,"ÏĢÎ½Î¿":2343,"Ġá¿¬":2344,"ÏĦÎ·Ïģ":2345,"ĠÏĦÎ¹Î½ÎµÏĤ":2346,"á¼Ī":2347,"ke":2348,"ÏĩÎ¹":2349,"ĠÏĢÎ±ÏģÎ±ÏĢÎ»":2350,"ĠBáµĩ":2351,"ÏĥÎ±Î¹ÏĤ":2352,"ĠÏĢÎ½Îµá½»Î¼Î¿Î½":2353,"Î½Î±Î½":2354,"ĠÎ»Î±Î¼Î²":2355,"ear":2356,"ĠÏĢÏģÎ±Î³Î¼Î±":2357,"ĠÏĢÎ¹Îº":2358,"á¿¦ÏĤ":2359,"Ġá¼ĦÎ½Î¸ÏģÏīÏĢÎ¿Î½":2360,"ĠÎºÎ±ÎºÎ¿":2361,"ĠÎ»á½³Î³ÎµÎ¹Î½":2362,"ĠÎ¼ÎµÏĦÎ±Î¾á½º":2363,"Î¾ÎµÎ¹ÏĤ":2364,"ĠÎµá¼°ÏĥÎ¹Î½":2365,"Ġcon":2366,"Î¿Î½ÏĦÎ¹":2367,"Ġá½ħÏĦÎµ":2368,"if":2369,"ĠÎ¿á½ĹÏĦÎ¿Î¹":2370,"Ġá¼ĲÏģÎ³Î±":2371,"Î¸Î½":2372,"Î²Îµ":2373,"á½±Î½Î¿Ïħ":2374,"á½½Î´ÎµÎ¹ÏĤ":2375,"ÏĢÏĦÎ±Î¹":2376,"Ġá¼°Î±ÏĦÏģá¿¶Î½":2377,"ÎºÏĮ":2378,"ĠÎ¼ÏĮÎ½":2379,"Î¶Îµ":2380,"ĠM":2381,"ÏģÎ¿á½¶":2382,"Î´Î¿Î¼":2383,"·ÏĤ":2384,"Ġá¼ĲÏĢÎ¿á½·":2385,"Ġá½ĳÏĨ":2386,"Ġá½ĳÏĢá½±ÏģÏĩÎµÎ¹":2387,"Ġá¼¸ÏĥÏģÎ±Î®Î»":2388,"á¿¶Î½Î±":2389,"ĠÎ±á½ĲÏĦÏĮÎ½":2390,"ĠÎ¶Ïī":2391,"ĠÏĥÏīÎ¼á½±ÏĦÏīÎ½":2392,"ĠÎ±á½ķÏĦÎ·":2393,"Ġá¼ĶÎ´Ïī":2394,"Î»Î·ÏĤ":2395,"ĠÎ¿á¼·á½¹Î½":2396,"Ġá½ĥÏĤ":2397,"Ġá¼ĳÎ¾á¿ĨÏĤ":2398,"ĠÏĥÎ·Î¼Î±":2399,"ĠÎ¿á¼µ":2400,"ĠÏĪÏħÏĩÏģá½¸Î½":2401,"ĠÎ´ÏħÏĥÎº":2402,"ÏĦá½³ÏģÎ¿Ïħ":2403,"Î¿á½»Î½ÏĦÏīÎ½":2404,"Ġá¿¥á¾³":2405,"ÏģÎ¹ÏĥÎ¼":2406,"ĠÏĢÏģÎ¿Ïĥá½µ":2407,"Î»á½³Î³":2408,"Î¼á½³Î½Î±ÏĤ":2409,"ĠÎ½Îµá½»ÏģÏīÎ½":2410,"ĠÎ´Î¹Î±Î»":2411,"á½½ÏĦÎ±":2412,"ĠÏĢÏģá½¹ÏĥÏī":2413,"ĠÎ¼Î¿ÏĩÎ¸Î·":2414,"ĠÎºÎ±ÏģÎ´á½·Î±ÏĤ":2415,"ÏĦÎµá¿ĸ":2416,"ĠÏĨá½³Ïģ":2417,"ĠÎĳá¼°Î³":2418,"Îľ":2419,"ĠÎ¸á½³":2420,"all":2421,"ĠÎ³á½·Î½ÎµÏĥÎ¸Î±Î¹":2422,"Ġá¼ĲÏĢÎ¿Î¯":2423,"ĠÎļá½»":2424,"Ġby":2425,"ÎµÏĥÎ¹Î½":2426,"ĠÏĢÏģÎ±Î³Î¼Î±ÏĦÎµ":2427,"Î´ÎµÎ½":2428,"Ġá¼ĳÏĢ":2429,"ĠÎ¼á½³Î»Î¹":2430,"Î¸á½µ":2431,"ÎµÎ¹Î±Î½":2432,"á½ħÏĦÎ±Î½":2433,"ÏĥÎ±á½»ÏĦÏīÏĤ":2434,"el":2435,"ĠÎ±á½ĲÏĦá½°ÏĤ":2436,"Ġá¼¡Î³":2437,"Î¹Î¼":2438,"ÏĢÎ¿ÏħÏĤ":2439,"Ġá¼ĲÏĢÎ¹ÏĥÎº":2440,"Ġá¼´Ïĥ":2441,"ÏĦá½³Î¿Î½":2442,"ĠÎĸ":2443,"Î´Î¹Î¿Î½":2444,"Ġá¼ķÎ½ÎµÎºÎ±":2445,"Ġá¼ĢÎ½Î´Ïģ":2446,"ÏħÎ¼Î±":2447,"ĠÏĢÏīÏĤ":2448,"ÏĦÏĦÎµ":2449,"ĠÎ¼Î¹ÎºÏģá½¸Î½":2450,"Ġá¼ĲÎ½ÏĦÎ±á¿¦Î¸Î±":2451,"ĠÎ´Î±ÎºÏĦá½»Î»":2452,"ĠÎľÏīÏħÏĥ":2453,"Î±Î»Î»":2454,"ĠÏĦÏģÎ¿":2455,"ĠÏĨÎ·Ïĥ":2456,"ĠÏĦÏģÎµá¿ĸÏĤ":2457,"Î¼ÎŃ":2458,"Î¾Î¹ÏĤ":2459,"Ġá¼ĳÎºá½±ÏĥÏĦÎ¿Ïħ":2460,"Î¿ÏħÎ´Î±":2461,"á½½Î´Îµ":2462,"Ġ23":2463,"ĠÎ´Î¹Î±Î¹":2464,"Ġá¼ĲÎ³Î³":2465,"Ġá½ķÎ´Î±ÏĦÎ¿ÏĤ":2466,"ght":2467,"Ġá¼ĲÏĥ":2468,"ÏĢÎµá½¶":2469,"ĠÏĥÏĨÎ¿Î´":2470,"ĠÏĢÎµÎ½":2471,"Î½Î±á½·":2472,"ĠÏĦÎµÎ»ÎµÏħÏĦ":2473,"Î³Î¿":2474,"Î»ÎµÏį":2475,"Ġá¼¡Î¼ÎµÏģá¿¶Î½":2476,"Ġá¼ĳÎ±ÏħÏĦÎ¿á¿¦":2477,"ĠÎ³ÏħÎ¼Î½":2478,"ĠÎ´Î¹Î´Î±":2479,"Ġá½ĢÎ´á½»Î½":2480,"ĠÎ´Î¹Î±ÏĨá½³Ïģ":2481,"Ïĥá½¶Î½":2482,"ĠÎ²Î¿á½»":2483,"Ġ30":2484,"Î¼á½³Î½Î¿ÏĤ":2485,"ÏĢá½±":2486,"Î¾Î±ÏĤ":2487,"Î¿á¿¦Î½ÏĦÎ±":2488,"ĠÏĨÎ±Î¹Î½":2489,"Î½á½·":2490,"ĠÏĢÎµÏģÎ¹ÏĦÏĦ":2491,"ĠÏī":2492,"ÏİÎ½":2493,"Ġ21":2494,"Ġá¼ĢÏģÏĦÎ·ÏģÎ¹":2495,"ĠÎ±á¼°ÏĥÎ¸Î·":2496,"ÏĢÎ¹Î¿Î½":2497,"ĠÎ¼á½·Î±Î½":2498,"Ġá½ĢÎ½Î¿Î¼Î±Î¶":2499,"imp":2500,"Ïģá½»":2501,"ĠÎ¼á¿¦ÏĤ":2502,"ĠÎ»á½»":2503,"Î¿ÏįÏĤ":2504,"ĠÎºÎ¹Î½á½µÏĥÎµÏīÏĤ":2505,"Ġá½ĳÏĪÎ·Î»":2506,"ĠÏħá¼±á¿¶Î½":2507,"ĠÎ½á½¹Ïĥ":2508,"ĠÎ²Î¿ÏħÎ»":2509,"ĠÏĥÏħÎ¼":2510,"Î´ÏħÎ½":2511,"Ġá¼ĲÏĢÎ±Î½":2512,"Ġpl":2513,"ĠÏĢá½±Î¸Î¿ÏĤ":2514,"Î¿á½ĲÎ´":2515,"ome":2516,"os":2517,"ÏģÎµÎ½":2518,"ch":2519,"ÏĦÏĦÏī":2520,"Î¸Î¿Î½":2521,"Î·ÏĥÎ±":2522,"Ġá¼ĲÏĤ":2523,"Ġá¼ĶÏĥÏĦÎ¹":2524,"ter":2525,"á½·ÏĥÏĦÎ±":2526,"á½³ÏģÎ³ÎµÎ¹":2527,"ĠÏĢÎµÏģÎ¹á½³Ïĩ":2528,"Î»Î¬":2529,"ain":2530,"Î±Î»Î±":2531,"ĠÎ¼ÎµÏĦÏģá½·":2532,"Ġá¼¡Î»Î¹Îº":2533,"áµĪ":2534,"Î¹Ïĥ":2535,"ĠÎ»Î¿Î¹ÏĢ":2536,"Î¿Î»Î¿Ïħ":2537,"Î´Îµá½·ÎºÎ½Ïħ":2538,"á½³Î½ÏĦÎ¿ÏĤ":2539,"ĠÎ²ÏģÎ±Î´":2540,"ÎºÎ±Ïħ":2541,"Ġá¼ħÏĢÎ±ÏĥÎ¹":2542,"ÏīÎ¼ÎµÎ½":2543,"Ġá¼ĲÎ½á½³ÏģÎ³ÎµÎ¹":2544,"Ġá¼ĲÎ¼Î¿á¿¦":2545,"ir":2546,"ĠÎ¿á½ĲÏĥá½·Î±ÏĤ":2547,"ĠÎºÎ±ÏĦÎ±ÏĥÎºÎµÏħ":2548,"Ġá¼ģÏĢá½±":2549,"á½½ÏĦÎµÏģÎ¿Î½":2550,"Ġá½ģÏģ":2551,"ĠÎ½ÏĮ":2552,"ÎºÏģá½·":2553,"Î¯Î¿Î½":2554,"Ġá¼ĳÎ²":2555,"ĠÎµá½ĲÎ¸á½ºÏĤ":2556,"ĠÎµá¼¶ÏĦÎ±":2557,"ĠÏĩÎ±Î»Îº":2558,"ĠÏĩÏģÎ·ÏĥÏĦ":2559,"ÏĦÏĦÎ±":2560,"á½½ÏĤ":2561,"Î»ÎµÏīÏĤ":2562,"ĠÏĦÎ±á¿¦":2563,"ĠÏĪÏħÏĩá¿ĨÏĤ":2564,"ub":2565,"á½±ÏĥÎº":2566,"ĠÏĢÏģÎ¿ÏĥÎ±":2567,"ÏĢÎµÏĦÎ±Î¹":2568,"Î»Î¸Î¿Î½":2569,"ĠÏĢÏģÏī":2570,"ĠÎ´á½³ÏģÎ¼Î±":2571,"ÏĥÏĦÎ±ÏĥÎ¹Î½":2572,"qu":2573,"ÏĢÎ¿Î»Î»":2574,"ĠÎµá¼´ÏĢÎµÏģ":2575,"ĠÏĥá½»Î¼ÏĢÎ±Î½":2576,"ĠÏĨÎ»á½³Î²":2577,"Î¼á½·":2578,"Î¸Î¿Ïħ":2579,"ÏĦÏģÎ¿Ïħ":2580,"ÏĢÎµÎ¹ÏĦÎ±":2581,"Ïģá¾³":2582,"Î»á½µ":2583,"Ġex":2584,"iv":2585,"ĠÏĢá½±ÏĥÏĩ":2586,"Î¼ÎµÎ¹Î½Î¿Î½":2587,"Î¶ÎµÎ¹Î½":2588,"ĠÏĩÏģÏħÏĥ":2589,"Ġ24":2590,"ĠÏĪá½»":2591,"Ġá¼ĲÏĢÎµÎ¹Î´á½´":2592,"ĠÏĢÎ»ÎµÎ¿Î½":2593,"ÏĦÎ¿á¿¦ÏĦÎ¿":2594,"ĠÏĢÎ»Îµá¿ĸÏĥÏĦÎ¿Î½":2595,"ĠÎ¼á½»":2596,"á½»Î½Î±":2597,"res":2598,"Ġá¼ĦÎ½Î´":2599,"ĠÏĥÏĦá½¹Î¼Î±":2600,"Î»ÎµÏħ":2601,"ĠÎ´ÏħÎ½Î¬":2602,"ĠÎ´Î¯":2603,"Ġá½ĢÏĢ":2604,"ĠÎ¼Îµá½·Î¶":2605,"ÏĦÎ¹Îºá½´Î½":2606,"Ġá½ĳÎ³Ïģá½¸Î½":2607,"Î¼Î½á½µ":2608,"Ïģá½¹ÏĦÎ·ÏĦÎ¿ÏĤ":2609,"ĠÏĦÎ¿á½Ĳ":2610,"Ġá¼¡Î¼á½³ÏģÎ±Î½":2611,"Ġá¼ĶÎ»Îµ":2612,"II":2613,"Î³Î¿Î½ÏĦÎµÏĤ":2614,"Ġhave":2615,"ul":2616,"ĠÏĢá¿¦":2617,"ĠÏĦá½µÎ½":2618,"Ġá½¤":2619,"Î¿ÏħÏĥÎ±Î½":2620,"ĠÏĨÏħÎ»":2621,"ĠÏĥÏĦÎµÎ½":2622,"Ġá¼¥ÏĢÎ±":2623,"ÏĮÏĦÎ·":2624,"Ġá¼ĶÏĨÎ·Î½":2625,"ĠÎ¿Î¹Îº":2626,"ĠÎ¼á½³ÏĥÎ¿Î½":2627,"ĠÎľÎ±":2628,"ĠÏĩÏģá½¹Î½Î¿Î½":2629,"ĠÎ¼Î½Î·":2630,"Ġá¼ĪÎ½":2631,"ĠÎ¶á½½Î¿Ïħ":2632,"ĠÎ¸á½±":2633,"ĠBab":2634,"ri":2635,"ĠÎ¼á¿Ĩ":2636,"Î¼Î±ÏĥÏĦ":2637,"ĠÎ»Î±Î»":2638,"ĠÏĦÎµÎ»á½³ÏīÏĤ":2639,"ÏĦá½³ÏģÏī":2640,"ĠÎ»á½¹Î³Î¿Ïħ":2641,"áµĽ":2642,"ĠÏĥÏĨÏħÎ³Î¼á¿¶Î½":2643,"erscr":2644,"ÏĢÏĦÎµÎ¹Î½":2645,"ĠQáµĲáµį":2646,"ĠÎ³á¿Ĩ":2647,"Ġá¿¥á½·Î¶":2648,"ĠÎºÏħÏģ":2649,"ĠÎ³á½³Î½Î¿ÏĤ":2650,"Ġá¼ģÎ¼Î±ÏģÏĦ":2651,"Î»á¿¶Î½":2652,"ÏĥÎ¹Îº":2653,"á¿¦ÏĥÎ±Î¹":2654,"Ġá¼°Î´Î¿á½º":2655,"á½½ÏĥÎµÎ¹ÏĤ":2656,"Îµá½¶Î´":2657,"Î¿á½Ķ":2658,"ol":2659,"á¼ķ":2660,"ĠÎ³Î±ÏĥÏĦÏģá½¸ÏĤ":2661,"ĠÎ´ÏįÎ½Î±":2662,"ĠÎ¿á¼¶ÎºÎ¿Î½":2663,"ĠÎ»Î±Î²":2664,"Î´ÎµÎ¹ÎºÏĦÎ±Î¹":2665,"ĠÏĢÎ»ÎµÏħÏģ":2666,"Î¼Î¹ÏĤ":2667,"Ġ26":2668,"ÏħÎ½Î±á¿ĸ":2669,"Ġá¼ĲÎ½Î±ÏģÎ³á¿¶ÏĤ":2670,"Ġread":2671,"ĠÏĨÏħÎ»Î±":2672,"ÏĥÏĥÎ±":2673,"Ġá¼ĶÏģÎ³":2674,"Ġá¼ĢÎ½Î±Î³ÎºÎ±á¿ĸÎ¿Î½":2675,"ĠÎĶÎ±ÏħÎµá½¶Î´":2676,"Îµá½·Î±":2677,"Î³Î³ÎµÎ»":2678,"ÏĥÏĥÎµ":2679,"ĠÏĢÎŃ":2680,"Ġá¼ĢÏģÎ±Î¹":2681,"Ġá¼ĲÏĩÏģ":2682,"á¿¶ÏĥÎ±Î¹":2683,"á¼ĲÏĢÎµá½¶":2684,"Ġá¼ĢÏĨÎ¹Îº":2685,"ĠÏĢÎ±ÏĦÏģ":2686,"Ġan":2687,"Ġá¼ĲÎ»á½±":2688,"ĠÎ²Î±Ïģ":2689,"Ġá¼ĪÎ²":2690,"ĠÎ¶á¿¶Î¿Î½":2691,"Î¼á½¸ÏĤ":2692,"Ġá½ģÎ¼":2693,"Ġá½ħÏĥÎ¿Î¹":2694,"ĠÎ½Î¿":2695,"Î¿ÏĦÎ¿Î¼":2696,"ĠÎ¼Î®":2697,"ĠÎ¼ÎµÏģá¿¶Î½":2698,"Î¿á¿¦Î¼ÎµÎ½":2699,"ĠÏĢÎ»á½´Î½":2700,"Î¸Îµá¿ĸ":2701,"Ġá¼ĢÎ½á½±":2702,"ĠÎ³Î±ÏĥÏĦá½³ÏģÎ±":2703,"ĠÎ³ÏħÎ¼Î½Î±":2704,"ĠÏĥÏĦÎ¿Î¹":2705,"ĠÎ±á½ĲÏĦÎ¿á½¶":2706,"Ġá¼ĲÎ³ÎºÎµ":2707,"Ġá¼ĢÎ»Î»Î¿Î¹":2708,"ĠÏĢÎ»Î·Ïĥ":2709,"Ġá½ģÎ¼Î¿Î¹":2710,"ÏĥÎµÏĥÎ¹Î½":2711,"ĠÏĦÏģÎ±":2712,"Îµá½·Î¿Ïħ":2713,"Ġá¼ģÎ³":2714,"ĠÎ¿á¼´Î½Î¿Ïħ":2715,"Ġvid":2716,"Î¿Î´":2717,"ÏĢÏģ":2718,"ĠÏĢÎµÏģá½·":2719,"Î»Î·ÏģÎ¿Î½":2720,"ĠÏĥÎºÎµÏħ":2721,"ĠÏĥÏĦÎ±":2722,"Î¿Î´Î¿Î½":2723,"Ġá¼ĢÎ½Î±ÏĦÎ¿Î¼":2724,"ÏĦá½°ÏĤ":2725,"Î¿á¿¦Î½ÏĦÎ±ÏĤ":2726,"ĠÏĥÏħÎ¼Î²Î±":2727,"á½·ÏĥÏĦ":2728,"Ġá¼ĢÏĨÎ¿":2729,"Î½Î¿Î½":2730,"á¼ĶÎ½":2731,"Î·ÏĥÎ¹ÏĤ":2732,"Î¹Î½Î¿Î½":2733,"ĠÏĢÏģá½¶Î½":2734,"Ġá¼ĢÎºÎ¿á½»":2735,"ĠÏĢÎ±ÏģÎ¿Î¾ÏħÏĥ":2736,"Î±Î½ÏĦÎ¹":2737,"ÎŃÎ½ÎµÏĦÎ¿":2738,"Ġá¼ĦÎº":2739,"ĠÏĢÎµÏģÎ¹Îµ":2740,"ĠÎµÏĢ":2741,"ÎµÎ¹Î»ÎµÎ½":2742,"Î¸Î®":2743,"Î¹Î½á½¹Î½ÏĦÏīÎ½":2744,"á½¹ÏĦÎ·ÏĤ":2745,"ĠÎ³Î¯":2746,"ĠÎ¸Î±":2747,"ĠÏĥÏħÎ¼ÏĨ":2748,"ĠÏĩÏģá¿ĨÏĥÎ¸Î±Î¹":2749,"ÏĮÎ¼ÎµÎ½Î¿ÏĤ":2750,"ĠÎ±Î½Î±":2751,"ĠÎ»á½³Î³ÏīÎ½":2752,"Ġá¼ķÎ½Î±":2753,"ÏĢÏĦÎµÎ¹":2754,"est":2755,"ĠÏĥá½½Î¼Î±ÏĦÎ¹":2756,"Î¼Ïī":2757,"ĠÎ³ÏħÎ½Î±á¿ĸ":2758,"Ġ;":2759,"ĠÏĢÎ¿Î¹á½µ":2760,"á½¥ÏĥÏĢÎµÏģ":2761,"ÏģÎ±Îº":2762,"ĠÏĢá¾¶ÏĤ":2763,"Ġá½ĢÏĥÏĦá¿¶Î½":2764,"Ġá½ĢÎ½á½¹":2765,"Î¡":2766,"Î»Î¿ÏħÏĤ":2767,"ÏĥÎµÎ²":2768,"ĠÎ¼ÎµÎ»Î±":2769,"Ġá¼ĢÏģÏĦÎ·ÏģÎ¹á¿¶Î½":2770,"Î¸ÎµÏģ":2771,"ĠÏĦÎ±á½»ÏĦá¿ĥ":2772,"Ġthis":2773,"ÎĴ":2774,"ÏĢÎ¿Î¹ÏĤ":2775,"á½³ÏģÎ±Î½":2776,"Î¿Î»á¿ĨÏĤ":2777,"ĠÏĦá½·ÏĤ":2778,"ĠÎ´Î¿ÎºÎµá¿ĸ":2779,"Ġá¼¹ÏĢÏĢÎ¿ÎºÏģá½±ÏĦÎ¿ÏħÏĤ":2780,"á½³ÏīÏĤ":2781,"ÏĥÏħÎ½":2782,"Ġá¼ĢÏĦ":2783,"Ġbut":2784,"Ïģá½·ÏĥÎº":2785,"á¼ĢÏĢ":2786,"ÏĦÎµÏĦÎ±":2787,"Î·Ïĥá½±":2788,"Î¼ÎµÎ»":2789,"ĠÎºÎ½":2790,"ĠÎ³á½·Î½Î¿Î½ÏĦÎ±Î¹":2791,"ĠÎºÏħÏģá½·Î¿Ïħ":2792,"ĠÎ³Ïģá½±ÏĨ":2793,"á¿¶Î¼ÎµÎ½":2794,"ĠÏĢá¾¶ÏĥÎ±Î½":2795,"ÎĽ":2796,"Î±á¼±":2797,"á¼ĳ":2798,"Î±Î¹Ïģ":2799,"ĠÏĦÎ¹Î½á½¸ÏĤ":2800,"ĠÎºÎ±ÏģÎ´á½·":2801,"ÏĥÎ¼Î±ÏĦÎ±":2802,"Î¿á½ĲÎº":2803,"ĠÏĢá½±Î½ÏĦÎµÏĤ":2804,"Ïĥá½±":2805,"ĠÏĨÎ¿Î²":2806,"ĠÏĢÎ¿Ïĥ":2807,"Ïĥá¿ĥÏĤ":2808,"ĠÎ²Î±ÏĥÎ¹Î»ÎŃÏīÏĤ":2809,"á½°Î¼":2810,"Î³Î¹Î½":2811,"Ġá¼ĲÎ¾Î±":2812,"Ġá½ħÎ»Î·Î½":2813,"Ġá¼ĢÏħÏĦ":2814,"ĠÎµá¼·ÏĤ":2815,"Ïģá½¹ÏĤ":2816,"ĠÎļá½»ÏģÎ¹Î¿ÏĤ":2817,"ÏĦÎ±á¿¦ÏĦÎ±":2818,"ÏĥÏĦÏī":2819,"ĠÏĢÎ¿Î»Î»á¿¶Î½":2820,"ĠÏĨÏį":2821,"Ġá½ĦÎ³":2822,"ÏĢÎµÏģá½¶":2823,"ĠÎ¸ÎµÏģÎ±ÏĢ":2824,"ĠÎ±á¼°ÏĦá½·Î±Î½":2825,"ĠÎºÎ±ÏĦÎ¿Î¹Îº":2826,"Ġwhich":2827,"á½½ÏĥÎµÎ¹":2828,"á½³Î³ÏģÎ±":2829,"ĠÎ²ÏģÎ±Ïĩá½º":2830,"Ġá¿¥á¾³Î´á½·ÏīÏĤ":2831,"Î»Î¹Î½":2832,"ĠÎ²Î¿Î·Î¸":2833,"Î¿ÎµÎ¹Î´":2834,"ĠÎµá¼°ÏĥÎ¹":2835,"ĠÎºÎ¬":2836,"ÏĦÎ¹ÏĤ":2837,"Ġá½ħÎ»Î·ÏĤ":2838,"Ġá¼ĦÏģÎ¸Ïģ":2839,"Ïģá¾¶ÏĤ":2840,"ÏĥÎ¹Î±":2841,"á½¹Î½ÏĦÎµÏĤ":2842,"Ġá¼ĶÎ½Î´Î¿Î½":2843,"ĠÎ´ÏħÎ¿á¿ĸÎ½":2844,"ess":2845,"ĠÎºÏģÎ¯":2846,"ĠÎºá½·Î½Î·ÏĥÎ¹Î½":2847,"ĵÏĤ":2848,"Î¿á½ķÏĦÏīÏĤ":2849,"á½³Î»Î»":2850,"Ï²Î¹Î½":2851,"ÏĥÎ¿Î¼ÎµÎ½":2852,"Î¿á½º":2853,"Ġá¼¸Î¿Ïį":2854,"rob":2855,"ĠÎ´ÏħÏĥÎºÏģÎ±":2856,"á½³Î½ÏĦÏīÎ½":2857,"ÏĢÎµÏĢ":2858,"ore":2859,"ĠÏĢÎ¿Ïħ":2860,"Î²á½±":2861,"ĠÎ¼Î¬":2862,"ĠÎµá¼¶Î´Î¿ÏĤ":2863,"ĠÎµá¼°Ïĥá½¶Î½":2864,"Ġá½ĢÏģÎ¸á¿¶ÏĤ":2865,"ÏĩÎµÎ¹Ïģ":2866,"ĠÏĦÎ±Ïį":2867,"ĠÎ¿á¼¶Î¼Î±Î¹":2868,"ĠÎ´Î¿Îº":2869,"ĠÎ½Î¿Î¼á½·Î¶":2870,"ĠÏĨÎ»ÎµÎ²Î¿ÏĦÎ¿Î¼":2871,"Î¸Î±Î¹":2872,"Ġá¼ĲÎ½ÎµÏģÎ³Îµá½·Î±ÏĤ":2873,"ĠÎ´á¿ĨÎ»Î¿Î½":2874,"sic":2875,"Ġword":2876,"Î±á¿ĸÏĤ":2877,"ÎºÏģÎ¹":2878,"ÎµÏį":2879,"ĠÎ²ÏģÎ±Ïĩá½·Î¿Î½":2880,"ÏĢá½·ÏĥÏī":2881,"Ġu":2882,"Ġx":2883,"ĠÎ±á½ĲÏĦá½¹Î½":2884,"ĠÏĢÎ¬Î½ÏĦÎµÏĤ":2885,"ĠÎ´Î¹Î±Î¸á½³ÏĥÎµÎ¹ÏĤ":2886,"ÏĢÏģÎ¿":2887,"Ġá¿¥á½±":2888,"Ġá½ĦÎ¾":2889,"á¼ĦÎ»Î»":2890,"ĠÎ±á¼°ÏĦá½·Î±ÏĤ":2891,"ÏĥÏĦÏģÎ±":2892,"Î»Î»Î¹":2893,"Ġmg":2894,"Ġá¼ĲÎºÎµá½·Î½ÏīÎ½":2895,"ÏĦÏĮ":2896,"ĠÎ±á½ĲÏĦá½¹":2897,"ĠÎ¶á½½ÏīÎ½":2898,"ĠÎ³ÏħÎ½Î±Î¹Îº":2899,"Ġv":2900,"ĠÎ¿á½ĲÏĥá½·Î±Î½":2901,"Ġá¼ĶÏĩÎ¿Î½ÏĦÎ±":2902,"Ġá¼ĶÎ³ÏģÎ±ÏĪÎµÎ½":2903,"Î¿á¿ĨÏĤ":2904,"Ġy":2905,"ĠÏĩÏģá¿¶":2906,"Ïĥá½·Î±":2907,"á½³ÏģÏĩ":2908,"Ġá¼¡Î¼á½³Ïģ":2909,"Ġá¼ĥÏĤ":2910,"ÎµÏĥÎ²":2911,"Î´ÏĮ":2912,"á½¹Î½ÏĦÎ±":2913,"ĠÎµá½ķ":2914,"Î¿á¿¦ÏĥÎ±":2915,"Ġá¼ĶÎ»Î±Î²":2916,"Î¬ÏĦÏīÎ½":2917,"Î¹Îºá¿¶Î½":2918,"á½½ÏĥÎºÎµÎ¹Î½":2919,"Ġá½łÏĨÎµÎ»":2920,"á¼ĲÎ³á½¼":2921,"Î¼á½·Î±Î½":2922,"ĠÏĥÎ·":2923,"ĠÎ¼Î½":2924,"ÎºÎµÎ¹ÏĦÎ±Î¹":2925,"Î¬Îº":2926,"Î®ÏĥÏī":2927,"Î¿Î¼á½³Î½Î¿ÏħÏĤ":2928,"ĠÏĢÏģÎ¿Ïĥá½³":2929,"ĠÎ³á½³":2930,"Ġá¼ĲÏĢÎ¹Î´á½³":2931,"ĠÏĥÏĦá½»":2932,"ĠÎ³á½³Î½Î·ÏĦÎ±Î¹":2933,"ĠÎ²Î±ÏĥÎ¹Î»":2934,"Î²Î±Î»Î»":2935,"ĠÏĦÎ¿ÏħÏĦá½³":2936,"Îµá¿ĸÏĦÎµ":2937,"ĠÎ´á½»Î½Î±ÏĦÎ±Î¹":2938,"Ġá¼ĲÎ³ÎºÎµÏĨá½±Î»":2939,"ĠP":2940,"ÏģÎ¿Î¹ÏĤ":2941,"á¿¶Î½Î¿ÏĤ":2942,"ÎºÏģÎ¬":2943,"Ġá½ķÎ´Î±ÏĦÎ¹":2944,"ÎµÎ¯Î½":2945,"ĠÎ¿á½ĵÏĤ":2946,"Ġá½ĢÏĨÎ¸Î±Î»Î¼":2947,"Ġá¼¡Î¼ÎŃÏģÎ±ÏĤ":2948,"Ġxx":2949,"Ġá¼ĲÏ²":2950,"Î¿á¿¦ÏĦÎ±Î¹":2951,"á½¹ÏĦÎµÏģÎ±":2952,"ĠÏĥÏİ":2953,"ĠÎ±á½ĲÏĦÎ±á¿ĸÏĤ":2954,"ĠÏĢÏģÎµÏĥÎ²":2955,"Ġá¼ĦÎ³":2956,"Ġá¼´ÏĥÎ¿Î½":2957,"Ġab":2958,"ÎµÎ¼":2959,"Î»Î±Î½":2960,"Î¸á¿ĨÎ½Î±Î¹":2961,"ĠÏĢÏģÎ¿ÎºÎµÎ¹":2962,"ĠÎºÏħÏģá½·":2963,"ÏĥÏĨ":2964,"Ġá½ģÏģÎ¼":2965,"ĠAáµĥ":2966,"ĠÏĦÏģá½³":2967,"ĠÎ¿ÏħÏĦÏīÎ½":2968,"ĠÏĩÎµá¿ĸÏģÎ±ÏĤ":2969,"á¿´":2970,"Î·ÏĥÎ¹":2971,"ĠÎºÎ±Î»Î¿Ïħ":2972,"ĠÎ¸Î±ÏħÎ¼Î±ÏĥÏĦ":2973,"ĠÏĥÏĦÎ¿Î¹Ïĩ":2974,"Î¹ÎºÎ±":2975,"á½·Î±Î¹ÏĤ":2976,"ĠÏĥÎ±":2977,"ĠÏĦÏģÎ¿ÏĨá¿ĨÏĤ":2978,"ĠÏĩÎµÎ¹Ïģá½¸ÏĤ":2979,"ÏĦÎµÏģá½¹Î½":2980,"ÏĥÏĥÎ±Ïģ":2981,"ĠÎ³Î½á½½":2982,"ĠÎ¸ÏħÎ³Î±":2983,"Ġá¼ĶÏģÎ³Î±":2984,"ÏĦÎµá¿ĸÎ½":2985,"ation":2986,"Î±Î½Î¿Î½":2987,"ĠÎºÎ±á½·ÏĦÎ¿Î¹":2988,"RT":2989,"Î¥":2990,"ĠÎ³ÏģÎ±ÏĨ":2991,"ÏĦÎ¿á½·":2992,"ĠÎ´Î¹á½±Î¸ÎµÏĥÎ¹Î½":2993,"Ġá¼ĲÏģÎ³á½±Î¶ÎµÏĦÎ±Î¹":2994,"Ġá½ģÎ¼Î¿Î»Î¿Î³":2995,"ĠÎºÏģá¾¶":2996,"Î³Î½Ïħ":2997,"ĠÏĢÎ±Î½ÏĦá½¶":2998,"ĠÎ³á½·Î³Î½ÎµÏĥÎ¸Î±Î¹":2999,"Ġá¼ĲÎ½Îµ":3000,"Î»ÎµÎ³":3001,"Ġá¼ĲÎ³ÎŃÎ½ÎµÏĦÎ¿":3002,"ĠÏĢÏģá½½ÏĦÎ·Î½":3003,"ĠÎ¸ÏħÏĥÎ¹":3004,"ĠÎ¼ÎµÏĦÏģá½·ÏīÏĤ":3005,"ÏĩÎ¿Ïħ":3006,"ĠÏĦÎ±ÏĢÎµÎ¹Î½":3007,"ÏģÎ¿á½»":3008,"ĠÏĨá½±ÏģÎ¼Î±ÎºÎ±":3009,"Ġá¼ĶÏģÎ³Î¿Î½":3010,"ÏĮÎ¼ÎµÎ½Î¿Î½":3011,"Ġá¼¸Î¿ÏħÎ´Î±":3012,"Î¿á¼":3013,"ĠÎ´Î¹Î¿":3014,"Ġst":3015,"Ġá¼ĲÎºÎµÎ¯Î½":3016,"Îºá½³ÏĨÎ±Î»":3017,"ĠÏĦÎµÏĦá½±Ïģ":3018,"Ġá¼ĲÏĥÏĩá½±":3019,"Ġá¼©":3020,"Î¼Î¿á¿¤á¿¥":3021,"Î¿Î¹Î±Î½":3022,"Î»Î·ÏģÎ¿Î½Î¿Î¼":3023,"á½»ÏĦÎ·":3024,"Ġá½¡ÏĥÎ±á½»ÏĦÏīÏĤ":3025,"ĠQáµĥ":3026,"ĠÏĢÏħÏģÎµÏĦá¿¶Î½":3027,"Î»Î±Î¹Î¿Î½":3028,"ÎĲ":3029,"ĠÎ±á½ĲÏĦÎ¿ÏįÏĤ":3030,"ĠÎ´Î¹ÎµÎ»":3031,"ĠÎ»Î±Î¿á¿¦":3032,"ÏĦá½±ÏĢÎ±":3033,"ĠÎ´Îµá½»ÏĦÎµÏģÎ¿Î½":3034,"ĠThe":3035,"ĠÏĢÎ±Î¹Î´":3036,"ĠÎ´ÎµÏħÏĦá½³Ïģ":3037,"Î´á½»Î»":3038,"Î²Î¿Ïħ":3039,"ĠÏĩÎµÏģ":3040,"Ġá½ķÏĥÏĦÎµÏģÎ¿Î½":3041,"Ġá¿¥á¿Ĩ":3042,"Î¿á¿¦ÏĥÎ¸Î±Î¹":3043,"Ġá¼ĢÎ½á½³":3044,"ĠÎ³Î½ÏīÏģá½·":3045,"Ġá½ĳÎ³Î¹ÎµÎ¹Î½":3046,"ĠÎ´Îµá¿ĸÏĦÎ±Î¹":3047,"á¾¶Î½":3048,"ĠÏĩÏģá½µÏĥÎ¹":3049,"Ġá¼ĲÎ³Îºá½³ÏĨÎ±Î»":3050,"ÏĦÎ¹Îºá½°":3051,"Î¸á½³ÏīÏĤ":3052,"ĠÏĥÎ¹ÏĦá½·":3053,"Ġá½ĢÏģÎ³á½±Î½ÏīÎ½":3054,"ĠÏĥÏĢÎ»á½±Î³":3055,".âĢĻ":3056,"Î½Î¿ÏĤ":3057,"Î´Ïħ":3058,"Î¿Î¹Îº":3059,"Î»ÎµÎº":3060,"Ġá½ħÎ¼Î¿Î¹":3061,"ĠÏĢÎ»Îµá½·Î¿Î½":3062,"ĠÎ½Î±":3063,"ÏĩÎ·":3064,"ĠÏĢá½¹Î½":3065,"Ġá¼¡Ïĥ":3066,"ĠÏĢá¾¶ÏĥÎ¹Î½":3067,"ĠÎºÎ±ÏģÎ´á½·Î±Î½":3068,"Î³ÏīÎ³":3069,"Ġá¼¸Î·ÏĥÎ¿á¿¦ÏĤ":3070,"Ġá¼ĳÏĦá½³ÏģÎ±Î½":3071,"ĠÎµá¼¶ÏĢÎ¿Î½":3072,"ĠÎ½Î¿ÏĥÎ·Î¼á½±ÏĦÏīÎ½":3073,"Î¸ÎµÎ¹Î±Î½":3074,"ĠÏĢÎ¿Î½Î·Ïģ":3075,"Ï²Î¹":3076,"ĠÏĥÏħÎ½á½³":3077,"Î¼á½´Î½":3078,"ĠÎºÏĮ":3079,"ÏģÎ±Î¹ÏĤ":3080,"ĠÎ¼á½³Î³Î¹":3081,"ĠÎ¿á¼´Î½":3082,"ĠÏĩÏģá¿Ĩ":3083,"ĠÎ¼á½³ÏģÎ·":3084,"Ġá¼ĲÏģÎ³Î±Î¶":3085,"á½¹Î»Î¿Ïħ":3086,"Ġ25":3087,"ĠÏħÎ¹":3088,"ĠÏĨÎ»ÎµÎ²á¿¶Î½":3089,"Ġá¼ĳÎ±ÏħÏĦá¿·":3090,"ive":3091,"ÏīÎ³":3092,"á½³ÏĥÏĦÎµÏģÎ¿Î½":3093,"Ġare":3094,"á¿Ħ":3095,"á¿ĸÎ¿ÏĤ":3096,"Ġá¼ĲÏĢÎ¿":3097,"ÏģÎ¹Ïĥ":3098,"ĠÎ¸á½³Ïģ":3099,"Î¶ÎµÎ¹":3100,"Î¿á¿¦Î½ÏĦÎ¿ÏĤ":3101,"Ġpro":3102,"ĠÏĢÎ±Î½ÏĦá½±ÏĢÎ±":3103,"Ġá¼ĢÎ½á½±Î³ÎºÎ·ÏĤ":3104,"Î¿Î³Î¿Î½":3105,"Ġá¼ĦÏģÎ±":3106,"á½±ÏĥÎ±ÏĥÎ¸Î±Î¹":3107,"ÏĮÏĦÎ¹":3108,"ĠÎ¿á½ĶÎ¸":3109,"Ġá¼ĲÏĢÎµÎ¹Î´á½°Î½":3110,"et":3111,"Ġet":3112,"ĠÎ±á¼´ÏĥÎ¸Î·":3113,"ÎºÎ·Î½":3114,"ĠÏĢÏģÎ¿ÏĤ":3115,"Ġá¼ĳÏĪ":3116,"Ġá¼ķÎ½":3117,"Î¿á½Ĺ":3118,"Ġá½ģÏĢ":3119,"Ġá¼ĢÎ½á½´Ïģ":3120,"á½»ÏģÎ½Î·ÏĤ":3121,"Î»ÎµÎ¹ÏĤ":3122,"á½³Î½ÏĦÎ±":3123,"ĠÏĦá½³Î½":3124,"Ġá½ĢÎ»Î¹":3125,"ĠÏĩÏģá½½":3126,"ĠÎ¼Î·Î½":3127,"ĠÎ±á½ĲÎ¾":3128,"ÏĥÎ¸á¿ĨÎ½Î±Î¹":3129,"Îµá½Ĳ":3130,"ĠÏĦá½¹Î½":3131,"Î»ÎµÏĢ":3132,"ĠÏĢÎ¯":3133,"ÏĢÎ¿Î»":3134,"Ġá¼ĢÎ³Î³Îµá½·ÏīÎ½":3135,"ĠÎ´Î¹ÎºÎ±Î¹Î¿Ïĥ":3136,"Î¶Î¿Î½":3137,"Ġá¼ĲÏĢÎ¹ÏĦÎ·":3138,"ĠÎŁá½Ĳ":3139,"ther":3140,"ill":3141,"ĠÏĢÏģá½±":3142,"ĠÏĥÏħÎ³":3143,"Î¼Î½Î·":3144,"ĠÎĽÎµÏħ":3145,"ÏĢÏģá½¸ÏĤ":3146,"ĠÏĨÎµÏģ":3147,"ĠÎµá½ĲÏĨ":3148,"âģ±":3149,".)":3150,"Ġá¼ĢÏģÎ¹":3151,"ĠÎ¸Î±Î»":3152,"Ïģá½·ÏīÎ½":3153,"ĠÎ´á½»Î½Î±Î¼Î¹ÏĤ":3154,"ĠÏĦá½¼":3155,"ÏĦÎ¹Î±":3156,"Ġad":3157,"ĠÏĢá¿¶ÏĤ":3158,"Î½ÎµÎ³":3159,"á½¹Î½ÏĦÎ¿ÏĤ":3160,"Ïģá½·Î±ÏĤ":3161,"ĠÏĢÎ±Ïģá½³":3162,"Î¸ÎŃ":3163,"Î¬Î³":3164,"Ġá½ĳÎ³Î¹Î±":3165,"á¼ĦÎ»Î»Î±":3166,"ĠÎ½Îµá¿¦ÏģÎ±":3167,"ĠÎ¼á¿ĨÎºÎ¿ÏĤ":3168,"ÏĦá¿ĩ":3169,"Ġá¼ĦÎ¼ÎµÎ¹Î½Î¿Î½":3170,"Ġ27":3171,"ĠÏĥÏĢÎ¿Î½":3172,"ĠÎ´Î¹á½¹ÏĦÎ¹":3173,"á¼ĲÏĢÎ¹":3174,"Î¾Î±ÏĦÎ¿":3175,"ĠÎµá½ĲÎ¸á½³ÏīÏĤ":3176,"ĠÎ£Î±Î»":3177,"ĠÏĦÏģá½·ÏĦÎ¿Î½":3178,"Î¼Î¬ÏĦÏīÎ½":3179,"ĠÏĢá¿¦Ïģ":3180,"ÏĦÏģÎ±":3181,"Î±Î¶":3182,"ĠÏĩÏģÎµá½·Î±ÏĤ":3183,"ĠÎ±á¼±Î¼Î¿á¿¤á¿¥":3184,"ĠÏĦÎ¿ÏįÏĦÏīÎ½":3185,"Î±á½":3186,"Î»Î±ÏĤ":3187,"Îºá½·":3188,"Ġá¼ĶÏĩÎ¿Î½":3189,"Î¼ÎŃÎ½ÏīÎ½":3190,"um":3191,"ĠJ":3192,"Î¬Î²":3193,"Ġá½ĳÎ´":3194,"ĠÏĥÏħÎ»Î»":3195,"Ġá¼ĢÎ½ÎŃ":3196,"ĠÏĨÏħÏĥÎ¹Îº":3197,"Ġá¼ĢÎ»Î»á½µÎ»Î¿Î¹ÏĤ":3198,"ĠÂ":3199,"Î¹á¿¶Î½":3200,"ĠÎ»ÎŃÎ³ÏīÎ½":3201,"âģ±áµĪ":3202,"ĠÏĢá½µ":3203,"á½±Î½ÎµÎ¹Î½":3204,"Ġá¼°Î´á½·":3205,"ĠÏĥá½»Î¼Î¼Îµ":3206,"ĠÏĢÎ±Î¸á¿¶Î½":3207,"ĠÏīÏĤ":3208,"Ġup":3209,"Î±Î¼":3210,"Ġá¼ĢÎ½Î±ÏĥÏĦ":3211,"ĠÏĥÎºÎ·Î½":3212,"ĠÎ»ÏĮÎ³Î¿Î½":3213,"ĠÎ´Î¹Î±Ïģ":3214,"ÏĥÎ¹Î¿Î½":3215,"ĠÎ¾Î±Î½Î¸":3216,"ns":3217,"ĠÏĢÏģÎ¿ÏĥÎº":3218,"ÏħÎ½á½¶":3219,"Ġá¼ĶÏĩÎ¿ÏħÏĥÎ¹":3220,"Î±ÏģÎ±":3221,"Ïģá¿³":3222,"Î¿Î¹ÏĥÎ¹":3223,"ÏĦÎ¹ÎºÎ¿á¿¦":3224,"Î¼á½µ":3225,"ĠÎ¸Î·":3226,"ĠÏĦÏģÎ¿ÏĨá½´Î½":3227,"Ġá¼ĢÏģÎ¹ÏĥÏĦÎµÏģ":3228,"ÏĥÏīÎ½":3229,"ĠÎ´Î¹Î±ÏĨÎ¸":3230,"ÏĥÎºÎ»Î·":3231,"Î´á½³Ïĩ":3232,"ĠÎ´Î¹Î±Î½":3233,"Ġá¼ĳÎ½á½¸ÏĤ":3234,"ĠÏĥÏĢá½³ÏģÎ¼Î±ÏĦÎ¿ÏĤ":3235,"ĠÏĩá½½ÏģÎ±Î½":3236,"ted":3237,"á½·Î³Î½":3238,"ÏįÏĤ":3239,"Ġá¼ĶÏĩÏīÎ½":3240,"ĠÎ¼Î½Î·Î¼Î¿Î½":3241,"ÏĦá½»":3242,"ĠÏĢÎ¿Î¹Îµá¿ĸÎ½":3243,"ĠÎºÎµÎºÎ±Ïħ":3244,"Ġá¼ĲÎ½á½³ÏģÎ³ÎµÎ¹Î±Î½":3245,"ÎµÏĪ":3246,"ĠÏĩÏģÎ¿Î½":3247,"Ġá¼´ÏĥÏĩ":3248,"ĠÏĥÏĢá½³ÏģÎ¼Î±":3249,"ĠÎ»á½·ÏĦÏģÎ±Î½":3250,"Ġá¼¡ÏĥÏħÏĩ":3251,"á½¹Î´":3252,"Î²Î¿":3253,"ĠÏĢá½·":3254,"ĠÎ¸Î±Î½":3255,"á¼ĲÎ¾":3256,"improb":3257,"ĠÏĥÎ¿á¿¦":3258,"ĠÎºÎ±ÏĦá½³":3259,"Ġá¼ĲÎºÏĦá½¸ÏĤ":3260,"ĠÏĦÎ¹Î½Î¹":3261,"ÏīÏĥÎµÎ½":3262,"Î¯Î¿Î¹ÏĤ":3263,"Ġá¼ķÎ»":3264,"ĠÏĥá½½Î¼Î±ÏĦÎ±":3265,"Ġá¼ĢÎ¼Ïħ":3266,"ĠÎ´á½±Îº":3267,"á½¥ÏĥÏĦÎµ":3268,"Î¼á¿³":3269,"Ġthey":3270,"Î¸ÎµÏĥÎ¹ÏĤ":3271,"Ġá¼§ÏĢÎ±Ïģ":3272,"ÏĢÎ½Î¿á¿ĨÏĤ":3273,"Î´Î·ÏĤ":3274,"ĠÏĥÏį":3275,"ÏģÎµÏĥÎ¹Î½":3276,"Ġá¼ĢÎ´á½»Î½Î±":3277,"ãĢ":3278,"ĠÏĦá¼ĦÎ»Î»Î±":3279,"ÏĦÎµá¿¦":3280,"Î¿Î¼á½³Î½Î±ÏĤ":3281,"sup":3282,"ĠÏĥÏĢÎ±":3283,"Ġá¼ĲÏĢÎ¹Î¸ÏħÎ¼":3284,"ĠÎ½Î¿Ïĥá½µÎ¼Î±ÏĦÎ¿ÏĤ":3285,"á¿¤á¿¥ÏīÏĥÏĦ":3286,"ĠÎ¿á¼´ÎºÎ¿Ïħ":3287,"Î»Î·Î½":3288,"Î¼á½¼Î½":3289,"ĠÏĥÏħÎ³Î³":3290,"Î®ÏĥÎ¿Î½ÏĦÎ±Î¹":3291,"ĠÏĢÎ¿Î»Î»Î¿á½¶":3292,"ĠÏĢá½±Î¸Î·":3293,"Ġá¼ĳÏĢÏĦá½°":3294,"ÏĥÏĥÎ¿Î½":3295,"Ġá¼ĲÎ»Î±á½·Î¿Ïħ":3296,"áµĽâģ±áµĪ":3297,"ÏĩÏħÎ¼":3298,"Ġá¼ĢÎºÎ¿Î»Î¿Ïħ":3299,"ÏĦá½³ÏģÎ¿Î¹ÏĤ":3300,"ĠÏĢÎµá½·":3301,"Ġá¼¤ÎºÎ¿Ïħ":3302,"ÎĶ":3303,"ÏĦÏħÏģ":3304,"Î¹á½±":3305,"ÏĥÏĦÎµÎ¹Î»ÎµÎ½":3306,"ĠÎ²Î±Î»":3307,"Îµá½·ÏĥÎ·ÏĤ":3308,"Ġá¼ĢÏģÏĩá½°ÏĤ":3309,"ÏĥÎ±Î¼ÎµÎ½":3310,"ĠÏĦÎ¹Î½á½²ÏĤ":3311,"Ġá¼ĲÏĩá½¹Î½ÏĦÏīÎ½":3312,"ĠÏĥÏħÎ¼ÏĢÏĦá½½":3313,"Ġá¼¥ÏĢÎ±ÏĦÎ¿ÏĤ":3314,"Î´ÎŃ":3315,"Ġá¼ĲÎ¸á½³":3316,"á½±ÏĤ":3317,"ÏĦÎŃÏģÎ±":3318,"ĠÎ»ÎµÏĢÏĦÎ¿Î¼":3319,"ÏĢá½¶":3320,"Î³Î¼á½±ÏĦÏīÎ½":3321,"ĠÎ¼ÎŃÎ½":3322,"ĠÎ¸á½½ÏģÎ±ÎºÎ¿ÏĤ":3323,"ÎºÎ¿Î¹ÏĤ":3324,"ĠÏĩÎµá¿ĸÏģÎ±":3325,"11":3326,"á½±Î½ÎµÎ¹":3327,"Îµá¼°ÏĤ":3328,"Ġá¼ĲÏģÏħ":3329,"ĠÏĢÏģÎ¿Ïĥá½µÎºÎµÎ¹":3330,"ĠÎ´Î¿á¿¦":3331,"Ġá½ĢÏĢá½·ÏĥÏī":3332,"Î®Î¸Î·":3333,"ĠÎ¸ÎµÏģÎ±ÏĢÎµÏħ":3334,"Î¿ÏħÎ½":3335,"Î²ÎµÎ²":3336,"ĠÏĥÏĦÏĮ":3337,"Ġcl":3338,"Ġthou":3339,"Î¼Î¼Î±":3340,"Î²Î¬":3341,"Ġá¼ĲÏĢá½³":3342,"Î¶ÏħÎ³":3343,"ĠÏĥÎºÎ¿":3344,"ĠÏĢÎ±Î½ÏĦá½±ÏĢÎ±ÏĥÎ¹Î½":3345,"ĠÎ´Î¹ÎµÎ¾":3346,"á½·Î½ÏīÎ½":3347,"Ġá¼ĦÎ»Î»ÏīÏĤ":3348,"Ġá½ħÎ»Î¿Ïħ":3349,"ings":3350,"ĠÏĥÏĨÏħÎ³Î¼á½¸ÏĤ":3351,"ek":3352,"ÏĦÏĦÎµÎ¹":3353,"ĠÏĢÎ½Îµá½»Î¼Î±ÏĦÎ¿ÏĤ":3354,"á½³Î»ÏĦÎ¹Î¿Î½":3355,"ÎºÎ±Ïģ":3356,"ah":3357,"ÏĦÏĦÎ¿Ïħ":3358,"Ġá¼Ļ":3359,"Îµá½·á¾³":3360,"Ġá¼°Î´á½³":3361,"ĠÎ¼ÎµÏĦÎ±Î²Î¿Î»":3362,"Ġá¼ĺÏģÎ±":3363,"ĠÎ´á½µÏĢÎ¿Ïħ":3364,"ĠÎ´ÏįÎ¿":3365,"ÏĢÏħ":3366,"ÏĮÎ¼ÎµÎ½Î¿Î¹":3367,"Ġá½ķÏĢÎ½":3368,"Ġlit":3369,"ĠÎºÎ¿Î¹Î½á½¸Î½":3370,"ÏĦá¿Ĩ":3371,"ÏģÎ±á½¶":3372,"á½µÏĥÎ±ÏĤ":3373,"ĠLxx":3374,"Ġus":3375,"Ġá¼ĢÎ¼ÏĨÎ¿á¿ĸÎ½":3376,"Î©":3377,"ÏĥÎ¬":3378,"ĠÎ¼á½³Î³Î±":3379,"á½³ÏĩÎµÎ¹Î½":3380,"Ġá½ĢÏĥÏĦÎ¿á¿¦Î½":3381,"ÏĥÏĦÎ¹ÏĤ":3382,"Î»Î¹Î²":3383,"Ġá¼ĦÎ»Î»Î·":3384,"ĠÏĢÎ±ÏģÎ±Îº":3385,"ĠÏĨÎ±ÏģÎ¼á½±ÎºÎ¿Ïħ":3386,"ĠÏĨÏīÎ½á¿ĨÏĤ":3387,"Ġá¼´ÏĥÏīÏĤ":3388,"ĠÎ¿ÏĦÎ¹":3389,"ĠÏĢÎ¿Î»Î»á¿·":3390,"ĠÏĢÎ¿Î»Î»Î¿á¿ĸÏĤ":3391,"Ġá¼ĶÎ´ÏīÎºÎµÎ½":3392,"ÎµÏģÎ¿Î½":3393,"á½¹Î½ÏīÎ½":3394,"ĠÎ´Î¹Î±ÏĨ":3395,"ÏĦÏīÏĥÎ±Î½":3396,"ĠÎµá¼°Ïĥá½¶":3397,"ĠÏĦÏģÎ¹á¿¶Î½":3398,"Î»á½¹Î³":3399,"ĠÎºÎ»":3400,"ĠÎ²ÎµÎ²":3401,"ĠÎ±ÏħÏĦÏī":3402,"ĠÎ»Î¹Î¸":3403,"Ġá½ģÏĢÎ¿á¿ĸ":3404,"Î½Î·Î½":3405,"Ïĥá½·Î½":3406,"ĠÎºÎ»Î·ÏģÎ¿Î½Î¿Î¼":3407,"ÏĨÏģÎ¿Î½":3408,"Ġá¼ĶÏĥÏī":3409,"ĠÏĢÎ¿Î»Îµ":3410,"Ġá¼ĢÎ½ÏĦá½¶":3411,"ÎºÏģÎ¹Î½":3412,"Î»Î¿Î³Î¿Î½":3413,"Ġá¼ĲÎ³ÎºÎµÏĨá½±Î»Î¿Ïħ":3414,"ĠÎ¿ÏħÎº":3415,"ĠÎºÎ±ÏĦÎŃ":3416,"Îµá¿ĸÎ±Î½":3417,"ĠÎ´Î¹Î±á½·":3418,"Î¿Î¼á½³Î½á¿³":3419,"ĠÎ¸ÎµÏģÎ¼Î±Ïĥá½·Î±ÏĤ":3420,"ÏħÏĤ":3421,"ÏīÏĥÎ¹ÏĤ":3422,"ĠÎ³á¿ĩ":3423,"ĠÎ¼Î·Î´Îµ":3424,"ĠÎļÏįÏģÎ¹Îµ":3425,"á½µÏĥÎµÏīÎ½":3426,"ĠÎ¸ÏħÏĥÎ¹Î±ÏĥÏĦ":3427,"ĠX":3428,"Ġá¼ĲÏĥÎ¸":3429,"ĠÎ²Î»á½±Î²":3430,"ÏĥÎµÏĥÎ¸Î±Î¹":3431,"Î»Î¹ÏĢ":3432,"ÏĥÎ±Î½ÏĦÎ¿":3433,"ĠÎ±á½ĳ":3434,"ĠÎ´Î¹Î´Î±Ïĥ":3435,"Î´á¿¶Î½":3436,"Î¼á½³Î½Î¿Î¹":3437,"Î»á½±ÏĦÏīÎ½":3438,"ĠÏĦÎ¿Î¹Î±á½»ÏĦÎ·Î½":3439,"ĠÎ´Î¹ÏĦÏĦ":3440,"ĠLord":3441,"Î±ÏģÏĩ":3442,"ĠÏĥÏħÎ³Ïĩ":3443,"ĠÏĢÎ±Î¹Î´á½·":3444,"ĠÏħÎ¼":3445,"ĠÏĦÎ¿ÏħÏĤ":3446,"ĠÎ±á½ĲÏĦá½´":3447,"Ġá¼ĶÏĥÏĩ":3448,"ÏĦÎµá¿¦Î¸ÎµÎ½":3449,"Ġá¼ĲÎ³ÎµÎ½":3450,"Î¸Î·Î½":3451,"á¿¶ÏĥÎ¹":3452,"Ġ28":3453,"Î³Î³Î¿ÏĤ":3454,"ĠÎļÏħÏģÎ¹Î¿ÏĤ":3455,"ĠÏĩÎ¹ÏĦá¿¶Î½":3456,"á½µÏĥá¿ĥ":3457,"ĠÎµá½ĳÏģá½·ÏĥÎº":3458,"Ġá¼ĦÎ½ÏīÎ¸ÎµÎ½":3459,"ĠÎ»Î¿Î³Î¹ÏĥÎ¼":3460,"ĠÏĥÏħÎ¼Î¼á½³":3461,"ĠÏĨÎ»á½³Î²Î±ÏĤ":3462,"Î¿Î¹Î½":3463,"ÏħÏģÎ¿":3464,"ÏĪÎ¹ÏĤ":3465,"ĠÎ¼ÏĮÎ½Î¿Î½":3466,"ĠÏĢÎµÏģÎ¹ÎµÏĩ":3467,"ĠÎ»ÎµÏĢÏĦÎ¿Î¼ÎµÏģ":3468,"ĠÎ¼á½³Î³":3469,"ĠÎ±á½Ķ":3470,"ĠÎ±ÏħÏĦÎ¿Î½":3471,"ĠÏĢÎ»Î·Ïģ":3472,"á½³Î³ÏģÎ±ÏĢÏĦÎ±Î¹":3473,"Ġá¼Ģá¿¤á¿¥ÏīÏĥÏĦ":3474,"Î½ÎµÏĥÎ¹Î½":3475,"ĠÎ¿á½ĲÎºá½³":3476,"Ġá¼±Î´Ïģ":3477,"ÏĩÏīÏģÎµá¿ĸ":3478,"ĠÎ±á½ĲÏĦÎ¿á½»ÏĤ":3479,"ĠSy":3480,"ĠÎ»á½·ÏĦÏģÎ±ÏĤ":3481,"pp":3482,"ÏĨÎ·":3483,"á¿ĨÎ»Î¸Î¿Î½":3484,"ĠÎ¸Îµá¿·":3485,"Ġá½ĳÎ¼Îµá¿ĸÏĤ":3486,"ÎºÎ¿ÏĥÎ¹":3487,"Ġá¼ĳÎºá½±ÏĦÎµÏģÎ¿Î½":3488,"Ġ[":3489,"Ġá¼ĲÎ´Îµ":3490,"á½·ÏĥÎº":3491,"Î¿á½»ÏĥÎ±ÏĤ":3492,"ĠÎ±ÏħÏĦÎ¿ÏħÏĤ":3493,"ĠÏĢÎ¬Î½ÏĦÏīÎ½":3494,"ĠÏĩÎµÎ¹Î¼á¿¶Î½":3495,"ÏĥÏĥÎ·ÏĤ":3496,"ĠÎ»Î±á½¸ÏĤ":3497,"ĠÎºÎ¿Î¹Î»á½·Î±ÏĤ":3498,"Î½Î¹":3499,"ĠÏĦá½»Ïĩ":3500,"Ġá¼ĲÏĢÎ¿Î¹":3501,"á½½Î¼Î±ÏĦÎ±":3502,"ĠÏĩÏģÎµá½·Î±Î½":3503,"Ġmea":3504,"ĹÏĦÎ±Î¹":3505,"á¼ħ":3506,"ĠÏĥá½±Ïģ":3507,"ÎµÎ½á½¸ÏĤ":3508,"ĠÏĢÏģá½±Î³":3509,"ĠÎ½ÏħÎº":3510,"Ġá¼ĲÎ¾ÎµÎ»":3511,"á¼ĢÎ½Î±":3512,"ÏĦÎ¹ÎºÎ¿á¿ĸÏĤ":3513,"ĠÎ¾Î·ÏģÎ±Î½":3514,"ĠÎ´ÏħÎ½á½±Î¼ÎµÎ¹ÏĤ":3515,"ÏīÏ²":3516,"Î¯ÏīÏĤ":3517,"ĠÏĨÎ·ÏĥÎ¹Î½":3518,"ÏĪÏī":3519,"Ġá¼¡Î¼ÎŃÏģ":3520,"Ġ29":3521,"ĠÎºá¾ĢÎº":3522,"Î¹ÎºÎ±á¿¦ÏĦÎ±":3523,"sa":3524,"ÏĩÎ±Î»":3525,"ĠÏĨÎ·ÏĥÎ¹":3526,"Î»Î¹ÏĤ":3527,"ÏĦÏīÎ¼Î±":3528,"ĠÏĦÎ¿á¿ĸÏĥÎ¹":3529,"ĠÎµÏĢÎµ":3530,"á¼ĲÏĨ":3531,"Î³Î±Î³":3532,"ĠÏĩÏģá½¹Î½Î¿Ïħ":3533,"Ġá¼ĢÎ»Î»á½µÎ»ÏīÎ½":3534,"for":3535,"Î¸ÏīÎ½":3536,"Î¼Î±ÏĦ":3537,"Ïģá½¹ÏĦÎ·ÏĤ":3538,"Î¼ÏĨÏī":3539,"Ġá¼¸ÏĥÏģÎ±á½µÎ»":3540,"ĠÎļÏħÏģá½·Î¿Ïħ":3541,"ĠÎºÏĤ":3542,"ĠÎ´Î¹á½³":3543,"ÏĦÎ¿á½¶":3544,"ĠÏĢÎ±ÏģÎ±Ïĩ":3545,"ĠÏĢá¾¶ÏĥÎ±":3546,"Ġá¼ĲÎºÎµá¿ĸÎ½Î¿":3547,"ĠÏĢÏģÎ¿ÏĥÎ±Î³Î¿":3548,"Î±Ïĩ":3549,"Î¹Îºá½¸Î½":3550,"Î»Î¿Î¹ÏĤ":3551,"ĠÏĦá¿·Î´Îµ":3552,"Î·ÏĥÎ¿Î½":3553,"Î´Î¹Î´":3554,"Ġá¼ĳÎ»Îºá¿¶Î½":3555,"cc":3556,"Ġi":3557,"ÏĢÎ»Î·":3558,"ĠÎ¼Î¹Î³Î½":3559,"ÏģÎ±Î³":3560,"Î±Î½Î¹":3561,"Ġá¼ĢÎ³Î½Î¿":3562,"Ġá¼ĲÏĢÎ¿á½·Î·ÏĥÎµÎ½":3563,"ÎĹ":3564,"á½ķ":3565,"ÏģÏĮÎ½":3566,"ĠÎ³ÏģÎ±Î¼":3567,"Î¯Î¿ÏħÏĤ":3568,"Ġá¼ĶÎ»Î±Î¹Î¿Î½":3569,"Î»ÎµÎºÏĦÎ±Î¹":3570,"Ġá¼ĶÏĩÎ¿ÏħÏĥÎ¹Î½":3571,"á½±Î»Î¿Î³Î¿Î½":3572,"ĠÏĢÎ¿Î»Ïħ":3573,"ÏģÎ¿á¿ĸÏĤ":3574,"á½³Î½ÏĦÎµÏĤ":3575,"ĠÏĢá¾¶ÏĥÎ¹":3576,"0Â¹":3577,"ld":3578,"Î±Î´":3579,"ĠÏĦÎ¬":3580,"ÏĢÎ½Îµ":3581,"Ġá¼ĲÎºÎºÏģá½·":3582,"Ġá¼´Î´Î¹Î¿Î½":3583,"Ġá¼ĢÎ»Î³":3584,"ÎµÎ¹Î±":3585,"Ġá¼¸Î±Îº":3586,"ĠÎºÎ±Î¹Ïģá¿·":3587,"Ġrend":3588,"Î¿ÏħÏģÎ³":3589,"Ġá¼ĢÎ»Î·":3590,"ÏĥÎµÏĥÎ¹":3591,"Ġá¼ĲÎºÏĦÎµ":3592,"ÏĥÎ±ÏĨ":3593,"ÎºÎ¿ÏħÏĤ":3594,"ĠÏĢá½³ÏģÎ±":3595,"ĠÎ³á½·Î³Î½":3596,"Ġá¼ĲÏĢÎ¹á¿¤á¿¥":3597,"ÎºÎ¿Î´Î¿Î¼":3598,"Î¼á¿ĨÏĤ":3599,"ĠÏĢÎ·":3600,"ĠÎ³ÎŃÎ½":3601,"ĠÎ³Î»á½·":3602,"ĠÎ»Î¿Ïħ":3603,"Ġá½ģÏĢá½¹":3604,"Ġ31":3605,"ĠÎ¿á½ĲÏģÎ±Î½Î¿á¿¦":3606,"ÎºÏħ":3607,"Ïĩá½½":3608,"ĠÏĥÏĩÎµÎ´":3609,"ĠÏĩÎµÎ¹Ïģá½¶":3610,"Î¸á¿ĩ":3611,"Ġá¼ĲÏĢÎŃ":3612,"Îµá¿ĸÎ½Î±Î¹":3613,"Ġá¼ĢÎºÎ¿Ïį":3614,"Î¸Î·ÏĤ":3615,"á½³ÏĤ":3616,"ĠÎ´á½³ÏģÎ¼Î±ÏĦÎ¿ÏĤ":3617,"Ġá¼ĶÏĨÎ·":3618,"ĠÏĢÏģÏĮÏĥÏī":3619,"ĠÎ¿á½ĲÎ´Îµá½¶ÏĤ":3620,"ĠÎ´Ïİ":3621,"á½µÎ¼Î±ÏĦÎ¹":3622,"ÏĪÎµÏĦÎ±Î¹":3623,"Î¼ÏĨÏħ":3624,"Î³ÎµÎ³ÏģÎ±Î¼":3625,"ĠÎ²Î¹Î²Î»á½·Î¿Î½":3626,"ĠÏĢÎ±ÏģÎ±ÏĢÎ»Î·Ïĥ":3627,"Ġá¿¥Î·ÏĦ":3628,"Ġá½ĦÏģÎ³":3629,"ĠÎºÎ¹Î½á½µÏĥÎµÎ¹ÏĤ":3630,"ĠÎ´á½»Î½Î±ÏĥÎ¸Î±Î¹":3631,"Î¾Î±ÏĥÎ¸Î±Î¹":3632,"ÏĦÏģÎ¹Îº":3633,"ÎºÎµÏĤ":3634,"ĠÎµá¼¶Î½Î±á½·":3635,"Ġthem":3636,"ÎºÎ»á¿³":3637,"ĠÏĩÎ¹Î»Î¹":3638,"ĠÎ³Î»á½·ÏĥÏĩ":3639,"ĠÎ´Î±":3640,"ĠÏĥÏħÎ¼Î¼Îµ":3641,"ĠÏħá¼±Î¿á¿¦":3642,"ĠÏĦá¿ĨÏ²":3643,"Î¼Î±Î»":3644,"Ġá¼ĳÎ±Ïħ":3645,"hap":3646,"Ġá¼ĢÎ´ÎµÎ»ÏĨÎ¿":3647,"Ġá¼¡Î¼ÎŃÏģá¾³":3648,"ĠÏĢÎ¿Î¹Îµá¿ĸ":3649,"ĠÏĥÏħÎ½ÏĦÎµ":3650,"ÎºÎ¿ÏĥÏĦ":3651,"ĠÎ¼ÎµÏĦÊ¼":3652,"ĠÏĥÏĢÎ¿Î½Î´á½»Î»":3653,"ge":3654,"ĠÎ¿á½ĲÎ´á½³":3655,"Î¿á½ĲÎ´á½²":3656,"ÏĢÎ¿ÏģÎµÏħ":3657,"Ġá¼ĢÎ¼á½³":3658,"ĠÏĥÎ·Î¼Îµá¿ĸÎ¿Î½":3659,"Î·Î¸Î·":3660,"ĠÏĢÎµÎ¹":3661,"Ġá¼ĲÏĢÎ¯":3662,"ÏĢÎ±ÏģÎ±":3663,"ĠÎºÎ¿ÏĦá½»Î»":3664,"Ġá¼ĲÏĢÎ¿Î¯Î·ÏĥÎµÎ½":3665,"ÎºÏĦÎ±":3666,"ÏĦÎ±Î¾ÎµÎ½":3667,"ÏĥÏĦÏīÎ½":3668,"ĠÏĨÏģÎµÎ½":3669,"ĠÏĥÏħÎ¶ÏħÎ³":3670,"ĠÎ¸ÎµÏģÎ¼Î¿á¿¦":3671,"ĠÎ¼ÎµÎ³á½³":3672,"ĠÎłÎ»á½±ÏĦÏīÎ½":3673,"ĠLXX":3674,"Î´á¿Ĩ":3675,"Ġá¼ĳÏģ":3676,"Ġá¼ĲÏĥÏĦá½·Î½":3677,"Î´ÎµÎºÎ±":3678,"ĠÎ½Ïī":3679,"ĠÎºá¾ĢÎ½ÏĦÎ±á¿¦Î¸Î±":3680,"á¿ĸÎ¿Î¹":3681,"ĠÏĦÎ¿á¿ĸÏ²":3682,"Ġá¼ķÎ»ÎºÎ¿ÏĤ":3683,"ally":3684,"Ġá¼ĦÎ½Î´ÏģÎµÏĤ":3685,"ĠÎ³á½³Î½Î¿ÏħÏĤ":3686,"ĠÎ³Î½Ïī":3687,"Îºá½¹ÏĦÏīÏĤ":3688,"ĠÎ±ÏħÏĦÎ·ÏĤ":3689,"pl":3690,"so":3691,"ÏĦÏħÏĩ":3692,"ĠÎºÏħÏģÎ¯Î¿Ïħ":3693,"ĠÏĢÎ±ÏĦ":3694,"á½¹ÏĦÎ·ÏĦÎ¹":3695,"Î¼Î·ÏĤ":3696,"Î´Îµá¿ĸ":3697,"ÏĨÎµÎ¹":3698,"Ġá¼ĲÎ½ÏĦá½¸ÏĤ":3699,"Î»ÎµÎ¸":3700,"ĠÎ³ÎµÎ½Îµ":3701,"ĠÎ´Î¹Î±ÏĨÎ¿ÏģÎ·":3702,"ĠÎ¼á½»ÎµÏĤ":3703,"Î¸Î±Ïģ":3704,"ÏĦÎ±Î¯":3705,"ĠÏĥÏĦÎµÏģ":3706,"ĠÎĴÎ±Î²":3707,"ĠÎ³á½³Î½ÎµÏĥÎ¹Î½":3708,"Î³ÏģÎ±ÏĨ":3709,"ĠÏĢá½³ÏĨÏħÎº":3710,"Î¾ÎµÏĦÎ±Î¹":3711,"ĠÏĢÎ¿ÏĦÎ±":3712,"ÏĦá½³Ïģá¿³":3713,"Ġá¼¦ÏĥÎ±Î½":3714,"xt":3715,"ÏĦÏģÎ¿":3716,"á¼ĤÎ½":3717,"Îµá¿¦":3718,"ÏģÏħÏĢ":3719,"ĠÏĢá½³Î½":3720,"ĠÎµá¼´ÏģÎ·":3721,"Ġá¼ĶÎ½Î´ÎµÎ¹":3722,"ĠÎķá¼°":3723,"Î´ÏģÎ¿":3724,"Î±Î¹Î¿Î½":3725,"Ġá½ģÎ´á½¸Î½":3726,"Î½á½¹":3727,"á½»ÏģÎ¿Ïħ":3728,"ÏĥÎºÎ»Î·ÏĢÎ¹":3729,"á½Ħ":3730,"ÏģÎ¿Î¹":3731,"ĠÏĦÎ¿Î¹ÏĤ":3732,"á¿¶Î½Î±Î¹":3733,"á½½ÏĢÎ¿Ïħ":3734,"Î¼ÏīÎ½Î¹":3735,"ĠÏĢÎ»Î·Î³":3736,"ĠÎ½á½¹ÏĥÎ·Î¼Î±":3737,"ÏĢÎ¯":3738,"Î¼Î¿ÏħÏĤ":3739,"ÏģÎ¹Î¶":3740,"ĠÎ¸Î¬":3741,"ĠÎ¸ÏħÏĥ":3742,"ĠÎºÎµÎ»Îµá½»":3743,"Ġá¼¸ÎµÏģÎ¿ÏħÏĥÎ±Î»Î®Î¼":3744,"ÏĩÏīÎ½":3745,"Ġá¼ĦÎ¼ÏĨÏī":3746,"Ġá¼ĲÏĢÎ¹Î³":3747,"ĠÎ¼á½³Î»Î»":3748,"ib":3749,"Î¾á½±":3750,"Ġhis":3751,"Î¿Î½Î¿":3752,"Î¾Î¿Î½":3753,"Ġá¼°ÏĥÏĩÏħÏģá¿¶ÏĤ":3754,"aA":3755,"ĠÎ³Î¬Ïģ":3756,"ÏĢÎ¿ÏĦÎµ":3757,"Î·ÏĥÎ±ÏĤ":3758,"Î¿á½»Î¼ÎµÎ½Î¿ÏĤ":3759,"Ġï¬":3760,"ÏĩÏī":3761,"á½´Î¼":3762,"á½µÏĥÎ¿Î½ÏĦÎ±Î¹":3763,"Ġá½ĢÎ´ÏħÎ½":3764,"Ġá¼ĢÎ´Î¹Îº":3765,"Ġá¼ĢÎ¸Ïģá½¹":3766,"ÎºÎµÎ¹Î½":3767,"á¿ĸÎ½Î¿Î½":3768,"ĠÏĦá½³ÏĩÎ½Î·ÏĤ":3769,"Î¹ÎºÎ¿á¿ĸÏĤ":3770,"ĠÎ½Î¿á¿¦Î½":3771,"Ġá¼ĦÎ»Î»Î¿Î¹":3772,"ĠÏĩÎ±Î»ÎµÏĢ":3773,"Ġá¼¡Î¼á½³Ïģá¾³":3774,"ÏĨÎµ":3775,"Îµá½·Î¿Î¹ÏĤ":3776,"Î¿Î»á½´Î½":3777,"Î³Î±Î³ÎµÎ½":3778,"ĠÎĻÏī":3779,"Ġá¼ĳÎ±ÏħÏĦá¿¶Î½":3780,"ĠÎ»á½³Î¾Î¹Î½":3781,"Î¼á½¹Î½":3782,"ĠÎ±ÏĢÎµ":3783,"ĠÎ±á½ĲÏĦá½µÎ½":3784,"ÏĨÎ¸Î±Î¹":3785,"ĠÎ¾Î·Ïģá½¸Î½":3786,"ÏģÎ¼á½¹":3787,"Ġá¼ĶÎ¸Î½Î·":3788,"Ġá¼ĲÏĩÏģá¿ĨÎ½":3789,"Ġá¼¸Î¿ÏįÎ´Î±":3790,"Ġá½ĦÎ¾Î¿ÏħÏĤ":3791,").":3792,"ak":3793,"ÏĥÎ±Î½ÏĦÎ±":3794,"ÏĦÎ¹Îºá½´":3795,"Î¼Î¹ÏĥÏħ":3796,"Ġá¼ĢÏģÏĩá¿ĩ":3797,"ĠÎ»ÎŃÎ³":3798,"ĠÏĢÎ»Î·Ïĥá½·Î¿Î½":3799,"ĠÏĢÎ»Î·Î¸":3800,"Î¸ÏģÎ±":3801,"Ġá¼ħÏĢÎ±ÏĥÎ¹Î½":3802,"ÏĨÎµÎ¹Î½":3803,"á½µÏĥÎ±ÏĦÎ¿":3804,"Î»ÎµÎ¯":3805,"ĠAnd":3806,"Ïģá½¹ÏĦÎ±":3807,"ÏĮÎ½ÏĦÎµÏĤ":3808,"Ġá¼ĲÎ¼ÏĢÎµÎ¹":3809,"ĠÎ´Î¹Î·Î³":3810,"ĠÎ¼ÎµÎ³Î¬Î»":3811,"our":3812,"ĠÎ±ÏħÏĦÏīÎ½":3813,"ĠÎ´ÏħÎ½Î±ÏĦá½¸Î½":3814,"Ġá¼ĢÏĥÏĨÎ±Î»":3815,"ame":3816,"Ġá¿¥á½±Ïĩ":3817,"ĠÎĴÎ±Î²ÏħÎ»":3818,"ĠÏĨÏģÎ¿Î½":3819,"Ġsome":3820,"Ġá½ĢÎ½Î¿Î¼á½±Î¶ÎµÎ¹Î½":3821,"Î´Îµá½·ÎºÎ½ÏħÏĦÎ±Î¹":3822,"Ġá¼ĶÎ»Î±Î²ÎµÎ½":3823,"Ġá¼ĲÎ¸Îµ":3824,"ĠÏĦÎ¿á¿¦Î´Îµ":3825,"Ġá¼ĶÏĨÎ±":3826,"Ġá¼ĲÎ¾ÎŃ":3827,"ĠÏĪÎµÏħ":3828,"ĠÏĪá½»Ïĩ":3829,"Ġá½ĦÎ½ÏĦÏīÎ½":3830,"ĠÎ¼Î¿Ïģá½·Î¿Î¹ÏĤ":3831,"ĠÎ¸á½½ÏģÎ±ÎºÎ±":3832,"ĠÏĩÏģÎµá½·Î±":3833,"ĠÎµá¼¶ÏĢÎ±Î½":3834,"Ïģá½¹ÎºÎ¿Ïħ":3835,"ĠÎºÏħÏģÎ¹":3836,"ÏĦá½µÎ´ÎµÎ¹":3837,"ĠÏĥÏĨÏħÎ³Î¼á½¸Î½":3838,"ĠÎ½Îµá¿¦ÏģÎ¿Î½":3839,"Î±Î¯":3840,"Î¹ÎºÎ¿á¿¦":3841,"ĠÎ¸ÎµÏĮÏĤ":3842,"ĠÏĢÏģÎ¿ÏĥÏİ":3843,"ĠÎºÎ±Î¹Ïģá½¸Î½":3844,"Ġá¼°Î±ÏĦÏģÎ¹Îº":3845,"ĠÎºÏģá¾¶ÏĥÎ¹Î½":3846,"ĠÎ±á¼±Î¼Î¿á¿¤á¿¥Î±Î³":3847,"ĠÎ³ÎµÎ³":3848,"ĠÏĢÎ¿Î¹á¿ĨÏĥÎ±Î¹":3849,"ĠÎ£Îµ":3850,"á½¹ÏĦÎ±ÏĦÎ¿Î½":3851,"Ġá¼ĢÎ½Î¸ÏģÏİÏĢÎ¿Ïħ":3852,"á½į":3853,"ÏĥÎ´Îµ":3854,"ÏĢÎŃ":3855,"Ġá¼ĲÎ½Ïİ":3856,"Î»ÎµÏĥÎµÎ½":3857,"ĠÎ²Ïģ":3858,"Ġá¼ĢÏĢÎ¿Î´Îµá½·":3859,"Ġá½ĦÎ½ÏĦÎ±":3860,"ÎºÎ¹ÏĥÏĦÎ±":3861,"ĠÏĦÎ¿Î¹Î¿á¿¦ÏĦÎ¿ÏĤ":3862,"ĠÎ´Î¹Î±ÏģÎ¸Ïģ":3863,"ÏĢá¿¶ÏĤ":3864,"ĠÎ´Ïģ":3865,"Î½ÎµÏĤ":3866,"Ġá½ĳÎ³ÏģÎ±":3867,"ĠÏĦá½¹ÏĢÎ¿Î½":3868,"ĠÎ´Î¹Î´á½±ÏĥÎº":3869,"Ġá¼ĢÎ½Î¸Ïģá½½ÏĢÏīÎ½":3870,"ostea":3871,"ect":3872,"ĠÎ´ÎµÎ¹":3873,"á½·ÎºÎ±":3874,"Ġá¼ĲÎ³ÏĩÏīÏģÎµá¿ĸ":3875,"ĠÏĥÏħÎ½Î¹":3876,"ĠÏĨÎ»ÎµÎ³Î¼Î¿Î½á¿ĨÏĤ":3877,"ĠÏĥÏĨÎ¿Î´Ïģá¿¶ÏĤ":3878,"ÎºÎµá½·Î¼ÎµÎ½Î¿Î½":3879,"ĠÎ£Î±Î»Ïī":3880,"ĠÎ´Î¿Ïħ":3881,"ĠÎ³á½±Î»Î±":3882,"ĠÎºÎ±Î¸á½¼ÏĤ":3883,"ĠÏĢÎ±Ïģá½±":3884,"Ġverb":3885,"ĠÎ¼á½³Î»Î¹ÏĦÎ¿ÏĤ":3886,"Î¼Î¿Î¹ÏĤ":3887,"ÎºÎ±ÏĦÎµ":3888,"Î´ÎµÎºá½±":3889,"ÏĦÏģÎ¿ÏĤ":3890,"ĠÏĢÎ»á½±":3891,"ĠÏĩÎ¿Î»á¿ĨÏĤ":3892,"ĠÏĦÎ·Î½Î¹ÎºÎ±á¿¦ÏĦÎ±":3893,"Î¹Î±ÏĤ":3894,"Ġá¼ĢÎ¼Îµ":3895,"iff":3896,"Ġá¼ĢÏĨÎ¿ÏģÎ¹ÏĥÎ¼":3897,"ec":3898,"Ġá¼ī":3899,"ĠÎ±á¼°á¿¶Î½Î±":3900,"Ġá¼ĪÏĥÎºÎ»Î·ÏĢÎ¹":3901,"Ġá¼ĶÎ½Î¸Î±":3902,"ĠÏĦÏģÎ¯":3903,"Ġá¼ĳÏĦá½³ÏģÎ±ÏĤ":3904,"ĠÏĦÎ¹Î½Î±ÏĤ":3905,"ĠÏĥÎºÎ¹":3906,"ĠÎĶÎ¹":3907,"Ġá¼°Î±ÏĦÏģÎ¿á¿ĸÏĤ":3908,"ĠÏĢÎ±ÏģÎµÎ¼Î²":3909,"ĠÏĦÎ±Ïĩá½³ÏīÏĤ":3910,"SS":3911,"ning":3912,"ÓĦ":3913,"Ġá½ĳÎ´Î±":3914,"ĠÎ´Î¹Î±ÏĨÎ¿Ïģá½°ÏĤ":3915,"Ġá¼ĲÎ½Î±Î½ÏĦá½·Î¿Î½":3916,"Î¬ÏĢÎµÏģ":3917,"ÏģÎµÏīÏĤ":3918,"Ġper":3919,"ĠÎµá½ĲÎ»Î¿Î³":3920,"ÎºÎ¿Ïį":3921,"ĠÏĢÎ½ÎµÏį":3922,"ĠÏĢÎ¬Î½ÏĦÎ±ÏĤ":3923,"á¼ĲÏĢÎµÎ¹Î´":3924,"ĠÏĢÎµÏĢÎ¿Î½Î¸á½¹":3925,"Ġá¼ĲÎ³Îºá½³ÏĨÎ±Î»Î¿Î½":3926,"ĠÏĦÏģá½±":3927,"ÎºÏĦ":3928,"Ġá¼ģÎ»":3929,"ĠÏĢÎµÏģÎ¹ÏĦÏĦÏī":3930,"Î¼Î¹Î½Î¸":3931,"AF":3932,"her":3933,"ÏħÏĦá½³Ïģ":3934,"Î³Î½ÏīÏĥÎ¹Î½":3935,"ĠÏħá¼±Î¿á¿ĸÏĤ":3936,"ĠÎ»á½³Î³ÎµÎ¹":3937,"Ġá½ĢÏĨÎ¸Î±Î»Î¼á¿¶Î½":3938,"ĠÏĦÎ±á¿¦ÏĦ":3939,"ĠÏĢÎ±ÏģÎ±ÏĩÏģ":3940,"ĠÏĥÏĩÎµÎ´á½¸Î½":3941,"10":3942,"ĠN":3943,"ĠAa":3944,"á½±Î½Î·ÏĤ":3945,"Ġá¼ĢÎ½Î¿Î¼":3946,"ĠÎ¿á¼´Îºá¿³":3947,"ĠÎºÏħÎº":3948,"ĠÎ´Î¹ÎºÎ±":3949,"ĠÏĨÎ¿Ïģ":3950,"Ġá¼ĢÎ½Î±Î²":3951,"Ġli":3952,"to":3953,"ĠâĻĥ":3954,"Î¿Ï²":3955,"Î¿ÏħÎ¼á½³Î½ÏīÎ½":3956,"Ġá¼Ģá¿¤á¿¥":3957,"Ġá¼ĲÎ¾Î±á½·":3958,"Ġá¿¥Î¹Î½":3959,"ĠÎºÎ±ÏĦÎ±ÏĥÏĦá½±":3960,"ĠÏĢÏħÏģÎµÏĦá½¸ÏĤ":3961,"ĠÎ§ÏģÎ¹ÏĥÏĦ":3962,"ĠÎ´ÏħÎ½á½±Î¼ÎµÎ¹":3963,"ĠÎ¼ÎµÎ»Î±Î³Ïĩ":3964,"Î¼Î±Î½":3965,"Î¼ÏĢÎ¿":3966,"á½»Î½Î±Î¹":3967,"ĠÏĩá½¹Î½":3968,"Ġá½ĢÎ»Î¯":3969,"Î±ÎºÎ¿á¿¦":3970,"Î¼Î½Î·Î¼":3971,"Î¿Î¼ÎŃÎ½ÏīÎ½":3972,"Ġá¼¸ÎµÏģÎ¿ÏħÏĥÎ±Î»á½´Î¼":3973,"Ġá¼Į":3974,"Î¼Î±ÏĤ":3975,"Ġá¼ĶÏģÏĩ":3976,"ĠÎµá¼°Î¼Î¹":3977,"Î¶ÎµÏĥÎ¸Î±Î¹":3978,"ĠÎºÎ±Î¸á½¹Î»Î¿Ïħ":3979,"á¼ĢÏĢÎ¿":3980,"Ġhas":3981,"ÏĦÏģÎµ":3982,"á½³ÏĥÎ¸Ïī":3983,"ÏĥÏĦÎ·Î½":3984,"ĠÎ¸Î»á½·":3985,"ĠÎ´Î¹Î±Î³Î½":3986,"ĠÏĢÎ±á½»":3987,"Ġá¼°á½±":3988,"ĠÎºá½½":3989,"á½³Î¿ÏĤ":3990,"Ġá¼ĢÏĢÊ¼":3991,"ĠÎµá¼´Ïī":3992,"ÏĢÏĦÎµÏĥÎ¸Î±Î¹":3993,"Ġá¼ĲÎ»Îµ":3994,"á½·Î·":3995,"á¿¶Î½ÏĦÎ±Î¹":3996,"Î»Î»Ïħ":3997,"Î»Î±Î¼":3998,"Ġá¼ģÏĨ":3999,"Ġcom":4000,"Î¾Î·":4001,"Î¼á½³Î½á¿ĥ":4002,"ĠÏĦÎµÏĦÎ±":4003,"ĠÎ²á½³Î»ÏĦÎ¹Î¿Î½":4004,"ĠÏĦÎ¿á½Ķ":4005,"Ġá¼ĢÎ½Ïī":4006,"á½¹Î¼ÎµÎ½Î±Î¹":4007,"Ġá¼ĲÎ¼ÏĨá½»":4008,"ĠÎµá¼°ÏĥÎµ":4009,"Ġá½ĢÏģ":4010,"Ġá¼°Î´Î¹":4011,"ĠÏĪÏħÏĩá½´Î½":4012,"ĠÏĦÎ±á½»ÏĦÎ±ÏĤ":4013,"Ġá¼ķÎºÎ±ÏĥÏĦÎ¿ÏĤ":4014,"ĠÎ´Î¹Î´Î±ÏĥÎºÎ±Î»":4015,"pt":4016,"ĠÏĦÎ¿á½»ÏĦÎ¿ÏħÏĤ":4017,"ĠÏĥÏħÎ½Î¸á½³":4018,"Î´ÎµÎ¹ÎºÎ½":4019,"ĠÎºÏīÎ»á½»":4020,"ĠÏĦÎ±á½ĲÏĦá½¸Î½":4021,"ÏĦÏĦÎµÏĥÎ¸Î±Î¹":4022,"ĠÏĢÎ±ÏģÎ±ÏĩÏģá¿ĨÎ¼Î±":4023,"Ġá¼ĲÎ½Î¹":4024,"á½µÎ³":4025,"ĠÏĩÏģá½µ":4026,"ĠÏĥÏħÎ¼Î²Î±á½·Î½ÎµÎ¹":4027,"ĠSyr":4028,"á½ī":4029,"ĠÎ¡":4030,"âĢĻ.":4031,"ÏĦÎ¹Ïĥ":4032,"ĠÏĦÎµÏĩÎ½":4033,"Î®Î¼Î±ÏĦÎ±":4034,"ĠÏĢÎ±á¿ĸ":4035,"Ġá¼ĢÏĢÎ¿Î¸Î±Î½":4036,"Î¸Î·ÎºÎµÎ½":4037,"Ġá¼ħÏĢÎ±Î½ÏĦÎµÏĤ":4038,"ĠÎ±á¼´ÏĥÎ¸Î·ÏĥÎ¹Î½":4039,"á¼µ":4040,"ÎºÏīÏĤ":4041,"ĠÎ¼ÎµÏģ":4042,"ĠÏĩÏģÏĮÎ½":4043,"Î¸ÏģÎ¿Î¹":4044,"ĠÎ¿á½ĶÏĥÎ·ÏĤ":4045,"Ïĥá½·ÏīÎ½":4046,"ĠÎ¼ÎµÎ»Î±Î³ÏĩÎ¿Î»":4047,"á¼¤":4048,"ĠÎºá¿¶":4049,"ĠÎºÎµÏģ":4050,"ÏĩÏħ":4051,"Ġá¼ĦÎ»Î»Î·Î½":4052,"ĠÏĦÎ¹Î½á½¶":4053,"ĠÎ¿á¼¶Î½Î¿Î½":4054,"AQÎĵ":4055,"ÏĥÎ¯":4056,"ÎŃÏīÎ½":4057,"ĠÏĢá½±ÏĥÎ±ÏĤ":4058,"Î¬Î»Î¹Î½":4059,"ĠâĢ":4060,"ĠÏĩÎµá½·":4061,"á½³ÏģÎµÏīÏĤ":4062,"ĠÎ¿á½ĶÏģÏīÎ½":4063,"ĠÏĩÏħÎ¼á½¸Î½":4064,"ÏīÎ´á¿¶Î½":4065,"Î¦":4066,"ĠÎºÏģÎ¹Î¸":4067,"ÏĪÎµÎ¹ÏĤ":4068,"Ġag":4069,"Î¸ÎµÏĤ":4070,"Ġá½¥ÏĥÏĦ":4071,"ĠÏĥÏĦÏģÎ±":4072,"á½ħÏĥÎ±":4073,"ĠÎºÎ¹":4074,"á½¹Î´Î¿Ïħ":4075,"ĠÎ»á½±":4076,"ÏĦÎ¿Ï²":4077,"Ġá¿¥á½»":4078,"ĠÏĥÏĦÏħÏĢ":4079,"Ġwill":4080,"Ġá¼ĳÎ±ÏħÏĦá½¸Î½":4081,"ĠÎ¾Î·Ïģá½°":4082,"ĠÎºÏįÏģÎ¹Î¿ÏĤ":4083,"AC":4084,"Ġá¼ĲÎ¾á½³":4085,"Ġá¿¥ÏħÏĢ":4086,"ĠÏĢá½³Î¼ÏĢ":4087,"Ġá¼ħÏĢÎ±Î¾":4088,"ÎŁÎ¥":4089,"ĠÏĥÏħÎ¼Î¼ÎµÏĦÏģá½·":4090,"are":4091,"Î»Î¹ÏĦÎ¿ÏĤ":4092,"ĠÏĦá½¹ÏĦÎµ":4093,"Ġá¼ĢÎ½Î±Î³ÎºÎ±á¿ĸ":4094,"13":4095,"ake":4096,"Ïģá½¶":4097,"á½·Î±Î¹":4098,"Î¸ÎµÏĦÎ¿":4099,"Ġá½ĢÏĨÎ¸Î±Î»Î¼Î¿á½ºÏĤ":4100,"ĠÏĢÏħÏģá½¸ÏĤ":4101,"Ġseem":4102,"Î¿á½ĶÏĦÎµ":4103,"Ġá¼ĲÎ¼Î¿á½¶":4104,"á½·Î½Î·":4105,"á½±ÏģÏīÎ½":4106,"ĠÎºÎ¿Î¹Î»á½·":4107,"Ġá½ĢÎ½ÏĮ":4108,"ĠMSS":4109,"ĠÎĳá¼°Î³á½»":4110,"Î¼á¿·":4111,"Ġá¼ĲÎ»Î¸":4112,"ÏĨÎ¿Î½":4113,"Ġá¼ĲÎ½ÎµÏģ":4114,"ĠÎµá¼´ÏĥÏī":4115,"ĠÏĥÏħÎ½á½±":4116,"ĠÏĢÏģÎ¿ÏĥÎ·Î³":4117,"ĠÏĪÏħÏĩÏģÎ¿á¿¦":4118,"ĠÎ»Î±á½¸Î½":4119,"Ġá¼¥Î¼Î¹ÏĥÏħ":4120,"ĠÎ»ÏĮÎ³Î¿ÏĤ":4121,"ĠO":4122,"ĠÎ²ÎµÎ»":4123,"Ġá¼ĢÎ½Î±ÏĦÎ¿":4124,"ĠÏĢÎ¿Î¹Î®":4125,"ÏĦá½·Î¿Î½":4126,"Ġdiff":4127,"Ġá¼µÏĢ":4128,"ĠÎ´Î±ÎºÎ½":4129,"Ġá¼ģÏĢá½±ÏĥÎ±ÏĤ":4130,"ÎºÎ»Î·":4131,"ÎµÎ½Îµ":4132,"Ġá¼ĦÎ»Î»Î±ÏĤ":4133,"ÏĨÎ¿Ïģ":4134,"ong":4135,"Ġmay":4136,"ĠÏĦÏģÏĮ":4137,"ous":4138,"á½ĥ":4139,"Î¹Î¿ÏĤ":4140,"ÏĥÏĦÎ¿Î¹":4141,"ĠÎ»Î¹Î²":4142,"Ġat":4143,"ĠÎºá½·Î½Î·ÏĥÎ¹ÏĤ":4144,"ĠÎ±á¼°ÏĦá½·ÏīÎ½":4145,"Î¬ÏģÏĩ":4146,"á½½Î¼ÎµÎ¸Î±":4147,"Ġá¼ĳÏĦÎ¿á½·":4148,"á½·Î½Î¿Î½ÏĦÎ±":4149,"Ġá¼ģÏģÎ¼á½¹":4150,"ĠÏĢÏħÏģá½³":4151,"Ġá¼ĢÎ¼ÏĨÎ¿ÏĦá½³ÏģÏīÎ½":4152,"ĠÏĢá½³Î½ÏĦÎµ":4153,"ĠÏĢÏį":4154,"Î³Î¼Î±ÏĦÎ¿ÏĤ":4155,"ĠÎ¼Î±Î½":4156,"ĠÎ³ÎµÎ³Î¿Î½á½³Î½Î±Î¹":4157,"Î¼Î·Î¸":4158,"Ġá¼ĳÏĦá½³ÏģÎ¿Ïħ":4159,"Î»á¿³":4160,"ĠÎ±á½ĲÏĩ":4161,"á½µÏĥÏī":4162,"ĠÎµá¼¶ÏĦ":4163,"Î¼ÎµÏĦá½°":4164,"Ġá¼ĲÎºÎµá½·Î½Î¿Ïħ":4165,"Ġá¼ĢÏģÏĦÎ·Ïģá½·Î±Î½":4166,"ĠÏĨÎ¸Î¹Î½":4167,"ĠÏĢÏģá½¹ÏĥÏīÏĢÎ¿Î½":4168,"sub":4169,"ÎµÏĥÎ¹":4170,"ÏĩÎ¿ÏħÏĤ":4171,"Ġá¼ĢÏĥÎº":4172,"ĠÎ³ÎŃ":4173,"Ġá¼ĶÏĦÎ·":4174,"Ġá¼ĲÎºÎºÎµÎ½":4175,"Î±Î»Î¹Î½":4176,"Ġá¼ĢÎ½á½±Î»Î¿Î³Î¿Î½":4177,"Ġá¼ĦÎ»Î»Î¿Ïħ":4178,"Ġ33":4179,"ÎŁá½Ĳ":4180,"ĠÏĨÎ»á½³Î³":4181,"ĠÎµá¼°Îº":4182,"Î¬ÏĤ":4183,"Ġá½ģÎ»Î¿":4184,"Ġá¼ĲÏĢÎ¹ÏĩÎµÎ¹Ïģ":4185,"Ġá½ĢÎ½Î¿Î¼á½±ÏĦÏīÎ½":4186,"Ġá¼ĢÏģÎ¹Î¸Î¼á½¸Î½":4187,"Ġá¼¨":4188,"ĠÏĦÎ±ÏĤ":4189,"ĠÎµá¼´ÏĦ":4190,"ĠÏĢá½±Î½ÏĦÎ±ÏĤ":4191,"Î±á½·Î¿Ïħ":4192,"ĠÏĦá½³ÏĦÏĦÎ±":4193,"Ġá½ĢÎ»Î¹Î³":4194,"Ġá¼ĶÎ¼Îµ":4195,"ĠÎ³Î»á¿¶":4196,"ĠÏĦá½³ÏĩÎ½Î·Î½":4197,"ĠÎ¼Î½Î·Î¼Î¿Î½Îµá½»":4198,"ĠK":4199,"Î¼Î¹Îº":4200,"Î±Î½Îµ":4201,"á½¹Î½ÏĦÎ¹":4202,"ĠÎ¸Îµá½¸Î½":4203,"ĠÏĢÏģÎ¿ÏĥÏĨá½³Ïģ":4204,"ĠÏħá¼±Î¿á½ºÏĤ":4205,"ĠÎµá¼°ÏģÎ·Î¼á½³Î½Î¿Î¹ÏĤ":4206,"ĠÎ´Î¹á½±Î¸ÎµÏĥÎ¹ÏĤ":4207,"Ġá¼ĳÎºá½±ÏĥÏĦÎ·Î½":4208,"Î³Î½ÏīÏĥÏĦÎ¹Îº":4209,"ĠÎºÏįÏģÎ¹Î¿Î½":4210,"\".":4211,"Î½ÏħÎ½á½¶":4212,"ÏĥÎ¿ÏĤ":4213,"ÏīÏĦá½±":4214,"á½°Î²":4215,"ÏĥÎ¸Î·ÏĥÎ±Î½":4216,"ĠÏĨÎ»":4217,"ĠÏĢÎµÏģÎ¹Îº":4218,"Î¿á½»Î¼ÎµÎ½Î±":4219,"ĠÏĥÏĩá¿ĨÎ¼Î±":4220,"ĠÎ¶á½½Î¿Î¹ÏĤ":4221,"superscr":4222,"au":4223,"ÏĦÏĦÎ¿":4224,"Î»Î»Î·":4225,"Î»ÎµÏħÏĥÎµÎ½":4226,"ĠÏĢÏģÎ¿ÏĥÏĦ":4227,"Î»Î±ÏĥÏĦ":4228,"Ġá¼ĲÏĢÎ¹ÏĦá½µÎ´ÎµÎ¹":4229,"Ġá¼¥ÎºÎ¹ÏĥÏĦÎ±":4230,"Î»ÎµÎ¹Î±Î½":4231,"ĠÎ´Î¹Î±Î¸á½³ÏĥÎµÏīÏĤ":4232,"Ġá¼ĶÎ³ÏģÎ±ÏĪÎµ":4233,"Ġá¼ĶÏģÎ³ÏīÎ½":4234,"Ġá¼ĢÎ´á½»Î½Î±ÏĦÎ¿Î½":4235,"ĠÎºá½³Î½":4236,"ÏĨÏģ":4237,"ĠÎ»Î¯":4238,"ÏĢÎµÏģÎ¹":4239,"ĠÏĢÎµÏĢÎ¿Î¹":4240,"Ġ87":4241,"ĠÎ´ÏħÎ½Î¬Î¼Îµ":4242,"Ġá¼ĢÏĨÎ¹ÎºÎ½":4243,"Î¿Îº":4244,"ÏĥÏĢÎ±":4245,"Ġá¼ĲÎ´Îµá½·":4246,"Î´Î¹á½¸":4247,"ĠÎ¿á¼´Î½á¿³":4248,"ĠÏĥÏĦÎµ":4249,"ĠÏĥÏĦÏģ":4250,"ĠÎ»Î¿Î¾":4251,"ÏĥÎ¹Î¿Î¹":4252,"Ġá¼ķÏĦÎµÏģÎ¿ÏĤ":4253,"Ġsu":4254,"ÏĦÎŃÏģÏīÎ½":4255,"Ġsuperscr":4256,"ÏĦÏĮÏĤ":4257,"á½·Î¿Î¹ÏĤ":4258,"ĠÎµÏħ":4259,"Î¾Î·ÏĤ":4260,"Î¾á¿ĥ":4261,"Î»Î»ÏīÎ½":4262,"ĠÎºÎ±Î¸Î¬ÏĢÎµÏģ":4263,"Î´Î·Î¼Î¹":4264,"te":4265,"ÏĦÏį":4266,"Ġá¼ĲÎ¸Î½":4267,"ĠÏĢá½³ÏģÎ±ÏĤ":4268,"ĠÎ´á½³Î¿Î½":4269,"Ġá¼ĢÏģá½·":4270,"ÏĥÎ¹Î¿ÏĤ":4271,"ÏĥÏĩÏħÎ½":4272,"Ġá¼ĪÏģÏĩ":4273,"Î´á½³ÏĥÎ¼":4274,"viii":4275,"á½±Î¶ÎµÎ¹Î½":4276,"iii":4277,"ĠÎ»Î¿ÏħÏĦÏģ":4278,"ĠÏĢÏģÎ¿ÏĥÏİÏĢÎ¿Ïħ":4279,"ÏīÎ½ÏĦÎ±Î¹":4280,"Ġá½ħÎ¸ÎµÎ½":4281,"here":4282,"Ġá¼ĢÏģÏĩá½´":4283,"ĠÎºÎ¿á½·":4284,"ĠÎ½Î¿Ïĥá½µÎ¼Î±ÏĦÎ±":4285,"ĠÏĢÎ¹ÏĥÏĦÎµ":4286,"ÏĩÏģá½´":4287,"Î·ÏĦÎµ":4288,"ĠÎ¼ÎµÎ¹":4289,"ĠÎ»ÎµÏħÎºÎ¿á¿¦":4290,"ĠÎºÏħÏģÎ¯á¿³":4291,"ac":4292,"ig":4293,"Î¿á¿¦ÏĥÎ±Î¹":4294,"Î»Î¹Î±":4295,"Ġá½ĳÎ³Ïģá¿¶Î½":4296,"Ġá¼ĢÎ½Î¸Ïģá½½ÏĢÎ¿Ïħ":4297,"ĠÎ±á½ĲÏĦÎ®Î½":4298,"ĠÏĨÏħÏĦ":4299,"Ïģá½·Î±":4300,"ÏĦÏģÏīÏĤ":4301,"ÏĩÎ¸Î±Î¹":4302,"Î¼á¿ĥ":4303,"ĠÏĢÏģá¾¶":4304,"ĠÏĢÏģá½¹ÏĤ":4305,"Ġá¼ĶÏĥÎ¿Î½ÏĦÎ±Î¹":4306,"¶Î½":4307,"á¿ĨÏĩ":4308,"Ġá½ħÎ¼ÏīÏĤ":4309,"Ġhere":4310,"ÏĢá¿ĥ":4311,"Î»Î®":4312,"Î¼Î½ÎµÎ¹Î½":4313,"ĠÎºá¼Ģ":4314,"ÎºÎ±ÏĥÎ¹Î½":4315,"Ġá¼ĢÏĢÎ¿ÏĨá½»":4316,"ÏĦá½·Î±":4317,"ÏĥÎ¼ÎŃÎ½":4318,"ÏĥÏĦÎµÏīÏĤ":4319,"ĠÎ¼ÎµÎ³á½·ÏĥÏĦ":4320,"Ġá¼ĲÎºÎµá½·Î½Î¿Î¹ÏĤ":4321,"ĠÏĦÎ¿Î¹Î¿á½»ÏĦÎ¿Î¹ÏĤ":4322,"Ġá¼ĢÎºÎ¿Î»Î¿ÏħÎ¸":4323,"ÏģÎµÎ¹Î½":4324,"Î¼ÎµÎ¹":4325,"ĠÎ¿á½ĸÏģÎ±":4326,"ĠÎ±á¼·ÏĤ":4327,"ĠÎ³Ïģá½±Î¼":4328,"ĠÏĥÎ·Î¼Îµá¿ĸÎ±":4329,"ĠÏĥÏĢÎ»á½±Î³ÏĩÎ½":4330,"Î¯Î±Î¹ÏĤ":4331,"ÏĢÎµÏĥÎ¸Î±Î¹":4332,"ÏĦá½³ÏģÎ¿ÏħÏĤ":4333,"ÏīÎ¸á¿ĨÎ½Î±Î¹":4334,"Ġá¼ĢÎ³Îº":4335,"ĠÎ¼Î¿Ïģá½·Î¿Ïħ":4336,"ĠÎ¼Î±Î¸Î·":4337,"ĠÏĨÎ¹Î»Î¿Ïĥ":4338,"Ġá¿¥á¿ĨÏĥÎ¹Î½":4339,"á½±Î½Î±Î¹":4340,"ĠÏĦÎ¹Î½ÏīÎ½":4341,"Ġá½ĳÏĢÎ¿Î¼Î½á½µ":4342,"Î¿ÏģÎ´":4343,"Ġá¼ĲÎºÎµá½·Î½á¿³":4344,"Ġá½ĦÎ½ÏĦÎ¿ÏĤ":4345,"ĠÏĢÎ±ÏģÎ±ÏĢÎ»á½µÏĥÎ¹":4346,"ĠÎ²ÏģÎ±Ïĩá½·Î¿Î½Î¿ÏĤ":4347,"ĠÎºÏħÏģá½·á¿³":4348,"Ġá¼ĲÎ¸Î½á¿¶Î½":4349,"ÏĦÏĦÏīÎ½":4350,"ÏħÏģÎ¹":4351,"ĠÎ´Ïī":4352,"á½»ÏĦÎ·ÏĤ":4353,"Î»Î±ÏĦÎ¿":4354,"Î·ÏģÎ¿á¿¦":4355,"ĠÎĻÏĥÏģÎ±":4356,"ĠÎĴÎ±":4357,"Ġá¼°Î±ÏĦ":4358,"ĠÏĢÏħÏģÎµÏĦÎ¿á¿¦":4359,"Ġá¼µÎ½":4360,"Ġá¼ĪÏĥÎºÎ»Î·ÏĢÎ¹á½±":4361,"ÎŃÏīÏĤ":4362,"ĠÎ¸Î±Î½Î±":4363,"Ġá¼ĲÏĢÎ¹ÏĨá½³Ïģ":4364,"Ġ32":4365,"ĠÎĻÎµÏģ":4366,"ĠÎ¼á½³ÏģÎ¿ÏħÏĤ":4367,"ĠÎºá¾ĢÏĢá½¶":4368,"á½½ÏĦÎ±ÏĦÎ¿Î½":4369,"Ġá¼ĶÎ»Î±":4370,"Ġá¼ĳÎºá½±ÏĥÏĦá¿³":4371,"Î²á½±Î»Î»ÎµÎ¹Î½":4372,"ÏĥÏĦÏģÎµÏĪÎµÎ½":4373,"ĠÏĢÎ½Îµá½»Î¼Î¿Î½Î±":4374,"Ġá½ĢÏĨÎ¸Î±Î»Î¼Î¿á¿ĸÏĤ":4375,"Ġá¼ĲÎ½Î´Îµ":4376,"Ġá¼ĲÎ½Î´Îµá½·":4377,"Ġá¼ĦÏģÎ¹":4378,"Ġá¼ĲÎºÎºÎ»":4379,"Ġá¼ĪÏģÎ¹ÏĥÏĦ":4380,"Ġá¼°ÏĥÏĩÎ½":4381,"ĠÏĦÎ¿Î¹Î±á½»ÏĦÎ·":4382,"ĠÏĦÎ¿ÏĥÎ¿á½»":4383,"ÏįÎ½Î·Î½":4384,"ÎºÎ±á½·ÏĦÎ¿Î¹":4385,"ÎºÏĦÎ·":4386,"Î»ÎµÏĦÎ±Î¹":4387,"ĠÏĥÏħÎ½Î´á½³ÏĥÎ¼":4388,"ĠÏĥÏħÎ¼Î²ÎµÎ²":4389,"ĠÏĢÏģÎ±Î³Î¼á½±ÏĦÏīÎ½":4390,"Î¹Î³á½³Î½":4391,"ĠÎ´ÏįÎ½Î±Î¼Î¹Î½":4392,"ĠÏĨÏħÎ»Î±Îº":4393,"á¼ĶÎ½Î¹Î¿Î¹":4394,"),":4395,"ÏĥÏĥÎ±Î½":4396,"ÏģÎ±á¿ĸÏĤ":4397,"Î´Î¿Îº":4398,"ĠÎ²Î±ÏĥÎ¹Î»ÎŃÎ±":4399,"Ġá¼ĢÎ½ÏīÎ¼Î±":4400,"Ġá¼¦Î»Î¸ÎµÎ½":4401,"Ġá½ĳÏĢÎ¿ÎºÎµÎ¹":4402,"Ġthy":4403,"Ġ.":4404,"Ġá¼ĶÎ¸Î¿ÏĤ":4405,"ĠÏĦÎµÎº":4406,"á½·Î½á¿³":4407,"ÏĥÎºÎµ":4408,"ĠÎ·Î¼Îµ":4409,"ĠÏĨÎ±ÏģÎ¼á½±ÎºÎ¿Î¹ÏĤ":4410,"ĠÎºÎ±ÏģÎ´á½·Î±":4411,"á½³ÏĩÎµÎ¹":4412,"Ġá¼ģÏĢÎ»á¿¶Î½":4413,"ĠÏĩÏħÎ»Î¿á¿¦":4414,"ĠÎ³ÏħÎ½Î±á¿ĸÎºÎ±":4415,"ĠÓĦ":4416,"ĠÏĦá¼ĢÎ½":4417,"Ġá½Ī":4418,"Ïģá½·Î±Î½":4419,"Ïģá½¹ÏĦÎµÏģÎ±":4420,"Ġtheir":4421,"Ġá¼ħÎ³":4422,"Î´á½³Î´ÎµÎ¹ÎºÏĦÎ±Î¹":4423,"Ġá¼ĲÎ»Î±á½·á¿³":4424,"ĠÎ¼Î¹á¾¶ÏĤ":4425,"ĠÎĺÎµ":4426,"Ġá¼¸Î·ÏĥÎ¿á¿¦":4427,"ĠÎ²Î±ÏĥÎ¹Î»Îµá¿ĸ":4428,"Î´á½³ÏĩÎµÏĦÎ±Î¹":4429,"á½µÏĤ":4430,"ĠÎ¸ÎŃ":4431,"Ġá¼ĢÎ½Î±ÏĢÎ½Î¿á¿ĨÏĤ":4432,"ĠÎ¼á½³Î»Î»Î¿Î½":4433,"Ġcf":4434,"Ġá¼ĳÎ±ÏħÏĦÎ¿á¿ĸÏĤ":4435,"ĠÎ³ÎµÎ½á½³ÏĥÎµÏīÏĤ":4436,"ĠÏĢÎ½Îµá½»Î¼Î¿Î½Î¿ÏĤ":4437,"ÏĢÏĦÎ¿":4438,"ÏĢá½±Î½":4439,"Îµá¿ĸÏĥÎ±":4440,"ĠÏĦÎµÏĦÎ±Ïģ":4441,"Ġá¼ĳÎº":4442,"Ġá¼¥ÏĦÎ¹ÏĤ":4443,"ĠÎ³Î¹Î½á½½ÏĥÎº":4444,"Î»Î±Î¼Î²á½±Î½":4445,"ĠÎºÏģá½±ÏĥÎµÏīÏĤ":4446,"ÏĦÎ±á½¶":4447,"ĠÎ³á½³Î³ÏģÎ±ÏĢÏĦÎ±Î¹":4448,"ÏĥÏĦÎµÎ¹":4449,"Ġá¼ĳÎºÎ¬":4450,"ĠÏĩÏħÎ¼Î¿á½ºÏĤ":4451,"á¼ĢÏĢá½¸":4452,"ÏĢÏĦÏī":4453,"Ġá¼ĶÏĥÎµÏĥÎ¸Î±Î¹":4454,"Ġá¼ĢÎ½Î¬":4455,"Ġá¼ĲÏĢÎ¹ÏĦÎ¹":4456,"Ġá¼ĲÏĢÎ¹ÏĢÎ»":4457,"ĠÏĢÎ¿Î»Î»Î¿á½ºÏĤ":4458,"Ġá¼ĪÎ±Ïģ":4459,"ĠÎ£Î¹":4460,"ÏĥÎ¼á½»ÏģÎ½Î·ÏĤ":4461,"Ġá¼´Î±":4462,"ĠÎ¸ÎµÏģÎ¼á½¹ÏĦÎ·ÏĦÎ¿ÏĤ":4463,"ÎºÎ¿ÏħÎ½":4464,"ĠÎ¼ÎµÎ³Î±Î»":4465,"ĠÏĥÏĢÎŃÏģ":4466,"ÏĦÎ¯Î¿Î½":4467,"ĠÏĦÎ¿á¿¦ÏĦá½¹":4468,"Ġá½ĢÎ½Î¿Î¼á½±Î¶Î¿ÏħÏĥÎ¹Î½":4469,"ĠÎºÎ·ÏģÎ¿á¿¦":4470,"Ġr":4471,"á½±ÏĦÏīÎ½":4472,"ÏĥÏĦÎ·ÏĥÎ±Î½":4473,"Ġá¼ĶÏĢÎµÎ¹ÏĦÎ±":4474,"Ġá¼¡Î»á½·":4475,"Ġá½ĳÏĢá½±ÏģÏĩÎ¿Î½":4476,"ĠÏĥÎµÎ±ÏħÏĦ":4477,"ĠÏĢÏģá½½ÏĦÎ¿Ïħ":4478,"ĠÎ¼Ïħá½¸ÏĤ":4479,"art":4480,"ÏĨÏħÏĥÎ¹Î½":4481,"ĠÎ¼Îµá½·Î¶Î¿Î½":4482,"ĠÏĥÎ·ÏĢÎµ":4483,"Î´Î¯":4484,"Î¿ÏħÏĥÎ±Î¹":4485,"ĠÏĩÎ¿":4486,"ĠÎ´Î¹Î±Î²":4487,"Ġá¼ĲÏĢÎ¹ÏĦÎµ":4488,"ĠÎµá¼¶Î¸":4489,"Ġá¼ĶÏĩÎ¿Î½ÏĦÎµÏĤ":4490,"Ġá¼ĲÏĩÎ¸Ïģ":4491,"Ġá¼ĲÎ»á½±Î»":4492,"Î»á½¹Î³ÏīÏĤ":4493,"ĠÏĢÏģÎ¿ÏĥÎ±Î³Î¿ÏģÎµá½»":4494,"Ġá¼ĲÎ½ÏİÏĢÎ¹Î¿Î½":4495,"01":4496,"Î±Ï²":4497,"ĠÎ±á½ĲÏĦá½·ÎºÎ±":4498,"reek":4499,"ĠÎ¼á½¹Î½Î·Î½":4500,"ĠÏĢÎ±Î½ÏĦÎ±":4501,"ĠÏĨÎ±ÏģÎ¼Î±":4502,"ĠÏĦÏģá½·ÏĦÎ·ÏĤ":4503,"Ġsee":4504,"ÏģÏīÏĤ":4505,"Ġá¼ĲÎ¼Î½Î·Î¼":4506,"ÏĨÏģÎ¿Ïĥ":4507,"ÏĦÎ·ÏĥÎµÎ½":4508,"Ġá½ģÎ¼Î¹":4509,"Ġá¼ĶÎ½Î±Î½ÏĦÎ¹":4510,"ĠÎµá½Ĺ":4511,"Ġá¼ĲÎ»á½³Î³":4512,"á½µÏĥÎµÏĥÎ¸Î±Î¹":4513,"Ġá¼ĲÏĢÎ±Î¹Î½":4514,"ĠÏĨÎ±Î½ÎµÏģ":4515,"Ġá¼ĢÎ½Î´Ïģá¿¶Î½":4516,"ĠÎ¸á½»":4517,"Ġthere":4518,"Ġá¼ĶÏĩá¿ĥ":4519,"Î³Î³Îµ":4520,"Ġá¼ĶÎ½Î¹Î±":4521,"ĠÎ¤Î¯":4522,"Ġá¼ĢÎ½á½±Î³ÎºÎ·":4523,"Î½á½·ÎºÎ±":4524,"ĠÎ¼ÏĮ":4525,"ĠÎ»ÏħÏĢ":4526,"Ġá¿¥á¿ĨÎ¼Î±":4527,"ĠÏĢÎ¿Î¹Îµá¿ĸÏĥÎ¸Î±Î¹":4528,"ĠÏĢÎ¿Î¹á½¹ÏĦÎ·ÏĦÎ±":4529,"Ġá½ĳÏĢÎ¿Î¼Î½":4530,"ĠÎĴÎ±Î¹":4531,"ĠÎ¼á½³ÏģÎµÎ¹":4532,"ĠÎ±ÏħÏĦÎ¿Î¹ÏĤ":4533,"ĠÏĥÏĨÏħÎ³Î¼Î¿á½ºÏĤ":4534,"ĠÎºÎ¿Î¹Î»á½·Î±Î½":4535,"14":4536,"Îµá½Ķ":4537,"Ġá¼ĲÎ²":4538,"ĠÏĢÎ¬Î»Î¹Î½":4539,"ÎµÎ½ÏĦÎµÏģ":4540,"ĠÎ¿á½ĲÎ³Î³":4541,"Ġá¼ĢÏĢÎ¿ÏĨ":4542,"ÏħÏģÎ¿Î½":4543,"ĠÏĢÏģá½½ÏĦá¿³":4544,"ĠÏĦÏģÎ¿Ïĩ":4545,"Î½Ïī":4546,"ĠÎļÎ±á½¶":4547,"ĠÎµá½ĲÏģ":4548,"Ġá¼ĲÏĨÊ¼":4549,"á¼ĶÏĦÎ¹":4550,"ĠÏĥÏĢÎ»Î·Î½":4551,"ĠÎ¼Î¬Î»Î¹":4552,"ĠÎµÎ¾Îµ":4553,"Î²Î»Î·":4554,"Î¼ÎµÎ½Î±Î¹":4555,"ÏĥÎ¸Îµá½¶ÏĤ":4556,"ĠÏĥÏħÎ¼ÏĢÏĦÏī":4557,"ĠÏĥÏħÎ½Î±Î³ÏīÎ³":4558,"ĠÏĥÏħÎ½ÎµÏĩá¿¶ÏĤ":4559,"ĠÏĢÎ±ÏĦÏģá½¸ÏĤ":4560,"haps":4561,"Ġï¬ģ":4562,"Ġ-":4563,"ÏĢÏĦÏīÎ½":4564,"Î¸ÎŃÎ½":4565,"ÏĩÏģÎ·":4566,"á½¹Î´ÏģÎ±":4567,"Ġá¼ĲÎ½Î´Îµá½·ÎºÎ½ÏħÏĦÎ±Î¹":4568,"ÏĦÎ¹Î¿á¿¦Î½":4569,"ĠÎ¾á½»":4570,"ĠÎ¼á½¹Î½Î·ÏĤ":4571,"ĠÏĩÎµÎ¹Ïģá¿¶Î½":4572,"ĠÏĢÎ»Îµá½·Ïī":4573,"ĠÏĥÏĢÎ±ÏĥÎ¼":4574,"Ġá¼ĦÏĢÎ¿":4575,"Ġá½ģÎ¼Î±Î»":4576,"Ġá¼ĢÏĢÎ¿ÏĨÎ±":4577,"ĠÎ¿á½ĲÎ´á½³Î½":4578,"Ġomit":4579,"Î¬Î½ÏĦÏīÎ½":4580,"ĠÏħá¼±á½¸Î½":4581,"ĠÎ¦Î±ÏģÎ±":4582,"Î¿ÏħÎ´":4583,"Ġá¼ĢÏģÎµ":4584,"Ġá½ģÏĦÎ¹Î¿á¿¦Î½":4585,"ĠÏĢÎ»ÎµÎ¹":4586,"Ġá½ķÏĪ":4587,"Ġá½ķÎ»Î·ÏĤ":4588,"ĠÎºÎ±Îºá¿¶ÏĤ":4589,"ĠÎºÏģá½·ÏĥÎ¹Î½":4590,"á½·Î´Î¿ÏĤ":4591,"ĠÎ¼á½·Î±":4592,"Ġá¼ĶÏĥÏĦÏī":4593,"ĠÎ¿á¼³":4594,"Ġá¼ĳÏĦá½³ÏģÎ±":4595,"á½·Î½Î·ÏĦÎ±Î¹":4596,"Ġá¼ĢÏĢÎ¿Î²":4597,"Ġá¾¿":4598,"ĠÏĦÎ¿Î¹Î±á½»ÏĦÎ·ÏĤ":4599,"ĠÏĦÎ¯ÏĤ":4600,"Î±á½ķÏĦÎ·":4601,"Î©ÎĿ":4602,"of":4603,"ond":4604,"ÏĥÎ¸á¿ĩ":4605,"Ġá¼ĢÏĢÎ¿á¿¤á¿¥":4606,"Ġsa":4607,"ĠÎ¼Î·Î´á½³":4608,"ĠÏĦÏģÎ¹ÏĦÎ±":4609,"Ġá¼°Î´á½·á¾³":4610,"ÏĨÎ¹":4611,"Ġá¼ĢÎ½Î±Î¹":4612,"Ġá¼ĦÎ½Î¸ÏģÏīÏĢÎ¿Î¹":4613,"ĠÎºÎ¿Î¹Î½ÏīÎ½":4614,"ĠÎ»ÎµÏĢÏĦá½¸Î½":4615,"ĠÏĨÏīÎ½á½´Î½":4616,"ĠÎ¼Î±ÏģÏĦÏħÏģ":4617,"ĠÏĨÎ·Ïĥá½¶":4618,"Ġá¼ĢÎ½Î±Î³ÎºÎ±á¿ĸá½¹Î½":4619,"Î±ÏģÎ¹":4620,"ÏĥÎ¼á½±ÏĦÏīÎ½":4621,"ĠÎ´Îµá½·":4622,"ÎµÏģÏĩ":4623,"Ġá¼ĲÏĢÎµá½¶":4624,"Ġá¼ĶÏĢÎ¹":4625,"ĠÏĩÎ»":4626,"ÏĢÎ¿Ïģ":4627,"á¼ĲÎ»Î±":4628,"ĠÎ¼á½³Î¸":4629,"ĠÎ±á¼´ÏĦÎ¹Î¿Î½":4630,"ĠÏĦÎµÏģ":4631,"á½³ÏĥÎ¸Î±Î¹":4632,"Ġá¼ĶÎ³Î½Ïī":4633,"á½¹Î½ÏĦÎ±ÏĤ":4634,"ĠÎ³Î±ÏĥÏĦÏģá½¶":4635,"Ġ106":4636,"ĠÏĥÎ·Î¼Î±Î¹Î½":4637,"Î¿Î¹ÏĥÎ¹Î½":4638,"ĠÏĦÎ¿á¿¦Î¸":4639,"ÏĮÎ¼ÎµÎ½Î±":4640,"Ġá¼ĢÎ½Î¹":4641,"Ġcor":4642,"ĠÏĥÏĨá½¹Î´ÏģÎ±":4643,"ĠÎ¿á¼°ÎºÎ¿Î´Î¿Î¼":4644,"ably":4645,"Î±Î»Î»á½±":4646,"Îºá½³Î½Î±Î¹":4647,"Î¿á¿¦ÏĥÎ±Î½":4648,"ĠÎ±ÏģÏĩ":4649,"Ġá¼ĲÎ½ÏĦÎ¿":4650,"ĠÏĢÎ¿Î»Î»Î¿á¿¦":4651,"Î¼ÎŃÎ½Î¿Î½":4652,"ĠÎºÎ·ÏģÏī":4653,"Ġá¼ĲÎ³Î³á½ºÏĤ":4654,"ng":4655,"Î¹Î½Î±":4656,"ĠÎ´Î¹Î¬":4657,"ĠÎµá¼°Ï²":4658,"ĠÎ²Î¹Î±":4659,"ÏĥÎµÏĥÎ¸Îµ":4660,"ĠÏĥÏħÎ³Îº":4661,"ĠÏĢÎ±Î¼ÏĢ":4662,"ĠÏĪÎ±":4663,"ert":4664,"Ġ36":4665,"ould":4666,"ĠÎµá¼°Ïģá¿ĨÏĥÎ¸Î±Î¹":4667,"urs":4668,"ÏĦÎ·ÏĥÎ¹Î½":4669,"ĠÎ¼á½³Î»Î±Î½":4670,"ĠÎ¸ÎµÏģÎ¼Î¿":4671,"ist":4672,"Ġmy":4673,"Î¯Î½Î¿Ïħ":4674,"Ġá¼ĢÎ½Î¸ÏģÏİÏĢÏīÎ½":4675,"ĠÏĩÏģá½µÏĥÎ¹Î¼Î¿Î½":4676,"15":4677,"ĠÏĢÏģÎ¿Î·Î³":4678,"Ġá¼ĦÎ»Î»Î¿ÏħÏĤ":4679,"Ġá½¥ÏģÎ±ÏĤ":4680,"ĠÏĢÎ±ÏģÎ±ÏĥÎºÎµÏħ":4681,"ÏħÎ³Ïĩ":4682,"Ïĥá½·ÏĥÏĦÏģÎ±":4683,"Ġá½łÎ¼Î¿":4684,"ĠÎ´Î·Î¼Î¹":4685,"Ġá¼ķÎ½ÎµÎºÎµÎ½":4686,"Ġá¼ĲÏĢÎ¹ÎºÏģÎ±":4687,"Îµá¼´ÏģÎ·ÏĦÎ±Î¹":4688,"Ġá½¢":4689,"ÎºÎ±á½»":4690,"Ġá½ģÏĢÎ¿":4691,"Ġall":4692,"ĠBb":4693,"ĠÎ½ÎµÎ±Î½":4694,"ĠÎ¼á¾¶Î»Î»":4695,"ĠÎ¼á½±Î»Î¹ÏĥÎ¸":4696,"Ġá¼ĲÎ¼á½³":4697,"ĠÏĢÎ¹ÏĥÏĦ":4698,"Ġá¼°Î´Îµá¿ĸÎ½":4699,"ĠÎºÎ±ÏģÎ´á½·á¾³":4700,"Ġqu":4701,"ĠÏĢÏĦÎ¹Ïĥ":4702,"Ġá¼ĢÏĥÎµÎ²":4703,"ÏĥÎµÏĦÎµ":4704,"Îµá½·Î¼ÎµÎ½Î¿Î½":4705,"Ġá¼ĲÏĢÎ¹ÏĢÎ¿Î»":4706,"Î±ÏħÏĦÎ¿Ïħ":4707,"ÎºÏģÎ¯":4708,"16":4709,"ud":4710,"Ġá¼ĲÎºá½±":4711,"ĠÎ³ÎµÎ³ÎµÎ½":4712,"Ġá¼ĦÎ»Î»Î¿ÏĤ":4713,"ĠÎ¼á½µÎ¸":4714,"Ġá¼ĢÎ³ÏģÏħÏĢ":4715,"ĠÎµá¼°Ïģá½µÏĥÎµÏĦÎ±Î¹":4716,"á½µÎ¼Î·ÏĤ":4717,"á¼ĺÎ½":4718,"ĠÏĨÎ·Ïĥá½¶Î½":4719,"Ġá¼ĦÏģÎ¸ÏģÎ¿Î½":4720,"ĠÏĥÏħÎ³ÏĩÏīÏģ":4721,"ight":4722,"ÏĢÏģÎ¿Ïĥ":4723,"Î»Ïį":4724,"Ġá¼ķÏĢÎµÏĦÎ±Î¹":4725,"á½¼Î²":4726,"Ġá½ĳÎ³Ïģá½¹ÏĦÎ·ÏĦÎ¿ÏĤ":4727,"ĠÏĦÎ¿ÏįÏĦÎ¿Ïħ":4728,"Ġá¼ĳÎ²Î´á½¹":4729,"Ġá½ĳÎ´Î±ÏĦ":4730,"Îµá½ºÏĤ":4731,"ĠÎµÎ³":4732,"ĠÎ²Î¿Ïģ":4733,"Ġsp":4734,"has":4735,"Î¸ÎµÎ¯":4736,"ĠÎ¼Î·Îºá½³":4737,"Ġ34":4738,"Ġá¼ħÏĢÎ±Î½ÏĦÎ±ÏĤ":4739,"ĠÎ³ÏħÎ½á½´":4740,"ĠÎºÎ±ÏģÏĢá½¸Î½":4741,"Ġ)":4742,"ĠáµĲáµį":4743,"ĠÎºÏħÎ½":4744,"á½»ÏīÎ½":4745,"ĠÏĢÏģÏİ":4746,"ĠÎ½á½»":4747,"ÏģÎµÏħÎ¸":4748,"ÏĥÎ±Î½ÏĦÎ¿ÏĤ":4749,"ĠÎ¼á½³Ïĥá¿³":4750,"Ġá½ĦÎ¾ÎµÎ¹":4751,"Ġá¼¤Ïģ":4752,"ant":4753,"ĠÏĩá½¹Î½Î´Ïģ":4754,"Ġseems":4755,"ĠÎĻÏĥÏģÎ±Î·Î»":4756,"op":4757,"Î¼Îµá¿ĸÏĤ":4758,"âĢĻ:":4759,"ÏĢÎ±Ïĥá¿¶Î½":4760,"ÏĢÎ¹ÏĥÎ¸ÎµÎ½":4761,"ÎµÎ»Î¸":4762,"fore":4763,"á¼ģ":4764,"ÏĢÎ¬":4765,"á½³ÏĥÏĦÎ±":4766,"ĠÎµÎ³ÎµÎ½":4767,"ĠÎµá¼°Îºá½¹ÏĦÏīÏĤ":4768,"Ġá½ĳÏĢÎ±ÏģÏĩ":4769,"Ġá¾ł":4770,"ÏĥÏĦÎµÎ»Î»":4771,"Î¾Î±Î¼ÎµÎ½":4772,"ĠÏĥÎ¼Î¹ÎºÏģá½°":4773,"ĠÎµá½ĳÏģÎµá¿ĸÎ½":4774,"Î¼ÏīÎ½Î¹Î±ÎºÎ¿á¿¦":4775,"Ġá¼ĪÏģÏĩÎ¹Î³á½³Î½":4776,"ĠÏĥÏħÎ¼ÏĢÏĦÏīÎ¼á½±ÏĦÏīÎ½":4777,"Î¸á½µÏĥÎµÏĦÎ±Î¹":4778,"Î±Î½Ïī":4779,"Ġtra":4780,"ĠÏĢÎ»á½±Î³":4781,"Î·Î¼ÎŃÎ½":4782,"ate":4783,"ÏĦÏģÎ¹Î²":4784,"á½³ÏĥÎ¹":4785,"Î³Î¿ÏĤ":4786,"ÏĥÏĦÎ·ÏĥÎµÎ½":4787,"ĠÏĨÏħÏĥ":4788,"Ġá½ħÏĥÎ±Î¹":4789,"Ġthee":4790,"ĠÏĥÏħÎ½á½µ":4791,"ĠÏĢá½±ÏĩÎ¿ÏĤ":4792,"ĠÎ´ÏħÎ½á½±Î¼ÎµÏīÎ½":4793,"ÎºÏģÎ±ÏĦÎ¿Î½":4794,"ĠÏĢÎµÏģÎ¹ÏĦÏĦÏīÎ¼á½±ÏĦÏīÎ½":4795,"Ġá½ĤÎ½":4796,"Ïĩá¿¶Î½":4797,"ÎµÎ¹Î¼":4798,"Î¾Î¿ÏħÏĥÎ¹Î½":4799,"ĠÎµá¼°Î´":4800,"ĠÏĩá½±Ïģ":4801,"Ġrep":4802,"ĠÏĥá½»Î¼ÏĢÏĦÏīÎ¼Î±":4803,"ĠGreek":4804,"Ġá¼ĦÎ½Î´ÏģÎ±ÏĤ":4805,"ĠÎ´Î·Î¼Î¹Î¿ÏħÏģÎ³":4806,"Ġá½¢Î½":4807,"Î§":4808,"Î¼á½³Î½Î±Î¹ÏĤ":4809,"Î½Î±ÏĦÎ¿Î½":4810,"Î¶Î·":4811,"ĠÏĢÎ¿Î´":4812,"Ġá¼ĢÏĢÎ¿ÏĦÎµÎ»":4813,"ĠÏħÏĢÎ¿":4814,"Ġá½ĳÏĢÎ¿Ïĩ":4815,"Ġá½ĢÏĥÏĦÎ¿á¿¦":4816,"ĠÎ¼ÎµÎ½":4817,"ĠÎ´Î¹ÏĪ":4818,"ÎºÎ±á¿ĸÏĤ":4819,"ĠÎ»á½¹Î³ÏīÎ½":4820,"ĠÎ±á½ĹÏĦÎ±Î¹":4821,"ĠÎ³á½³Î½Î¿Î¹ÏĦÎ¿":4822,"Ġá¼ĢÎ³Î±Î¸á½¸Î½":4823,"Ġá¼ĳÏģÎ¼Î·":4824,"ĠÎ²á½±Ïģ":4825,"Ġá½ĢÏĩ":4826,"Ġá½ĳÏĢÎµ":4827,"ĠÎµá¼°ÏģÎ·Î¼á½³Î½Î±":4828,"ĠÏĢÏģá½½ÏĦÎ·ÏĤ":4829,"Ġá¼ĢÎ³Î±ÏĢ":4830,"Ġá¼ĳÎ½á½¶":4831,"ĠÏĥÎ±ÏģÎºá½¸ÏĤ":4832,"ĠÎľÏīÏħÏĥá¿ĨÏĤ":4833,"Î¸Î®ÏĥÎµÏĦÎ±Î¹":4834,"ĠÎ¼ÏħÏĥ":4835,"ĠÎ±á½ĲÏĦá½±Ïģ":4836,"Ġá¼ĲÎ½ÏĦÎµá¿¦Î¸ÎµÎ½":4837,"Ġsil":4838,"á¼ĢÎ¼":4839,"ĠÏĥÏĦá½³Ïģ":4840,"Î·Î¸á¿ĨÎ½Î±Î¹":4841,"Ġá¼°ÏĥÏĩÏħÏģÎ¿":4842,"ĠÎ¼á½³ÏģÎµÏĥÎ¹":4843,"ĠÎ´á½³ÎºÎ±":4844,"Î¿ÏħÏĥá¿¶Î½":4845,"ĠÏĩÎ¿Î»á½´Î½":4846,"ĠÏĢÎ»á½µÎ¸Î¿ÏħÏĤ":4847,"ĠÏĥÏĦÎµÏģÎµ":4848,"ies":4849,"Î¼Î·ÏĥÎµÎ½":4850,"ÏħÏĦÎ±":4851,"á½¹ÏĨ":4852,"ĠÎ´Î¹Î±ÏĩÏīÏģ":4853,"Ġá¼°Ïĥ":4854,"ĠÎµá¼´ÏĤ":4855,"Ġá¼ĶÏĩÎ¿ÏħÏĥÎ±":4856,"ÏĥÏĦÎ±ÏĥÎ¹ÏĤ":4857,"Î¼Î²Î±Î½Îµ":4858,"Ġá¼ĲÎ½Î±Î½ÏĦ":4859,"Ġá¼ĲÎ¾ÎµÏħÏģ":4860,"ÏĮÏĦÎ·ÏĦÎ±":4861,"Ġá¼ĶÎ½Îµ":4862,"ÏĪÎ¿Î½":4863,"á½³ÏģÎ¿ÏĤ":4864,"ĠÏĢÎ¿Ïģ":4865,"Î¿á½»Ïĥá¿ĥ":4866,"ĠÎµá½ĸ":4867,"ÏĢá½³Î¼ÏĢ":4868,"ĠÎ±á¼°ÏĦá½·Î±":4869,"ĠÏĥÏħÎ¼ÏĢÏĦá½½Î¼Î±ÏĦÎ±":4870,"ĠÏĢÏģÎ¿ÏĥÎ·Î³Î¿Ïģá½·":4871,"Î¿ÏĦá½³":4872,"ÏīÏĥÎº":4873,"Î·Î¼ÎµÏģ":4874,"ĠÏĨÎ±ÏģÎ¼Î¬":4875,"ĠÏĩÏħÎ¼Î¿á¿¦":4876,"ĠÏĦá½±ÏĩÎ¿ÏĤ":4877,"Ġá¼¹ÏĢÏĢÎ¿ÎºÏģÎ¬":4878,"ĠÎ¼ÎµÎ³á½±Î»Î·Î½":4879,"Ġá¼¡Î¼ÎŃÏģÎ±Î½":4880,"ĠÎ²á½±Î¸Î¿ÏĤ":4881,"Ġá¼ĲÎ½Î±Î½ÏĦá½·ÏīÎ½":4882,"Ġá¼ĢÎ¸ÏģÎ¿":4883,"Ġá¼ĲÏģÏħÎ¸Ïģ":4884,"ĠÏĢÏģÏĮÏĥÏīÏĢÎ¿Î½":4885,"ĠÎºÏģÎ¿":4886,"ĠÎºá¼ĢÎ½":4887,"Ġá¼ĲÏĢÎ¹Î½":4888,"Ġá¼ķÎ´":4889,"Î³Î³Î¹":4890,"ĠÏĢÎ±Î½ÏĦÎµÎ»":4891,"ĠÎ»á½³Î³ÎµÏĦÎ±Î¹":4892,"Î¸Î±Î½ÎµÎ½":4893,"á½¥ÏĥÏĦ":4894,"Ġá¼ĳÎºÎ±ÏĦá½³ÏģÏī":4895,"ĠÏĦÏģÎ±Ïĩá½µÎ»":4896,"á¼¦":4897,"ÏģÏĮ":4898,"á½¹Î½ÏĦÏīÏĤ":4899,"ÏİÏĥÎº":4900,"ĠÏĥÏħÎ½ÎŃ":4901,"ĠÏĢÏģÎ¿Ïĥá½½ÏĢÎ¿Ïħ":4902,"ĠÎºÎ±Î¹Ïģá½¸ÏĤ":4903,"Ġbis":4904,"ÏĥÏĥÎ±Î»":4905,"ĠÎ³Î½Ïİ":4906,"ĠÏĢÏĮÎ»Îµ":4907,"Î¼ÎŃÎ½Î±":4908,"á½·ÏĥÏĦÎ±ÏĦÎ±Î¹":4909,"mp":4910,"Ġk":4911,"ĠÎ´á½¶ÏĤ":4912,"Î³á½¹":4913,"ĠÎ³Î±Ïģ":4914,"ĠÎ¸á¾¶":4915,"ÏĪÏħÏĩ":4916,"Ġá¼ĲÎºÏĨá½»":4917,"Ġá¼ĲÏĥÏĦá½·":4918,"ÏģÎµÏĦÎ±Î¹":4919,"ĠÎ´Î¹Î±ÏĨÎ¿Ïģá¾¶ÏĤ":4920,"Î¼ÏĨÏħÏĦÎ¿Î½":4921,"Ġá¼ĳÏĦÎ¿á½·Î¼ÏīÏĤ":4922,"12":4923,"Ġá¼Ŀ":4924,"ÏĥÎ¼Î¿Î½":4925,"ĠÎºá½³":4926,"Î¿á¿ĸÏĥÎ¹":4927,"á½¹Î½Î´":4928,"ĠÎ²Î»á½³":4929,"Î¶Ïī":4930,"Ġá½ĳÏĢÎ¬ÏģÏĩ":4931,"Ġá¿¥á½½":4932,"ĠÏĥÏĦá½³":4933,"ÏĢÏĦÎµÏĦÎ±Î¹":4934,"ĠÎ¸á½±ÏĦÎµÏģÎ¿Î½":4935,"ĠÏĥÎ¹ÏĦá½·ÏīÎ½":4936,"Î¼Î¹Î½Î¸á½·Î½Î·ÏĤ":4937,"ause":4938,"ÏģÎ·Î½":4939,"Î·ÏģÎµ":4940,"ĠÎ´Îµá¿ĸÎ½":4941,"ÏĩÎ±Î¹":4942,"ÏĨÎ¸Î·":4943,"Î®Ïĥá¿ĥ":4944,"Ġá¼ĳÏĦá½³ÏģÏīÎ½":4945,"Î·ÏĥÎ¿Î½ÏĦÎ±Î¹":4946,"á½·Î½Î¿ÏħÏĥÎ¹":4947,"á½±ÏģÎ¸ÏģÏī":4948,"Ġá¿¥á¿ĸ":4949,"ĠÎµá¼´ÎºÎ¿ÏĥÎ¹":4950,"ĠÎ³Î¯Î³":4951,"Ġxxx":4952,"ĠÏĢÎµÎ¹Ïģ":4953,"Ġá¼ĲÎ½ÏĦá½³ÏģÏīÎ½":4954,"ÏĦÎµÏ²":4955,"ĠÏĩÏģá½¹":4956,"ĠÎ¸Îµá½¹ÏĤ":4957,"ĠÏĦÎ¿ÏįÏĦá¿³":4958,"Îµá¼¶ÏĢÎµÎ½":4959,"á¼¸":4960,"Î¿ÏħÎ»":4961,"ĠÎ³ÏģÎ¬":4962,"Î±Î½ÏĦÎ¿":4963,"ĠÎ·Î¼ÏīÎ½":4964,"ÏĨÎ±á½·Î½ÎµÏĦÎ±Î¹":4965,"ĠÎµá¼°ÏĢá½¼Î½":4966,"ĠÎ¼Î±ÎºÏģÎ¿":4967,"á½³ÏģÏĩÎµÏĦÎ±Î¹":4968,"ĠÏĢá½³ÏĨÏħÎºÎµÎ½":4969,"á½»ÎµÎ¹":4970,"Ġapp":4971,"ĠÏĨÎ±ÏģÎ¼á½±Îºá¿³":4972,"Ġá¼¡Î¼á½³ÏģÎ±Î¹ÏĤ":4973,"ÏĪÎ±ÏĥÎ¸Î±Î¹":4974,"ĠÂ§":4975,"Ġá¼ĺÏģÎ±Ïĥá½·ÏĥÏĦÏģÎ±":4976,"Î½á¿¶Î½":4977,"á¼ľ":4978,"ĠÎµÎ³Ïī":4979,"á¿ĨÏ²":4980,"ine":4981,"ÏĢÎµÏĥ":4982,"ÏĢÎ±Ïħ":4983,"ĠÎ¼á½¹Î½á¿³":4984,"Î´Î¿Î¾":4985,"ĠÏĢá¾¶ÏĥÎ±Î¹":4986,"Î¼ÎŃÎ½Î¿Ïħ":4987,"ĠÎºá½±Î¼Î½Î¿Î½ÏĦÎ¿ÏĤ":4988,"his":4989,"iah":4990,"ĠÎºá¼ĤÎ½":4991,"Ġá½ĢÏĥÎ¼":4992,"Î®ÏĥÎµÏīÏĤ":4993,"Ġá¼¡Î¼á½·":4994,"Î³ÎµÎ¹á¿¶Î½":4995,"Ġá½ĦÎ³ÎºÎ¿Î½":4996,"Ġá¼ĲÎ½ÎµÏģÎ³ÎµÎ¹á¿¶Î½":4997,"ĠÏĢÎ±Î¼ÏĢá½¹":4998,"ÏĥÏĦÎ¿Î¹ÏĤ":4999,"Î¶ÎµÏĦÎ±Î¹":5000,"ĠÎļÎ±":5001,"ĠÏĥÎºÎµ":5002,"ĠÏĥÎºÎ»Î·Ïģá½¸Î½":5003,"ĠÎĿÎ±Î²":5004,"Î±ÏģÎ³á½»ÏģÎ¿Ïħ":5005,"Ġj":5006,"Î»ÏĮ":5007,"ĠÏĢÎ·Î³":5008,"ÏĥÏĦÎ¿":5009,"ĠÏĢÏģÎ¿Î³Î½ÏīÏĥÏĦÎ¹Îº":5010,"ĠÏĢÎ±ÏģÎŃ":5011,"Ġá¼ģÏĢÎ±Ïĥá¿¶Î½":5012,"Ġch":5013,"Ġá½ĢÎ½Î¿Î¼á½±Î¶Î¿ÏħÏĥÎ¹":5014,"ÏĩÎ·Î»Î¿Î½":5015,"Ġprob":5016,"Ġá¼ĲÏĢÎ¹ÏĢÎ¿Î»á¿ĨÏĤ":5017,"ĠÎºÎ±Î¯":5018,"Î¿Î¹Ï²":5019,"Î¼Î±Î¸":5020,"ĠÏĦÎµÏĥÏĥÎ±Ïģ":5021,"ÏĥÎ±á½·":5022,"Ġá¼ĢÏĢÏĮ":5023,"Ġá¼ķÏĦÎµÏģÎ±":5024,"Ġá¼ĢÎ½Î±ÏĨá½³Ïģ":5025,"ĠÎ²ÏģÎ±Ïĩá½»":5026,"ĠÏĢÎ¹Î¸Î±Î½":5027,"Ġá¼ĢÎ»Î·Î¸Îµ":5028,"ĠÏĩÎ»ÏīÏģ":5029,"Î´á½»":5030,"Îµá½·Î±Î¹ÏĤ":5031,"á½·Î½Î¿ÏħÏĥÎ¹Î½":5032,"ÏĥÏīÎ¼ÎµÎ½":5033,"ĠÎ½ÎµÏħÏģ":5034,"ĠÎ½ÎµÎºÏģ":5035,"ense":5036,"ĠÏĢÏģá¿¶ÏĦÎ±":5037,"Ġá½ĢÏĥÏĦá¾¶":5038,"ÏĩÎµÎ½":5039,"ĠÎµá¼°ÏĥÎ±":5040,"ĠÏĩÏģÏī":5041,"Î»Î¹Î¿Î½":5042,"Ġá½ĦÏģÏĩ":5043,"Î´Î·Î»":5044,"ĠÎµá½ĳÏģÎµ":5045,"ĠÏĢÎ»Îµá½·Î¿ÏħÏĤ":5046,"Î±Ïĥá½±":5047,"not":5048,"Ġ*":5049,"Î½ÎµÎ¹":5050,"ĠÏĢÎ¹Î½":5051,"Ġá¼¡Î½á½·ÎºÎ±":5052,"Î¹Îºá¿ĨÏĤ":5053,"ĠÎºÎ¹Î½á½µÏĥÎµÏīÎ½":5054,"ĠÎ³á½³Î½ÎµÎ¹":5055,"Ġá¼ĲÎºÎµá¿ĸÎ½Î¿Î½":5056,"ĠÎ³á½³Î³Î¿Î½":5057,"ĠÎ´Î¹ÎµÎ»Î¸Îµá¿ĸÎ½":5058,"19":5059,"ÏĥÎ¿Î¹ÏĤ":5060,"Ġá¼ĶÎ¿Î¹":5061,"Ġá¼¡Î³Îµ":5062,"ÏĮÎ´ÏģÎ±":5063,"Ġá¼ĦÎ¼Îµ":5064,"ÏĥÎµá½¶":5065,"ĠÏĥÏħÎ½ÏĦÎµÎ»":5066,"á½¹ÏĦÎ·ÏĦÎ±ÏĤ":5067,"ĠÎ´Î¹Î±ÏĥÏĦÎ¿Î»á¿ĨÏĤ":5068,"ĠÎ¿á½ĲÎºá½³ÏĦÎ¹":5069,"á¼Į":5070,"ÏĥÎºá½³":5071,"ÏĦÎ¹Îºá½¹Î½":5072,"ĠÎºÎ±ÏĦÎ¬":5073,"Ġá½ĳÎ³Ïģá½¹ÏĦÎ·ÏĦÎ±":5074,"ÏĥÏĦÎµÏģÎ±":5075,"ĠÎ¸ÎµÏģÎ¼Î±Ïĥá½·Î±Î½":5076,"Ġá¼ĲÏĢÎ¹ÏĥÎºá½³":5077,"Ġá¼ĪÏģÎ¹ÏĥÏĦÎ¿ÏĦá½³":5078,"ĠâĢĶ":5079,"Î¯ÏĥÎº":5080,"ĠÏĩÎ±Ïģ":5081,"ĠÏĢÏģÎ¿ÏĥÏĦÎ¹":5082,"Ġá¼ĲÎ¾á¿ĨÎ»Î¸ÎµÎ½":5083,"Ġpre":5084,"ĠÎµá¼´ÏĢÎ¿Î¹":5085,"Ġwas":5086,"ĠÎºÎ¿Î»Î»":5087,"ÏĦÎ·Ïģá½·Î±ÏĤ":5088,"ĠÏĨÎ»ÎµÎ²á½¸ÏĤ":5089,"Ġá½ĦÏģÎ³Î±Î½Î¿Î½":5090,"17":5091,"Î´Î¿ÏħÏĤ":5092,"á½µÎ¼Î±ÏĥÎ¹Î½":5093,"Î¿á¿ĸÏ²":5094,"Î·ÏĥÎµÎ¹":5095,"ĠÏĨÎ±ÏĥÎ¹Î½":5096,"ĠÏĨÎ±á½·Î½ÎµÏĥÎ¸Î±Î¹":5097,"ĠÏĥá½½Î¼Î±ÏĥÎ¹Î½":5098,"ĠÏĢÏħÏģÎµÏĦá½¸Î½":5099,"ĠÎ²á½±Î¸Î¿ÏħÏĤ":5100,"ĠÏĩÏīÏģá½·Î¿Î½":5101,"ĠÏĢÏģÎ±Î³Î¼Î±ÏĦÎµá½·Î±ÏĤ":5102,"Î¼ÎµÎ»á¿¶ÏĤ":5103,"Ġá¼ĲÎ½Î¹Î±ÏħÏĦ":5104,"Ġá¼ĲÎ»á½±Î»Î·ÏĥÎµÎ½":5105,"Ġá¼ĲÎ¼Î½Î·Î¼á½¹":5106,"ĠÎ¼á¾¶Î»Î»á½¹Î½":5107,"ĠXX":5108,"Î¿ÏĥÎº":5109,"ÎµÏĥÎ¸Îµ":5110,"ĠÏĨÏī":5111,"Ġá½ĢÏĥÏĨ":5112,"Ġá½ĦÎ½ÏĦÏīÏĤ":5113,"á½³ÏĥÎ¹Î½":5114,"ÏĦÎ¿Î¯":5115,"ÏĥÎµá½½ÏĤ":5116,"ĠÎ¼ÎµÏĦá½±":5117,"Î¼á½±ÏĩÎ¿Ïħ":5118,"Ġso":5119,"ĠÎ´á½»Ïĥ":5120,"ĠÎ½ÎµÏī":5121,"Ġá¼ĢÏģÏĩÎ¹":5122,"ĠÎºá½±Î¼ÏĢ":5123,"Î¼ÎŃÎ½Î·":5124,"Î¼ÎŃÎ½Î·Î½":5125,"ĠÎºá½»ÎºÎ»á¿³":5126,"ĠÏĢÎ»Î±ÏĦ":5127,"Ġá¼ĢÎ¼ÏħÎ´Ïģ":5128,"ĠÏĢÏģá½±Î³Î¼Î±ÏĦÎ¿ÏĤ":5129,"ee":5130,"ĠÎ´Î¹Î¿Ïģá½·":5131,"Ġá¼ĶÏĢÎµ":5132,"ĠÎºÎ±Î»Î¿á½»Î¼ÎµÎ½Î¿Î½":5133,"ĠÏĦá½·Î½Î±":5134,"ĠÏĥÏĦá½¹Î¼Î±ÏĦÎ¿ÏĤ":5135,"ĠÎ´á½¹Î¾ÎµÎ¹":5136,"Î²ÎµÎ²Î»Î·":5137,"Ġá¼ĪÎ±Ïģá½¼Î½":5138,"Î¿ÏĦá½±":5139,"ĠÎºÎ±ÏĦÏī":5140,"á¿¶ÏĦÎ¿Î½":5141,"á½½ÏĦÎµÏģÎ±":5142,"ĠÏĦÎµÎ¸":5143,"Ġá¼ĲÎºÏĨ":5144,"ĠÎ¿á½ĲÎ´ÎµÎ½á½¸ÏĤ":5145,"ĠÏĥÏĨÏĮÎ´ÏģÎ±":5146,"ĠÎºÎ±Î»Îµá¿ĸÎ½":5147,"ound":5148,"ĠÏĢÏĮÎ»Î¹Î½":5149,"ĠÎ´á½·Î´Î¿Ïħ":5150,"ĠÎ»Î¹ÏĢÎ±Ïģ":5151,"á½ĳÏĢ":5152,"ĠÏĢÏģÎ¿ÏĨÎ®":5153,"ĠÏĨÏħÎ»Î¬":5154,"Î¹Î±Î½":5155,"Ġá¼ľ":5156,"ÎºÏĦÎ¿Î½":5157,"Î³Î¼Î±ÏĦÎ±":5158,"ĠÏĥá½·":5159,"ĠÎ»Îµá½·":5160,"ĠÏĢÎ±Ïĥá¿¶Î½":5161,"Ġsub":5162,"ĠÏĢÎ¿Î»Î»á½°ÏĤ":5163,"Ġinst":5164,"Î»á½³Î±":5165,"Ġbeen":5166,"ĠÎ¿á¼°ÎºÎµá½·Î±Î½":5167,"Ġá½ĢÎ½Î¿Î¼":5168,"ered":5169,"ĠÏĦÎ¿á½ĲÎ½Î±Î½":5170,"ĠÏĢÎ¿Ïĥá½¸Î½":5171,"ĠÎ³ÏģÎ±Î¼Î¼Î±":5172,"Ġá¼ĳÏģÎ¼Î·Î½Îµ":5173,"ÏīÏĢ":5174,"Ġá¼ĲÏĦá¿¶Î½":5175,"ĠÏĢÏĦÏī":5176,"Î·Ïĥá½·":5177,"Ġá¼ĢÎ½Î±ÏĢÎ½Î¿":5178,"Ġá¼ĦÎ»Î»á¿³":5179,"Î»Î¸á¿ĥ":5180,"Ġá¼±ÎµÏģÎµá¿ĸÏĤ":5181,"ĠÎ¸Î±ÏħÎ¼Î±ÏĥÏĦá½¸Î½":5182,"Ġá¼ĳÎºÎ±ÏĦá½³ÏģÏīÎ¸ÎµÎ½":5183,"ÎºÎ¹Î½":5184,"ÏħÏĥá½·":5185,"ĠÎ¼Î·ÏģÎ¿á¿¦":5186,"á½±Î³ÎµÎ¹Î½":5187,"á½»Î½ÏĦÏīÎ½":5188,"ĠÎºÏħá½±":5189,"ÏĢá½·Î´Î¿ÏĤ":5190,"á½ĢÏĢ":5191,"ĠÏĨÎ»á½³Î²ÎµÏĤ":5192,"ĠÎ¼á½³Î³Î¹ÏĥÏĦÎ¿Î½":5193,"Ġrender":5194,"ÏīÏĥÎ¹":5195,"Î³á½³Î½":5196,"ĠÎµÎ½Îµ":5197,"ĠÏĦÎµÏĥÏĥ":5198,"Ġá¼ĦÎºÏģ":5199,"ĠÏĢÎ±ÏģÎ±ÏĨÏģÎ¿Ïĥ":5200,"Ġá¼´ÏĥÎ±":5201,"Ġá½łÎ½á½¹":5202,"ĠÏĢá½¹ÏĦÎµÏģÎ¿Î½":5203,"ĠVáµĥ":5204,"ĠÏĦá½³ÏĦÎ±Ïģ":5205,"ĠÏĦÏģá½·ÏĦÎ·Î½":5206,"ÏĩÎ¹ÏĥÏĦÎ±":5207,"Ïĩá½¹":5208,"ĠÎ¼ÎµÏĦÎµ":5209,"Î¶ÏīÎ½":5210,"ÏģÎµÏĥÎ¸Î±Î¹":5211,"ĠÎºÎ±Î¸Î±á½·":5212,"ÏİÏĥÎµÎ¹":5213,"ÏĥÏĦÎ±ÏĥÎ¸Î±Î¹":5214,"Ġme":5215,"Ġá¼ħÏĢÎ±ÏĥÎ±Î½":5216,"ÏĥÎ·ÏĦÎµ":5217,"ĠÎ´ÎµÏħÏĦá½³ÏģÎ±Î½":5218,"ÏĬÎº":5219,"ĠÏĩá½½ÏģÎ±ÏĤ":5220,"ÏĪá¿ĥ":5221,"Î±Î»Î³":5222,"ÏĦá½·ÏĤ":5223,"ĠÏĢÎµÏĢÎ»":5224,"ĠÎ¸ÎµÏģÎ¼á¿·":5225,"ĠÎ¿á¼¶Î´Î±":5226,"Îµá½¶Ïģ":5227,"Ġá¼ĲÎ½Î±Î½ÏĦÎ¹":5228,"ÏĦÎ¿á½»ÏĦÏīÎ½":5229,"Î¸á½³Î½ÏĦÏīÎ½":5230,"ĠÏĥá½»Î¼ÏĢÎ±Î½ÏĦÎ±":5231,"*)":5232,"ÏĦÏĮÎ½":5233,"ÎµÏĥÎ¹ÏĤ":5234,"ĠÎºÎ±ÏĦÎ·":5235,"ĠÎµÏĥÏĦÎ¹Î½":5236,"ĠÏĢÏģÎ¿Î³ÎµÎ³ÏģÎ±Î¼":5237,"Ġtak":5238,"Ï²Î¸Î±Î¹":5239,"ĠÏĢÏģÎ¿ÏĥÏĨ":5240,"ĠÎµá½ĲÎ»á½¹Î³ÏīÏĤ":5241,"ÏĩÎ¸á½µÏĥÎµÏĦÎ±Î¹":5242,"ĠÎ»á½³Î³Î¿Î½ÏĦÎµÏĤ":5243,"Î¼Î¼ÎµÏīÏĤ":5244,"ĠÎ´á½³ÏģÎ¼Î±ÏĦÎ¹":5245,"ĠÎ²Î±Î»Î±Î½":5246,"ĠÏĩá½±ÏģÎ¹Î½":5247,"ÏīÏĥ":5248,"ĠÎ¼ÏħÏģ":5249,"ĠÏĥÎŃ":5250,"ĠÎ»á½±Ïģ":5251,"Ġá¼ĢÎ»Î»Î¿":5252,"ĠÏĦÎ¹Î½á½°ÏĤ":5253,"Ġ37":5254,"Î¤á½¸":5255,"á½µÎ¼ÎµÏģÎ¿Î½":5256,"Ġverse":5257,"ĠÎ¸ÎµÏģÎ±ÏĢÎµá½·Î±ÏĤ":5258,"ĠÏħÎ¼ÏīÎ½":5259,"ara":5260,"ÎµÎ¸":5261,"ÏĥÎ¯Î±ÏĤ":5262,"ĠÎ¼á¿¦Î½":5263,"Ġá¼ĲÎ½ÎµÏĦÎµ":5264,"ÎºÎ±Î¸Î±":5265,"Î»á½±Î¼Î²Î±Î½Îµ":5266,"Ġá¼ĪÎ²ÏģÎ±":5267,"Ġá¼ĲÎ»Î»":5268,"á½±ÎºÎ¿Î½ÏĦÎ±":5269,"á¿¶Î½Î±ÏĤ":5270,"ĠÎ´Î¹ÏĮÏĦÎ¹":5271,"ĠÎ»Î·":5272,"ÏİÎ¼Î±ÏĦÎ±":5273,"Ġá½¥ÏģÎ±Î½":5274,"ĠÏĨÎ»ÎµÎ³Î¼Î¿Î½á½´Î½":5275,"Ġwords":5276,"Ġye":5277,"ĠÎºÎ¹Î²":5278,"ÎºÎ·ÏģÎ¿á¿¦":5279,"á½±Î½ÎµÏĥÎ¸Î±Î¹":5280,"ĠÎ³Î·":5281,"á½·Î½Î¿Î¹ÏĦÎ¿":5282,"ĠÏĢÎ¿Î»Î»á½´Î½":5283,"Ġá½ĳÎ³Ïģá½°":5284,"Ġne":5285,"Ġá¼ĲÎºÎµá½·Î½Î·Î½":5286,"Î´ÏīÎºÎµÎ½":5287,"ĠÎºá½·Î½Î´ÏħÎ½":5288,"Ġá¼ĲÏģÎ³á½±Î¶ÎµÏĥÎ¸Î±Î¹":5289,"Î²á½±Î»Î»Î¿Î½":5290,"ãĢī":5291,"ĠÏĢÎ±ÏĦá½´Ïģ":5292,"á¼ĲÎ»Î±á½·Î¿Ïħ":5293,"22":5294,"ust":5295,"ÏĢÏĮ":5296,"ĠÏĢÎŃÎ½":5297,"ĠÎµÎ»":5298,"Î»Îµá½·Î±ÏĤ":5299,"Î·ÏĥÎ±Î¹":5300,"Î»Î±Îº":5301,"ĠÏĥÏĦÏģÎ¿":5302,"ÎºÎ¿ÏĢ":5303,"ĠÎ»ÎŃÎ³Î¿Î½ÏĦÎµÏĤ":5304,"Ġá¼ĲÏĢá½·Î´Îµ":5305,"Ġá¼ģÎ¼Î±ÏģÏĦÏī":5306,"Ġá¼ĢÎ³Î³Îµá¿ĸÎ¿Î½":5307,"ĠÎ¸ÏħÎ¼Î¹á½±":5308,"Î¿á½ºÎ»":5309,"ĠÎ½á½±Ïģ":5310,"Ġpas":5311,"ĠÎ¶á¿¶Î½":5312,"Î¼Î¹Î¿Î½":5313,"ÏĩÎ¸á¿ĨÎ½Î±Î¹":5314,"Ïģá½¹ÏĦÎ·ÏĦÎ¹":5315,"ãĢĪ":5316,"ÏĢÎ·Î½":5317,"Î´á½²":5318,"á¿¶Ï²":5319,"Î»Î»á½±":5320,"ĠÏĢÏģÎ¿Î½Î¿":5321,"ĠÎ´Î¹á½±ÏģÎ¸ÏģÏī":5322,"á½½Î¼Î±":5323,"ÏħÏĦá½±":5324,"ĠÎ¶Î·ÏĦ":5325,"Ġá¼ĦÎ½Î´ÏģÎ±":5326,"ĠÎºá¾Ħ":5327,"ĠÎ´ÏħÏĥÎµÎ½ÏĦÎµÏģ":5328,"Ġalso":5329,"Ġupon":5330,"ĠÎºÎµÎºÎ±ÏħÎ¼á½³Î½Î¿Ïħ":5331,"Î´Î·Î¼Î¹á¿¶Î½":5332,"Ġá¼Ģá½³ÏģÎ¿ÏĤ":5333,"ĠÏĥá½²":5334,"ĠÎ³Î·ÏĤ":5335,"ĠÏĩÏİ":5336,"ÏĥÎ¹ÏĢ":5337,"ĠÏĢÎ¿ÏģÎµÏħ":5338,"Ġá¼ĢÎ½Î´":5339,"Ġá¼¸ÏīÎ½":5340,"ĠÎ¾Ïħ":5341,"Ġá¼ĢÎ½Î¸Ïģá½½ÏĢÎ¿Î¹ÏĤ":5342,"ĠÏĦá½·Î½":5343,"ĠÎ±Î½Îµ":5344,"ÏģÎ±Î¹Î½":5345,"á½µÎº":5346,"ĠÎĳÎ²":5347,"Î¿á½»Î¼ÎµÎ½Î¿Î¹":5348,"Ġá¿¥Î¿Î´":5349,"ĠBa":5350,"Ġá¼ĶÏĩÎ¿Î½ÏĦÎ¿ÏĤ":5351,"Ġca":5352,"Ġ35":5353,"ĠÎ»á½¹Î³Î¿Î¹ÏĤ":5354,"ĠÎ¿á½ĲÎ´ÎµÎ¼á½·Î±Î½":5355,"Ġá¼ĲÎ¼Î²á½±Î»Î»":5356,"Ġá¼ĢÏĥÎ¹":5357,"á½µÎ¼Î·Î½":5358,"Ġá¼Ħá¿¤á¿¥":5359,"Ġá¼ĲÎºÎ¬":5360,"Ġá¼ĳÏī":5361,"Ġá½¡Ï²":5362,"Ġá¼ĲÏĢÎ¹Î´Î·Î¼Î¹á¿¶Î½":5363,"Î½Î±Î¹ÏĤ":5364,"Ġá½ĦÏĩ":5365,"ĠÏħÎ¹Î¿Î¹":5366,"ĠÎ¼Î¿Ïģá½·á¿³":5367,"ĠÎ»á½³Î»ÎµÎºÏĦÎ±Î¹":5368,"ĠÏĩÎ¹ÏĦ":5369,"Ġá¼ĢÎ¾Î¹á½¹":5370,"Ġun":5371,"Ġá¼ĲÏĢÎ¿ÏģÎµá½»":5372,"ĠÎ´Î¹Î±á½·ÏĦÎ·ÏĤ":5373,"Î´á¿ĨÎ»Î¿Î½":5374,"ĠÎºÏģÎµ":5375,"Ġá¼Ĳá½±Î½":5376,"Î¸á½²Î½":5377,"ĠÎ´Î¹á½¸":5378,"á¿ĩÏĤ":5379,"Ġá¼ĢÏģÎºÎµá¿ĸ":5380,"Ġsh":5381,"ĠÏĢÎµÏĨÏħÎº":5382,"ĠÎ³ÏħÎ¼Î½á½±":5383,"Î¿á½ĲÎ´á½²Î½":5384,"ĠÏĥÏĦÏĮÎ¼Î±":5385,"ĠÎ½ÏīÏĦÎ¹":5386,"Î»á¿ĥ":5387,"á½·Î´ÏīÎ½":5388,"Ġá¼ĲÎ½á½½":5389,"ĠÏĨÏĮ":5390,"ĠÎµá¼¶Î´Î¿Î½":5391,"Ġá¼ĢÎ½Î±Î»Î¿Î³":5392,"ĠBU":5393,"ÏĥÏĥÏīÎ½":5394,"Î¤á½°":5395,"ĠÎ¸Î±Î½á½±":5396,"hras":5397,"ness":5398,"ÏĥÏĦÎ·Ïģ":5399,"á¿ĸÎ±":5400,"ĠÎ´Î¹Î±Ïĥ":5401,"ÏĥÎ¼á½¸Î½":5402,"ĠÎ§Î±Î»":5403,"Ïģá½³ÏĥÎµÏīÏĤ":5404,"Ġá¼°Î´á½·Î±Î½":5405,"uc":5406,"ĠÏĦÏģÎµ":5407,"Ġá¼ĲÎ²Î±":5408,"ĠÎ±á½ĲÏĦá½±":5409,"ĠÏĨÎ¬":5410,"ĠÎ¸Î·Ïģ":5411,"Ġá¼ĢÎ»Î»Ê¼":5412,"ÏĦÏīÏģ":5413,"Î»ÎµÎ¹Î±":5414,"Ïĥá½·ÏĤ":5415,"ĠÎĵÎ±":5416,"ĠÎ»ÏĮÎ³Î¿ÏħÏĤ":5417,"ĠÎ´Î¯ÎºÎ±Î¹":5418,"Î½ÎµÎ³ÎºÎµÎ½":5419,"ÎºÎ½Î±":5420,"á¿ĨÏĦÎ±Î¹":5421,"Îµá¿ĸÏĦÎ¿":5422,"Î¬ÏĦÎ¿Ïħ":5423,"Î¿á¿ĸÎ¿Î½":5424,"ĠÎľÎµ":5425,"Ġ49":5426,"ĠÎ¼á½µÏĦÏģÎ±ÏĤ":5427,"ĠÎ¸á½³ÏĥÎ¹Î½":5428,"ĠÎ´Î±ÎºÏĦá½»Î»ÏīÎ½":5429,"oll":5430,"Ġvi":5431,"Ġá¼ĢÎ¼ÏĢ":5432,"Ġá¼ĢÎ´Î¹":5433,"ÎºÎ±Îº":5434,"ÎºÎ±Î¼ÎµÎ½":5435,"ÎŃÎ±":5436,"á½°ÏģÎ¾":5437,"ĠÏĢÏģÎ¿Îµá½·":5438,"Î®ÏĥÎ¿ÏħÏĥÎ¹Î½":5439,"ĠÏĪÎ±Î»":5440,"ĠÏĢÏģÎ¿ÏĥÎŃ":5441,"Î²Î±ÏĦÎ±":5442,"ĠÎ¼ÎŃÏĥá¿³":5443,"Ġá¼ĲÎ»Î¬Î»":5444,"ĠÏĦÎ¿Î¹Î±á½»ÏĦÎ±ÏĤ":5445,"Ġá½ĢÎ´á½»Î½Î·ÏĤ":5446,"ĠÏĦá½µÎ½Î´Îµ":5447,"ĠÏĥá½»Î¼Î¼ÎµÏĦÏģÎ¿Î½":5448,"Ġmeaning":5449,"ĠÎºÎ±Î¹Î½":5450,"ÏīÎ²":5451,"Î³á½·Î½ÎµÏĦÎ±Î¹":5452,"ĠÏĥÎ¿á½¶":5453,"ÏĦÎ·ÏĥÎ±Î½":5454,"ÏĢÎ¿Î¼ÎµÎ½":5455,"ÏĥÎºÎ±Î¹":5456,"ĠÎºÎ±ÏĦÎ±Îº":5457,"ĠÏĢÏģÎ¿ÏĥÏī":5458,"Ġman":5459,"ÎĳÎĽ":5460,"ĠÎ¸ÎµÏģÎ¼Î±á½·Î½ÎµÎ¹Î½":5461,"Ġá¼ĢÎ¼ÏĨá½¹ÏĦÎµÏģÎ±":5462,"ĠÎ»ÎµÏħÎºá½¸Î½":5463,"Ġá¼ĲÎºÎµá¿ĸÎ½Î¿ÏĤ":5464,"ĠÏĢÎ»á½µÎ¸ÎµÎ¹":5465,"ĠÎ¼Î±ÏģÏĦÏħ":5466,"Î³Î½ÏħÏĦÎ±Î¹":5467,"ĠÏģ":5468,"Î½á½±":5469,"ÏĥÎ¿ÏħÏĤ":5470,"Î¼á½±Î½":5471,"Îºá¾":5472,"ÏīÏĥÎµ":5473,"Ġá¼ĲÎ´á½·":5474,"Ġá½ĦÏĢÎ¹ÏĥÎ¸ÎµÎ½":5475,"Ġá¼ĢÎºÎ¿Ïħ":5476,"ĠÎ±ÏħÏĦÎ·":5477,"Ġá¼ĲÎ¼ÏĢÎ»á½±":5478,"ard":5479,"Ġá¼±ÎºÎ±Î½á½¸Î½":5480,"Ġá¼ĳÎºÎ±ÏĦá½³ÏģÎ¿Ïħ":5481,"ÏĦÎ¹Î½á½²ÏĤ":5482,"ÎĹÎĿ":5483,"Ġagain":5484,"ĠÎ¸ÏħÎ¼Î¹á½±Î¼Î±ÏĦÎ¿ÏĤ":5485,"ÏĥÏħÎ¼":5486,"ÏģÎ¹Î¿Ïħ":5487,"ĠÏĢÏģÎ¿ÎºÎµá½·Î¼ÎµÎ½Î¿Î½":5488,"Ġá¼ĲÏĢÎ¹Î²":5489,"ÏħÎ¼Î¿Î½":5490,"ĠÎ¼Î·ÏĦÏģ":5491,"ĠÎºÎµÏģÎ±":5492,"Ġá¼ĢÏĨá½·":5493,"Î¿á½ĲÏĩ":5494,"Ġhim":5495,"ĠÏĢÎ»Îµá¿ĸÏĥÏĦÎ±":5496,"Ġá¼ĳÏĦá½³Ïģá¿³":5497,"ĠÎ´Î±ÎºÏĦá½»Î»Î¿ÏħÏĤ":5498,"ĠÏĢÎµÏģÎ¹á½³ÏĩÎ¿Î½ÏĦÎ¿ÏĤ":5499,"Ġlitt":5500,"Ġá¼ĢÎ³ÏģÏħÏĢÎ½":5501,"ian":5502,"Îĺ":5503,"á½¹Î´ÏīÎ½":5504,"Î±Î¹Î±":5505,"ĠÎ´Î¹ÏĢÎ»":5506,"ÏĥÎ¸á½µÏĥÎµÏĦÎ±Î¹":5507,"ÏĥÎµÎ»":5508,"ĠÎµá¼¶ÏĢÎµ":5509,"Ġá¼ĪÏĥÏĥ":5510,"ĠÎ»Î±á¿·":5511,"Ġá¼ĺÏĨ":5512,"ĠÎ²Î¿Î·Î¸Î·":5513,"Ġá¼ĲÎºÎµá¿ĸÎ½Î±":5514,"ĠÎĳá¼°Î³Ïį":5515,"ĠÎ²Î¿á½»Î»ÎµÏĦÎ±Î¹":5516,"ĠÏĥÏİÎ¼Î±ÏĦÎ¿ÏĤ":5517,"ĠÏĦÏģá½³ÏĨ":5518,"Ġá¼Ģá¿¤á¿¥á½½":5519,"Ġá½ģÎ¼Î¹Î»":5520,"ok":5521,"Î½Î¿Î¼":5522,"á¼¥":5523,"ÏĥÎ±Ïģ":5524,"ĠÎ´ÎµÎ¹Î½":5525,"ÏĦÎ¹Î´Î¿ÏĤ":5526,"Î»ÎµÎ¿ÏĤ":5527,"Î®Ïģ":5528,"ĠÎ¸ÎµÎ¿ÏĤ":5529,"Î¯Î½ÎµÎ¹":5530,"ĠÎºá½»ÏĥÏĦÎ¹Î½":5531,"ĠÏĢÏģá¿¶ÏĦÎ¿ÏĤ":5532,"ÏĦÎ±á¿¦ÏĦ":5533,"ĠÎ¼ÎµÎ³á½±Î»Î¿Ïħ":5534,"ĠÎ´Î¹Î±ÏĨá½³ÏģÎµÎ¹":5535,"ĠÏĥÏĦÎµÎ½Î¿Ïĩ":5536,"ĠÎ»Î±Î²Îµá¿ĸÎ½":5537,"Î¡ÎĻ":5538,"ĠÏĢÎ±ÏģÎ±ÏĢÎ»Î·Ïĥá½·ÏīÏĤ":5539,"Ġá½łÎ¼Î¿ÏĢÎ»á½±":5540,"ÏĢÏģá½¹":5541,"Î¼á½·Î±":5542,"ĠÎºÎ±Î¼ÏĢ":5543,"ÏĩÎ±Î½":5544,"ÏĩÎ¼Î±":5545,"ÏĨÎ½Î·ÏĤ":5546,"ÏħÏĦá½¶":5547,"item":5548,"ĠÎ¼á½¹Î½Î¿Ïħ":5549,"ĠÏĪÏħÏĩÏģá½°":5550,"ĠÏĢá½±Î¸Î¿ÏħÏĤ":5551,"Ġá½ħÎ»á¿³":5552,"Î¼ÎŃÎ½Î¿ÏħÏĤ":5553,"ĠÎ£Î±Î¿á½ºÎ»":5554,"ĠÏĢÎ±Î»Î±Î¹Î¿á¿¦":5555,"Ġá¼ĲÎ´á½µÎ»":5556,"ĠÏĨÏħÎ»á¿ĨÏĤ":5557,"Ġ,":5558,"ĠÎºÎŃ":5559,"Ġá¼ĢÏĥÏĦ":5560,"á½»ÏĤ":5561,"á½»ÏĥÎµÎ¹":5562,"ĠÎ»Ïħ":5563,"ÏĢÎ¿Î´":5564,"Î®ÏĥÎµÎ¹ÏĤ":5565,"Ġother":5566,"ĠÎ¿á½ĸÏĥÎ±Î½":5567,"Ġá¼ĢÏĢÎ¿Ïģ":5568,"ĠÎºÎ±ÏĦÊ¼":5569,"ĠÎ±á¼°á¿¶Î½Î¿ÏĤ":5570,"ĠÎºÎ¿Ïģ":5571,"ener":5572,"ĠÏĦÎµÏĦÏģÎ±":5573,"ives":5574,"Ġused":5575,"ĠÎ¼á½³Î³Î±Î½":5576,"ĠÎºÎ¹Î²Ïī":5577,"Î»á½°ÏĤ":5578,"Î·ÏĥÎµ":5579,"ÏĦÎ±ÏĦÎ¿Î½":5580,"á¿¶ÏĥÎ¸Î±Î¹":5581,"ÏĥÎ¸Î®ÏĥÎµÏĦÎ±Î¹":5582,"ĠÏĩÏī":5583,"ÏģÎ¿ÏĦá½³ÏģÎ±":5584,"ĠÎºÎ±Î¸á½°":5585,"Ġá¼ĢÏĢÎ¿Î»Îµá½·":5586,"Î¸ÏģÎ¿Ïħ":5587,"Î´Î±Î¼":5588,"ĠÎ¿á¼¶ÎºÎ¿ÏĤ":5589,"Î¿ÏģÎ¸":5590,"ĠÎ´Î¹á½±Î³Î½ÏīÏĥÎ¹Î½":5591,"Îµá½»Î±":5592,"Ġá¼¡Î¼ÎŃÏģÎ±Î¹ÏĤ":5593,"Ġá¼ĳÏĦá½³ÏģÎ¿Î¹ÏĤ":5594,"ĠÎ»ÎµÏĢÏĦá½°":5595,"Ġá¼ĦÏģÏĩÎ¿Î½ÏĦÎµÏĤ":5596,"ĠÏĩÎ±Î»ÎºÎ¿á¿¦":5597,"Ġá¼°Î´á½³Î±Î½":5598,"Î´ÏģÎ¿Î½":5599,"á½¹Î½Î±":5600,"ĠÏĨá½±ÏĥÎº":5601,"ĠÎ²Î»Î±Î²":5602,"Î»Î·Î¼":5603,"ÏİÎ¸Î·":5604,"â¸Ģ":5605,"á½ħÎ¸ÎµÎ½":5606,"ĠÏĦÎ±ÏįÏĦÎ·Î½":5607,"Î¬ÎºÎ¹ÏĤ":5608,"ĠÏĦÏģÏĮÏĢÎ¿Î½":5609,"ĠÏĦÎµÏĦÎ±ÏģÏĦÎ±":5610,"Ġtrans":5611,"ĠÎ¸á¾¶ÏĦÏĦÎ¿Î½":5612,"Î»ÏīÏĤ":5613,"ÎºÏĦÎ¿ÏĤ":5614,"ĠÏĥá½µ":5615,"á½½ÏĥÎ±ÏĤ":5616,"Ġá½ħÏĥÏĦÎ¹ÏĤ":5617,"ĠÏĩÏģá¿Ħ":5618,"Ġá¼ĲÏĢÎ¹Î¼ÎµÎ»á¿¶ÏĤ":5619,"read":5620,"ĠÏĪÏħÏĩá½´":5621,"ÏĢÏĦá½³Î¿Î½":5622,"ĠÏĢá½±ÏĥÎ·ÏĤ":5623,"ĠÎĶÎ±Î½Î¹":5624,"ĠÏĦÏģá½·Î±":5625,"ÏĩÎ¸Î·ÏĥÎ±Î½":5626,"Ġá½ĦÎ½ÏĦÎµÏĤ":5627,"ĠÎ´ÏģÎ¹Î¼á½³":5628,"ĠÎ³Î½ÏīÏģá½·ÏĥÎ¼Î±ÏĦÎ±":5629,"ĠÏĢÎµá½·ÏģÎ±ÏĤ":5630,"ĠÎ¿á½ĲÎ³Î³á½·Î±ÏĤ":5631,"Î½Ïħ":5632,"ÏįÎ½Î·ÏĤ":5633,"Ġá¼ĳÏĦÎ¿Î¹":5634,"Ġá¼ĳÏĦÎŃ":5635,"Ġá¼ĢÏĢÎ¿Î´":5636,"ĠÎºÎ±ÏĦÎ±ÏĥÏĦ":5637,"ĠÎºÎ±Î»Î¿á¿¦ÏĥÎ¹Î½":5638,"ÏĥÏĦá½±ÏĥÎµÏīÏĤ":5639,"Ġform":5640,"ÏĨÏħÎ»á½±":5641,"ĠÏĨÎ»á½³Î²Î±":5642,"ĠÏĥÎ·Î¼Î±á½·Î½ÎµÎ¹":5643,"Ïģá½»ÏĥÎ¹ÏĢ":5644,"á¼ĦÎ»Î»Î¿":5645,"Î½ÏĦÎ±Î¹":5646,"ĠÎºÎ¿Î»":5647,"ĠÎµÏģ":5648,"Î¼Î±á½·":5649,"ĠÎ»Ïį":5650,"ĠÏĦÎ±ÏģÎ±Ïĩ":5651,"ÏĦá½·Î¸ÎµÎ¹":5652,"ĠÏĨÎ±ÏĥÎ¹":5653,"âģ½":5654,"ĠÎºÏģÎ¹Î½":5655,"Ġá¼ĢÎ½Î±Î³Îºá½±":5656,"ĠÏĦÎ¿Î¹Î¿á½»ÏĦÎ¿Ïħ":5657,"ĠÏĩÏħÎ»á½¸Î½":5658,"ĠÎ±á½ĲÏĦá½±ÏģÎºÏīÏĤ":5659,"á¼Ĩ":5660,"ÏĥÎ·Î½":5661,"Ġá¼ĲÎ¼Î±":5662,"ĠÏĢÎµá¿ĸ":5663,"ÏĦÎ±á½»":5664,"Ïģá½·á¿³":5665,"Î³Î±Î³Î¿Î½":5666,"Ġá¼±ÏĥÏĦ":5667,"ĠÏĩÏħÎ¼á½¸ÏĤ":5668,"Î²Î¿Î»Î¿Î½":5669,"ĠÎºá½±ÏĦÏīÎ¸ÎµÎ½":5670,"ĠÏĦÎ¿ÏįÏĦÎ¿Î¹ÏĤ":5671,"ÏĦÏģá½·Î²":5672,"ĠÎ¼Î·Î´ÎµÎ¼á½·Î±Î½":5673,"ĠÏĦÏģá½±ÏĩÎ·Î»Î¿Î½":5674,"ĠÎºá¿¶Î»Î¿Î½":5675,"postea":5676,"ÏĦÎµÎ½":5677,"Î»ÏħÎ¸":5678,"ÎºÏģá½¹ÎºÎ¿Ïħ":5679,"Ġá¼ĶÎ´ÎµÎ¹":5680,"ĠÏĨá½±Î½Î±Î¹":5681,"á½½Î´ÎµÎ¹":5682,"ĠÎ¸Ïģá½³":5683,"á½·Î½á¿ĥ":5684,"ĠÎ¿á½ĸÏģÎ¿Î½":5685,"Ġá¿¥á½µÏĥÎµÏīÏĤ":5686,"ĠÎ¼ÎµÎ³Î¬":5687,"ĠÎºá½»ÏģÎ¹Î¿Î½":5688,"Ġá¼ĲÎºÎµá½·Î½Î·ÏĤ":5689,"ÏīÏģá½·Î±Î½":5690,"ĠÏĥÏĦá½¹Î¼Î±ÏĦÎ¹":5691,"Ġá¼±ÎµÏģÎµá½ºÏĤ":5692,"Ġá½łÏĨá½³":5693,"ĠÎ¾Î·ÏģÎ±á½·Î½ÎµÎ¹Î½":5694,"ĠÎ´Î·Î»Î¿á¿ĸ":5695,"Ġá½ĢÎ´á½»Î½Î·Î½":5696,"á½»ÏĦÎ·ÏĦÎ±":5697,"ĠÏĦá¼ĢÎ½Î±Î½":5698,"18":5699,"Î½á¿¦Î½":5700,"ÏĥÎ²":5701,"Î¿Î¹Î±":5702,"Ġá¼ĲÏĢÎ¬":5703,"ÏĪá½»Ïĩ":5704,"ĠAC":5705,"Î®ÏĥÎ¿Î¼Î±Î¹":5706,"Î»Î·ÏĨ":5707,"ÏģÎ·Î¼Î±":5708,"ÏĨÎ¿Î²":5709,"ĠÎ£ÎµÎ¹":5710,"ĠÎ·Î½":5711,"ĠÎ¼ÎµÏĦá½³":5712,"ĠÎºÎµÏĨÎ±Î»á¿ĩ":5713,"ÏīÎ¸á¿ĩ":5714,"Ġ41":5715,"ĠÎ»ÎµÏĢÏĦÏħÎ½":5716,"ĠÎ´ÏħÏĥÏĢÎ½Î¿":5717,"ĠÎºÏģÎ¹Ïĥá½·":5718,"ĠÏĢÎµÏģÎ¹ÏĦÏĦá½¸Î½":5719,"Ġá¿¥á½·Î¶Î·ÏĤ":5720,"Ġá¼ĢÏħÏĦá¿¶Î½":5721,"á¼ĲÏĨÎµÎ¾á¿ĨÏĤ":5722,"ĠÎ³á½·Î³Î½Î¿Î½ÏĦÎ±Î¹":5723,"Ġá¼ĳÎ±ÏħÏĦÎ¿á½ºÏĤ":5724,"ĠÎºÎ»Î±":5725,"ĠÏĢÏĦÎµÏģ":5726,"ÏĮÎ¼ÎµÎ¸Î±":5727,"Ġá½ĢÎ¼ÏĨ":5728,"Ġá½ĢÎºÏĦ":5729,"ĠÎ¿á½ĸÏĥÎ±":5730,"ĠÎłÎ±":5731,"ĠÎ³Î½á¿¶Î½Î±Î¹":5732,"á½»Î»ÏīÎ½":5733,"ĠÎ²Î¿ÏħÎ»Î·Î¸":5734,"ĠÏĦÎ¿á½ĶÎ½Î¿Î¼Î±":5735,"ĠÏĥÏħÎ¼Î²ÎµÎ²Î·Îº":5736,"Ġear":5737,"Î¼Î¼":5738,"ÎºÎŃ":5739,"Ġá¼ĲÎ»ÎŃ":5740,"ĠÎ¼Îµá¿ĸ":5741,"ÎŃÎ¿Î½":5742,"Ġá¼ĢÏĢÎµÎ¹":5743,"ÏĥÎ±Î½ÏĦÎ±ÏĤ":5744,"ĠÏĢÎ¿Î»Î»á¿ĨÏĤ":5745,"ĠÎ´á½³Î´ÎµÎ¹ÎºÏĦÎ±Î¹":5746,"Ġá¼ĲÎ¼á½²":5747,"oc":5748,"scr":5749,"Î»á½´Î½":5750,"ÏĩÎ·ÏĤ":5751,"ÏĥÏĦÎ¿ÏħÏĤ":5752,"ĠÏĨÎ¯":5753,"ĠÏĢÏģÎ¿ÏĬ":5754,"Ġá¼ĢÎ»Î»Î®Î»":5755,"ĠÎ³ÎµÎ½ÎŃ":5756,"ĠÏĢÏģá½¹Î´Î·Î»Î¿Î½":5757,"ĠÎºÎ±Î»Îµá¿ĸÏĦÎ±Î¹":5758,"ĠÏĨÎ»ÎµÏĪ":5759,"Î²Î¿Î»á½´Î½":5760,"ĠÏĦÎ¿á¿ĸÏĥÎ¹Î½":5761,"Îµá¼¶ÏĦÎ±":5762,"Î¿á½ĹÏĦÎ¿ÏĤ":5763,"ĠÏĢá½µÏĩ":5764,"ĠÎĳá¼°Î³á½»ÏĢÏĦÎ¿Ïħ":5765,"Ġri":5766,"Î¿Î´Î¿ÏĤ":5767,"ĠÏĢÏħÎ»":5768,"ÏĥÎ¸á½³Î½":5769,"ĠÏĨÎ¬Ïģ":5770,"Ġá¼ĢÏĢÎ±":5771,"Ġsense":5772,"Ġá¼¸Î¿á½»":5773,"ĠÎµá¼°ÏģÎ·Î¼á½³Î½Î¿Î½":5774,"ĠÎ±ÏħÏĦÎ·Î½":5775,"ĠÎºÎ±ÎºÎ¿ÏĩÏħÎ¼":5776,"Ġá¼ĢÎºÎ¿á½»ÎµÎ¹Î½":5777,"Ġá¼ĲÏĢÎ¿ÏģÎµÏį":5778,"Ġá¼ĶÎ»Î±ÏĦÏĦÎ¿Î½":5779,"ĠÏĦÎ¿á½ĲÎ½Î±Î½ÏĦá½·Î¿Î½":5780,"ÏĩÎ¼Î±Î»Ïī":5781,"Î±ÏĢÎ¿":5782,"Ġá¼Ń":5783,"ĠÎµÏĢÎ¿Î¹":5784,"Î¿Î¹ÎµÎ½":5785,"á½µÏģ":5786,"Ġá¼¸Î´Î¿á½º":5787,"Ġá½§Î´Îµ":5788,"á½·Î¶ÎµÎ¹Î½":5789,"ĠÎĵÎ±Î»Î±":5790,"ÏĢÎ¿Î¹Îµá¿ĸ":5791,"Î¿Î¼ÎŃÎ½Î¿Ïħ":5792,"Ġá¼ĳÎºÎ±ÏĦá½¸Î½":5793,"Î¿Î²Î¿":5794,"oss":5795,"ĠÏĥÏĢÎ»á½±Î³Ïĩ":5796,"Ġá¼ĢÎ¸Ïģá½¹ÏīÏĤ":5797,"ÎĳÎĽÎĹÎĿ":5798,"ÎĳÎĽÎĹÎĿÎŁÎ¥":5799,"ue":5800,"Ġá¼ĲÏģÎµ":5801,"á¿¶ÏĦÎ±":5802,"ĠÎ±Î³":5803,"ĠÏĥÏĢÎµÏģ":5804,"ĠÎµá¼°ÎºÎ¿ÏĥÏĦ":5805,"ÏįÎ½Î·":5806,"Ġá¿¥á¾·":5807,"á¼ĢÏģ":5808,"ition":5809,"Ġwe":5810,"á½»Î½Î·Î½":5811,"ĠÏĢÏģá½½ÏĦá¿ĥ":5812,"ĠÎ§Ïģá½»ÏĥÎ¹ÏĢ":5813,"Ġá½¦ÏĦÎ±":5814,"ĠGod":5815,"á½½Î´ÎµÏĥÎ¹":5816,"Ġá¼ĲÎ´ÎµÏĥÎ¼á½±ÏĦÏīÎ½":5817,"ÏĢÏģÎ±":5818,"Ġá¼ĦÎ¾Î¹":5819,"ÏĪÎ¿Î½ÏĦÎ±Î¹":5820,"á½³ÏģÏīÎ½":5821,"ĠÎºÎ±ÏĦÎ±ÏĥÎº":5822,"Ġá¼ħÏĢÎµÏģ":5823,"ĠÎ¼á½³ÏĥÎ¿Ïħ":5824,"á¼°Î´Î¿á½º":5825,"ĠÎ²Î±ÏĥÎ¹Î»á½³Î±":5826,"Ġá¼°ÏĥÏĩÏį":5827,"Ġno":5828,"ĠÎ¼Î¹ÎºÏģá½°":5829,"ĠÏĢÏģá½½ÏĦÏīÎ½":5830,"Ġá¼ĲÎ½Î±Î½ÏĦÎ¯Î¿Î½":5831,"á½µÏĥÎµÏĥÎ¹Î½":5832,"ĠÏĥÎºÎµÏħÎ±":5833,"ĠÏĢÏģÎ¿Ïĥá½³ÏĦÎ¹":5834,"ace":5835,"ÎºÎ¿Î¼":5836,"ĠÏĥá½°ÏģÎ¾":5837,"Î²Î·ÏĥÎ±Î½":5838,"á½µÏĥÎ¿Î¼ÎµÎ½":5839,"á½¹Î½Î¿ÏĤ":5840,"ĠÎ¼ÎµÏĥ":5841,"Ïģá½¹ÏĦÎµÏģÎ¿ÏĤ":5842,"Î¿Î»á½¹Î³":5843,"ĠÏĢá½¹Î»Îµ":5844,"Ġá¼ģÏĢÎ±Î»":5845,"á½¡ÏĥÎ±á½»ÏĦÏīÏĤ":5846,"Î¸á½³Î½ÏĦÎ¿ÏĤ":5847,"Î¸ÎµÏģÎ¼Î±":5848,"ĠÎ´Î¹Î¿ÏģÎ¹ÏĥÎ¼":5849,"ĠÏĥÏħÎ»Î»Î¿Î³":5850,"ĠÎ£Î±Î»ÏīÎ¼á½¼Î½":5851,"Ġperhaps":5852,"Î¼ÎµÏģ":5853,"ÏīÎ¼á½³Î½ÏīÎ½":5854,"ĠÎ´ÏģÎ±":5855,"á½¹ÏĦÎµÏģÎ¿ÏĤ":5856,"á½µÎ¼Î±ÏĥÎ¹":5857,"ĠÎ¸ÏĤ":5858,"á¿¦ÏĦÎ±Î¹":5859,"ĠÏĢÎ¿ÏģÎµÏį":5860,"Ġá¼ĲÎ¾Î¹":5861,"Ġá¼¡Î¼Îµ":5862,"Ġá¼ĲÎ³ÎŃÎ½":5863,"ĠÎ¸ÎµÏģÎ¼á½¹ÏĦÎ·ÏĦÎ±":5864,"á½ħÏĥÎ¿Î¹":5865,"ĠÎ»á½³Î³Ïī":5866,"ĠÎ´ÏĮÎ¾Î±Î½":5867,"ĠÎ¶Ïīá¿ĨÏĤ":5868,"Ġá¼¡Î»Î¹Îºá½·Î±ÏĤ":5869,"Ġá½ģÎ¼Î¿Î¹Î¿Î¼":5870,"ĠÎ´ÎµÏħÏĦá½³ÏģÎ¿Ïħ":5871,"ĠÎ³ÎµÎ³ÎµÎ½Î·":5872,"mpv":5873,"á¼¶":5874,"Î¹Î´":5875,"Ġá¼Ģá½³ÏģÎ±":5876,"Î¿á¿¦Î¼Î±Î¹":5877,"ĠÎµÏīÏĤ":5878,"ĠÏĨá¿¶ÏĤ":5879,"ĠÏĦÎµÏĦÏĦ":5880,"ĠÏĢÎ¿ÏģÎµá½»":5881,"ĠÎ´Î¹Î±Î³Î¹Î½":5882,"ĠÎ½Î¹Îº":5883,"Ġá¼ĲÏĢÎ¹ÏĦÏģá½³":5884,"ĠÎºÎ±ÏĦÎ±ÏĥÏĩ":5885,"Ġá½ĦÎ³Îº":5886,"ĠÎ³á½³Î½Î·":5887,"Î´á½³ÏĤ":5888,"ĠÎķá½Ĳ":5889,"Î»Î±Î¼Î²Î±Î½":5890,"ĠÏĩÎµÎ¹Î¼á¿¶Î½Î¿ÏĤ":5891,"Ġlike":5892,"Îµá½ĶÎ´Î·Î»Î¿Î½":5893,"ÏĢÎ±ÏĤ":5894,"Î¼á½µÎ½":5895,"ĠÎºá½±Ïģ":5896,"Î³Î±Ïģ":5897,"ÏĨá½·":5898,"ĠÎ±Î³Î±":5899,"ĠÎ¿ÏħÏĦ":5900,"ĠÎµÎ±Î½":5901,"Ġá¼ĶÏĦÎµ":5902,"á½ºÏ²":5903,"ĠÎ´Î¹Î±Î¸Î®":5904,"ĠÎ½Î·":5905,"Ġá¼ķÎ¾ÎµÎ¹":5906,"ĠÎ¾Ïį":5907,"ĠÎ´ÎµÏĥÎ¼":5908,"one":5909,"ĠÏĥÏħÎ¼ÏĢá½±":5910,"Ġá¼¸ÏīÏĥ":5911,"ĠÎ»Î¿Î¹ÏĢá½¸Î½":5912,"Ġá¼ĢÎ½Î±ÏĦÎ¿Î¼á¿ĨÏĤ":5913,"ip":5914,"Ïĭ":5915,"Î¹ÏĥÏĦÎ¹Îº":5916,"Ġá¼ĲÏĩÎ¸":5917,"ĠÏĢá½»":5918,"ÎµÎ¹Î¿Î½":5919,"Î»Î»Î¹Î¿Î½":5920,"Î²á½±Î½Î·ÏĤ":5921,"ĠÎ²Îµ":5922,"Î¹Îºá½°":5923,"Î¹Îºá½´Î½":5924,"á½¼Î¸":5925,"ĠÏĥÎ¼Î¹ÎºÏģá½¸Î½":5926,"ĠÎ¸ÎµÏģÎ±ÏĢÎµá½·Î±Î½":5927,"Ġá½łÎ½á½¹Î¼Î±":5928,"ÎµÏĥÎ¸Î±á½·":5929,"ĠÏĥÏĢÎ¿Ïħ":5930,"ĠÏĨÎ¹":5931,"Ġá½ĢÎ³":5932,"ĠÎºÎ±Î¸á½±Ïģ":5933,"Ġá¼ĢÎ½Î±ÏĦÎµ":5934,"ĠÏĢÎ±ÏģÎ±Î´Îµá½·":5935,"Ġá½ĳÏĢÎ¿ÏĥÏĦ":5936,"ĠÎ¸ÎµÏģÎ¼á½°":5937,"ĠÎ¿á½ĲÏĩá½¶":5938,"ĠÎºÎ±ÏģÎ´Î¯Î±ÏĤ":5939,"Î»Î±Î²á½¼Î½":5940,"Ġá¼ĢÏģÏĦÎ·Ïģá½·Î±Î¹ÏĤ":5941,"ĠÏĥÏĨÏħÎ³Î¼Î¿á¿¦":5942,"Î¿á½ĹÏĦÎ¿Î¹":5943,"ĠÏĥá½±ÏģÎºÎ±":5944,"ĠÏĢÎ»á½±ÏĦÎ¿ÏĤ":5945,"á¼ĲÏĢÎµÎ¹Î´á½´":5946,"Ġá¼ĢÏĥÎ±ÏĨ":5947,"ÏĨÏģÎ±":5948,"ÏĥÏĦÎ·ÏĤ":5949,"Ġá¼ĲÎ½ÎŃ":5950,"Î»Î±á¿ĸÏĤ":5951,"Ġá½ĦÏģÎ¿ÏĤ":5952,"ĠÎľá½´":5953,"Ġá¼ĲÏģÎµá¿ĸ":5954,"ĠÏĢÏĮÎ»ÎµÏīÏĤ":5955,"ĠÎ´Î¹Î±Î¸á½³ÏĥÎµÏīÎ½":5956,"ĠÎ³ÎµÎ³ÏģÎ±Î¼Î¼á½³Î½ÏīÎ½":5957,"ĠÎ²Î¹Î²Î»á½·á¿³":5958,"ĠÏĥá½»Î½Î¸Îµ":5959,"ĠÏĢÏģÎ¿ÏĥÎ¸Îµá¿ĸÎ½Î±Î¹":5960,"resent":5961,"ĠÎ¼á½³Î³Î±ÏĤ":5962,"ĠÏĢÏģá¾¶Î³Î¼Î±":5963,"Ġá½ĢÎ½Î¿Î¼Î¬Î¶":5964,"ÏĥÎ¯Î±Î½":5965,"ĠÎºÎ±ÏĢÎ½":5966,"ÏĩÏģÎ¿Î½":5967,"Î¿ÏħÎ²":5968,"Ġá¼ĲÎ½á½³":5969,"Ġá¼ĲÎ½ÎµÏĥÏĦ":5970,"Î¿Î¼ÏĨÎ±":5971,"ĠÏĦÏģÎ¹Î±Îº":5972,"ÎµÎ¯Î´":5973,"ĠÎ¸Î±ÏħÎ¼á½±Î¶":5974,"ĠÏĥÎºá½³Î»Î¿ÏĤ":5975,"ĠÎºÎ½á½µÎ¼Î·ÏĤ":5976,"ĠÏĢÎ¿Î»ÏħÎµÎ¹Î´":5977,"ĠÏĦÎµÏĦÎ±Î³":5978,"ĠÏĦá¼ĢÎ½Î±Î½ÏĦá½·Î±":5979,"ĠÏĥá½µÎ¼ÎµÏģÎ¿Î½":5980,"ÏīÎ½Î±":5981,"Ġá¼ĶÎ¾":5982,"ĠÏĨÏģ":5983,"ĠÏĩÏģÎµ":5984,"Ġá¿¥Îµ":5985,"Ġá¿¥Î·Î¸":5986,"Ġá¿¥Îµá½»":5987,"ÏĦÏģá¿³":5988,"ÏĥÏīÏĥÎ¹Î½":5989,"ĠÎ¼ÎµÏĦÎ±Î²":5990,"ĠÎºá½»ÏĥÏĦÎµÏīÏĤ":5991,"ĠÏĢÏħÏģÎµÏĦÎ¿á¿ĸÏĤ":5992,"Îºá½¹ÏĦÎ±":5993,"sel":5994,"ĠÎ³Î±ÏĥÏĦá½´Ïģ":5995,"ĠÎĿÎ±":5996,"Ġá½łÏĨÎµ":5997,"Ġone":5998,"Ġexc":5999,"ĠÎ²Î±ÏĥÎ¹Î»Îµá¿ĸÏĤ":6000,"Î¿á¼·":6001,"ĠÏĢÎ¿Î»ÎµÎ¼":6002,"ĠÏĥÏĦÏģÏħÏĨ":6003,"Î½Î·ÏĥÎµÎ½":6004,"Ïģá½°ÏĤ":6005,"ÏĥÎ·Î¼Î±":6006,"Î¸Î¿Î¹ÏĤ":6007,"Ġá¼ĢÎ²":6008,"ĠÎµÎºÎ±":6009,"Ġacc":6010,"Ġá¼¡Î¼Î¹":6011,"Ġá¼ĢÏĢÎ¿ÏĦÎµ":6012,"Ġscr":6013,"ĠÏĦÎ¹Î½á¿¶Î½":6014,"Ġá½ĳÎ³ÏģÎ¿á¿¦":6015,"Ġ38":6016,"ĠÏĨÎ±Î³":6017,"ence":6018,"ĠÎ¿á¼¶Î½Î¿ÏĤ":6019,"ĠÎµá¼°Ïĥá¿ĨÎ»Î¸ÎµÎ½":6020,"Î¿Î¼ÎŃÎ½Î·":6021,"ĠÏĩÎµá¿ĸÏģÎ¿Î½":6022,"ĠÏĥÎ¼á½»ÏģÎ½Î·ÏĤ":6023,"ĠâĦµB":6024,"Î¹ÏĥÏĦá¿ĨÏĤ":6025,"ĠÏĥá½»Î½Î´Îµ":6026,"ÏħÏĢÏĦ":6027,"ĠÎºÎ±á½»":6028,"Î¿á¿¶Î½":6029,"á½±Î½ÎµÏĦÎ±Î¹":6030,"á½µÎºÎµÎ¹":6031,"á½µÏĥÎ¿Î¼Î±Î¹":6032,"Ġá¼ĲÏĢÎ¹ÏĥÏĢ":6033,"ĠÏĦá¿ĩÎ´Îµ":6034,"Ġá¼ĢÏĢÎ¿Î»":6035,"ÎºÎ¿Î½ÏĦÎ¿ÏĤ":6036,"Ïĥá½·á¾³":6037,"ĠÎ³Î¹Î½á½¹Î¼ÎµÎ½Î¿Î½":6038,"Ġá½ĢÎ½Î¿Î¼á½±Î¶ÎµÏĦÎ±Î¹":6039,"ĠÎ³ÎµÎ³ÏģÎ±Î¼Î¼á½³Î½Î±":6040,"ĠÎ±á¼°ÏĥÎ¸á½µÏĥÎµÏīÏĤ":6041,"ÎºÎ±Î¸Î±Ïģ":6042,"Ġá¼ĳÎ²Î´Î¿":6043,"Ġá½ħÎ¼Î¿Î¹Î¿Î½":6044,"ĠÎ½ÏīÏĦÎ¹Î±á½·Î¿Ïħ":6045,"ĠÎ²Î¿Î·Î¸Î·Î¼á½±ÏĦÏīÎ½":6046,"ast":6047,"máµį":6048,"ĠÏĢá¿ĨÏĩ":6049,"Î¾á½·":6050,"ÏģÎ¹ÏĤ":6051,"ĠÎ²Î»Î¬":6052,"Ġá¼ĲÎºÎ¸":6053,"Ġá½ĳÏĢá½³":6054,"ĠÎ½á½³":6055,"Î¿á¿¦Î½ÏĦÎ¹":6056,"Î»á½·ÏĥÎº":6057,"ÎµÎ»á¿¶Î½":6058,"ĠÎ»á½¹Î³Î¿ÏħÏĤ":6059,"ĠÎ»á½³Î³Î¿ÏħÏĥÎ¹Î½":6060,"ĠÏĢÎ½ÎµÏħÎ¼Î±":6061,"Ġá¼łÎ³":6062,"ĠÎ¿á¼°ÎºÎµá¿ĸÎ¿Î½":6063,"ĠBáµĥáµĩU":6064,"ĠÎ¸Î±Î»á½±":6065,"ĠÂ¶":6066,"ĠÎ½ÏħÎºÏĦá½¸ÏĤ":6067,"Ġá¼¸Î±Îºá½¼Î²":6068,"ÏĢÎ½ÎµÏħ":6069,"ÏĥÎ¸Î·Ïĥ":6070,"Ġá¼ĦÎ³Î³ÎµÎ»":6071,"Ġá¼ĲÎ¾Î±Ïģ":6072,"ÏĦÏģÎ¯":6073,"Î¸ÎµÏĥÎ¸Î±Î¹":6074,"Î¬Î½Î¿Ïħ":6075,"ĠÎ¼á½¹Î½Î¿Î¹ÏĤ":6076,"ÏĥÎ¼Î¿Ïħ":6077,"Ġá¼ĲÏģÎ¿á¿¦Î¼ÎµÎ½":6078,"Ġá½ĢÎ»á½·Î³Î±":6079,"ĠÎºÎ±Îºá½¸Î½":6080,"ress":6081,"Ġá¼ĲÎºÎºÎ»Î·Ïĥ":6082,"ose":6083,"ÏģÎ¹Î½":6084,"Î¸Îµá½·Î·":6085,"á½·ÏĥÏĦÎ·":6086,"ĠÏĥÎ¹Îº":6087,"ÏįÏĩ":6088,"Ġá¼ĢÎ½ÏĦá½·":6089,"ĠÎ´Î¹Î±Î»Îµá½·":6090,"ÏģÎ¿ÏĦá½±":6091,"han":6092,"ĠÎ²Î±ÏĥÎ¹Î»á½³ÏīÏĤ":6093,"Ġá¼ĢÏĨÎ±Î¹Ïģ":6094,"Î¯Î½ÏīÎ½":6095,"ĠÏĢá½³ÏĪÎµÏīÏĤ":6096,"ÎŁÎĿ":6097,"â¸ĥ,":6098,"á¼¢Î½":6099,"ĠÏĢÏģÎ¿ÏĥÎµÏħÏĩ":6100,"ĠÎ¶á¿¶Î±":6101,"Ġá¼ĢÎ½Î´Ïģá½¸ÏĤ":6102,"ĠÎ´Î¹á½±ÏģÎ¸ÏģÏīÏĥÎ¹Î½":6103,"á¼ł":6104,"Ïģá½½":6105,"ÏĥÎ·ÏĦÎ±Î¹":6106,"Îºá½¼ÏĤ":6107,"ĠÎ±á½ĲÏĥÏĦÎ·Ïģ":6108,"Ġá½¡ÏĥÎµá½¶":6109,"Î¿Î»Î¿Ïĩ":6110,"ĠÎ¼á½³Î»Î±":6111,"ĠÏĢÎ¿Î¹á½µÏĥÎµÎ¹ÏĤ":6112,"Î»ÎµÎ¹ÏĨÎ¸":6113,"Ġá¼ĶÎ¼ÏĢÎ±Î»Î¹Î½":6114,"Ġá¼ĦÏģÏĦÎ¹":6115,"ĠÎ³Î¹Î½á½½ÏĥÎºÎµÎ¹Î½":6116,"Ġá¼ĲÎ»ÏĢ":6117,"Ġprobably":6118,"20":6119,"ÏĥÎ¼á½³Î½Î¿Î½":6120,"Î¸Ïħ":6121,"Î´ÎµÎ¯":6122,"Ġá¼°ÏĩÎ¸":6123,"á½·Î½ÎµÏĦÎ¿":6124,"ĠÏĢÎµÏĥ":6125,"Ġá¼ĢÏĨÎ±Î¹":6126,"ĠÎ½á½¹ÏĥÎ¿Ïħ":6127,"ĠIsa":6128,"á½ĳÏĢÎ¿":6129,"ÏĦÎ¹Î½Î±":6130,"Ġá¼ĢÎ»Î·Î¸á½²ÏĤ":6131,"ĠÏĢÎµÏģÎ¹ÏĦÏĦá½½Î¼Î±ÏĦÎ±":6132,"ĠÏĥÏĦÎ±Î¸":6133,"ĠÎ¸á½³ÏģÎ¿ÏħÏĤ":6134,"Ġá¼ĢÎ½ÏīÎ¼Î±Î»":6135,"ĠãĢĪ":6136,"ÎµÎ½Î¹Î±":6137,"á¿ĨÎ½Î±á½·":6138,"ÏĥÏĦá½¹Î½":6139,"Î¾Î¬":6140,"Î²Î¿ÏĤ":6141,"ÎºÎ±ÏħÏĦ":6142,"Ġá¼ĢÎ½Î±ÏĨÎµÏģ":6143,"Ġá¼ĶÎ½Î¸ÎµÎ½":6144,"ÏħÎ»Î¿Î³":6145,"Ïĥá½·Î±Î¹ÏĤ":6146,"ĠÏĢá½¹Î»Î¹Î½":6147,"Ġá¼ĳÎ±ÏħÏĦá¿ĨÏĤ":6148,"ÏīÏģá½·Î±ÏĤ":6149,"ĠÏĢÎ»Î·ÏĥÎ¹":6150,"ĠÎ¼ÎµÎ¸á½¹Î´Î¿Ïħ":6151,"ĠÎ³ÏħÎ½Î±Î¹Îºá½¸ÏĤ":6152,"ĠÏĥÏĦÏģÎ¿Î³Î³":6153,"ĠÏĢÏģÎ¿Îµá½·ÏģÎ·ÏĦÎ±Î¹":6154,"Ġra":6155,"Î»Î¼":6156,"Ġá½ī":6157,"Ġá½Ļ":6158,"Î´Î±Ïģ":6159,"Î¿Î¹Î¼":6160,"Ġá½ħÏĥá¿³":6161,"ÏĥÎ±ÏĥÎ±":6162,"á½±Î½Î¿Î¹ÏĤ":6163,"ĠÎ´Î¹Î±Î¸á½µ":6164,"ĠÏĢÎ±ÏĦÏģÎ¹":6165,"ÏĥÏĦÎ±Î»":6166,"ĠÏĢÎ¿Î¹á½¹ÏĦÎ·ÏĦÎ¿ÏĤ":6167,"Ġá¼ĪÏģ":6168,"Î¼ÎŃÎ½Î¿Î¹ÏĤ":6169,"ĠÎ¼ÎŃÏģÎ¿ÏĤ":6170,"ĠÎ¾Î·Ïģá¿¶Î½":6171,"ĠÎ´á½·Î±Î¹":6172,"ĠÎ´Î¹Î±ÏĨÎ¿Ïģá½°Î½":6173,"ĠÎ³Î¹Î³Î½á½¹Î¼ÎµÎ½Î¿Î½":6174,"ĠÎĶÎ±ÏħÎµÎ¯Î´":6175,"Î¸á½³Î½ÏĦÎ±":6176,"ÏĦÏĦÏīÎ¼Î±":6177,"ÏĢÏģá¿¶ÏĦÎ¿Î½":6178,"Ġá¼ĦÎ»Î»Î·Î»Î±":6179,"ever":6180,"á¼©":6181,"ĠÎ´á¿¶":6182,"Î¿ÏħÎ¼á½³Î½Î¿Ïħ":6183,"ÏĪá½»":6184,"ĠÎ²Î»Î±":6185,"ĠÏĢÏģÎ¿Î³Î½":6186,"Ï²Î±":6187,"Ġá¼ĢÎ»Î»Î¿á½·":6188,"á½·Î½Î·Î½":6189,"ÏĦÎ¿ÏħÏģÎ³":6190,"ĠÎ±á¼°Î³":6191,"ĠÎºÎµÏĨá½±Î»":6192,"Ġmore":6193,"ĠÎºÎ¹Î½Îµá¿ĸÏĥÎ¸Î±Î¹":6194,"á½·Î¶ÎµÏĥÎ¸Î±Î¹":6195,"Ġá¼ĲÏģÏī":6196,"Ġá¼ĳÎ±ÏħÏĦá½¸":6197,"ĠÏĥÏīÏĦÎ·Ïģ":6198,"ĠÎ´Î¹Î±ÏĥÏĦá½³Î»Î»":6199,"ĠÎµá½ĳÏģá½µÏĥÎµÎ¹ÏĤ":6200,"Ġá¼ĢÎ¼ÏħÎ´":6201,"Ġá¼ĶÏĥÏĩÎ±":6202,"ĠÏĢá½µÏĩÎµÏīÏĤ":6203,"un":6204,"ĠÎ´Îµá¿ĸÏĥÎ¸Î±Î¹":6205,"á½·Î¿ÏħÏĤ":6206,"ÏĩÎµá½·":6207,"ÏĨÏħÎ»":6208,"ĠÎ±á½ĲÎ¾Î±Î½":6209,"Ġá¼ĲÎ½Î´á½³ÏĩÎµÏĦÎ±Î¹":6210,"ÎŃÎ»":6211,"ĠÏĨá½¹":6212,"Ġá½ĢÎ¸Î¿Î½":6213,"Ġá¿¥á½³":6214,"ĠÎºÎ±ÏĦÎ±Î²":6215,"ĠÏĢÎ¿Î¹Î·":6216,"ĠÎĻÎµ":6217,"ĠÎ¸ÎµÏģÎ¼á½¹Î½":6218,"ĠÎ»ÎŃÎ³Ïī":6219,"ĠÏĢÎ¿Î½Î·":6220,"ĠÎ»Î±Î¼Î²á½±Î½":6221,"ĠÎľÏīÏħÏĥá¿ĨÎ½":6222,"ĠÎ¸Î±Î»Î¬":6223,"ĠÎ´ÏħÎ½Î¬Î¼ÎµÏīÏĤ":6224,"Ġá½ĢÎºÏĦá½¼":6225,"Báµĥ":6226,"ix":6227,"ÏīÏĥÎ±Î½":6228,"Î¸á½±":6229,"Î¸á½³Î½Î±Î¹":6230,"ĠÎ¼Î¿Î½":6231,"ĠÎ¼Î±ÏĥÏĦ":6232,"Î²Î¿Î½":6233,"ÏģÎ¹ÏĥÎ¼Î±":6234,"á½¹Î½Î±Î¹":6235,"á¿¦ÏĥÎ¹Î½":6236,"Ġá¼ĢÎ½ÏĦÎ±":6237,"ĠÎ´Î¹Î±ÏĢÎ»á½±":6238,"Ġout":6239,"Ġá¼ĲÏĢÎ¹Î´":6240,"ÏĥÎºÎµÎ¹":6241,"ĠÎ¸ÎµÏīÏģ":6242,"ĠÏĦÎ¿Î¹Î¿Ïį":6243,"ĠÏĢá½¹Î»ÎµÎ¹ÏĤ":6244,"ĠÎĿÎµ":6245,"Ġá½ģÎ´á¿·":6246,"ĠÎ¼Î¹á¾·":6247,"Ġá¼ĶÎ¸Î½ÎµÏĥÎ¹Î½":6248,"ĠÏĢÏģÎ±Î³Î¼Î±ÏĦÎµá½·á¾³":6249,"ĠÏĢá½±ÏĥÏĩÎµÎ¹Î½":6250,"ĠÏĥÏĦÎ¿Î¹ÏĩÎµá¿ĸÎ±":6251,"ÏĥÏĥÎ±ÏģÎµÏĤ":6252,"ĠÎ²Î»á½±Î²Î·Î½":6253,"ĠÎ¼ÎµÎ³á½³Î¸Î¿ÏħÏĤ":6254,"ĠâĢľ":6255,"'s":6256,"ÏĦá½´":6257,"ÏħÎ³Î³Î¿ÏĤ":6258,"ĠÎ±Î»Î»":6259,"ĠÎ³Î¿Î½":6260,"ĠÎ´Î¹ÎŃ":6261,"ĠÎ²á½¹":6262,"Ġá½ĳÏĢÎ·ÏģÎµ":6263,"Ġaf":6264,"ĠÎ±á¼°ÏĥÏĩ":6265,"ĠÎ½Îµá½»Ïģ":6266,"Ġá¼ĲÎºÎµá½·Î½á¿ĥ":6267,"Ġá¼ĲÎ»Î¬":6268,"ĠÎ¿á¼°ÎºÎµá½·Î±ÏĤ":6269,"ĠÎµÎ¹ÏĢÎµÎ½":6270,"Î²Î¿Î»Î¿á½ºÏĤ":6271,"ĠÎ´ÎŃÎºÎ±":6272,"á½·ÏĥÏĦÎ±ÏĥÎ¸Î±Î¹":6273,"III":6274,"Ġá¼ĲÏĥÏĩá½±ÏĦÏīÏĤ":6275,"Ġá¼ĲÏĢÎ¹ÏĦÎ·Î´Îµ":6276,"ĠÏĥÎºÎ¹á¿¤á¿¥":6277,"Ġá½ķÏĪÎ¿ÏĤ":6278,"ĠÏĥÏĦá½³Î±Ïģ":6279,"Ġtaken":6280,"ÎºÏī":6281,"á¿ĨÎ½Î±":6282,"Î¼Î±Ïĩ":6283,"Ġá¼ĲÎ½Î¯":6284,"Ġá¼Ħá¿¤á¿¥Ïī":6285,"Î®ÏģÎ¹Î¿Î½":6286,"ÏģÎ·ÏĥÎ¹Î½":6287,"Ġá¼ĢÎ½Î±á½·":6288,"ĠÏĢÎ¿Î»á½»":6289,"ÏĩÏģÎ¹Îµ":6290,"ĠÎ¼Î±ÏĥÏĩ":6291,"Ġá¼ĲÏģÎ³á½±ÏĥÎ±ÏĥÎ¸Î±Î¹":6292,"ĠÏĨÏīÎ½á½´":6293,"ĠÎ¼Î¹Ïĥ":6294,"ĠÎºÎ±ÏģÏĢÎ¿á¿¦":6295,"ĠÎ³Ïģá½±ÏĨÎµÎ¹":6296,"ĠÎ»Î¹Î¸Î±ÏģÎ³á½»ÏģÎ¿Ïħ":6297,"ĠÎ´ÎµÎ¹ÎºÎ½":6298,"ĠÏĨÎ¬ÏģÎ¼Î±":6299,"Î»ÎµÎ½":6300,"Î¼Î¼Î±ÏĦÎ±":6301,"á½»ÎµÏĥÎ¸Î±Î¹":6302,"Î¯ÏĥÏī":6303,"ÏĥÎ±ÏĥÎ¸Îµ":6304,"Ġá½ĳÏĢÎŃÏģ":6305,"ĠÏĢÎµÏĨÎ¸":6306,"ĠÎ¸ÎµÏģÎ¼á½¹ÏĦÎµÏģÎ¿Î½":6307,"ĠÎ³á½³Î½ÎµÏĥÎ¹ÏĤ":6308,"ÏĦá½³ÏĤ":6309,"Ġá¼ĢÏģÏĦÎ·Ïģá½·Î±Î¹":6310,"ĠÎ´á½·ÎºÎ±Î¹":6311,"ĠÏĥÎ·Î¼Îµá½·ÏīÎ½":6312,"Ġá¼ķÎ»ÎºÎ·":6313,"ĠÏĢÏħÎºÎ½á½¸Î½":6314,"ĠÏĢÎ»ÎµÎ¿Î½ÎµÎº":6315,"ÎºÏģÎ¹ÏĥÎ¹Î½":6316,"ĠÏĢÏģÎ¿ÏĥÎºÏħÎ½":6317,"á½±ÏĥÎ±Î¹":6318,"ĠÎ³Î·Î½":6319,"á½µÎ¸ÎµÎ¹Î±Î½":6320,"Ġá¼ĦÎ»":6321,"Ġá¼ĢÎ½á½½Î¼Î±":6322,"ÏĥÎºÎµá½»Î±":6323,"Ïģá½±ÏĦÎ¿Ïħ":6324,"Î¸Î·ÏĥÎµÏĦÎ±Î¹":6325,"ÏĥÎ¼Î¿ÏĤ":6326,"Ġá½ķÎ»Î·Î½":6327,"ĠÏĢá½±Î¼ÏĢÎ¿":6328,"ĠÎ¼ÎµÎ³á½±Î»Î±":6329,"ĠÎ²Î±ÏĥÎ¹Î»ÎµÏħÏĤ":6330,"ĠÎļÏįÏģÎ¹Î¿Î½":6331,"ĠÎºÎ±ÏģÎ´Î¯Î±":6332,"ĠÎºÎµÎ½á½½ÏĥÎµÏīÏĤ":6333,"ÏĥÎºÎµÏħÎ±Ïĥ":6334,"ĠÏĩÎ±Î»Î±Ïģ":6335,"ĠÏĩÏģá¿ĨÏĥÎ¹ÏĤ":6336,"ĠÎµá½ĲÏĨÏģÎ¿Ïĥ":6337,"Ġá¼ĲÎ¼ÏĢÎµÎ¹ÏģÎ¹Îº":6338,"Ġá¼ħÎ³Î¹Î¿Î½":6339,"Ġá½ĳÏĢÎ¿Ïĩá½¹Î½Î´":6340,"ĠÎ¸Ïį":6341,"Ġam":6342,"ĠÎ³ÎµÏī":6343,"Ġá¼ģÎ»á¿¶Î½":6344,"red":6345,"Î½Î¿á½ºÏĤ":6346,"ĠQa":6347,"ĠÎ·á½Ĳ":6348,"Î²Î±á½·Î½ÎµÎ¹":6349,"Ġfoll":6350,"ĠÏĢÏģá½½ÏĦÎ·":6351,"ĠÎ¼Î±Î»á½±":6352,"ĠÎ½á½¹ÏĥÎ¿Î½":6353,"ĠÎ¼ÎµÎ³á½±Î»Î·ÏĤ":6354,"ĠÎ¼á½³Î»Î¹ÏĦÎ¹":6355,"ĠÏĪá½»Î¾Î¹Î½":6356,"Ġá¼ĢÏħÏĦá¿¶":6357,"ĠÎĴÎ±Î¹Î¸":6358,"ĠÎ¼Î¬Î»Î¹ÏĥÏĦÎ±":6359,"ĠÏĢÎ±Î¼ÏĢá½¹Î»Î»":6360,"Ġá¼ĲÎ½á½½ÏĢÎ¹Î¿Î½":6361,"ÏĥÎ¯Î½":6362,"ĠÏĦÎ±Î¹ÏĤ":6363,"Ġá¼ĲÎ¶":6364,"ĠÎ´Î¿Î³":6365,"Î¹Î½Îµ":6366,"ĠÏĥÏĢÎ±Î½":6367,"á½»ÏĦÎµÏģÎ¿ÏĤ":6368,"ÏĥÏĦá½¸Î½":6369,"Î½Î±ÎºÎ¿ÏĤ":6370,"ĠÎ¼ÎµÎ»Î¹Îº":6371,"á½±Î½Î±ÏĤ":6372,"Ġá¼ĢÎ½ÏĦ":6373,"ÏĦÎ¹Îºá½¸ÏĤ":6374,"Ġá¼¤Î½":6375,"Ġince":6376,"Î»á½³Î¸":6377,"á¼ĶÏĥÏĦÏī":6378,"ĠÏĦá½±Î´Îµ":6379,"ĠÎ²Î¿ÏħÎ²":6380,"Ġá¼ĵÎ¾":6381,"Î²Î±Î»ÎµÎ½":6382,"ĠÎ³Î¯Î½ÎµÏĦÎ±Î¹":6383,"ĠKings":6384,"Qáµĥ":6385,"Î¿Î»ÎµÎ¸":6386,"ÏĥÎ¼Î±ÏĦÎ¿ÏĤ":6387,"ĠÏĢÏĦá½»":6388,"Î´Ïį":6389,"á½±Ïĥá¿ĥ":6390,"á½¹ÏĦÎµÏģÎ¿Î¹":6391,"á½»Î½ÎµÎ¹Î½":6392,"á½µÏĥÎ±ÏĥÎ¸Î±Î¹":6393,"ĠÎ¿á½ĲÏĥá½·Î±":6394,"Ġá½ħÏĢÎ¿Ïħ":6395,"Ġá¼ķÏĪ":6396,"Ġá¼¸Î¿ÏģÎ´":6397,"ĠÎ¶á¿´":6398,"ĠÎ»Î±Î¼ÏĢ":6399,"ĠÎ¹Î²":6400,"ĠÏĢÎ±Î¹Î´Îµ":6401,"ĠÎ»ÏĮÎ³á¿³":6402,"ĠÏĦÏĮÏĦÎµ":6403,"ÏĦÏĦÎµÏĦÎ±Î¹":6404,"ĠÏĨÎ»ÎµÎ²Î¿ÏĦÎ¿Î¼á½·Î±ÏĤ":6405,"á½³ÏģÏĩÎµÏĥÎ¸Î±Î¹":6406,"ĠÏĥá½»Î¼Î¼ÎµÏĦÏģÎ¿ÏĤ":6407,"ĠÎ´Î¿á¿¦Î½Î±Î¹":6408,"ĠÏĢÎ±Î½ÏĦÎµÎ»á¿¶ÏĤ":6409,",'":6410,"Î¹ÏĥÏĦÎ±":6411,"ĠÏĢÎ½":6412,"ĠÏĨá½±Î³":6413,"á½½ÏĦÏīÎ½":6414,"ÏįÏīÎ½":6415,"ÏħÎ½ÏĦÎ±Î¹":6416,"Ġá¼ķÎ¾Î¹Î½":6417,"ĠÏĢÎ±Ïģá½¹Î½ÏĦÎ±":6418,"ĠÎĶÎ±":6419,"ĠÎºÎµÏĨÎ±Î»á½´":6420,"Î»Î±Î²ÎµÎ½":6421,"ĠÏĢÎ»Î·Î¼Î¼Îµ":6422,"ĠÏĦÎŃÎ»Î¿ÏĤ":6423,"ĠÎ´ÎµÏħÏĦá½³ÏģÎ±ÏĤ":6424,"Î¿á½ĶÎºÎ¿ÏħÎ½":6425,"ĠÎ¼Î·Îºá½³ÏĦÎ¹":6426,"ĠÏĦá½³ÏĦÎ±ÏģÏĦÎ¿Î½":6427,"ÏĥÎ¿":6428,"á½±ÏĥÎ±ÏĤ":6429,"Ġá¼ĲÎ½Î½Î¿":6430,"Ġá¼ģÏģ":6431,"ÏīÏģÎ¿Î½":6432,"Î´ÎµÎ¹Î³":6433,"ĠÏĢÏħÏģÎµÏĦÎ¿á½¶":6434,"ÏĥÏĦÎ·Î¼Î±":6435,"ĠAQÎĵ":6436,"ĠÎºÎ±ÏĦá½±ÏĥÏĦÎ±ÏĥÎ¹Î½":6437,"Ġá¼ĲÎ½Î±Î½ÏĦá½·Î±":6438,"ĠÎ¼Îµá½·Î¶ÏīÎ½":6439,"Ġá¼ĦÏģÎ¸ÏģÏīÎ½":6440,"ĠÎ´Î¹Î±ÏĨÎ¸Îµá½·":6441,"ĠÎ´Î±ÏĪ":6442,"ĠÎ¼Îµá¿ĸÎ¶Î¿Î½":6443,"ĠÏĦÎµÏĦÏĦá½±ÏģÏīÎ½":6444,"ÏĢÎ±Î¹":6445,"ÎºÏĦÎµÎ¹Î½":6446,"ĠÎºÎ±ÏĦÎ¿":6447,"á½±Î»Î·":6448,"ĠÎµÏĥÏĦÎ±Î¹":6449,"Î¾á½·Î±Î½":6450,"Î¬Î¼":6451,"ÏĢÎµá½»":6452,"ĠÏĢÎ»Î±Î½":6453,"Î¼Î¿Î¯":6454,"Ġinf":6455,"Î¼Î¹Î±":6456,"á½·Î¶ÎµÏĦÎ±Î¹":6457,"Ġbefore":6458,"Ġá¼ĦÏģÏĦÎ¿Î½":6459,"Ġá¼ĢÏģÏĦÎ·Ïģá½·Î±":6460,"ĠÎ³Î»á½½":6461,"ĠÎ²Î¹Î²Î»Î¯":6462,"ĠÎ´Î¹Î´Î¬":6463,"Î»Î±Î¼Î²á½±Î½ÎµÎ¹Î½":6464,"ĠÏĢÏģÎ¿ÎµÎ¹ÏģÎ·Î¼á½³Î½ÏīÎ½":6465,"Ġá½ĢÎ»á½·Î³á¿³":6466,"Ġá¼ĶÎ»ÎµÎ¿ÏĤ":6467,"ult":6468,"ĠÎ´ÎµÏħÏĦá½³Ïģá¿³":6469,"ĠÎ§ÏģÎ¹ÏĥÏĦÎ¿á¿¦":6470,"ĠÎ²ÎµÎ²Î±":6471,"oin":6472,"Î»á½¹":6473,"ĠÎ±Ïģ":6474,"ĠÎ³Î¬":6475,"Î¼Î±á¿ĸÏĤ":6476,"Î¯Î½ÎµÏĦÎ±Î¹":6477,"ĠÏĩÎµÎ¯":6478,"ĠÏĩÏģá¿ĨÎ½Î±Î¹":6479,"Î¿Î¼Î¿Î»Î¿Î³":6480,"Î³Î¿Î½ÏĦÎ±Î¹":6481,"ĠÎ¼á½¹Î½ÏīÎ½":6482,"ĠÎ¼á½¹Î½Î¿ÏĤ":6483,"ÎºÎ¿Î¹Î½":6484,"Ġá¼ĲÏģá¿¶":6485,"ĠÏĦÎ±á½»ÏĦÎ±Î¹ÏĤ":6486,"ĠÏĥÏħÎ½ÎµÎº":6487,"á½½Î´ÏħÎ½":6488,"Îķá¼°":6489,"ÎºÎ±Î¸á½±ÏĢÎµÏģ":6490,"Ġá¼ĢÏĢÎŃÏĥÏĦÎµÎ¹Î»ÎµÎ½":6491,"ĠÎ»ÎµÎ¹ÏĦÎ¿ÏħÏģÎ³":6492,"ĠÎ¼Î®ÏĦÎµ":6493,"ĠÎ´ÏħÏĥÎºÏģÎ±Ïĥá½·Î±Î½":6494,"ations":6495,"ĠÎ±á½ĶÎ¾":6496,"Ġá¿¥Î¹Î½á¿¶Î½":6497,"Ġá¼ĢÎ½ÏīÎ¼á½±":6498,"ÎºÎ±Î¸Î±á½·":6499,"Ġá¼ĲÎ´á½·Î´Î±":6500,"ÏĦÏĦÎ·ÏĤ":6501,"ĠÎºÎ¿Î¼":6502,"Î´Î±Î½":6503,"ÏĥÎ¸Î±":6504,"Î»Î¹ÏĢÎ¿Î½":6505,"Î»Î¹ÏĢÎµÎ½":6506,"ÏģÎ³á½±":6507,"ĠÎ¼á½³ÏģÎµÏĥÎ¹Î½":6508,"ĠÎłÎ¿":6509,"Ġá¼ĢÎ¼ÏĨÎ¿ÏĦá½³ÏģÎ±ÏĤ":6510,"ĠÏĦÎ¿ÏħÏĦá½³ÏĥÏĦÎ¹Î½":6511,"ĠÏĥÏĦÎ¿Î¹ÏĩÎµá½·ÏīÎ½":6512,"Ġá¼±Î´Ïģá¿¶":6513,"ĠÏĦÏģÎ±Ïĩá½µÎ»Î¿Ïħ":6514,"Ġá¼Ħá¿¤á¿¥ÎµÎ½":6515,"ext":6516,"ne":6517,"á¿¶Î´á½³ÏĤ":6518,"á½½Î¼Î¿Ïħ":6519,"Î¼á½³Î½Î±Î¹":6520,"Î¹Îºá¿¶ÏĤ":6521,"ÏģÎ·Î¼á½±ÏĦÏīÎ½":6522,"ÏĥÏĩÏħ":6523,"ĠÏĢÎ±ÏģÎ·Î³":6524,"ĠÎµá½ĲÏĩ":6525,"ĠÎ£Ïħ":6526,"ĠÎľÎ±Î½Î±":6527,"Ġá¼ĲÎºÎµá¿ĸÎ¸ÎµÎ½":6528,"Ġá¼ģÎ¼Î±ÏģÏĦÎ¯Î±ÏĤ":6529,"ĠÏĢÎµÏģá½·ÏĦÏĦÏīÎ¼Î±":6530,"á¼ħÏĢÎ±Î½":6531,"ĠÏĥÏĢÎ¿Î½Î´á½»Î»ÏīÎ½":6532,"á½µÎ³Î·ÏĥÎ¹Î½":6533,"ĠÎ¼á½³Î¸Î¿Î´Î¿Î½":6534,"Ġá¼ģÎ¼Î±ÏģÏĦÏīÎ»":6535,"ossib":6536,"Ġá¼Ĩ":6537,"ĠÎ´á½½":6538,"á½³ÏĦÏī":6539,"Î³ÎµÎ¹Î½":6540,"ĠÏĩÏģá½µÏĥÎµÏīÏĤ":6541,"Ġá¼ĲÎ¾Î±Î¹":6542,"Î¼ÎµÎ³":6543,"Î»á½·Î±":6544,"ĠÏĢÏģá½¹ÎºÎµÎ¹ÏĦÎ±Î¹":6545,"ĠÎ¼Î·Î´ÎµÎ½á½¸ÏĤ":6546,"Ġá¼ĺÎ½":6547,"ĠÎ¼ÎŃÏĥÎ¿Î½":6548,"ĠÎ¶á½½á¿³":6549,"ĠÎµá½ĶÎ´Î·Î»Î¿Î½":6550,"ĠÎ³ÎµÎ³ÏģÎ±Î¼Î¼á½³Î½Î¿Î½":6551,"Ġreading":6552,"ĠÏĩÎµÏģÏĥá½¶Î½":6553,"Ġá¼ĶÎ¼ÎµÎ»Î»":6554,"ĠÎĹ":6555,"ĠÎºÎ¿Î½":6556,"Î´Î·Î½":6557,"Î¿ÏħÏĩ":6558,"ĠÏĥÎµÎ»":6559,"ĠÏĢÎ¿á½·":6560,"Ġá¼ĢÎ»Î»Î¿ÏĨ":6561,"ÏĦÎ¹Îºá¿·":6562,"ity":6563,"Î¼Î½á¿ĨÏĥÎ¸Î±Î¹":6564,"Ġá¼ĢÏĨÏģÎ¿":6565,"Ġhow":6566,"ĠÎ´á½¹Î¾Î±Î½":6567,"ÏĦÏħÎ»Î¿Î½":6568,"ÏĪÎ±Î½ÏĦÎµÏĤ":6569,"á½½ÏĦÎ±ÏĦÎ±":6570,"ĠÏĪá½»Î¾ÎµÏīÏĤ":6571,"ĠÏĢÎ»ÎµÎ¿Î½á½±Î¶":6572,"ĠÏħÎ¹Î¿ÏĤ":6573,"ĠÏĥÏħÎ¼Î¼á½³ÏĦÏģÏīÏĤ":6574,"Î·ÏĦá¿¶Î½":6575,"ÏĩÎµÎ¹Î½":6576,"Î¼Î±ÏĦá½·":6577,"Î¬Î´Îµ":6578,"Ġá½¡Ïģá¿¶Î½":6579,"ĠÎ´Î¹Î±ÏĨÎµÏģ":6580,"Ġá¼ĢÎ½Î±Î»á½±Î¼Î²Î±Î½Îµ":6581,"á¼ĢÎº":6582,"ĠÏĢÏģÎ¿Ïĥá¿Ĩ":6583,"ĠÎĻÎ¿ÏħÎ´Î±":6584,"á½»Î½ÎµÎ¹":6585,"ount":6586,"ÏħÎ¸á½·Î¿Ïħ":6587,"Ġá¼ĲÎ¼ÏĢá½·":6588,"ĠÎ¿ÏħÎ´Îµ":6589,"ĠÏĢÎ¬ÏĥÎ·ÏĤ":6590,"ĠÎ²ÏģÎ±Ïĩá½·Î¿Î½Î±":6591,"Ġá½ĳÏĢÎ¿Î¼Î½á½µÎ¼Î±ÏĥÎ¹Î½":6592,"Ġright":6593,"ven":6594,"word":6595,"Ġ:":6596,"ĠÎºÏĦ":6597,"ÏĨÎ¿ÏĤ":6598,"Ġá¼ĲÏĢá½±":6599,"ÎºÎ±Î¼":6600,"ÎºÎ±ÏĥÎ¹":6601,"ĠÎ²Î¬":6602,"Î·Ïĥá½¹Î¼ÎµÎ¸Î±":6603,"Ġá¼ĲÎ¾Î¿ÏħÏĥ":6604,"Ġá¼ĲÏĢÎ¹ÏĨÎ±Î½":6605,"Ġpara":6606,"Ġá¼ĢÏģÎº":6607,"ĠÏĢÎ»Îµá¿ĸÎ¿Î½":6608,"ÎĦ,":6609,"Î³Î½á½»":6610,"Ġá¼¦Î»Î¸Î¿Î½":6611,"ice":6612,"ÎĵÎĳÎĽÎĹÎĿÎŁÎ¥":6613,"Ġá¼ĢÎ»Î»á½µÎ»Î±Î¹ÏĤ":6614,"Ġá¼ĲÎ³á½³Î½Î¿Î½ÏĦÎ¿":6615,"Î±Î¸á½°Î½":6616,"ĠÏĦÎ¿ÏħÏĦá½³ÏĥÏĦÎ¹":6617,"ÎĶÎ¹":6618,"ĠÏĩÎ¹Î»Î¹Î¬":6619,"ĠÏĢÎµÎ¹ÏģÎ±":6620,"á¼µÎ½Î±":6621,"ĠÏĦÏħÎ³Ïĩ":6622,"ÎºÎ¿Î»":6623,"ĠÎºÎ±ÏĦÎµÏģ":6624,"Î·Î´":6625,"á½¹ÏĦÏīÎ½":6626,"ÎµÎ½á½¶":6627,"Îµá¿ĸÎ±Î¹":6628,"Ġá¼ĢÎ½Î¸":6629,"ÏģÎ·Î³":6630,"ĠÎºÎ±ÏĦÎ±ÏĢ":6631,"ĠÏĥÎºá½·":6632,"Î¼Î¿Ïģ":6633,"Ġá¼ĪÏĦ":6634,"ÏħÎ³Î³Î±":6635,"ĠÎľÎ±Ïģ":6636,"ĠÎºÏģÎ¬":6637,"ĠÏĦá½±ÏĩÎ¹ÏĥÏĦÎ±":6638,"Ġá¼ĲÏĩÎ¿á½»ÏĥÎ·ÏĤ":6639,"ĠÎºÎ±ÏģÎ´Î¯á¾³":6640,"ĠÎ§Î±Î½":6641,"ĠÎ±á¼µÎ¼Î±ÏĦÎ¹":6642,"ĠÎºÏģá½·ÏĥÎµÏīÏĤ":6643,"old":6644,"ĠÏĨÎ»á½³Î³Î¼Î±":6645,"ĠÏĦÎ¿ÏĥÎ¿á½»ÏĦá¿³":6646,"á½ĢÏĢá½·Î¿Ïħ":6647,"ĠÏĥÏĢÎ¿ÏħÎ´":6648,"ÏĢÏħÏģ":6649,"ÏĨÎµÎ»":6650,"á½µÏģÎ¹Î¿Î½":6651,"Ġá¼ĶÏĦÏħÏĩ":6652,"ĠÏĩÎµá½¶Ïģ":6653,"á½½Î¼ÎµÎ½Î¿Î½":6654,"Î±Î»ÎµÏģ":6655,"Î®Ï²":6656,"Î´ÎµÏĩ":6657,"Ġá¼ĦÎ»Î»Î¿Î½":6658,"ĠÏĢÏģá½¹Ïĥ":6659,"Î·Î¼Î¬ÏĦÏīÎ½":6660,"ÏģÎ¿ÏħÏģÎ³":6661,"ÏħÏĢÏĦÎ¿Î½":6662,"ĠÏĥÏĨÏħÎ³Î¼Î¿á½¶":6663,"ÏĥÏħÎ½Îµ":6664,"Î¿á¿ĨÏĥÎ±Î¹":6665,"ĠÏĨÏįÏĥÎ¹Î½":6666,"ĠÏĢÏĦÏīÏĩ":6667,"ts":6668,"ÏĢÎ¬Î½":6669,"á½µÎºÎ¿Î½ÏĦÎ±":6670,"ĠÏĢÏģÎ¿Î²":6671,"ÏĢÎµÏħ":6672,"ĠÎºÎ±ÏĦÎ±Î½":6673,"Ġá¼ĪÎ¼":6674,"Ġ3âģ°":6675,"Ġá¼´Î´Î¹":6676,"ĠÎĴÎµÎ½Î¹Î±":6677,"ĠÎºá½±ÏĦÎ±":6678,"ĠÏĢá½¹ÏģÎ¿ÏħÏĤ":6679,"Ġá¼ĳÎ±ÏħÏĦá½´Î½":6680,"ÏģÎ¹ÏĥÏĦÎ¿Î»Î¿Ïĩ":6681,"ĠÏĢÎ±Î»Î±Î¹á¿¶Î½":6682,"ĠÏĢÎµÏĢÎ¿Î½Î¸á½¸ÏĤ":6683,"Îµá¼´ÏĢÎµÏģ":6684,"Ġá¼ĲÎºÎµÎ¯Î½á¿ĥ":6685,"Ġá¿¥á½±ÏĩÎ¹Î½":6686,"hrase":6687,"we":6688,"ÏĢÎµÎ¹Î´":6689,"ÎºÎ»ÎµÎ¹":6690,"Ġá¼ĢÏĦÎ¿Î½":6691,"ÏĨÎ¿Ïħ":6692,"á½¹ÏĦÎ¿ÏĤ":6693,"ÎµÎ½Î½":6694,"ĠÎ±á½ĲÏĦÏĮ":6695,"ÏĦÎµÏħ":6696,"Ġá¼ĶÎ¼ÏĨÏħÏĦÎ¿Î½":6697,"ÎŃÎ½Î±":6698,"ĠÎ¸ÏģÏĮÎ½":6699,"Ïģá½·Î½Î¿Ïħ":6700,"Ġá¼ĢÏĢÏİ":6701,"Ġá¿¥Î±ÏĨ":6702,"ĠÎ¸ÎµÏī":6703,"ÏĦÎ¹Îºá½°ÏĤ":6704,"ĠÏĢÏģÎ¿ÏĥÏĨÎµÏģ":6705,"Î¼Î¿Ïĥ":6706,"ĠÏĥá½»ÏĥÏĦÎ±ÏĥÎ¹Î½":6707,"ĠÏĢÏħÏģÎµÏĦÎ¿á½ºÏĤ":6708,"ĠÏĢÏħÏģá½¶":6709,"ĠÎ½Îµá½»ÏģÎ¿Ïħ":6710,"ĠÎ»ÎµÎ³á½¹Î¼ÎµÎ½Î¿Î½":6711,"ĠÏĨÎ±Î½ÏĦÎ±":6712,"Ġá¼¡Î»Î¹Îºá½·Î±Î½":6713,"ĠÏĩÏģÎ·ÏĥÏĦá½¸Î½":6714,"ĠÏĢá¿¦Î¿Î½":6715,"ÏĦÎµÏĦÎ±Î³":6716,"ĠÎ³Ïģá½±ÏĨÎµÎ¹Î½":6717,"Ġá¼ĲÏĢÎ¹Î´á½³ÏĥÎµÏīÏĤ":6718,"ĠÏĪÎµÏħÎ´":6719,"ĠÎ³á½³Î³Î¿Î½ÎµÎ½":6720,"ss":6721,"Î·Î½Îµ":6722,"ĠÎ´Î¿Ïį":6723,"Î¸Î¿Î¹":6724,"ÏīÎ½Î¿ÏĤ":6725,"ÏĥÏĦÎµÏħ":6726,"Î¯Î´Î±":6727,"á½³Î½Î±":6728,"ÏĥÎ¹Î±ÏĤ":6729,"ĠÏĢÎ¿Î»Î¹":6730,"Ġá¼°á¾¶ÏĥÎ¸Î±Î¹":6731,"á¼ĲÎ³":6732,"Î³Î¿Î½ÏĦÎ¿ÏĤ":6733,"ÎŃÎ½ÏĦÎµÏĤ":6734,"ÏĦÎ¹ÎºÎ¿á½ºÏĤ":6735,"Î¸ÏģÎ¿Î½":6736,"ĠÎ£Ïī":6737,"á½³ÏĩÎµÏĥÎ¸Î±Î¹":6738,"Ġá¼¥Î´Îµ":6739,"ĠÎłÎķ":6740,"á½±Î¶ÎµÏĥÎ¸Î±Î¹":6741,"Ġ40":6742,"ĠÎ²Î±ÏĥÎ¹Î»ÎµÏīÏĤ":6743,"ĠÎ¼Î±Î¸Îµá¿ĸÎ½":6744,"ĠÏĥÏħÎ¼ÏĢá½·":6745,"ĠÎ¶Î·ÏĦÎµá¿ĸÎ½":6746,"ĠÏĦÎ¿Î¹Î¿á¿¦ÏĦÎ¿Î¹":6747,"ĠÎ½ÎµÏĨÏģá¿¶Î½":6748,"Ġá¼ĶÏģÎ³Î¿Î¹ÏĤ":6749,"ĠÏĥÎ¹ÏĦá½·Î±":6750,"ĠÏĥÎºÎ·Î½á¿ĨÏĤ":6751,"Ġá¼ĺÏģÎ±ÏĥÎ¹":6752,"ĠÎ³ÎµÎ³ÏħÎ¼":6753,"ĠÎ´Î¹Î´Î±ÏĥÎºÎ±Î»á½·Î±ÏĤ":6754,"Ġá¼ĲÎ´Îµá½·ÏĩÎ¸Î·":6755,"ĠÎĶÎ±Î½Î¹á½´Î»":6756,"Î¼á½°":6757,"ÏĢÎ¿ÏģÎµá½»":6758,"ÏĥÎµÎ¹Î½":6759,"ĠÎ¼ÎµÎ»Î»":6760,"ind":6761,"ĠÎºÎ±Î¸á½¹ÏĦÎ¹":6762,"á¼ĶÏĩÎµÎ¹":6763,"Î·Î¸Î¹":6764,"ĠÏĢá½¹Î»ÎµÏīÏĤ":6765,"ĠÏĦá½±Î¾Î¹Î½":6766,"Ġgener":6767,"Ġadd":6768,"ĠÏĥÎºÎ¿ÏĢÎ¿":6769,"ĠÎ¼ÎµÎ³á½³Î¸ÎµÎ¹":6770,"ĠÎĴÎ±Î²ÏħÎ»á¿¶Î½Î¿ÏĤ":6771,"Ġá¼ĶÎ¿Î¹ÎºÎµÎ½":6772,"Î´á½»Î½Î±":6773,"ĠÏĩÎ¬":6774,"Ġá½ĳÏĥÏĦ":6775,"ÏįÏĦÎ·":6776,"ĠÎ½á½·":6777,"Ġar":6778,"ÏĥÏĩÎ¿Î½":6779,"ĠÏĢÏģÎ¿Ïĥá½³Ïĩ":6780,"Î»á½±Î²":6781,"Î¼Î¹Î³":6782,"Ġá¼ĶÎ½Î¹":6783,"Î¼ÎŃÎ½Î¿Î¹":6784,"vii":6785,"Î¯Î±Ï²":6786,"ĠÎ´Î¹Î±ÏĨÎ¿Ïģá½°":6787,"Ġá½ĢÏģÎ³á½±Î½Î¿Î¹ÏĤ":6788,"ĠÏĨÎ±Î¹Î½Î¿Î¼á½³Î½ÏīÎ½":6789,"ĠÏĥÏĦá½»ÏĨ":6790,"ĠÏĢÎ»Îµá½·Î¿Î½Î¿ÏĤ":6791,"Ġá¼ĢÎ´ÎµÎ»ÏĨÎ¿á½¶":6792,"ĠÎºÎ¿á¿ĸ":6793,"ĠÎºÝ²":6794,"ĠÏĢÏĦ":6795,"Ïĩá¿³":6796,"ÎµÎ¹Ïĥ":6797,"ĠÏĨÎ»ÎŃ":6798,"ĠÎ¸Î»Î¯":6799,"Ġá¼ĳÏĥÏĢ":6800,"Ġá¼ķÎ¾":6801,"ĠÎºÎ±ÏĦÎ±ÏĢÎ±":6802,"Ġcome":6803,"Ġ39":6804,"Ġá½ĳÏĢÎ¿ÏĩÎ¿Î½":6805,"ĠÎºÎµÏĨÎ±Î»Î±Î»Î³":6806,"ÏīÎ¸Î¹":6807,"Ġdo":6808,"ĠÏĩÎµÎ¹ÏģÎ¿ÏħÏģÎ³":6809,"Îµá¼¶ÏĦ":6810,"Ġá¼ģÏĢá½±ÏĥÎ±Î¹ÏĤ":6811,"Ġá¼¥ÏĢÎ±ÏĦÎ¹":6812,"ĠÏĢÎµÏĢÎ¿Î½Î¸á½¹ÏĦÎ¿ÏĤ":6813,"ĠÎºÎµÏģÎºá½·":6814,"ĠÎºÎ¿ÏģÏħÏĨ":6815,"bis":6816,"ment":6817,"ten":6818,"Î¿á¼´":6819,"Ïĥá½º":6820,"Î¿á¿¦ÏĦÎ¿":6821,"ĠÎµÏĦÎ¹":6822,"ĠÎµá¼µ":6823,"Ġá¼ĶÏģÎ·":6824,"á½½Î¸Î·":6825,"Î½ÎµÏħÏĥÎµÎ½":6826,"Î»ÎµÏĦÎ¿":6827,"Ġá¼ĳÏĢÎ¿":6828,"ĠÎ´á½»Î½Î±Î½":6829,"Îµá¼°Ïĥá½¶":6830,"Ġá¼°ÏĥÏĩá½»":6831,"ĠÎ²Î±ÏĥÎ¹Î»ÎµÎ¯Î±ÏĤ":6832,"á¼ĦÎ¼ÎµÎ¹Î½Î¿Î½":6833,"ĠÏĦÏģá½¹ÏĢÎ¿ÏĤ":6834,"Î¿Î¼ÎŃÎ½Î·ÏĤ":6835,"ĠÎ£Î±Î¼Î±":6836,"Ġá¼ķÎ»ÎºÎ¿ÏħÏĤ":6837,"Ġá¼ĶÎ¸Î½Î¿ÏĤ":6838,"Î¸Î½á½µ":6839,"ĠÎ½ÏĮÎ¼Î¿Î½":6840,"Ġá½ĦÎ¾Î¿ÏĤ":6841,"Ġá¼ĶÎ½Î´ÎµÎ¹Î¾Î¹Î½":6842,"ĠÎ»Î¹Î²Î±Î½Ïī":6843,"ĠÎ³Î¯Î³Î½ÎµÏĦÎ±Î¹":6844,"Î¿ÏĥÎ¹":6845,"ĠÏĦá½»":6846,"ĠÏĦÏħÏĨ":6847,"ĠÏĨá½·":6848,"Î®ÏĥÎ±ÏĤ":6849,"Ġtw":6850,"ĠÏĦÎ¹ÏĥÎ¹":6851,"ĠÎ¼á½¹Î½Î·":6852,"ĠÏĢá½³ÏģÎ¹":6853,"á½µÏĥÎµÎ¹ÎµÎ½":6854,"ÏĦÎ¿á½»ÏĥÎ·ÏĤ":6855,"ĠÎ¾Î·ÏģÎ±á½·Î½ÎµÎ¹":6856,"Î±á½ĲÏĦá½¸ÏĤ":6857,"Î²Î±Î»Î¿Î½":6858,"Ġá¼ĢÏĢÎµÏĪ":6859,"Ġá½ĢÎ»á½·Î³Î¿Ïħ":6860,"ĠÏĢÎµÎ½ÏĦÎ±":6861,"Ġá¼¤ÎºÎ¿ÏħÏĥÎµÎ½":6862,"fort":6863,"ÏĢÎ½ÎµÏħÎ¼Î¿Î½":6864,"Ġá¼ĲÎ»Î¸Îµá¿ĸÎ½":6865,"Ġá¼ĲÎ¼ÏĢÎ»á½±ÏĥÏĦ":6866,"ĠÎĳá¼°Î³ÏįÏĢÏĦÎ¿Ïħ":6867,"li":6868,"ĠW":6869,"Î¿ÏĥÎ±Î½":6870,"Ġá¼ĲÎ½Î½":6871,"Î¯Î·":6872,"Ġá¼ĶÎ´Î¿":6873,"ÎŃÎ½Î±Î¹":6874,"ĠÏĨÎ»Î¿Î¹":6875,"ĠÎ»Î®Î¼":6876,"Ġá¼¡Î´Î¿Î½":6877,"Î»ÎµÏĩ":6878,"ÏĥÎµÎ¹ÎµÎ½":6879,"ÎµÎ»Î¸Îµá¿ĸÎ½":6880,"ĠÏĪÏħÏĩÏģÎ¿":6881,"ĠÎºÎ±ÏģÎ´Î¹":6882,"ĠÎ¿á¼¶Î´":6883,"ĠÏĦÏģá½·Ïĩ":6884,"ĠÎ¾Î·Ïģá½¹ÏĦÎ·ÏĦÎ±":6885,"ĠÎ¾Î·Ïģá¾¶ÏĤ":6886,"Î·ÏĦá½³Î¿Î½":6887,"Ġá¼ĢÏĢá½¹Î´ÎµÎ¹":6888,"ĠÏĢÎ»Î±Î³":6889,"ĠÎ¸Î±ÏĦá½³ÏģÎ¿Ïħ":6890,"ĠÎ´Î¹Î±Î½Î¿":6891,"Ġá¼ķÎ»ÎºÎµ":6892,"ĠÎºá½³Î½ÏīÏĥÎ¹Î½":6893,"Î½Î±ÏĤ":6894,"Î½á¿³":6895,"ÏĦÏĦÎ±Î½":6896,"ÏĥÎ·Î¼":6897,"Î¼ÏĮÎ½":6898,"á½±Î¼Î¿Ïħ":6899,"Ġá¼ĢÎ½ÏĦÎ¹Îº":6900,"Ġá¼ĢÎ½Î±ÏĦÏģá½³":6901,"ĠÎ¸ÎµÏģÎ¼á½´Î½":6902,"á½ħÏĢÏīÏĤ":6903,"ĠÎ¼á½¹Î½Î±":6904,"ĠÏĩÏģá½¹Î½Î¿ÏĤ":6905,"xxx":6906,"ĠDE":6907,"Ġá¼ĲÏĢÎ¹ÏĥÏĦÏģÎŃ":6908,"ĠÏĥÎºÎ¿ÏĢá½¸Î½":6909,"Î¿ÎµÎ¹Î´á½²ÏĤ":6910,"ĠÎ³ÏħÎ½Î±Î¹Îºá¿¶Î½":6911,"ĠÎ´á½±ÎºÏĦÏħÎ»Î¿Î½":6912,"Î²Î¬Î»Î»":6913,"ĠÎ¸Î¬Î»Î±":6914,"ĠÎ¦Î±ÏģÎ±á½¼":6915,"Ġá¼ĲÎ¼Î±ÏħÏĦ":6916,"ĠÎ¼Î±ÏĥÏĩá½±Î»":6917,"ĠÎłÎķÎ¡ÎĻ":6918,"23":6919,"but":6920,"ÎºÎ¿Î¹":6921,"Ġá¼ĲÎ´á½³":6922,"Î¹Î½Î±Î½":6923,"ÏĥÏĦá¿³":6924,"ÏĢÎ¿ÏģÎµÏį":6925,"ĠÎ²Ïģá½¹":6926,"ÏįÏģÎ¹Î¿Î½":6927,"Î±Î»Î±Î¹":6928,"ĠÏĦÎ¹ÏĥÎ¹Î½":6929,"ĠÎµá¼¶ÏĢÎ±":6930,"á½·Î½Î±ÏĤ":6931,"Î»Î¹Î¿ÏĤ":6932,"Ġá¿¥Î¿Î¼ÏĨÎ±":6933,"ĠÏĢÎ±ÏģÎµÎ½":6934,"Ġá¼ĲÎ³ÏĩÎµÎ¹Ïģ":6935,"ĠÏĢÎµÏģÎ¹ÏĢÎ±":6936,"Ġá½¥Ï²":6937,"Ġá¼°ÏĥÏĩá½ºÎ½":6938,"Ġá¼ĲÎ¼ÎŃ":6939,"ĠÏĢÎ±Ïĩá½º":6940,"Ġá¼ĳÎºá½±ÏĥÏĦÎ·ÏĤ":6941,"ĠÏĦÏģÎ¿ÏĨá½´":6942,"ĠÏĦÎ¿Î¹Î±á½»ÏĦÎ±Î¹ÏĤ":6943,"ĠÏĥÏĨÏħÎ³Î¼Î¿á¿ĸÏĤ":6944,"ĠÎºÎ±ÏĦÎ±ÏĥÎºÎµÏħá¿ĨÏĤ":6945,"ĠÏĦá½¹Î½Î´Îµ":6946,"Ġá¼ĲÏģÏħÏĥÎ¹":6947,"ÏĦÏĦÎ¿ÏħÏĥÎ¹Î½":6948,"ĠÏĢá½³ÏģÎ±ÏĦÎ±":6949,"Ġá¿¥á½±ÏĩÎµÏīÏĤ":6950,"ĠÎµá¼°ÏĥÎµÎ»Î¸":6951,"ĠÎ´á½»Î½Î±Î½ÏĦÎ±Î¹":6952,"ep":6953,"ÏħÏĪ":6954,"ĠÎºÎ¿Ïħ":6955,"ĠÎºÎ»Î·":6956,"ĠÎºÎ±ÏĦÎ±Î¹":6957,"Î·Ïĩ":6958,"Ġá¼ĢÎ¸ÏģÎ¿Î¹":6959,"á¿ĨÏĦÎµ":6960,"ÎºÎ±ÏĦ":6961,"á¾´":6962,"ÏĢÎ¿ÏĥÏĦ":6963,"Î®ÏĥÎ±ÏĦÎµ":6964,"ĠÎ´Î¹Î±ÏĦÎµ":6965,"ÏħÎ¼ÎŃÎ½":6966,"á¿ĸÎ½Î¿ÏĤ":6967,"á½±Î³ÎµÎ¹":6968,"ĠÏĢÎ»ÎµÏħ":6969,"ÏħÎ»Î¿Î¹":6970,"ÏĦÎŃÏģÎ±ÏĤ":6971,"ĠÎ¼ÏħÎµÎ»":6972,"Ġá¼ĲÏĢá½·ÏĥÏĦÎ±ÏĥÎ¸Î±Î¹":6973,"ĠÎ¾Î·ÏģÎ¿á¿¦":6974,"á½³Î±ÏĦÎ¿ÏĤ":6975,"Ġwho":6976,"ĠÏĦÎ±á½ĲÏĦá½¸":6977,"Ġá¼ĲÏĢÎ±Î½Î¿ÏģÎ¸":6978,"ÏĥÏĥÎ±ÏģÎ±":6979,"Ġá¼ĲÎ»á½±ÏĦÏĦÎ¿Î½":6980,"á¼ĦÎ»Î»Î·":6981,"Î´ÎµÎ¹ÎºÎ½á½»":6982,"Ġá¼ĪÎ²ÏģÎ±á½°Î¼":6983,"ĠÏĦÏģÎµÏĨ":6984,"Ġut":6985,"Ġid":6986,"Î¼Ïİ":6987,"ĠÏĢÏĦá½³Ïģ":6988,"á½¸Ï²":6989,"Ġá¼ĢÏĩ":6990,"á¿¶Î½ÏĦÎµÏĤ":6991,"ĠÎ²Î»ÎŃ":6992,"Î®Î¼Î±ÏĦÎ¿ÏĤ":6993,"Ġá¼ĦÎ»Î»Î±Î¹ÏĤ":6994,"Î³Î³ÎµÎ¹":6995,"ÏĥÎ¼Î¿á¿¦":6996,"ĠÏĢÎ±Î½ÏĦÎµÏĤ":6997,"Î¿Î¼ÎŃÎ½Î¿ÏħÏĤ":6998,"ĠÎ¼ÎµÎ³á½±Î»ÏīÏĤ":6999,"ĠÎµá½ĶÎ»Î¿Î³Î¿Î½":7000,"ĠÎ´Î¹Î´á½±":7001,"Ġá¼ĶÎºÏĨÏħÏĥÎ¹Î½":7002,"Ġá¼ģÏĢá½±ÏĥÎ·ÏĤ":7003,"ĠÎ±á¼´ÏĥÎ¸Î·ÏĥÎ¹ÏĤ":7004,"ĠÎµá½ĹÏģÎ¿Î½":7005,"Ġá¼ĲÎ¾ÎµÏħÏģÎµá¿ĸÎ½":7006,"Î·Î¼ÎµÏģÎ¹Î½":7007,"Î½ÏĦÎ¹Î½Î±":7008,"ĠÏĦÏħÏĩ":7009,"Ġá¼ĲÎ´Îµá½·ÎºÎ½Ïħ":7010,"ĠÎ±Î¼Î±Ïģ":7011,"ĠÎµÏĨ":7012,"Î²Î»Îµ":7013,"ÎºÎ±Î»Îµ":7014,"Î½Î±ÏĦÎ¿":7015,"ĠÎ²á½·":7016,"Î¶Î±":7017,"Ġá¼ĢÏĢá½½":7018,"Ġá¼°Î´á½·ÏīÏĤ":7019,"á¼ĲÎ¼Î¿á½¶":7020,"Ġpart":7021,"ĠÏĢÎ¿Î¹Îµá¿ĸÏĦÎ±Î¹":7022,"ĠÏĢÎµÏģÎ¹ÏĦ":7023,"ĠÏĢÎµÏģÎ¹ÏĢÎ½ÎµÏħÎ¼Î¿Î½":7024,"Î³Î³ÎŃ":7025,"ĠÏĢÎ±Î½ÏĦÎ¿":7026,"Ġá¼ĲÏģÎµá¿ĸÏĤ":7027,"Î´ÏīÏĥÎ¹Î½":7028,"ĠÏĢÎ¹Î¼ÎµÎ»":7029,"Ġá¼ĢÎ»á½¹":7030,"ĠÏĦÎµÏĦÏģá½±":7031,"ĠÎŁá½ĲÎº":7032,"ĠÎ¸Î·ÏģÎ¹":7033,"Ġthough":7034,"Ġá¼ĺÏģÎ±Ïĥá½·ÏĥÏĦÏģÎ±ÏĦÎ¿ÏĤ":7035,"Ġá¼ĲÎ»Î¬Î»Î·ÏĥÎµÎ½":7036,"ÏĥÎ¿á¿¦Î½":7037,"ĠÏĦÎ±Ïģ":7038,"Î¼Î¿á¿ĸÏĤ":7039,"Î´ÏħÎ½Î±":7040,"ĠÎµÏĢÎ±":7041,"ĠÎ±á½ĲÎ»":7042,"Î¯Ï²":7043,"á½µÏĥÎ±Î½ÏĦÎµÏĤ":7044,"Ġá½ĳÏĥÏĦÎµÏģ":7045,"ÏĮÏĦÎµÏģÎ¿Î½":7046,"Ġá¼ĲÎºÏĢÎµ":7047,"Ġá½ĢÏĢÎ¿":7048,"ĠÏĢÏģÎ¿Ï²":7049,"ĠÎµá¼¶ÏĩÎµÎ½":7050,"Ġá¼¸Î½":7051,"reat":7052,"ĠÏħÏĢÎµÏģ":7053,"ĠÎ±á¼°ÏİÎ½":7054,"ĠÎ£Î±Î²":7055,"ĠÏĪÏħÏĩÏģá¿·":7056,"Î´ÎµÎ¹Îº":7057,"ĠÎ´Î¹Î±ÏĨÎ¿ÏģÎ±á½¶":7058,"ĠÎ¼ÎŃÎ³":7059,"ÏĦá½µÏģÎ¹Î¿Î½":7060,"ĠÎ¸ÎµÏģÎ¼Î±Î¹Î½á½¹Î½ÏĦÏīÎ½":7061,"Ġá½ĢÎ¾á½³ÏīÎ½":7062,"Ġá½ģÎ´Î¿á¿¦":7063,"Î²á½±Î»Î»ÎµÎ¹":7064,"ĠÏĥÏĦá½¹Î¼Î±ÏĩÎ¿Î½":7065,"ÏĢÎµÏĢá½³ÏģÎµÏīÏĤ":7066,"Ġá¼ĻÎ»Î»":7067,"ÏĩÎ±Î»Îº":7068,"Ġdiffere":7069,"ĠÎ½á½»ÎºÏĦÎ±":7070,"ÏģÎ¯":7071,"Ġá¼ĲÎ»Î»Î¹":7072,"ĠÎ¼ÏħÎº":7073,"Î¬ÎºÎ¿Î½ÏĦÎ±":7074,"Î½Î±ÏĦÎ¿ÏĤ":7075,"Ġá¼ĢÎ½á½·":7076,"ĠÏĢÎ¿Î»Î»Î¬ÎºÎ¹ÏĤ":7077,"Ġá¼ĢÏĨÎµÎ»":7078,"Î¿ÏįÏĥÎ·ÏĤ":7079,"ĠÏĢÎ¿Î»ÏħÏĩ":7080,"ĠÎ³Î¹Î½Î¿Î¼á½³Î½ÏīÎ½":7081,"ĠÏĦÏģá½¹ÏĢá¿³":7082,"ĠÎ´ÏħÎ½Î±ÏĦá½¹Î½":7083,"Î¾Î±Î½ÏĦÎ¿":7084,"ĠÏĦÎ¿Î¹Î¿á½»ÏĦÎ¿ÏħÏĤ":7085,"ĠÏĥÏħÎ¼Î²Î¿Ïħ":7086,"Ġá¼ĢÎ´ÏħÎ½Î±":7087,"Î³Î½ÏīÏĥÎ¹ÏĤ":7088,"á½½Î½ÏĦÏīÎ½":7089,"Ġá¼ĲÎ½á½·Î¿Î¹ÏĤ":7090,"ÏĢÏĦÎ¿ÏħÏĥÎ¹Î½":7091,"ĠÏĦÏĮÏĢÎ¿Î½":7092,"ĠÏĢÎ±ÏģÎ¿Î¾ÏħÏĥÎ¼Î¿á¿¦":7093,"ĠÏĩÏģá¿ĨÏĥÎ¹Î½":7094,"ĠÎºÎ¿ÏĦá½»Î»Î±ÏĤ":7095,"Ġá¼¸Î¿á½»Î´Î±":7096,"Î³Î±ÏģÎ¿á¿¦Î½":7097,"Ġincep":7098,"Î¹ÏĥÎ¸":7099,"Î¼Î¼Î±ÏĦÎ¿ÏĤ":7100,"á½°Îº":7101,"á½°Î´":7102,"ÎµÎ¹Îº":7103,"ÏĦÎ¹á¿¶Î½":7104,"Ġá½ģÏĢÏī":7105,"Î»ÎµÏħÏĥ":7106,"Î¶ÎµÎº":7107,"Ġá¼ĳÎ¿Ïģ":7108,"Î¿Î»á½´":7109,"ĠÏĥÏĦÏħÏĨ":7110,"ĠÎºÎµÎºÏģÎ±":7111,"Ġá½ĳÎ³Ïģá½°Î½":7112,"ĠÏĪÏħÏĩá¿ĩ":7113,"ĠÏĨÎ±á½·Î½Î¿Î½ÏĦÎ±Î¹":7114,"ĠÎºÎ±Î»á½¸Î½":7115,"ĠÎºá½±Î»Î»Î¹":7116,"Ïĥá½·Î¿Ïħ":7117,"Îºá½¹ÏĦÏīÎ½":7118,"Ġá½ĢÏĨÎ¸Î±Î»Î¼Î¿á½¶":7119,"Ïģá½³ÏĨ":7120,"ĠÏĢÏĮÎ»ÎµÎ¹ÏĤ":7121,"Ġá½ģÎ´Î¿Î¹":7122,"ĠÏĢÎ¬Ïĥá¿ĥ":7123,"ĠÏĥÏħÏĥÏĦÎ¿Î»á¿ĨÏĤ":7124,"Ġá¼ĶÎ»ÎµÎ³ÎµÎ½":7125,"Ġá¼ģÎ¼Î±ÏģÏĦá½·Î±ÏĤ":7126,"ĠÎ´Î¹Î±ÏģÎ¸Ïģá½½ÏĥÎµÏīÏĤ":7127,"ÏħÎ¿ÏĤ":7128,"Ġá¼ĲÎ´Ïī":7129,"Î³Î·":7130,"ĠÎ±ÏĢ":7131,"ĠÏĩÎ»Î¹":7132,"ÏĦÎ·Î¼Î±":7133,"á½±ÏģÎ³":7134,"Ġá¼ĢÏģÏĦá½·":7135,"Î¼Î¿á½·":7136,"á½ħÏĥÎ¿Î½":7137,"Î²Î±á½·Î½ÎµÎ¹Î½":7138,"ĠÏĦá½³Î¼Î½":7139,"á½µÏĥÎµÏĦÎµ":7140,"Ġá½ģÎ´Î¿á½ºÏĤ":7141,"ĠÏĥÏħÎ½ÎµÏĩá½²ÏĤ":7142,"ĠÏĦÎ¿Î¹Î¿á¿¦ÏĦÎ¿":7143,"ĠÏĥÏħÎ¼ÏĨá½»":7144,"Ïģá½¹ÏĦÎ±ÏĦÎ¿Î½":7145,"ĠÏĩÏģÏĮÎ½Î¿Î½":7146,"ĠÏĢÎ»á½±Î³Î¹Î±":7147,"Ġá¼ĢÏģÏĩÎ¹ÎµÏģ":7148,"24":7149,"ĠÎºÎ±Î½":7150,"ÏīÏĦÎ±Î¹":7151,"ĠÎ±ÎºÎ¿Ïħ":7152,"ĠÎµÏĩ":7153,"ĠÏĢÏģÎ¬":7154,"Î¯Î±Î¹":7155,"ÏĦÎµá¿ĸÏĤ":7156,"á½½Î²Î¿Î»Î¿Î½":7157,"ĠÎ¸ÏģÎ±":7158,"ÏįÎµÎ¹Î½":7159,"ĠART":7160,"Ïģá½·Î¿Î¹ÏĤ":7161,"á¿¦Î½Î±Î¹":7162,"ĠÏĢÎ±ÏĦÎŃÏģÏīÎ½":7163,"ĠÎµá¼¶Î´ÎµÎ½":7164,"Ġá¼ĦÎ»Î»Î±Î¹":7165,"Ġá¼ĲÎ³á½½":7166,"Ġá½ĳÎ³Ïģá¾¶ÏĤ":7167,"á½ħÏĢÎµÏģ":7168,"ÏĨÎ±á¿ĸÏĤ":7169,"ead":7170,"ĠÏĦá½³Î¼Î½ÎµÎ¹Î½":7171,"ĠÏĦá½±ÏĩÎµÎ¹":7172,"ĠÏĥÏīÏĦÎ·Ïģá½·":7173,"á½µÏĥÎµÎ¹Î½":7174,"ĠÎºá½¹Î»":7175,"Ġá¼ĲÎ¼ÏĨÎ±":7176,"ĠÎ´ÏĮÎ¾Î·ÏĤ":7177,"ĠÏĥÏĢÎŃÏģÎ¼Î±ÏĦÎ¿ÏĤ":7178,"Ġá¼¤ÏģÎ¾Î±ÏĦÎ¿":7179,"ĠÏĥÏħÎ¼Î²ÎµÎ²Î·Îºá½¸ÏĤ":7180,"ĠÎ´Î±ÏĪÎ¹Î»":7181,"lat":7182,"Ġá¼Ĳá¿¤á¿¥":7183,"á½±ÏĥÏĦ":7184,"á½»ÏģÎ¹Î¿Î½":7185,"ĠÏĦÎµÏĦÏģ":7186,"ĠÎ¼ÎµÎ¼Î½Î·":7187,"ĠÏĢÏģÎ¿ÏĢÎµ":7188,"á½·Î½Î¿Î½ÏĦÎ¿ÏĤ":7189,"Ġá¼ķÎº":7190,"Ġá¿¥á½µ":7191,"Ġá¿¥ÎµÏħ":7192,"ĠÎµá¼´Î´Î·":7193,"ĠÏĢÏģÎ¿ÏĥÎ·Îº":7194,"ĠÎ¿á½ĶÏĢÏī":7195,"ÏĦá½±ÏĤ":7196,"ĠÏĢÏģá½½ÏĦÏīÏĤ":7197,"Î´ÏīÎºÎ±":7198,"ĠÎºÎ±ÏģÎ´Î¯Î±Î½":7199,"ĠÎ¸ÎµÏģÎ±ÏĢÎµá½»":7200,"Ġá¼ĲÏĢÎ¹ÏĥÎºÎ¿ÏĢ":7201,"Ġadnot":7202,"ÏĦÏĦÎ¿ÏħÏĥÎ¹":7203,"Ġá¼ĶÏĨÎ±Î¼ÎµÎ½":7204,"á½įÏĦÎ¹":7205,"ĠÏĦá½³ÏĦÏĦÎ±ÏģÎ±ÏĤ":7206,"Ġá¼ĲÏĩÎ¸Ïģá¿¶Î½":7207,"ĠÏĢÎ±Î½ÏĦÎ±Ïĩá½¹":7208,"ĠÏĢÎ»ÎµÎ¹á½¹Î½ÏīÎ½":7209,"ĠIsaiah":7210,"Ġea":7211,"ÎµÎ³":7212,"Î¼Ïħ":7213,"Î¸á¿¶Î½":7214,"ĠÎ³Î±Ï²":7215,"Î¼Î±ÏĩÎ¿ÏĤ":7216,"Î»Î»Î¿Ïħ":7217,"Î»Î»Î¿ÏĤ":7218,"ĠÏĦá¿¶Î½Î´Îµ":7219,"Ġá½ĢÎ»á½³Î¸":7220,"Îµá½·á¿³":7221,"Ġá¼ĲÎ¾ÎµÏħ":7222,"Ġá¼°Ïĩ":7223,"ÏİÎ´Î·":7224,"Ġá¼ĢÏģÎ¾á½±":7225,"ĠÎºÎ±ÏĦÎ±Î³":7226,"ĠÎºÎ±ÏĦÎ±ÏĨ":7227,"ĠÏĢÎ¿Î¹á¿¶Î½":7228,"ĠÏĢÎ±ÏģÎ±Î»Îµ":7229,"Ġwhere":7230,"Ġwould":7231,"ĠÎĻÏĥ":7232,"ÏĢá½·ÏĢÏĦÎµÎ¹":7233,"oth":7234,"ĠÏĨÎ»ÎµÎ³Î¼Î¿Î½á½°ÏĤ":7235,"ĠÏĦÎŃÎºÎ½Î±":7236,"Ġá¼ķÎ»ÎºÎµÎ¹Î½":7237,"ĠBabAF":7238,"ĠÏĢÎ»ÎµÏħÏģá¿¶Î½":7239,"ĠÎ³ÏħÎ½Î±á¿ĸÎºÎµÏĤ":7240,"Ġá¼ĲÏĥÎ¸á½·":7241,"Ġá½ĢÎ»Î¯Î³Î¿Î½":7242,"ĠÏĨÎ¸Î¹Î½Î¿ÏĢ":7243,"Ġá¼ĢÎ½Î´Ïģá½±":7244,"ĠÏĥÏĦÏģÏħÏĨÎ½":7245,"Báµĥáµĩ":7246,"]+":7247,"Ïģá¾·":7248,"ÏĥÏĦÎµÎ¹Î»":7249,"ĠÎ´Î¹á½½":7250,"ĠÎ´Î¹á¿ĨÎ»Î¸Î¿Î½":7251,"ĠÎ¿á½ĲÏģÎ·":7252,"Ġá¼ĦÏĦÎ¿":7253,"Ġá¼ĳÏĨÎ¸":7254,"ĠÏĢÎ¿Î´á¿¶Î½":7255,"Ġob":7256,"Ġá¼ĶÏĩÎ¿Î¹":7257,"Î½Î¿Î¼á½±Î¶":7258,"ĠÎ¾Îµ":7259,"Ġins":7260,"ĠÎľÎ±Îº":7261,"Ġfort":7262,"Î¿Î¼ÎŃÎ½Î·Î½":7263,"ĠÎ£Î±Î¼Î¿Ïħ":7264,"ĠÎ¸ÏħÎ¼Î¿á¿¦":7265,"ĠÏĢÏģÏīÏĦÎ¿":7266,"ĠÏĨÎ¿Î²Î·Î¸":7267,"Ġá¼ĲÏĢÎ¹ÏĦÎ·Î´Îµá½·":7268,"Î»Î¹Î²á½±Î½Î¿Ïħ":7269,"ĠÎ¸Î»á½·Î²":7270,"Ġá½ģÎ»Î¿ÎºÎ±ÏħÏĦ":7271,"ĠÏĥÎ·ÏĢÎµÎ´":7272,"cl":7273,"ĠÏĢÎ·Î»":7274,"á½²ÏĪ":7275,"ÏĥÎ¸Î·Î½":7276,"ĠÎ²Î¹":7277,"Ġá½ĢÏĢÏĦ":7278,"ĠÎ´Î¹Î±ÎºÏģá½·":7279,"Ġá½ĳÏĢÎ±Î»Î»á½±":7280,"Ġ(?)":7281,"Ġá¼ĢÎ½Î±ÏĢÎ½":7282,"Ġá¼ĶÏĩÎ¿Î¼ÎµÎ½":7283,"Ġá½ĦÏģÎ¿ÏħÏĤ":7284,"ĠÎ¶á½µ":7285,"ĠÏĢá½±Î½Î¸":7286,"ĠÎ¼ÎµÎ³á½±Î»Î·":7287,"ĠÏĦá½³Î»Î¿ÏĤ":7288,"á½±Î¶ÎµÏĦÎ±Î¹":7289,"ÏĢá½·ÏĢÏĦÎµÎ¹Î½":7290,"ÏĦá½µÏĦÏīÎ½":7291,"ĠÎ±ÏħÏĦÎ¿":7292,"Ġá¼ĢÎ³Î³Îµá½·Î¿Î¹ÏĤ":7293,"ĠÏĨÏħÎ»á½±ÏĦÏĦÎµÎ¹Î½":7294,"Ġá¼ĢÏĢÎ¿ÎºÏģá½·":7295,"Î»ÎµÏįÏĥÎµÏĦÎ±Î¹":7296,"ĠÎ»Î¿Î¹ÏĢá½°":7297,"ĠÎ½Î¿Î¼á½·Î¶ÎµÎ¹Î½":7298,"á½¹Î´á¿³":7299,"ĠÎ¸ÎµÏģÎ±ÏĢÎµÏħÏĦÎ¹Îºá¿ĨÏĤ":7300,"á¼ĲÏĢÎµÎ¹Î´á½°Î½":7301,"ĠÏĥÏħÎ¼Î¼ÎµÏĦÏģá½·Î±Î½":7302,"ĠÏĨÎ»á½²ÏĪ":7303,"Ġá¼ĢÏĢÎ¿ÏĨá½»ÏĥÎµÎ¹ÏĤ":7304,"Ġá¿¥á¿ĸÎ³Î¿ÏĤ":7305,"ure":7306,"ÏĩÎµÏĦÎ±Î¹":7307,"ĠÏĥÎ±Ïģ":7308,"ÎµÎ¹Î¼á½³Î½ÏīÎ½":7309,"Î±Î½ÏĦÎ±":7310,"á½µÏĥÎ¿ÏħÏĥÎ¹Î½":7311,"Ġá½ģÎ¼Î¿á¿¦":7312,"Î®ÎºÎ¿Î½ÏĦÎ±":7313,"ĠÏĢÎ¿ÏģÎµÏħÎ¸":7314,"Ġá¼ĢÎ½á½µ":7315,"Ġá¼ĲÎ¾Î±ÏģÎº":7316,"Ġá¼ĲÏĢÎ¹ÏĥÏĩ":7317,"Ġá¼°Îº":7318,"Ġá¿¥Î¯Î¶":7319,"Ġá½¥ÏĤ":7320,"ĠÎ±á¼°ÏĩÎ¼Î±Î»Ïī":7321,"ĠÏĢÎµÎ´":7322,"ĠÎ³ÎµÎ½Î½Î·":7323,"Ġá½ĳÏĢÎ¿Î¸á½³":7324,"ĠÎ¸ÎµÏģÎ¼á¿¶Î½":7325,"Î¿ÏįÎ¼ÎµÎ½Î¿ÏĤ":7326,"Ġá¼ĢÎ³ÏīÎ³":7327,"ÎļÏį":7328,"ÎĳÎ¤":7329,"ÏĥÏĦÎ¹Îºá¿¶Î½":7330,"Ġá¼ĲÎºÎµá¿ĸÎ½Î¿Î¹":7331,"ĠÏĥÎºÎ¿ÏĢá½¸ÏĤ":7332,"Ġconf":7333,"Ġá½ĢÏĢÎ¯ÏĥÏī":7334,"Î²Î±Î»Î»Îµ":7335,"Ġá¼ĢÎ³Îºá¿¶Î½Î±":7336,"ĠÎ¼Î·Î´á½³ÏĢÏī":7337,"Ġá½ģÏĢÏīÏĥÎ¿á¿¦Î½":7338,"mit":7339,"ÎµÏĥÎºÎ±Î¹":7340,"Îºá½¸ÏĤ":7341,"ÏīÎ´á½³":7342,"Ġá¼ĶÎ¼ÏĨ":7343,"Ġá½ĳÎ¼ÎµÎ½":7344,"Ġá½ģÎ»Îº":7345,"ĠÎ²Î»Îµ":7346,"Ġá¼ĲÎºÎ»á½»":7347,"Ġtext":7348,"ĠÎ´Î¹Î±á¿¤á¿¥":7349,"ĠÏĦÎ¹ÏĦ":7350,"Î¼á½±Ïģ":7351,"Î»Î¹Î¼":7352,"ĠÎ±á¼°Î½":7353,"á¼ĲÎ½á½·":7354,"ĠÏĦÏģá½·ÏĦÎ·":7355,"ĠÎĵÎ±Î»":7356,"ĠÎºÏģÏħ":7357,"ÎºÏīÎ½Î¿ÏĤ":7358,"Ġá¼ĢÎºÏģÎ¹Î²á¿Ĩ":7359,"á¿ĨÎ½Î±ÏĤ":7360,"ÏĦÎ¯ÏīÎ½":7361,"â¸ĥ.":7362,"ĠÏĨÏīÎ½á¿ĩ":7363,"Ġits":7364,"ĠÏĦÏģÎ±á½»":7365,"Î¿ÎµÎ¹Î´Î¿á¿¦ÏĤ":7366,"Ġá½ģÏģÎ¼á½´Î½":7367,"ĠÏĩÎ±Î»ÎµÏĢá½¸Î½":7368,"á¼¦Î½":7369,"ĠÏĢÎŃÎ½ÏĦÎµ":7370,"*)]":7371,"ĠÏĦÎ·Îº":7372,"Î¸ÎµÏĦÎ±Î¹":7373,"ÏĦÎµÏīÏĤ":7374,"ÏĮÏģ":7375,"Ġá½ģÏģá¿¶Î½":7376,"ÏĪÎ·":7377,"ĠÏĢÏģÎ¿Îµ":7378,"Ġá¼ĢÎ½Î±Î¼Î¹":7379,"ĠÏĢÎ±ÏģÊ¼":7380,"Î¿Î¼Î¬":7381,"ĠÎ±á¼°á¿¶Î½Î±ÏĤ":7382,"ĠÎ³ÎµÎ½á½¹Î¼ÎµÎ½Î¿Î½":7383,"Ġá¼¥ÎºÎµÎ¹":7384,"ĠÎłÎµÏģ":7385,"ĠÎµá½ĲÎ¸á½º":7386,"Ġá¼ĲÎ»Î±Ïĩ":7387,"ĠÎļÏħÏģÎ¹Î¿Ïħ":7388,"ĠÎºÏģá½±ÏĥÎµÎ¹":7389,"ĠÎ¶Î·ÏĦá½µ":7390,"ĠÏĨÎ»ÎµÎ³Î¼Î±ÏĦ":7391,"ĠÎ¸á½³ÏĥÎµÏīÏĤ":7392,"Ġá¼ĳÏĢÏĦÎ±":7393,"ĠÎ´Î¹Î´Î±ÏĥÎº":7394,"ĠÎ³ÏħÎ¼Î½Î±Ïĥá½·ÏīÎ½":7395,"ÏĦÏĮÏĦÎµ":7396,"ĠÏĨÏħÏĥÎ¹Îºá¿¶Î½":7397,"ĠÏĨÏģÎµÎ½á¿¶Î½":7398,"Ġá¼ĲÎ¼ÏĨá½»ÏĦÎ¿Ïħ":7399,"Ġá½ĳÏĢÎ¿Î¼Î½Î·Î¼á½±ÏĦÏīÎ½":7400,"Ġrendering":7401,"Ġá¼ĢÎ¾Î¹á½¹Î»Î¿Î³Î¿Î½":7402,"Î¿ÏħÎ¼á½³Î½Î¿Î¹ÏĤ":7403,"ĠÏĨÎ»Î¿Î³":7404,"ĠÎ»Î¿á½»":7405,"Ġá¼ĢÎ½á½½Î´ÏħÎ½":7406,"Ġá½¥Ïģá¾³":7407,"ÏĢÎ»á½´Î½":7408,"Ġá¾Ķ":7409,"Ġinter":7410,"Ġá¼ĶÎ½Î´Î¿":7411,"ĠÏĨÎ±á½·Î½Î¿Î¹ÏĦÎ¿":7412,"ÏĦÏĦá½¹Î½ÏĦÏīÎ½":7413,"ÏīÎ¸Î®ÏĥÎµÏĦÎ±Î¹":7414,"ĠÏĦá½¹Î´Îµ":7415,"ĠÏĥÏĩÎ¹ÏĥÏĦá¿ĨÏĤ":7416,"ĠÏĥÎºÎ»Î·Ïģá½°":7417,"ĠCf":7418,"ĠÎ¼ÎµÎ³á½±Î»ÏīÎ½":7419,"Ġá½¦Î½":7420,"ĠÏĨÏħÎ»á½±ÏĦÏĦÎµÏĥÎ¸Î±Î¹":7421,"ĠÎºÎ±Î¸Î±Ïģá½¸Î½":7422,"Ġá¼ĲÏĢÎ¿á½·Î·ÏĥÎ±Î½":7423,"ĠÏĢÏģÎ±Î³Î¼Î±ÏĦÎµá½·Î±Î½":7424,"Ġá¼ĳÎ²Î´Î¿Î¼":7425,"ĠÏĦÎ±ÏįÏĦÎ·ÏĤ":7426,"ĠÏĢÎ»Îµá½·Î¿Î½Î±":7427,"Ġá¼ĲÏĢÎ¹ÏĦÎ·Î´ÎµÎ¹":7428,"ÏģÎ·ÏĤ":7429,"ÏģÏİ":7430,"ÏĢÎ·ÏĤ":7431,"ĠÎµÎ»Îµ":7432,"ĠÎ¸Î·ÏĥÎ±":7433,"ĠÎ²Î¿Ïį":7434,"á½±Î½Î·":7435,"á½±Î½Î·Î½":7436,"Ġá¼ĲÏĢÎ¹Î¸":7437,"Ġá¼¸Îµ":7438,"ĠQmáµį":7439,"ĠÎ³ÎµÎ½Î¿Î¼á½³Î½Î·ÏĤ":7440,"Î¿Î³ÎµÎ½":7441,"ÏģÎ¿ÏħÎ½":7442,"ĠÎ¼ÎŃÎ»Î¹":7443,"ĠÎ¸ÎµÏģÎ¼Î±Î¹Î½":7444,"ĠÎ³Î¹Î½ÏİÏĥÎº":7445,"Ġá¼ĢÎ½Î¸Ïģá½½ÏĢÎ¿ÏħÏĤ":7446,"Ġá¼ĢÏĥÏĨá½±Î»":7447,"Î¸á½³Î½ÏĦÎµÏĤ":7448,"ĠÏĨá½³ÏģÎµÏĥÎ¸Î±Î¹":7449,"ĠÏĩÏģÎ·ÏĥÏĦá½³Î¿Î½":7450,"ĠÎ³Î½á½½ÏģÎ¹ÏĥÎ¼Î±":7451,"ĠÏĥÏħÎ¼Î¼á½³ÏĦÏģÎ¿Ïħ":7452,"Ġá¼¸Î±ÎºÏİ":7453,"Ġá¼ĲÎ¾Î±á½·ÏĨÎ½Î·ÏĤ":7454,"Ġá¼ĶÏģÏĩÎµÏĦÎ±Î¹":7455,"ĠÎµá¼´ÏīÎ¸ÎµÎ½":7456,"ĠÎ²Î¿ÏģÏģ":7457,"Ġagainst":7458,"Ġá½ĳÏĢÎ¿ÏĩÎ¿Î½Î´":7459,"á¼ĲÎ½á½·Î¿ÏĦÎµ":7460,"ÏīÏĥÎ±":7461,"Ġá¼ĲÏģÏĩ":7462,"ĠÎ¼Î¿á¿ĸ":7463,"ĠÎµÎ±Ïħ":7464,"Î¾Î·ÏĦÎ±Î¹":7465,"Ġá¼ĲÎºÏĩ":7466,"Ïģá½·Î¶":7467,"Î®ÎºÎµÎ¹":7468,"Ġá¼ĢÏĢÎµÏģ":7469,"ĠÎĳá¼´":7470,"ĠÎ³ÎµÏħ":7471,"Ġá¼ĢÏĢÎ¿ÎºÎµ":7472,"Ġá¼ĢÎºÎ¼á¿ĨÏĤ":7473,"Ġbr":7474,"ĠÏĢÎ¬ÏĥÎ±ÏĤ":7475,"ĠÏĥÎºá½³Î»Î·":7476,"ĠÏĨá½³ÏģÎµÏĦÎ±Î¹":7477,"Î¹Î¼ÏħÎ¸á½·Î¿Ïħ":7478,"ĠÏĢÏģá½±ÏĦÏĦÎµÎ¹Î½":7479,"ĠÎ¸Î±Î½Î¬ÏĦÎ¿Ïħ":7480,"Ġá¼°Î±ÏĦÏģÎ¹Îºá¿ĨÏĤ":7481,"Ġá½ĢÎ½ÏĮÎ¼Î±ÏĦÎ¹":7482,"Ġá¼ĪÏģÏĩÎ¹Î³á½³Î½Î·ÏĤ":7483,"ĠÎ¼Î±ÏģÏĦÏħÏģá½·Î¿Ïħ":7484,"ĠÎľÎ±Î½Î±ÏĥÏĥ":7485,"pos":7486,"ÏĦÏģÎ±ÏĤ":7487,"ĠÎºÏģá½¹ÎºÎ¿Ïħ":7488,"ÏĦÎ±ÏĥÎ¹Î½":7489,"Ġá¼ĲÏĢá½±Î½":7490,"Ġá¼ĶÏĦÎµÎ¹":7491,"ÎŃÏģÎ±":7492,"ĠÏĦÎµÎ»ÎµÎ¹":7493,"ĠÎ´Î¹Î±ÏĨÏīÎ½":7494,"Ġá¼ĲÏĢÎ¹Î»Î·":7495,"Î»Î¹Î´":7496,"Ġá¿¥Ïħ":7497,"Î¸Î·ÎºÎµ":7498,"Ġá¼¤ÏĢÎµÏģ":7499,"ĠÎ±á¼°Î´":7500,"ĠÎ²Î±Î´á½·":7501,"Ġwhe":7502,"Î¼Î¹á¾¶ÏĤ":7503,"Ġá¼´Î´Î¹Î±":7504,"ÏĥÏĥÎ¿Ïħ":7505,"ĠÏĢá½¹ÏģÏīÎ½":7506,"ĠÎłÎ¿Î½":7507,"Ġá½ĢÏĥÏĦÎ¿á¿ĸÏĤ":7508,"ĠÏĢÎ»Îµá¿ĸÏĥÏĦÎ¿Î¹":7509,"á½ĢÎ½Î¿Î¼á½±Î¶":7510,"á¼´Ïĥ":7511,"ĠÏĥÏĦÎ¿Î¼á½±ÏĩÎ¿Ïħ":7512,"Ġá¼ĢÏĢÎ¿ÎºÏģÎ¹":7513,"ĠÏĦÏģÎ¿ÏĢ":7514,"ĠÏĨÎ±Î¹Î½á½¹Î¼ÎµÎ½Î¿Î½":7515,"ĠÎ´ÏħÏĥÎºÏģÎ±Ïĥá½·Î±ÏĤ":7516,"ĠÎ»á½±Î²":7517,"ĠÎµá¼°Îºá½¸ÏĤ":7518,"Ġá¼°Î±ÏĦÏģÎ¿á½¶":7519,"Ġá¼ĦÏģÎ¹ÏĥÏĦÎ¿Î½":7520,"ĠÎ½ÎµÎ±Î½á½·ÏĥÎº":7521,"Ġá¼ĲÎ¼Î½Î·Î¼á½¹Î½ÎµÏħ":7522,"Ġá¼ĦÎ¾Î¹Î¿Î½":7523,"ÏĦÏģÎ±Î½":7524,"ÎµÏģÎ±":7525,"ÏħÏģÎµ":7526,"ÎºÎµÏħ":7527,"á½³Î²Î·":7528,"á¿ĸÏ²":7529,"Î¾Î¿Î¼Î±Î¹":7530,"Ġá¼ĶÎ±Î½":7531,"ĠÎ»á½µÎ¼":7532,"Ġá½ĢÎ»ÎµÎ¸":7533,"ĠÎ¼ÎµÎ»":7534,"ĠÎ¼ÎµÎ¼Î½á¿ĨÏĥÎ¸Î±Î¹":7535,"á½±Î½Î¸Î·ÏĤ":7536,"á½·Î½Î¿Î½ÏĦÎµÏĤ":7537,"Ġá¿¥Î±Î³":7538,"Ġpostea":7539,"Ġá¼ĢÏĢÎ¿ÏĩÏīÏģ":7540,"Ġsame":7541,"ÏĢÎµÏĥÎµÎ½":7542,"Ġá¼ĲÎ³ÎºÎ±Ïģ":7543,"ĠÎ¼á½³ÏĥÎ·ÏĤ":7544,"ĠÏĢÎ»Î®":7545,"Ġá¼ĢÎºÎ¹Î½":7546,"á½³Î¿Î½ÏĦÎ±":7547,"á½»Î½Î·":7548,"Ġrescr":7549,"Ġdes":7550,"ĠÎ¸ÎµÏģÎ¼Î±á½·Î½ÎµÎ¹":7551,"ÏĥÏĦá½±ÏĥÎµÎ¹ÏĤ":7552,"ĠÎºÎ±ÏĦÎ±ÏĥÎºÎµÏħá½´Î½":7553,"Ġclause":7554,"ĠÎµá¼´ÏīÎ¸Îµ":7555,"Ġá¼ĢÏĨÎ¹ÎºÎ½Îµá¿ĸÏĦÎ±Î¹":7556,"gg":7557,"ĠÎµÎ¼ÏĢ":7558,"ĠÏĥÎ¬Ïģ":7559,"ĠÎµá¼·":7560,"ÎºÎ±Î¯":7561,"Ġá¼ĢÏĢÎµÎº":7562,"Î¼ÎµÎ»Î¹":7563,"Ġá¼ĦÎ»Î»Î·ÏĤ":7564,"Ġá¼ħÎ³Î¹":7565,"ĠÎ´ÎµÎºÎ±":7566,"ĠÏĨá½»Î»Î»Î±":7567,"ĠÎłÎŃ":7568,"ĠÏĦÏģá½·ÏĦá¿³":7569,"Ġref":7570,"ĠÎµÎ¹Ïĥ":7571,"ĠÏĢÎ±ÏĩÏħÎ¼":7572,"Ġá½ĢÎ½Î¿Î¼á½±Î¶ÎµÎ¹":7573,"Ġá¼ĲÎ¼ÏĨÏģá½±":7574,"ĠÎ¿á½ĲÏģÎ±Î½á½¸Î½":7575,"Î³Ïģá½±ÏĨ":7576,"Ġá½ĢÎ´á½»Î½Î·":7577,"Ġá¼ĲÎ³ÎµÎ½Î®Î¸Î·":7578,"ĠÏĩÎ¹ÏĦá¿¶Î½Î±":7579,"Ġá¿¥Î·ÏĦá½·Î½Î·ÏĤ":7580,"ĠÎ·Î¼ÎµÏģÎ±":7581,"Ġhowever":7582,"nce":7583,"ob":7584,"Ġro":7585,"ÏĢÎ¹Îº":7586,"á½½Î¼Î±ÏĦÎ¿ÏĤ":7587,"ÏĢÎ¿á½»":7588,"Î®Î¸Î·ÏĥÎ±Î½":7589,"Ġá¼ĳÏĥÏĦ":7590,"Ġá¼ĢÏĢÎ¿Î½":7591,"Î·ÏĥÎ¬":7592,"Ġ(?":7593,"Ġá¼ĢÎ½Î±ÏĢÎ½ÎµÏħ":7594,"Ġá¼ĶÏĩÎ¿Î½ÏĦÎ±ÏĤ":7595,"Ġá¼ĶÏĩÎ¿ÏħÏĥÎ±Î½":7596,"Ġá¼ĲÎ³Î½":7597,"ĠÎºÎ±Î¹ÏģÎ¿á¿¦":7598,"Î¿ÏįÎ½ÏĦÏīÎ½":7599,"á½»Î»Î¿Ïħ":7600,"Ġbeing":7601,"Ġá¼ĢÏĥÏĨÎ±":7602,"ÏĦÎ¿á½»ÏĦÎ¿Ïħ":7603,"ĠÏĢÎµÏĢá½³ÏģÎµÏīÏĤ":7604,"ĠÎ»Î±Î¼Î²Î±Î½":7605,"ĠÏĥÏĨÎ¿Î´Ïģá½¹ÏĦÎµÏģÎ¿Î½":7606,"Ġá¼ĶÎ»ÎµÎ³Î¿Î½":7607,"ĠÏĢÎµá½·Ïģá¾³":7608,"ĠÎ²ÎµÎ»ÏĦá½·":7609,"ĠÏĢÎ±ÏģÎ±ÏĢÎ»á½µÏĥÎ¹Î¿Î½":7610,"Ġá¾łÎºÎ¿":7611,"Ġfollow":7612,"21":7613,"ÏģÎº":7614,"ĠÏĦÎµÎ½":7615,"ĠÎºÎ»ÎµÎ¹":7616,"ĠÏĥÎ¹Î½":7617,"ÏĥÏĦá½³Î¿Î½":7618,"ÏĪÎ±Î»":7619,"á¿ĥÏĥÎ¹":7620,"Ġá¼ĲÏĢÎ¹ÏĦá½·Î¸ÎµÎ¹":7621,"ĠÏĦÏģÎŃ":7622,"Î¸ÏģÏīÏĢÎ¿ÏĤ":7623,"ÏīÎ¸á½³Î½":7624,"ĠSt":7625,"Ġhand":7626,"Ġá¼ĲÎ¼Î²Î±Î»":7627,"ĠÎºÏģá½±ÏĥÎµÏīÎ½":7628,"ĠÏĢÎ¿Î¹á½µÏĥÎ±ÏĥÎ¸Î±Î¹":7629,"á½»ÏĦÎ·ÏĦÎ¿ÏĤ":7630,"ĠÏĢÎ»Îµá½·Î¿Î½Î¹":7631,"ĠÏĩÏģá½½Î¼ÎµÎ¸Î±":7632,"Ġá¼ĲÎ»á½³Î³Î¿Î¼ÎµÎ½":7633,"Ġá¼ĦÎºÏģÏīÏĤ":7634,"á¼ĨÏģ":7635,"ĠÎ´ÏħÏĥÏĢÎ½Î¿á½·Î±ÏĤ":7636,"ĠÂ°]":7637,"á½ł":7638,"Ïĥá½»":7639,"ÏĥÏĨÎ±Î»":7640,"á¿ĸÏĦÎ¹ÏĤ":7641,"Î¯Î¼ÏīÎ½":7642,"ĠÎ´Î¹ÏĦ":7643,"á½½Î¼ÎµÎ½Î¿ÏĤ":7644,"ÏĪÎ¿ÏħÏĥÎ¹Î½":7645,"Ġá¼ĲÎºÏĦÎµÏĦÎ±":7646,"á½³ÏģÎµÎ¹":7647,"Î´Î¹Î±ÏĨ":7648,"ĠÏĥÏħÎ½Î±Î½":7649,"ÎºÎ¿ÏħÏĥÎµÎ½":7650,"á¼ĦÎ½":7651,"Ġá¼¹ÏĢÏĢÎ¿ÎºÏģá½±ÏĦÎ·Î½":7652,"ĠÎºÏģá½·ÏĥÎ¹ÏĤ":7653,"á½½Î½ÏīÎ½":7654,"ÏįÎ½á¿ĥ":7655,"Ġá¼ĢÎ½Î¸Ïģá½½ÏĢá¿³":7656,"Ġá¼ĢÎ¾Î¹Î¿á¿ĸ":7657,"Ġá½ĳÏĢá½¹Î»Î¿Î¹":7658,"ĠÎ»Î±Î²á½¼Î½":7659,"ĠÏĥÏħÎ³Î³Ïģá½±":7660,"ĠÎ¼ÎŃÎ½ÏĦÎ¿Î¹":7661,"ĠÏĥÎµÎ±ÏħÏĦá¿·":7662,"Ġá¿¥Îµá¿¦Î¼Î±":7663,"rong":7664,"Ġimprob":7665,"Î±ÏĥÎ±":7666,"ÏĢá½¹Î½":7667,"Î´Î±Î»":7668,"ÏĨÎ¿ÏħÏĤ":7669,"ĠÏĥÎ±Î²":7670,"ÏĦÎ¹Î¼":7671,"ĠÎ¸á¿Ĩ":7672,"ĠÎ¸á½µ":7673,"ĠÎ¸ÏħÎ³":7674,"Î½Î±ÏĥÎ¸Î±Î¹":7675,"ĠÎºÎ±Î¸Ê¼":7676,"ĠÎµá¼´ÏĢÎ¿Î¼ÎµÎ½":7677,"ĠÎ¸Îµá½±ÏĥÎ±ÏĥÎ¸Î±Î¹":7678,"Ġá½ĦÏģÎµÎ¹":7679,"Ġá¼ĢÏĨÎ±Î½":7680,"á½µÎ½Î·":7681,"ĠÎ´ÏħÎ½á½±Î¼ÎµÎ½Î¿Î½":7682,"ÏĦÎŃÏģÎµÏĤ":7683,"Î¼ÎŃÎ½Î¿ÏĤ":7684,"ĠÎ¼Î¹ÎºÏģÎ¿":7685,"ĠÎ³Î½á¿¶ÏĥÎ¹Î½":7686,"ĠRT":7687,"Ġá¼ĢÏĢÎ¿ÏĥÏĦÏģÎŃ":7688,"ĠÏĢÎ»Î·ÏĥÎ¯Î¿Î½":7689,"Î·Ïĥá½±Î¼ÎµÎ½Î¿ÏĤ":7690,"Î¿á¼¶":7691,"Ġá¼ĲÎ³ÎµÎ½á½µÎ¸Î·":7692,"ĠÎ³Î»á½·ÏĥÏĩÏģÎ¿Î½":7693,"ĠÎ¿á½ĲÎ´á½³ÏĢÏī":7694,"ĠÎºÎµÎ»Îµá½»ÎµÎ¹":7695,"Ġá¼ĢÏĢÎ¿Î¸Î±Î½Îµá¿ĸÎ½":7696,"Ġá¼¨ÏĥÎ±":7697,"ĠÎ½Îµá½»ÏģÎ¿Î¹ÏĤ":7698,"Ġá¼¸Î½Î´Î¹Îº":7699,"ÏĦÏģá½±":7700,"Î¼ÎµÎ¹ÏĤ":7701,"ĠÎ´á½³Î½":7702,"ÏĥÏĦÏīÏĤ":7703,"Î²Î·ÏĤ":7704,"ĠÏĦá½°Ï²":7705,"ÏĥÎ¹ÎµÏĤ":7706,"Ġá¼ĦÏĨ":7707,"ÏĪÎ¿Î¼Î±Î¹":7708,"ĠÏĩÏģá¿¶Î½ÏĦÎ±Î¹":7709,"Î¼ÎµÏĦÎ±":7710,"Ġá¿¥á½·Î³":7711,"Î¿Î¼á½³Î½Î±Î¹ÏĤ":7712,"Ïģá½±ÏĤ":7713,"ĠÎ¸ÎµÎ¿Ïħ":7714,"ĠÎ¼á½³ÏĥÎ·Î½":7715,"ÏĦÎ¹Îºá½µÎ½":7716,"ĠÎ²Î±Ïĥ":7717,"ĠÎ¿á¼·Î±":7718,"á½³Î¿Î½ÏĦÎ¿ÏĤ":7719,"Î¸á½³ÏĤ":7720,"ĠÏĦÎ¿ÏħÏĦÎŃ":7721,"Ġá½ĳÏĢá½±ÏģÏĩá¿ĥ":7722,"Ġrest":7723,"Ġá¼¹ÏĢÏĢÎ¿ÎºÏģá½±ÏĦÎµÎ¹":7724,"Ġá½ĢÎ¾á½»":7725,"ĠÎ´ÏħÎ½Î±Î¼á½³Î½ÏīÎ½":7726,"ĠÎºÎ±Îºá½°":7727,"ĠÏĢÎ»ÎµÏħÏģá½°ÏĤ":7728,"Ġá¼ĢÏģÎ±Î¹á½¸Î½":7729,"ĠÎ³ÏħÎ½Î±á¿ĸÎºÎ±ÏĤ":7730,"ĠÎ´Î¿ÎºÎµá¿ĸÎ½":7731,"ĠÎ´ÏİÏĥÏī":7732,"Ġcomp":7733,"á¼ĢÎ¼Î¼ÏīÎ½Î¹Î±ÎºÎ¿á¿¦":7734,"ĠÏĩÏģá½¹Î±Î½":7735,"ĠÎºá½·Î½Î´ÏħÎ½Î¿ÏĤ":7736,"ĠÎ§Ïģá½»ÏĥÎ¹ÏĢÏĢÎ¿ÏĤ":7737,"Ġif":7738,"ĠÏĦá½µ":7739,"Î¿ÏħÏĥá½·":7740,"Î¯Î½ÎµÎ¹Î½":7741,"ĠÎ´Î¹á½±Î½":7742,"ÏģÎ¹ÏĥÎµÎ½":7743,"Ġá¼ĲÏĥÏĦÎ¯Î½":7744,"Ġá½¡Î´á½·":7745,"Ġocc":7746,"Î¿á½»ÏĥÎ±Î¹ÏĤ":7747,"ÏĦÎ¿Î¹Î±":7748,"Ġá¼ĲÎ³ÎºÎ±ÏĦÎ±":7749,"ÏĢÎ¿Î½ÏĦÎ±Î¹":7750,"ĠÏĥÏħÎ½á¿Ĩ":7751,"ĠÎµá½ĲÎºÏģÎ±":7752,"Î¸ÎµÎ½ÏĦÎ¿":7753,"ĠÏĢá½±Î½ÏĦ":7754,"ÎºÎ¿ÏħÏĥÎ±Î½":7755,"ĠÏĦÎ¿Î¹Î±á¿¦ÏĦÎ±Î¹":7756,"Î´Îµá½·ÏĩÎ¸Î·":7757,"ĠÏĦÎ¿Î¹Î¿á½»ÏĦá¿³":7758,"ĠÎ¼Î±Î»Î±Îºá½¸Î½":7759,"Ġá¼ĢÎ³Î±Î¸á¿¶Î½":7760,"ĠÏĢÎ±Î»Î±Î¹Î¿á½¶":7761,"ĠÎ»ÎµÏĢÏĦÎ¿":7762,"urn":7763,"ÏĢÎ»Î±ÏĥÏĥÎµ":7764,"own":7765,"ulg":7766,"Î¿Î´Î¿Î½Î¿Ïĥ":7767,"ĠÎºÎ¬Î¼Î½":7768,"Ġunt":7769,"Ġá½ģÏĢÎ¿á¿ĸá½¹Î½":7770,"Ġá¼ĲÏĢÎ¹ÏĦá½µÎ´ÎµÎ¹Î¿Î½":7771,"ĠÎ³Ïģá½±Î¼Î¼Î±ÏĦÎ¹":7772,"Ġá¼ĲÏĢÎ¹ÏĢÎ»á½³Î¿Î½":7773,"ĠÎºá¾ĦÏĢÎµÎ¹ÏĦÎ±":7774,"ĠáµĽâģ±áµĪ":7775,"ÏĢÏĮÎ½":7776,"ĠÎºÎ·Îº":7777,"Î³ÏħÏĢÏĦÎ¿Î½":7778,"á½±Î¼ÎµÎ½Î¿ÏĤ":7779,"Ġá¼ĢÏĦÏģá½³":7780,"ĠÎ¿ÏħÏĩ":7781,"Î¾Î¿ÏħÏĤ":7782,"Ġá¼ĶÏĦÎ¿ÏħÏĤ":7783,"Îµá¿ĸÏĥÎ¸Îµ":7784,"Ġá¼ĦÏĩÏģÎ·":7785,"Î»Î¹Î¿Î¹":7786,"ĠÎ¸ÎµÏĮÎ½":7787,"nder":7788,"Ġá¼¦ÏģÎ¿ÏĤ":7789,"Î±á½·ÏģÎµÏĥÎ¹Î½":7790,"ĠÎ¼á½±ÏĦÎ·Î½":7791,"ĠÏĢÏħÏģá½·":7792,"ĠFor":7793,"Î¼ÎŃÎ½Î·ÏĤ":7794,"Ġname":7795,"ĠÏĦá½¹ÏĢÎ¿Ïħ":7796,"ĠÎ¿á¼°ÎºÎµá½·ÏīÎ½":7797,"ĠÎ¼Î±ÏģÎ±":7798,"ĠÏĢÏģá½¸Ï²":7799,"ĠÎ´Î¹Î±ÏĥÏĦÎ¿Î»á½´Î½":7800,"ĠÏĩÏīÏģá½·ÏīÎ½":7801,"áµĽi":7802,"Ġá¼ĶÏĥÏīÎ¸ÎµÎ½":7803,"ĠÏĢÎµÏĢÎ¿Î¹Î¸":7804,"ĠÏĦÏģÎ¿Ïĩá½·ÏĥÎº":7805,"ĠÏĦÎµÏĥÏĥÎ±ÏģÎµÏĥÎºÎ±Î¹":7806,"ĠÏĢÎµÏĢÎ»Ïħ":7807,"ĠÏĦá½·Î½Î¿ÏĤ":7808,"Ġá¼ĲÏĢÎ¿ÏģÎµá½»Î¸Î·":7809,"ART":7810,"ook":7811,"Î¿ÏĦá½µÏĦÏīÎ½":7812,"ÏĢÏĦÎ¹":7813,"Î¼Î¯":7814,"Ġá¼ĢÎ¼Î²":7815,"ÎµÎ½á½¹":7816,"ÎµÏģÎµ":7817,"ĠÎ±á½ĲÏĦÎ¿":7818,"Ġá¼ĶÎ¼Î²":7819,"ĠÎ¿á½ĲÏģ":7820,"ĠÎ´Î¹Î±Î¼á½³Î½":7821,"ĠBQ":7822,"ĠÏĦÎ¿Î¹Î³Î±ÏģÎ¿á¿¦Î½":7823,"ÏĦÎ¹Îºá¿¶ÏĤ":7824,"Ġá½ĳÎ³ÏģÎ¿":7825,"ĠÏĪÏħÏĩÏģá½¹ÏĦÎµÏģÎ¿Î½":7826,"Ġá¼ģÏĢÎ¬Î½ÏĦÏīÎ½":7827,"ĠÎ¿á¼´Î´Î±":7828,"ÎºÏģÏħ":7829,"ÏĦá½³ÏĦÎ±":7830,"ÎŃÏģÎµÎ¹":7831,"ĠLuc":7832,"Ġá¼ģÏĢÎ»Î¿á¿¦Î½":7833,"Î¾Î±Î½ÏĦÎµÏĤ":7834,"ĠÎ»á½³Î¾ÎµÏīÏĤ":7835,"Ġá¼ĢÎ¼ÏĨÎ·Î¼ÎµÏģÎ¹Î½":7836,"ĠÎ´Î¹Î´á½¹Î½Î±Î¹":7837,"Ġali":7838,"ĠÏĢÎ±ÏģÎ¿Î¾ÏħÎ½":7839,"ĠÎºÎ±ÏģÏĢá½¸ÏĤ":7840,"ĠÏĦÎ±á¿¦Î¸":7841,"ÏĥÏĥÎ±ÏģÎ±ÏĤ":7842,"Î±á½ĹÏĦÎ±Î¹":7843,"Ġá¼ĦÏģÎ¹ÏĥÏĦÎ±":7844,"ĠÏĢÎ¿Î´á½¸ÏĤ":7845,"ĠÏĢÎ»Î·ÏĥÎ¹á½±Î¶":7846,",)":7847,"Î½ÏīÎ½":7848,"ÏĤÝ²":7849,"ÏħÎ¼á½±ÏĦÏīÎ½":7850,"á½±ÏģÎ¹Î¿Î½":7851,"Î¹Î½ÎµÎ½":7852,"Ġá¼ĲÎ½Î¿Ïĩ":7853,"ĠÎ´Î¹ÎµÎº":7854,"Ġá¼ĶÎ³":7855,"ÎŃÏĦÏī":7856,"Ġá½Ģá¿¤á¿¥":7857,"ĠÏĢÎ±ÏģÏī":7858,"ĠÏĢÎ±Ïģá½¹Î½ÏĦÎ¹":7859,"ÏĢÎ±Î¸":7860,"Ġá½ĦÏĪÎµÎ¹":7861,"ĠÏĥÎºÎµÏį":7862,"ĠÎµá½ĲÎ±":7863,"ĠÎ¼á½µÎ½Î¹":7864,"ĠÏĢÎ¿Î»á½ºÎ½":7865,"Ġnear":7866,"ÏĢá½·ÏĢÎ±Î½":7867,"ari":7868,"Ġá½ĢÎ¾ÏħÎ¼":7869,"ĠÏĢÎ±ÏĩÎµá¿ĸÏĤ":7870,"ĠÎ»ÏĮÎ³Î¿Ïħ":7871,"ĠÎ±á¼°ÏĥÎ¸Î±Î½":7872,"Ġá¼¸Î·ÏĥÎ¿á¿¦Î½":7873,"ĠÎ½ÎµÏĨÏģÎ¿á½ºÏĤ":7874,"ĠÎ´ÏģÎ¹Î¼á½º":7875,"ĠÏĢÎ½Îµá½»Î¼Î¿Î½Î¹":7876,"ÏĢÎ¿Î»Î»á½±ÎºÎ¹ÏĤ":7877,"Ġá½ĢÎ½á½¹Î¼Î±ÏĦÎ±":7878,"Ġxl":7879,"Ġá¼ĲÏ²ÏĦÎ¹":7880,"Ġá¼Ģá¿¤á¿¥ÏīÏĥÏĦá½·Î±Î½":7881,"Ġrendered":7882,"ĠÏĢÏĦÎ¹ÏĥÎ¬Î½":7883,"ĠÏĦÎµÏĥÏĥÎµÏģ":7884,"Ġpassa":7885,"Ġá¼ĺÏģÎ±ÏĥÎ¹ÏĥÏĦ":7886,"Ġá¼¸Î±ÎºÏİÎ²":7887,"act":7888,"rd":7889,"Ġá¼¼":7890,"ĠÏĦá¿¶":7891,"ĠÏĦÏģÎ¹Î²":7892,"ĠÎ±ÏĢÏī":7893,"Î¿Î¹ÏĦ":7894,"ĠÎ³ÎµÏģ":7895,"ĠÎ³á½¹Î½":7896,"Î¼á½³Î½ÏīÏĤ":7897,"ĠÏĦÎ¿ÏĥÎ±á½»":7898,"Î·ÏĥÏī":7899,"Î»Î±á½¶":7900,"ĠÏĢÎ±ÏĦÎŃÏģÎ±":7901,"ÏĥÏĩÎ·":7902,"Ġá¿¥Î·":7903,"Î³Î±Î¸":7904,"ĠÏĪÏħÏĩÏģá½¹Î½":7905,"ĠÎ´Î¿ÎºÎ¹":7906,"á½·Î³Î½ÎµÏĦÎ±Î¹":7907,"ÎĻÎĴ":7908,"ÎĻÎŁÎĿ":7909,"ĠÎµá¼°ÏģÎ®":7910,"Ġgl":7911,"á½¹ÏĦÎ±ÏĦÎ±":7912,"Ġá¼ĢÎ½ÎµÎ»":7913,"á½½Î´ÎµÎµÏĤ":7914,"Ġá¼ĦÎºÏģÏīÎ½":7915,"Ġá¼ĢÏĢÎ¿Î´Îµá½·Î¾ÎµÏīÏĤ":7916,"ĠÏĢÎ±á¿ĸÎ´ÎµÏĤ":7917,"ĠÏĥÏĢÎ»á½±Î³ÏĩÎ½Î¿Î½":7918,"ĠÏĨÎ±ÏģÎ¼Î¬ÎºÏīÎ½":7919,"Ġchil":7920,"ĠÎ´á½·Î±Î¹ÏĦÎ±Î½":7921,"It":7922,"ÏģÎ·ÏĥÎµÎ½":7923,"ÏĥÎ¿ÏħÏĥÎ¹":7924,"Ġá½į":7925,"ÏĩÎ»":7926,"Î´á½»Î½":7927,"á½±Î²":7928,"ĠÏĥÎµÎ¹":7929,"á¿ĸÎ½Î±Î¹":7930,"Ġá¼ĲÎ¾Î®":7931,"ĠÏĢÎ¿Î»Î»á½´":7932,"ĠÎ²Î±ÏĥÎ¹Î»ÎµÎ¹":7933,"Ġá¼ĢÏģÏĩÎ±":7934,"Ġmight":7935,"Ġá¼ĢÏĨÎµÏĪ":7936,"ĠÎ»á½³Î³ÎµÏĥÎ¸Î±Î¹":7937,"ĠÏĢá½¹Î´Î±":7938,"Ġday":7939,"Ġá½ĦÎ½Î¿Î¼Î¬":7940,"Ġá¼°Î±ÏĦÏģá½¸ÏĤ":7941,"ĠÎ²Î¿ÏĦ":7942,"Ġá¼°ÏĥÏĩÏħÏģá½¸Î½":7943,"ĠÎµá½ĶÎºÏģÎ±ÏĦÎ¿Î½":7944,"Î»Îµá½»ÏĥÎµÏĦÎ±Î¹":7945,"ĠÎºÏįÎºÎ»á¿³":7946,"Î½ÎµÎ³ÎºÎ±Î½":7947,"ĠÏĢá½±Î¸Î·Î¼Î±":7948,"Ġá½ĦÏģÎ³Î±Î½Î±":7949,"ĠÏĨÏģÎµÎ½Î¹":7950,"ĠÏĪá½»ÏĩÎµÎ¹Î½":7951,"Ġá¼ķÎ´ÏģÎ±ÏĤ":7952,"Ġá¼ĲÎ½ÎµÏĦÎµá½·":7953,"Ġearth":7954,"Ġá¼ĦÎ³Î³ÎµÎ»Î¿ÏĤ":7955,"Ġá½¥Ï²ÏĢÎµÏģ":7956,"ĠÏĢÎ±ÏĩÏħÎ¼ÎµÏģ":7957,"ĠÏĦÎµÎ½á½¹Î½ÏĦÏīÎ½":7958,"ĠZ":7959,"Ġ]":7960,"ÎµÏĦÎ±á½·":7961,"ÏħÏģá½·Î¿Ïħ":7962,"ĠÎºá¼ĢÏĢ":7963,"ÏīÎ¸ÎµÎ½":7964,"Î³Î»":7965,"Î´Ïģá½¹":7966,"Ġá¼ĶÏĦ":7967,"ÎŃÏĦÎ¹":7968,"ÏģÎ¹Î³":7969,"Î½Î±Î³":7970,"Ġá¼ĲÎ¾Î¿Î»ÎµÎ¸":7971,"ÏĥÎºÎµÎ¹Î½":7972,"Ġá¼ķÏĢÎµÏĥÎ¸Î±Î¹":7973,"Ġá¼ĶÏĩÏī":7974,"Î³Î³ÎµÎ¹Î»":7975,"Ġá¼ĢÏĨá½³":7976,"á½µÎ½ÏīÎ½":7977,"Ġá½ģÎ¼Î¿Î³ÎµÎ½":7978,"ĠÎºÎµÎ½Î¿á¿¦Î½":7979,"Ġá¼ĢÎ³Î³ÎŃ":7980,"ĠÏĥÏħÏĥÏĦá½³Î»Î»":7981,"Ġá½ĢÎ½á½¹Î¼Î±ÏĦÎ¹":7982,"ĠÏĦá½»ÏĩÎ¿Î¹":7983,"ĠÏĥÏħÎ½Î¸á½³ÏĥÎµÏīÏĤ":7984,"Ġá¼ĪÏĥÎºÎ»Î·ÏĢÎ¹á½±Î´Î·ÏĤ":7985,"ÎºÏģÎ¯Î¸Î·":7986,"ĠÎĿÎ±Î²Î¿ÏħÏĩ":7987,"ĠÏĨÎ¬ÏģÎ¼Î±ÎºÎ¿Î½":7988,"ĠÏĩÎ»Î¹Î±Ïģ":7989,"ÎĻÎĴÎĽ":7990,"ÏħÎ¾":7991,"ÏīÏģÎ¹Îº":7992,"Î¸Î¿Î¼ÎµÎ½":7993,"ÏĦÎ±ÏħÏĦá½¶":7994,"ĠÎµÎ±ÏħÏĦÎ¿Ïħ":7995,"ĠÎ±á½ĲÏĦÎ¬":7996,"ĠÏĢÏģá½³":7997,"Ġá¼ĲÎºá½³":7998,"Ġá¼ĲÎºÏĨÏħ":7999,"Îµá½·ÏĤ":8000,"Ġá¼ĢÎ½Î±Î¹Ïģ":8001,"Î·ÏĥÎ·":8002,"Ġpossib":8003,"Ġá¼¸ÏĥÎ±":8004,"ÏĢÎ¿Î½ÏĦÎ±":8005,"Î¸ÎµÏģÎ±":8006,"ĠÎ¼á½¹Î½Î±ÏĤ":8007,"ĠÏĢÎµÏģÎ±":8008,"ÏĨÎ¸Î±Ïģ":8009,"Ġá¼±Î¼á½±":8010,"Î´ÏģÎ¿Ïħ":8011,"ĠÎ¿á¼°ÎºÎµÎ¹":8012,"oun":8013,"ÏĦÏĦá¿ĥ":8014,"ĠÏĢÏħÏģÎµÏĦ":8015,"Ġá¼ĺÎ»ÎµÎ¹":8016,"ĠÎ¹Î´":8017,"Ġ62":8018,"ÏĥÎ¸ÏīÏĥÎ±Î½":8019,"ĠÎ¸ÎµÏģÎ±ÏĢÎµá½»ÎµÎ¹Î½":8020,"Îµá¼¶Î¸":8021,"ĠÏĥÎºÎ¿ÏĢÎµá¿ĸÏĥÎ¸Î±Î¹":8022,"Ġá¼ĶÎ»Î±Î²Î¿Î½":8023,"Ġá¼´ÏĥÏĩÎµÎ¹":8024,"ĠÎ´Î¹Î±ÏĨÏģá½±":8025,"Î¿ÏĥÎºÏħ":8026,"ĠÎºÏģÎ¹Ïĥá½·Î¼ÏīÎ½":8027,"ÏģÎ³á½±ÏĥÎ±ÏĦÎ¿":8028,"Ġá¼ĲÏĦÎµ":8029,"á½³Î²":8030,"ĠÎ¼Î¯Î±Î½":8031,"ÏĩÎ¿":8032,"ĠÎ¿Î½":8033,"ĠÎ³Î±":8034,"Îµá¿ĸÏĥÎ¹Î½":8035,"ĠÎ»Î·Î¼":8036,"á½½Î¸Î±":8037,"Ġthan":8038,"ĠÏĦÎ¹Ïĥá½¶":8039,"Ġá¼ķÏĦÎµÏģá½¹Î½":8040,"ĠÏĥÏħÎ½ÏĦÎ¹":8041,"ĠÎµá½ĲÎµÎ¾":8042,"Ġá¼ĢÎºÏģÎ¿":8043,"ĠÎ´ÎµÎ´":8044,"ĠÏĢá½±Î½ÏĦÎ·":8045,"Ġá¼ĪÏĢÎ¿Î»Î»":8046,"ĠÎľÎ¹":8047,"ĠÎĴÎĻÎĴÎĽ":8048,"Ġá¼°ÏĥÏĩÏħ":8049,"Ġá¼°ÏĥÏĩá½·Î¿Î½":8050,"ĠÎ»á½³Î³Î¿Î¼ÎµÎ½":8051,"Ġland":8052,"ĠÎ¹Î´Î¿Ïħ":8053,"ark":8054,"ÏĢÎµÎ¹Î¸":8055,"Ġá½ĢÎ¾á½º":8056,"Ġá¼ĲÏģÎ³Î¬Î¶":8057,"Ġá¼ĢÎ»á½µÎ¸ÎµÎ¹Î±Î½":8058,"ĠÎ£Î±Î¼":8059,"ĠÎ¸Î±ÏħÎ¼á½±":8060,"ĠÎ¾Î·ÏģÎ±Î¹Î½á½¹Î½ÏĦÏīÎ½":8061,"Î±á½ĲÏĦÎ¿á¿¦":8062,"ĠÏĩÏħÎ»á½¸ÏĤ":8063,"Ġá¼ĲÏĢÎ¿Î¯Î·ÏĥÎ±Î½":8064,"ÏĥÏĥÎµÎ¹Î½":8065,"ĠÎµá½ķÏģÎµÏĥÎ¹Î½":8066,"ĠÏĢÎµÏģÎ¹ÎµÏĩá½¹Î¼ÎµÎ½Î¿Î½":8067,"Ġrepresent":8068,"á½±ÏĥÏĦÏģÎ¹Î¿Î½":8069,"))":8070,"Váµĥ":8071,"ag":8072,"lic":8073,"Î±ÏĥÎ¹Î½":8074,"Ïģá¿¶ÏĤ":8075,"ÏĥÏĥá¿ĥ":8076,"ĠÎºÎ±ÏĦÎ¹":8077,"Î¸ÏħÎ½":8078,"ÏĨÏį":8079,"ÏģÎ±Î²":8080,"Ġá¼ĲÎ½á½·ÏīÎ½":8081,"Î¯ÏĥÎ¸Î·":8082,"Î¬ÏĥÎµÎ¹":8083,"ÏģÎ¹ÏĥÏĦÎ¿Î½":8084,"ĠÏĦÎ¿á½ºÏ²":8085,"ĠÏĢÏģÎ¿Î±Î¹":8086,"Ġá½¡Î¼":8087,"ĠÏĩÏģÎ·Ïĥá½·":8088,"Ġá¼ķÏĪÎµ":8089,"Ġá¿¥á½µÏĥÎµÎ¹":8090,"ĠÏĢÎ¿Î¹Î®ÏĥÏī":8091,"Ġá¼ĢÎºá½±":8092,"ĠÎ³ÎµÎ½á½µÏĥÎµÏĦÎ±Î¹":8093,"ĠÏĨÎ±Ïĥá½¶Î½":8094,"Ïĥá½·Î¿Î¹ÏĤ":8095,"Î³ÎµÏĦÎµ":8096,"Ġá¼§ÏĥÏĥÎ¿Î½":8097,"ĠÎ¼Î¹ÎºÏģÎ¿á¿¦":8098,"ĠÎ¼ÎŃÏĩÏģÎ¹":8099,"ĠÏĦÏģÎ¹Ïĩá¿¶Î½":8100,"ĠÏĥÏĩá½µÎ¼Î±ÏĦÎ¹":8101,"Ġá¼ĢÎ»Î®":8102,"ĠÎ¼Î±ÎºÏģÎ¿á¿¦":8103,"ĠÏĩÎ¿Î»á½´":8104,"Î¾ÎµÏīÎ½":8105,"ĠÏĦÎŃÏĩ":8106,"ĠÏĦá¿ĨÏĥÎ´Îµ":8107,"ÏĦÎ¹Î½ÎµÏĤ":8108,"ĠÏĢÏģÎ¿ÏĥÎµÎº":8109,"ĠÎ»ÎµÎ³Î¿Î¼á½³Î½ÏīÎ½":8110,"Ġá¼ĢÏĥÎ¸ÎµÎ½ÎµÏĥÏĦ":8111,"ĠÎ¼ÎµÎ»Î±á½·Î½Î·ÏĤ":8112,"Ġá¼ĢÏĦÎ¼":8113,"ĠÎºÏģÎ¯Î¼Î±":8114,"ĠÏĦÎµÏĦá½±ÏģÏĦÎ·Î½":8115,"ĠÎ²Î»á½±Î²Î·ÏĤ":8116,"ĠÏĢá½³ÏĨÏħÎºÎµ":8117,"ĠÏĨÏģÎ¿Î½ÏĦá½·":8118,"Î´ÎµÎºá½±ÏĦÎ·Î½":8119,"ĠÎ¼ÏħÏĥá½¶Î½":8120,"ĠÎ³ÎµÎ½ÎŃÏĥÎ¸Î±Î¹":8121,"Ġá¼ĲÎ¾ÎµÏħÏģá½·ÏĥÎº":8122,"áµĽiáµĪ":8123,"ï»¿":8124,"Î±á¼°":8125,"Î»Î±Î½Î±":8126,"Îºá¿ĥ":8127,"ĠÎ´Î¹ÎµÏĥÏĦ":8128,"Î¿á¿ĸÏĥÎ¹Î½":8129,"ĠÎ¸á½±Î»Î±":8130,"ĠAT":8131,"Î¹ÎºÎ¿á½ºÏĤ":8132,"Ġá¼ĢÏĢÎ±Î½":8133,"ĠÎ¿á½ĸÏĤ":8134,"Ġá¼ĢÎ½Î±ÏĢÎ±":8135,"ĠÏĪÎ¹Î»":8136,"Î³Î¿Î½ÏĦÎ±":8137,"ĠÏĥÎºÎµá½»":8138,"Î´Î·Î³":8139,"Ġá¼ĪÏĥ":8140,"ither":8141,"ĠÎĻÎ·Î»":8142,"ÎºÎµÎ¹ÏĦÎ¿":8143,"Î·Î¸á¿ĩ":8144,"ÏĥÏĥÎ·":8145,"ĠÎºÎµÏĨÎ±Î»Î±á½·":8146,"out":8147,"ĠÏĩÏħÎ¼Î¿á¿ĸÏĤ":8148,"ĠÎ³Î¹Î½Î¿Î¼á½³Î½Î·ÏĤ":8149,"Î¬ÏģÎ¹Î½":8150,"Î»Î±Î¼Î²á½±Î½ÎµÎ¹":8151,"á¼ĪÎ»Î»":8152,"ÏĮÏĦÎ·ÏĦÎ¿ÏĤ":8153,"Ġá¿¥á½·Î¶Î±Î½":8154,"ĠÏĢÏģÎµÏĥÎ²ÏħÏĦ":8155,"ĠÎ³Î½á½½Î¼Î·Î½":8156,"ĠÎ¾Î±Î½Î¸á¿ĨÏĤ":8157,"Ġá¼ĲÏĥÎ¸Î¹":8158,"Ġá¼ĢÏĨÏģÎ¿Î´Î¹":8159,"ĠÏĢÎ±Î½ÏĦÎ±Ïĩá½¹Î¸ÎµÎ½":8160,"Ġá¼ĢÏĦÏģá½³Î¼Î±":8161,"Ġimp":8162,"Î»ÏħÎ³":8163,"Ġá¼ĲÏĢÎµÎ¹":8164,"ÏĦÎ¿Ïį":8165,"ĠÏĦÎ¿Î»Î¼":8166,"ĠÏĢÏģÎ¿ÏĥÏĦÎµ":8167,"Ġá¼ĢÏĢÎ·":8168,"ĠÎ´Î¹Î±ÏĥÏĦÎµÎ»Î»":8169,"Ġá¼ĲÏĢÎ¹ÏĥÏĦÎ·":8170,"Ġthese":8171,"ĠÏĥÏħÎ½Î®":8172,"ĠÏĢÎµÏģÎ¹ÏĦÎ¿Î½":8173,"ĠÎ´Îµá¿¦":8174,"á½³ÏĩÎµÏĦÎ±Î¹":8175,"ĠÏĢá½±Ïĥá¿ĥ":8176,"ĠÏĦá½±Î¾ÎµÏīÏĤ":8177,"ater":8178,"ĠÎ¼Î±Ïĩ":8179,"Ġá¼ĲÎ¼ÏĢÎµ":8180,"Ġá¼ĲÎ½ÎµÏģÎ³Îµá¿ĸÎ½":8181,"ĠÎ´Î·Î»Î¿á¿¦Î½":8182,"ÎºÎµá½·Î¼ÎµÎ½Î±":8183,"á½½Î´ÎµÏĥÎ¹Î½":8184,"ĠÎ´ÏħÎ½Î¬Î¼ÎµÎ¹":8185,"Î¸Îµá¿ĸÏĥÎ±":8186,"ĠÎºÏģÎ¯ÏĥÎ¹Î½":8187,"ĠÎ¿á¼´Î½ÏīÎ½":8188,"ĠÏĩÏģá½½Î¼ÎµÎ½Î¿ÏĤ":8189,"ĠÏĥÏħÎ»Î»Î±Î²":8190,"Î»Î¹ÏĢÎµá¿ĸÎ½":8191,"ĠÎµá½ĲÏģÏħÏĩ":8192,"ĠÏĦÎµÏģÎ¼Î¹Î½Î¸á½·Î½Î·ÏĤ":8193,"Ġá¼ĲÏĢá½·Î´ÎµÏĥÎ¹Î½":8194,"Ġá¼¸ÏīÏĥá½´":8195,"Ġá¼ĲÎºÎ¸Î»á½·":8196,"Ġafter":8197,"ĠÎĴÎµÎ½Î¹Î±Î¼Îµ":8198,"Î»Î¿á½·":8199,"ĠÎºÎ±ÏħÏĥ":8200,"ÏīÏģÎ¹Ïĥ":8201,"ĠÏĢÎµÎ¹Î½":8202,"ĠÎ¼á½»Ïģ":8203,"Î´Î¼":8204,"ĠÎ³á½³Ïģ":8205,"ĠÎ±á½ĲÏĦá½¹ÏĤ":8206,"ĠÏĨÎ¿":8207,"á½½Î¼ÎµÎ½Î¿Î¹":8208,"ÏĮÏĦÎ±":8209,"ĠÎ¿á½ĳ":8210,"Îµá½·Î´":8211,"Ġá½ĳÏĢÎŃ":8212,"ĠÏĦÎ¹Î¼":8213,"Î¿á½»Î¼ÎµÎ¸Î±":8214,"Ġá¿¥ÏħÎ¸":8215,"Ġpe":8216,"Î¿Î¼Î¿Î¹":8217,"ÏĮÎ½ÏĦÎ±":8218,"ĠÏĢÎ±ÏģÎ±Î³":8219,"ĠÎ¾ÏħÎ½":8220,"ĠÎ¼á½¹Î½á¿ĥ":8221,"Ġcurs":8222,"ĠÎ¼Î¿Ïģ":8223,"Î¸ÏģÏīÏĢ":8224,"Ġ44":8225,"Îºá½¹ÏĦÎ¿ÏĤ":8226,"á¼¡Î¼Îµá¿ĸÏĤ":8227,"ĠBáµĥáµĩA":8228,"ĠÏĩÏģÎ·ÏĥÎ¹":8229,"ĠÎ¼á½·Î¾Î±ÏĤ":8230,"Ġá½łÏĨÎµÎ»Îµá¿ĸ":8231,"ĠÏĥÎ±Î²Î±":8232,"Ġá½ħÎ¼Î¿Î¹Î±":8233,"ĠÏĥÏħÎ³Î³ÎµÎ½":8234,"Ġá¼ĢÎ¼ÎµÏĦÏģá½·":8235,"Ġá½ĢÎ»Î¯Î³":8236,"Ġá¼°á½±ÏĥÎµÏīÏĤ":8237,"Ġá¼ķÎ´ÏģÎ±Î½":8238,"Î¿á¼·Î¿Î½":8239,"ĠÏĢá¿ĨÏĩÏħÎ½":8240,"Ġá¼ĲÎ½Î¯Î¿ÏĦÎµ":8241,"Ġá½ĳÏĢÎ¿Ïĩá½¹Î½Î´ÏģÎ¹Î¿Î½":8242,"ggest":8243,"ĠÎĴÎĻÎĴÎĽÎĻÎŁÎĿ":8244,"ood":8245,"pr":8246,"with":8247,"Ïħá¼±":8248,"ĠÎµÎ¾Î±":8249,"ĠÎ³ÏģÎ±":8250,"Ġá¼ĶÏĥÏĦÎ·":8251,"ÏįÏģ":8252,"ÏįÏĥÎµÎ¹":8253,"Ġá¼ĢÏĢÏī":8254,"ĠÏĩÏģÎ¿Î¹":8255,"Ġá¼ĲÏĢÎ¹ÏĨ":8256,"Ġá¼ķÏĦÎ¿Î¹":8257,"Ġá¼ĢÎ½Î±ÏĢÏĦ":8258,"ĠÎ¿á½ĲÎ´Î±Î¼":8259,"Ġá¼ĢÎºÎ¿á¿¦ÏĥÎ±Î¹":8260,"á½»Î½Î·ÏĤ":8261,"ÎŁá¼±":8262,"Ġá¼°Î±ÏĦÏģá½¸Î½":8263,"Ġá¼ĢÏģÎ³ÏħÏģ":8264,"Ġá¼ĲÎ½á½³ÏģÎ³ÎµÎ¹Î±":8265,"ĠÏĦÎ¿á½ĲÏĢá½·ÏĢÎ±Î½":8266,"Ġá¼¸Î¿ÏħÎ´Î±Î¯ÏīÎ½":8267,"Ġá¼ķÎ»ÎºÎµÎ¹":8268,"ĠÎºÎ¿ÏĦá½»Î»Î·Î½":8269,"Ġá¼ĪÏĥÎºÎ»Î·ÏĢÎ¹á½±Î´Î¿Ïħ":8270,"Ġá¼¡Î³ÎµÎ¼Î¿Î½":8271,"ĠâĦµBQ":8272,"Ġtwo":8273,"ÏĦá¿ĨÏĥÎ±Î¹":8274,"ÎµÏĢÎ¹":8275,"Ġá¼ĲÏĦÎ±":8276,"ĠÏĢÏĮÎ½":8277,"ĠÎµÎ¸":8278,"ĠÎ´Î¹Î¿Î¹Îº":8279,"ÏĦÎ·ÏĦÎ±Î¹":8280,"Ïģá½·ÏĦÏīÎ½":8281,"ĠÏĢÎ±ÏģÎ¬":8282,"Ġmake":8283,"Î¿ÏįÎ¼ÎµÎ½Î¿Î½":8284,"ĠÎ¼Î¹ÎºÏģá¿¶Î½":8285,"ĠÎķÎ»Î¹":8286,"ction":8287,"Ġá¼ĢÏĢá½³ÏĥÏĦÎµÎ¹Î»ÎµÎ½":8288,"ĠÎ´ÏĮÎ¾Î±":8289,"ÏĢÏĦÎ¿Î½ÏĦÎ±Î¹":8290,"Ġonly":8291,"á½·ÏĥÏĦÎ±Î½ÏĦÎ±Î¹":8292,"ĠÎ¸á½±Î½Î±ÏĦÎ¿Î½":8293,"ĠPs":8294,"Ġá¼ĲÎ³Îºá½³ÏĨÎ±Î»Î¿ÏĤ":8295,"Î´ÏħÎ½Îµ":8296,"Î³Î±Î³Îµá¿ĸÎ½":8297,"ĠÎ´Î¹Î±Î³Î½á½½ÏĥÎµÏīÏĤ":8298,"Ġsuggest":8299,"Ġá½ĳÏĢÎ±ÏģÏĩá½¹Î½ÏĦÏīÎ½":8300,"ĠÎĿÎ±Î²Î¿ÏħÏĩÎ¿Î´Î¿Î½Î¿Ïĥ":8301,"26":8302,"eth":8303,"ru":8304,"á½§":8305,"ĠÎ¥":8306,"ĠÎ¼Î¯":8307,"Î´Î¬":8308,"á½¹ÏĦÎµÏģá½¹Î½":8309,"Î¼Î±ÏĦÎ¯":8310,"ÎŃÏģÏīÎ½":8311,"ÏĥÎ¹Î¼Î¿Î½":8312,"Ġá¼ĲÎºÏĢÏħ":8313,"Ġá½ĢÏĨÎ¸":8314,"Î®ÏĤ":8315,"ÏĦÎµÏģÎ¼Î¹Î½Î¸á½·Î½Î·ÏĤ":8316,"ĠÎ³ÎµÎ³Ïģá½±":8317,"ÏİÏģÎ±":8318,"ÏĥÎ±Î¹ÏĦÎ¿":8319,"ÏĢÎ¿Î½ÏĦÎµÏĤ":8320,"ĠÎ´ÎµÏį":8321,"Î¬Î½ÏīÎ½":8322,"ÏĢÏĦá¿³":8323,"ĠÏĨÎ±á½·Î½Î·ÏĦÎ±Î¹":8324,"Î»á½³Î»ÎµÎºÏĦÎ±Î¹":8325,"Î³ÏģÎ±ÏĢÏĦÎ±Î¹":8326,"ĠVulg":8327,"ĠÎ¼ÏħÏģÎ¹":8328,"ĠÎ³Î¹Î½á½¹Î¼ÎµÎ½Î±":8329,"ĠÎºÎ±Îºá¿¶Î½":8330,"Î²Î¿Î»á¿ĨÏĤ":8331,"ĠÎ¼Î¹ÏĥÎ¸":8332,"ĠÏĢÏģÏĮÏĦÎµÏģÎ¿Î½":8333,"ĠÎ²á½±Î¸ÎµÎ¹":8334,"Ġá¼ĢÏĢá½³Î¸Î±Î½ÎµÎ½":8335,"ĠÎºá½±Î¼Î½ÏīÎ½":8336,"ĠÎ´ÎµÎ¾Î¹á¿¶Î½":8337,"ĠÏĢÎµÏĢÎ»Î·":8338,"Ġá¼ĢÎ´ÎµÎ»ÏĨá¿¶Î½":8339,"Ġá½ĢÎ½Î¿Î¼Î±Î¶Î¿Î¼á½³Î½ÏīÎ½":8340,"Ġyou":8341,"ÏģÎ¹ÏĥÎ¼Î¿á½ºÏĤ":8342,"ĠÎ¸ÏħÏĥÎ¹Î±ÏĥÏĦá½µÏģÎ¹Î¿Î½":8343,"ĠÎ¿á½ĲÎºá½³ÏĦ":8344,"ĠÏĥÏħÎ¶ÏħÎ³á½·Î±ÏĤ":8345,"Ġá½ĳÏĢÎ¿ÎºÎµÎ¹Î¼á½³Î½ÏīÎ½":8346,"ĠÎ²á½±ÏģÎ¿ÏĤ":8347,"ĠÏĢÏģÎ¿Î³Î½ÏīÏĥÏĦÎ¹Îºá¿·":8348,"ĠÎ¸Î±Î»Î¬ÏĥÏĥÎ·ÏĤ":8349,"Ġá¼ĲÏĢÎ¹ÏĥÏĦÎ·Î¼Î¿Î½":8350,"ius":8351,"Îºá½±Ïģ":8352,"Î·Ï²":8353,"Ïĩá½³":8354,"Î´Î±Î¹":8355,"ĠÎµÎºÎµÎ¹":8356,"á¿ĸÎ±Î½":8357,"ĠÎ´Î¹Ê¼":8358,"Ġá¼ĶÎ¾Îµ":8359,"ĠÎ²Î´ÎµÎ»":8360,"Ġá¼ĲÎºÎ»ÎµÎº":8361,"Î´ÎµÏħ":8362,"ĠÏĢÎ±Î¸Î·":8363,"Ġá¼ĲÏĢÎ¹Î´Îµá½·":8364,"Ġpost":8365,"ĠÎµá½ĲÏĢÎ¿":8366,"ory":8367,"ĠÎ³ÎµÎ½Î¿Î¼á½³Î½ÏīÎ½":8368,"Î¼Î½Î®":8369,"Ġwor":8370,"Î´Î¿ÏĥÎ¹Î½":8371,"Ġá¼ĶÎ½ÏĦÎµÏģÎ¿Î½":8372,"omit":8373,"ÏĨÎ±ÏĥÎ¹Î½":8374,"ĠÎ¿á¼´ÎºÎ¿ÏħÏĤ":8375,"Ġá¼ĢÎ³Î¬":8376,"Îºá½¹ÏĦÎµÏĤ":8377,"Îºá½¹ÏĥÎ¿Î¹":8378,"Ġá¼ĳÎºá½±ÏĦÎµÏģÎ±":8379,"ĠÏĦÏģÎ¹á½±ÎºÎ¿Î½ÏĦÎ±":8380,"ĠÏĥÎ±ÏĨá¿Ĩ":8381,"Ġá¼ĳÎºÎ±ÏĦá½³ÏģÎ±ÏĤ":8382,"ĠÏĨÎ¹Î»Î¿":8383,"Ġá¼ĢÎ¼ÏĨÎ¿ÏĦá½³ÏģÎ¿Î¹ÏĤ":8384,"ÏĢÏĦÎ¿Î½ÏĦÎ±":8385,"ĠÎ´ÎµÎ¾Î¹á½¸Î½":8386,"ĠÎ¶Ïīá½´Î½":8387,"ĠÏĢÎµÎ½ÏĦÎµ":8388,"resp":8389,"Ġá¼ĪÎ½Î´Ïģá½¹":8390,"Ġá½ĢÎ½á½¹Î¼Î±ÏĦÎ¿ÏĤ":8391,"á½¹Î´Î¿ÏħÏĤ":8392,"ÏĩÎ±Î»Î²á½±Î½Î·ÏĤ":8393,"á½ķÏĦÏīÏĤ":8394,"ĠÏĢÎ½ÎµÏįÎ¼Î±ÏĦÎ¿ÏĤ":8395,"ĠâĢł":8396,"ĠÎĺÎµÏĥÏĥÎ±Î»":8397,"Ġá¿¥á½½Î¼Î·Î½":8398,"Ġá¼¸ÏīÎ½Î±Î¸á½°Î½":8399,"Ġá¼ĢÎ½Î±Î»Î¿Î³á½·Î±Î½":8400,"ĠÏĥÎ¹Îºá½»":8401,"ĠÏĦÏħÏĨÎ»":8402,"Ġá¼ĢÏĢá½¹Î´ÎµÎ¹Î¾Î¹Î½":8403,"ÏĦÏģÎ¿ÏĨ":8404,"ÏĦÏģÎ¹Î±":8405,"ĠÎ©":8406,"ĠÎºÎ»Î·Î¸":8407,"Î¸á¿ĥ":8408,"Î¸Î¹Î¿Î½":8409,"ĠÎ¿Î¼Î¿Î¹":8410,"ĠÎµá¼°Î¸Î¹":8411,"Î¶Î¿ÏħÏĥÎ¹Î½":8412,"Î»Î¹á¿¶Î½":8413,"ÏĥÏĩÎ±":8414,"Ġá¿¥á¾´":8415,"Ġá¼ĢÎ½Î±Î¼Î½Î·":8416,"á¼ĢÏĢÎµ":8417,"á¼ĢÎ»Î·Î¸":8418,"ÏħÏĥÎ¿Î½":8419,"ĠÏĢÎµÏģÎ¹ÏĥÏĦ":8420,"ĠÎ¶á¿ĩ":8421,"ĠÏĥÏĦá½µ":8422,"ĠÎ»Î±ÏĮÎ½":8423,"ĠÎ¼Î¹ÎºÏģá½¸ÏĤ":8424,"ÎļÎ±":8425,"Ġá½ģÎ¼Î¿Î¯ÏīÏĤ":8426,"ĠIs":8427,"Ġá½ĢÏģÎ³Î±Î½":8428,"ĠÏĥÏĢÎ»á¿ĨÎ½Î±":8429,"Ġá¼ĲÎ¼ÏĨÏħ":8430,"Ġá¼¸ÏīÎ¬Î½":8431,"Ġá¼ĢÎ»Î·Î¸á¿¶ÏĤ":8432,"ĠÎ´ÎµÎ¾Î¹á½°":8433,"Ġplace":8434,"Î¸Îµá¿ĸÎ½Î±Î¹":8435,"Ġá¼ĦÎºÏģÎ¿Î½":8436,"ĠÎºÎ¬ÏĦÏī":8437,"ĠÎłÎ»á½±ÏĦÏīÎ½Î¿ÏĤ":8438,"ĠÎ´Î¹Î´á½±ÏĥÎºÎµÎ¹":8439,"ÏĨÏģÏħÎ³":8440,"ĠÎ¼ÎµÎ³á½·ÏĥÏĦÎ·Î½":8441,"Ġá¼¡Î»á½·Î¿Ïħ":8442,"Ġá¼ĲÎºá½±Î»ÎµÏĥÎµÎ½":8443,"Î¿Î²Î¿á½°Î¼":8444,"ĠÏĥÏĦÏħÏĨá½¹Î½ÏĦÏīÎ½":8445,"Î¿ÏĥÎºÏħá½±Î¼Î¿Ïħ":8446,"ef":8447,"way":8448,"á½Ĺ":8449,"ÏĢÏĦÎ±":8450,"Î´á½±":8451,"Î¾Î¿Î¼ÎµÎ½":8452,"ÎŃÏģÎ¿Î½":8453,"ĠÏĨÎ±Îº":8454,"ĠÏĩÎ¬ÏģÎ¹Î½":8455,"ÏĦá½°Ïģ":8456,"á½¹Î½Î±ÏĤ":8457,"ĠÏĢÏģÎ¿ÏĥÎ¸Îµá½¶ÏĤ":8458,"á¿ĥÏģÎ·":8459,"Ï²ÏĦÎ±":8460,"ÏħÎ½Î¸":8461,"Ġá¼ĢÏĢÎ¿Î¸":8462,"ĠÎµá¼´ÏĢá¿ĥ":8463,"ĠÎºÎ±ÏĦÎ±á¿¤á¿¥":8464,"ĠÎ²Î±Î¸":8465,"ĠÎĻÎ¿ÏħÎ´":8466,"rael":8467,"ÏĢÏĦá½¹Î½ÏĦÏīÎ½":8468,"Ġá¼¥Î½":8469,"Î²Î±ÏĥÎ¹":8470,"á½ģÎ¼Î¿":8471,"Ġ48":8472,"ative":8473,"ance":8474,"Ġá¼ĢÎ¼ÏĨÎ¹Ïĥ":8475,"Ġá¼ĢÎ³Î±Î¸á½°":8476,"ĠÏĦÎŃÏĩÎ½":8477,"ĠÎ¼á½µÏĦÏģÎ±Î½":8478,"ĠÏĥÏĨÎ¿Î´Ïģá½¸Î½":8479,"Ġá¼ĢÎ´ÎµÎ»ÏĨÎ¿á¿¦":8480,"Î·Ïĥá½±Î¼Î·Î½":8481,"Ġá½ĦÎ³ÎºÎ¿ÏĤ":8482,"ĠÎ¼Î½Î·Î¼":8483,"Îµá½ĲÎ»Î¿Î³":8484,"ĠÎ´Î¹ÎºÎ±Î¹Î¿ÏĥÏįÎ½Î·Î½":8485,"ĠÎ´Î¹Î´Î±ÏĥÎºÎ±Î»á½·Î±Î½":8486,"ĠÎºá½³Î½ÏīÏĥÎ¹ÏĤ":8487,"ÏĢá½±Î½ÏĦÎ±":8488,"Ġá¼ĢÎ½Î±ÏĢÎ½Î¿á½´Î½":8489,"ĠÎĵÎ±Î²Î±":8490,"Ġá¼ĢÎ½Î±á½·ÏĥÎ¸Î·":8491,"ĠÎ¸Î¬Î»Î±ÏĥÏĥÎ±Î½":8492,"Ġcursives":8493,"ÎµÎ¯Î±ÏĤ":8494,"Î¼Îµá¿ĸÎ½":8495,"Î»Î»Î·ÏĤ":8496,"á½½ÏĦÎµÏģÎ¿ÏĤ":8497,"Ġá¼¡Î´":8498,"ĠÎ²á½·Î¿Î½":8499,"Ġá¼ĲÎºÎºá½¹":8500,"Ġá½ĳÏĢÎ±Îº":8501,"Ġá¼ĲÎ¾Ïī":8502,"Ġá¼ĲÎ¾á½µ":8503,"Ġá¼ĲÎ¾Î¿Ïĩ":8504,"ink":8505,"ÏĥÏĦÎ±ÏĦÎ¿Î½":8506,"ĠÏĢÎ¿Î»Î»Î±Ïĩ":8507,"ĠÏĦÎ¿ÏħÏĦÎ¿":8508,"ĠÏĦá½³Î»ÎµÎ¹":8509,"ĠÏĦÏģá½·ÏĪÎ±ÏĤ":8510,"Îºá½¹Î¼Î¼ÎµÏīÏĤ":8511,"Ġá½ģÎ¼Î¿á½·ÏīÎ½":8512,"Î¸ÎµÎ¹Î±":8513,"ĠÏĢÏĮÎ»ÎµÎ¹":8514,"Ġá¼ĳÎºÎ±ÏĦá½³ÏģÏīÎ½":8515,"á½ĢÏĢÎ¿":8516,"ĠÏĢÎ±ÏģÎ¿Î¾ÏħÏĥÎ¼á¿¶Î½":8517,"ĠÏĢá½µÏĩÎµ":8518,"ĠÏĦá½»Ïĩá¿ĥ":8519,"Ġá½ģÏĢá½¹ÏĦÎµ":8520,"ĠÏĢÎµÏĢÎ¿Î½Î¸á½¹ÏĦÏīÎ½":8521,"ĠÎºÏīÎ»á½»ÎµÎ¹":8522,"ign":8523,"ĠÎ´á½·ÎºÎ±Î¹Î¿Î½":8524,"ĠÎ¸á¿ĨÎ»Ïħ":8525,"be":8526,"hor":8527,"ÏĥÎ¿ÏĨ":8528,"Îºá½»":8529,"ĠÎ±á½ĲÎ³":8530,"Îµá¿ĸÏĥÎ±Î½":8531,"Ġá½ĢÏĨ":8532,"ĠÏĦÎ±ÏħÏĦÎ±":8533,"Î´ÎµÏĦÎµ":8534,"Ġá¿¥Î¿ÏĢ":8535,"á½¼Î¼":8536,"Ġá¼ĶÏĩÎ¿Î½ÏĦÎ¹":8537,"ĠÎļÏħÏģ":8538,"ĠÎ¶ÏħÎ³":8539,"ĠÏĨÎ±Ïĥá½¶":8540,"ĠÎºÎ±Î»Î¿á¿¦ÏĥÎ¹":8541,"Ġá¼ĢÏĨÊ¼":8542,"Ġ42":8543,"Ġrem":8544,"ĠÎ¾Î·Ïģá½°Î½":8545,"ĠÎ¼Î±Î»Î¸":8546,"Ġá¼ĢÎ½ÏĦÎ¹ÏĥÏĢ":8547,"ÏĮÏĦÎ·ÏĦÎ¹":8548,"ĠÎ»ÎŃÎ³ÎµÎ¹Î½":8549,"ĠÎ»Î¹Î²á½±Î½Î¿Ïħ":8550,"ĠÎ¼Îµá½·Î¶Î¿Î½Î±":8551,"ĠÏĢÎµá¿ĸÏģÎ±Î½":8552,"ĠÏĥÎºÎµÏįÎ·":8553,"ĠÎ³á½¹Î½Ïħ":8554,"respond":8555,"gy":8556,"ĠÏĤ":8557,"Î½Î¿ÏħÏĤ":8558,"Î½á¿ĥ":8559,"ÏĦÏģÎ¹Î¿Î½":8560,"ÏĥÎ¼á½³Î½ÏīÎ½":8561,"Î¼ÏħÏģ":8562,"ÎºÎ·ÏĥÎµÎ½":8563,"ĠÎ±Î´ÎµÎ»":8564,"Î¼Î±ÏĦá½±":8565,"Î¾ÎµÎ¹Î½":8566,"Î¾Î¿Î½ÏĦÎ±Î¹":8567,"ÏģÎ¹ÏĥÏĦÎ±Î¹":8568,"Ġá¼ĲÎºÎ¿Î¹Î¼":8569,"Îµá½·Î·ÏĤ":8570,"Ġá¼ĢÏĢÎ±Î¸":8571,"ĠÎ´Î¹Î±Î¯":8572,"ĠÏĢÎ±á½·Î´ÏīÎ½":8573,"ÏħÏĦá½³ÏģÎ±":8574,"ree":8575,"ĠÎºÎ±ÏĦÎ±ÏĢÎ»á½±":8576,"ĠÏĢÎ¿Î¹á½³":8577,"ĠÎ´Îµá½¹Î¼ÎµÎ½Î¿Î½":8578,"Ġá¼ĦÎ½Î¸Î¿ÏħÏĤ":8579,"ĠÎ´á½»Î½Î±Î¹":8580,"Ġinto":8581,"ÏĦá½³ÏģÎ±Î¹ÏĤ":8582,"ÎµÎ¹Î´Î¿á¿¦ÏĤ":8583,"ĠÎºÎµÏĨÎ±Î»á½°ÏĤ":8584,"ĠÏĢÏģá½½ÏĦÎ±ÏĤ":8585,"Ġá¼°ÏĥÏĩÏħÏģá½°Î½":8586,"ĠÎ¼Î±ÎºÏģá½°Î½":8587,"ĠÎ´Î¹Î±ÏĨÎ¿ÏģÎµá¿ĸÎ½":8588,"ĠÎµá¼°ÏģÎ®Î½":8589,"á½ĢÎ²Î¿Î»Î¿á½ºÏĤ":8590,"ÏĪÎ±ÏĦÎ¿":8591,"ĠÏĢÏģÎ¿ÎµÎ¹ÏģÎ·Î¼á½³Î½Î¿Î¹ÏĤ":8592,"ĠÎ¿Î¹ÎºÎ¿Ïħ":8593,"Ġprop":8594,"ĠÏĨÎ»á½³Î³Î¼Î±ÏĦÎ¿ÏĤ":8595,"ĠÏĥÏĢÎµÏģÎ¼Î±":8596,"bl":8597,"zek":8598,"ÎºÏģÎ¹Î¸":8599,"Î³Î¹ÏĤ":8600,"ĠÎµÏħÏĨ":8601,"ĠÎµá¼°á½½Î¸Î±":8602,"ĠÏĩÏģÎ¹ÏĥÏĦ":8603,"Ġá¼ĢÏĢÎµÏģÎ³":8604,"ÏģÎµÏĦÎ¿Î½":8605,"Î»Î¹Î±Î½":8606,"ĠÎºÎ±ÏĦÎ±Î»":8607,"ÏĦÎ¹ÎºÏģÏħ":8608,"Î´Î·Î¼Î±":8609,"ĠÏĥÏĨá½·":8610,"Î´ÎµÎ¹Î³Î¼Î±":8611,"ĠÎ¼á½µÎ½":8612,"ĠÏĢá½¹ÏģÎ¿Î½":8613,"ĠÎ³Î½á¿¶":8614,"ĠÏĦá½±ÏĤ":8615,"Ġá¼ĢÎ»á½»":8616,"Ġá¼ĦÏģÏĩÏīÎ½":8617,"ÏĥÏĦÏģÎµÏĪÎ±Î½":8618,"ÏĢÎ»á½±ÏĥÎ¹Î¿Î½":8619,"Ġá¼ĢÏģÎ³ÏįÏģÎ¹Î¿Î½":8620,"Ġany":8621,"Î¸Î®ÏĥÎ¿Î½ÏĦÎ±Î¹":8622,"ĠÎ¼á½³Î³Î¹ÏĥÏĦÎ±":8623,"ÏĢÎ¿Î»á½º":8624,"Ġá½ĳÎ´á½±ÏĦÏīÎ½":8625,"ĠÏĥÏħÎ½Î¹ÏĥÏĦÎ±":8626,"Ġá¼ģÏĨá½´Î½":8627,"ĠÏĥÏĢÎ»Î·Î½á½¸ÏĤ":8628,"Ġá¼ĳÎ²Î´Î¿Î¼á½±":8629,"ĠÏĢá½±Î¼ÏĢÎ¿Î»Ïħ":8630,"Ġá¼ĲÎ´ÏīÎ´":8631,"Ġá¼ĢÎºá½±Î¸Î±Ïģ":8632,"Î¿ÏĢÎ¿Î¹":8633,"ÎµÏīÎ½":8634,"Ġá¼ĲÏĥÎº":8635,"ĠÎµÎ±ÏħÏĦ":8636,"Î»Î»ÎµÎ¹":8637,"Ġá¼ĶÎ±Ïģ":8638,"Ġá¼ĶÏĢÎ±":8639,"ÏĥÎ¸Î±Î¯":8640,"ĠÏĨÎµá½»":8641,"Î»ÎµÏĥÎ¹Î½":8642,"Î·Ïĥá½±Î½ÏĦÏīÎ½":8643,"Ġá½ĳÏĢá¿Ĩ":8644,"Ġá¼°Î½á¿¶Î½":8645,"á¼ĲÏĩÏģ":8646,"Ġá¿¥Î¿ÏĨ":8647,"Î¼ÏĢÎ±Î½":8648,"ĠÎ¼á½³ÏĦÏģÎ¿Î½":8649,"ĠÏĢÎ±ÏģÎ±Î´":8650,"ĠÏĪÏħÏĩÏģá¿¶Î½":8651,"Î»ÎµÎ¹ÏĢ":8652,"Î¼ÎŃÎ½á¿³":8653,"Ġ43":8654,"ĠÎ¼á½±Î»Î¹ÏĥÏĦ":8655,"Ġá¼ĢÎ¼Î¼ÏīÎ½Î¹Î±ÎºÎ¿á¿¦":8656,"ĠÎµÎ¹ÏĢÎ¿Î½":8657,"ĠÎ´Îµá¿ĸÎ¾Î±Î¹":8658,"ĠÎ³ÎµÎ½Î½á¾¶ÏĦÎ±Î¹":8659,"ĠBáµĩU":8660,"Ġá½ģÏģá¾¶ÏĦÎ±Î¹":8661,"Ġexp":8662,"ÎºÏģÎ¬ÏĦÏīÏģ":8663,"ĠÏĢÏģÎµÏĥÎ²ÏħÏĦá½³Ïģ":8664,"Ġá¼°Î´á½³Î±ÏĤ":8665,"ĠÏĩÎ¹ÏĦá¿¶Î½Î¿ÏĤ":8666,"ĠÎµá½ĳÏģá½·ÏĥÎºÎµÏĦÎ±Î¹":8667,"ĠÎ³ÎŃÎ½Î·ÏĦÎ±Î¹":8668,"á½ĦÎ¾Î¿ÏħÏĤ":8669,"Ġá¼ĲÎ³ÎŃÎ½Î½Î·ÏĥÎµÎ½":8670,"ĠÏĨÎ±Î³Îµá¿ĸÎ½":8671,"ied":8672,"ject":8673,"lt":8674,"voc":8675,"Ġá¼¶Î½":8676,"ÏĢá¾¶":8677,"Î·ÏĦÏģ":8678,"Î¸ÏīÏĤ":8679,"Î¸ÏģÎ¹":8680,"á½³ÏĥÏĦÎµÏģ":8681,"á¿¶ÏĥÎ±":8682,"Ġá¼Ģá½»ÏĦÎ·ÏĤ":8683,"ĠÎµÎ²":8684,"ĠÎ³ÏīÎ½":8685,"âĢĿ":8686,"ÏĮÏ²":8687,"á½±Î½Î¿ÏħÏĥÎ¹Î½":8688,"Ġá¼ĢÎ½Î®":8689,"ÏģÎ¿á½·":8690,"ĠÎĳÎ¹Î³":8691,"ĠÎ¿á½ĲÎºÎŃÏĦÎ¹":8692,"ĠÎµá¼´Î¸":8693,"Ïģá½±ÏĦá¿³":8694,"Ġá¼ģÎ³Î¹":8695,"ÏĦÏģÎŃ":8696,"ĠÎļÏģá½·ÏĦÏīÎ½":8697,"ĠÏĢÎ¿Î¹á½µÏĥÎµÎ¹":8698,"Ġá¼ĢÎºÎ¼á½±Î¶":8699,"ĠÎ¼Î·Ïģá½¸Î½":8700,"ÏĦá½³ÏģÏīÏĤ":8701,"ÏĦá½³Ïģá¾³":8702,"Î´ÏģÏīÎ½":8703,"ĠÎ¼ÎµÏĦÎ±Î»Î»":8704,"ĠÏĥá½½Î¼Î±ÏĥÎ¹":8705,"Ġá¼ĲÎ»ÏĢÎ¯":8706,"Ġ109":8707,"Î±Î³ÏīÎ³":8708,"Î¼á½³Î»Î¹ÏĦÎ¿ÏĤ":8709,"Ġá¼ĲÎ½ÎµÏģÎ³Îµá½·Î±Î¹ÏĤ":8710,"Ġá¼ĶÎ³ÏģÎ±ÏĪÎ±Î½":8711,"Ġá¼ĢÏĢÎµÏĨ":8712,"Ġá¼ĲÎ´ÏĮ":8713,"ĠÎºá½±Î¼Î½Î¿Î½ÏĦÎ±":8714,"ÏĩÎ¹ÏĥÏĦÎ¿Î½":8715,"ĠÎºÎ±ÎºÎ¿á½µ":8716,"ĠÎ´Î±ÎºÏĦá½»Î»Î¿Î¹ÏĤ":8717,"ĠÏĦÎ±á¿¦ÏĦá½±":8718,"Ġá¼ĦÎ³ÎµÎ¹Î½":8719,"ĠÎºÏģá¾¶ÏĥÎ¹ÏĤ":8720,"ĠÏĢÎ¿Î½Î·Ïģá½¸Î½":8721,"ĠÏĩÎ¹Î»Î¹á½±":8722,"Ġá¼ĢÎ½ÏīÏĦá½³ÏģÏī":8723,"ĠÎºá¼ĢÎº":8724,"ĠÎ²Î¹Î±á½·ÏīÏĤ":8725,"Ġá¿¥Î¿Î´á½·Î½Î¿Ïħ":8726,"Ġá¼ĲÎ²Î±ÏĥÎ¯":8727,"Ġá¼°Ïĩá¿¶":8728,"Ġconfus":8729,"Ġá¼ĶÎ¼ÏĨÏģÎ±":8730,"á¼ĵ":8731,"Ġá¼ĲÏĨÎ¿Î²":8732,"Î³ÎºÎµÎ¹ÏĦÎ±Î¹":8733,"ÏĩÎ±Ïģ":8734,"á½¹ÏĨÏīÎ½":8735,"ĠÏĥÎ±Î½":8736,"Ġá¼ĲÎ½Î´ÎµÎ¹ÎºÎ½á½»":8737,"á½³Î½ÏĦÎ¹":8738,"ÏĥÎ¹á¿¶Î½":8739,"Ġá¼ĲÎºÎ´Î¹Îº":8740,"Î´ÎµÎ´ÎµÎ¹Î³":8741,"Ġá½ĳÏĢÏĮ":8742,"ĠÎ½ÏħÎ¼":8743,"Ġphrase":8744,"Î¿Î»á¿ĩ":8745,"ÏĦÎ¹Îºá¿ĩ":8746,"Ġá½ĳÎ³Ïģá½¹ÏĦÎ·ÏĤ":8747,"ĠÎ»Î±Î³":8748,"Ġá¼ĶÎ½ÏĦÎµÏģÎ±":8749,"ÏĦÏĦá½¹Î½":8750,"Îµá½¶Î¼":8751,"ĠÎºÏģá½»":8752,"Î´ÏīÎ½Î±Î¹":8753,"ĠÎºÏģá½·ÏĥÎµÎ¹ÏĤ":8754,"Ġá¼¡Î¼ÎŃÏģÎ±":8755,"ĠÏĩÏīÏģá½·á¿³":8756,"ÏĢÎ½Î¿á½´Î½":8757,"ears":8758,"Ġá¼ĪÎ½Î´ÏģÎ¿":8759,"á¼ĶÎ½Î¸Î±":8760,"Ġyour":8761,"Ġá¼°Î±ÏĦÏģÎ¹Îºá½´Î½":8762,"ĠÏĨÎ±ÏģÎ¼Î±Îº":8763,"ĠÎºá¼ĢÏĢá½¶":8764,"25":8765,"In":8766,"gin":8767,"sha":8768,"ĠÎºÎ±Î¼":8769,"ĠÏĢÎ¿á¿¦":8770,"á½·Î´Î±":8771,"á½¹Î¸Î¹":8772,"á½»Î³":8773,"Î±ÏģÎµ":8774,"ĠÎ²Î¿á¿¶Î½":8775,"ĠÎ²Î·Ïĩ":8776,"Î¶á½¹Î¼ÎµÎ½Î¿Î½":8777,"Î¶Î·ÏĦ":8778,"Ġá¼ĢÎ½ÏĦÎ¯":8779,"Ġá¼ĲÏĢÎ¹Î³Î½":8780,"Ġá¼ĢÎ½Î±Î²Î±":8781,"ĠÏĥÎºÎµÎ»á¿¶Î½":8782,"ĠÏĢÎ¿Î¹á½¹ÏĦÎ·ÏĦÎ±ÏĤ":8783,"Ġá¼ĦÎ½Î¸Î¿ÏĤ":8784,"ĠÎ²Î±ÏĥÎ±Î½":8785,"Î¿ÏįÎ¼ÎµÎ½Î¿Î¹":8786,"ĠÏĦÏģá½¶ÏĤ":8787,"ĠÏĦÎ¿Î¹Î±Ïį":8788,"ĠÎ½Î¿ÏĥÎ¿á½»Î½ÏĦÏīÎ½":8789,"ĠÏĦÏģá½·ÏĦÎ¿Ïħ":8790,"ĠÎ²Î±ÏĥÎ¹Î»ÎµÎ¯Î±Î½":8791,"Ġbet":8792,"ĠÏĢÎ¹Îµá¿ĸÎ½":8793,"ary":8794,"ĠÎºÎ¿Î¹Î½á½°":8795,"Ġá½ĢÎ½Î¿Î¼á½±Î¶Î¿Î¼ÎµÎ½":8796,"á½µÏĥÎµÏĥÎ¹":8797,"Î¸Î¹ÏĥÎµÎ½":8798,"ĠÎ´ÎµÏħÏĦá½³ÏģÎ±":8799,"Ġá¼ĲÎ¾ÎµÏĦá½±":8800,"ĠÏĥÎ±ÏģÎºá¿¶Î½":8801,"ĠÏĢÏģÎ¿ÏĨÎ·ÏĦÎµ":8802,"ĠÎ½ÏĮÎ¼Î¿Ïħ":8803,"Ġá½ĢÎ½á½¹Î¼Î±ÏĥÎ¹Î½":8804,"ĠÎºÏħÏģá½·ÏīÏĤ":8805,"Ġá¼¤ÎºÎ¿ÏħÏĥÎ±Î½":8806,"ĠÏĥá½±ÏģÎºÎ±ÏĤ":8807,"ĠÎ³ÏħÎ¼Î½á½±ÏĥÎ¹Î±":8808,"ĠÏĢÎ±ÏģÎ±Î´Îµá½·Î³Î¼Î±ÏĦÎ¿ÏĤ":8809,"á¼ħÏĢÎ±Î½ÏĦÎ±":8810,"ĠÏĢá½³ÏģÎ¹Î¾":8811,"ÏĪÎ±Î»Î¼Î±":8812,"Ġá¼ĪÎ½Î´Ïģá½¹Î¼Î±ÏĩÎ¿ÏĤ":8813,"ÏĦÎ¹ÎºÏģÏħÏĤ":8814,"ew":8815,"ÎºÏĦá½³Î¿Î½":8816,"á½¸Ïģ":8817,"ÏĦÎ±Î»":8818,"ĠÏĥÏĦÎ·":8819,"Î»Î»Î¿":8820,"Ġá¼ĶÏĥ":8821,"ÏĥÎ¸ÎŃÎ½":8822,"ÏĢÎ¿ÏĦ":8823,"ĠÏĢÎ±á¿ĸÏĤ":8824,"ÏĥÎºÏīÎ½":8825,"ĠÎºÎ±Î¸Î¹":8826,"ĠÎºÎ±ÏĦá¿´":8827,"Î½Î¿á½¶":8828,"ĠÏĢÏģÎ¿Ïĥá½±":8829,"ĠÎ»ÎµÏĩÎ¸":8830,"ĠÏĪÏħÏĩá½¹Î½ÏĦÏīÎ½":8831,"ĠÎ¼ÎµÏĦÏģÎ¹":8832,"ĠÏĦÏģá½·Î²":8833,"Ġ45":8834,"Ġá¼ĲÎºÎµá½·Î½Î¿ÏħÏĤ":8835,"ÏĦÏĦÎ¿Î½ÏĦÎ±":8836,"ĠÏĦÏģÎ¹á½½Î²Î¿Î»Î¿Î½":8837,"ĠÎ§Ïģ":8838,"ĠÏĢÏĮÎ´Î±ÏĤ":8839,"ĠÎºÏģá½·ÏĥÎµÏīÎ½":8840,"ĠÎ¼Î¹ÏĩÎ¸":8841,"ÏĦá½½Î´Îµ":8842,"á½½Î´ÎµÎ±":8843,"ĠÎ²Î¿á½»Î»":8844,"ĠÎºÎ±ÏĦÎ¿Î¹ÎºÎ¿á¿¦Î½ÏĦÎµÏĤ":8845,"ĠÎ¸á½³ÏģÎ¿ÏĤ":8846,"ĠÏĩÎµÎ¹Î¼á¿¶Î½Î¹":8847,"ĠÏĢÎ¹ÏĥÏĦÎµÏį":8848,"ĠÏĥÏĢÎŃÏģÎ¼Î±":8849,"Ġcorr":8850,"ĠÏĩÎ¹ÏĦá½¼Î½":8851,"ĠÎ´Î¹Î±Î³Î¹Î½á½½ÏĥÎºÎµÎ¹Î½":8852,"27":8853,"ÎµÎ»Î¿Î½":8854,"ĠÏĦÏħÏģ":8855,"ÎºÏģÎ¿Ïħ":8856,"á¿ĸÏĦÎ¹Î½":8857,"Î²Î¿á½»":8858,"ÏģÎ¹á½¹Î½":8859,"á¿·ÏĤ":8860,"Ġá¼¡Î»Îº":8861,"ĠÎ¸Î»Î¹Î²":8862,"ĠÎ²á½±Î»Î»":8863,"ĠÎ´Î¹Î±ÏĥÏĢ":8864,"Ġá¼ĲÎ¾á½µÎ³Î·ÏĥÎ¹Î½":8865,"ĠÎºÎ±Î¸á½µ":8866,"Ġsay":8867,"ĠÏĢÎ»ÎŃÎ¿Î½":8868,"ÎŃÎ½Î±Î½ÏĦÎ¹":8869,"ĠÏĢÎ¿Î¹Îº":8870,"ĠÏĢÎ¿Î¹Îºá½·":8871,"ĠÏĢÏģÎ¿Ïĥá½³ÏĩÎµÎ¹Î½":8872,"ĠÏĢÎµÏģÎ¹ÎŃ":8873,"Î³Î³ÎµÎ¹Î»ÎµÎ½":8874,"ise":8875,"ĠÏĢÎµÏĢÎ¿":8876,"ÏĥÎ¼á½¸ÏĤ":8877,"Ġmost":8878,"ĠÎ¿á¼°Î´":8879,"Ġlet":8880,"Ġá¼ħÏĢÎ±Î½ÏĦÎ¹":8881,"ĠÎ¤Î¬Î´Îµ":8882,"ĠÏĢÎ¹á½³":8883,"ĠÏĢÎ±Ïĩá½»":8884,"Ġá½ĢÎ½á½·Î½":8885,"ĠÏĨÎ»ÎµÎ³Î¼Î¿Î½á½´":8886,"able":8887,"ĠÏĦÎ±Ïĩá½º":8888,"ÏĢÏĦÎ¿ÏħÏĥÎ¹":8889,"ide":8890,"ĠÎĽÎµÏħÎ¹":8891,"ĠÎ´Î¹ÏĦÏĦá½¸Î½":8892,"ĠÎºÎ±ÏĦÎ±ÏĥÏĦá½±ÏĥÎµÏīÏĤ":8893,"ĠÎ´á½³Î¿Î½ÏĦÎ±Î¹":8894,"ĠÎ¼ÎµÏĥÎ¿ÏĢ":8895,"Ġá¼ĲÎ½ÎµÏĦÎµá½·Î»Î±ÏĦÎ¿":8896,"AR":8897,"Ïģá½±Î½":8898,"ĠÏĦÎ·Î»":8899,"ĠÎºÎµÎ¹":8900,"ÏīÏģÎ±":8901,"ĠÏĢÎ®":8902,"Î¸á¿³":8903,"ĠÎ¼Î¿Î»":8904,"ĠÎ¼Î±Î½Î¸":8905,"Î¿ÏħÎ¼á½³Î½Î·ÏĤ":8906,"ĠÎ±Î´ÏīÎ½Î±Î¹":8907,"á½¹ÏĦÎµÏĤ":8908,"ĠÎ´Î¹á¿ĨÎ»Î¸ÎµÎ½":8909,"ÎºÎ±Î»á½³":8910,"ĠÏĨÏģá½·":8911,"Ġá½ĳÏĢÎ±":8912,"ĠÏĩÏģá¿¶Î¼Î±":8913,"ĠÏĢÎ±Î³":8914,"Ġá¼ĲÎ¾Î±Î½":8915,"Î»Î·ÏĨÎ¸":8916,"á¼ĲÎ´Îµá½·ÏĩÎ¸Î·":8917,"ĠÎµá¼´ÏĢÏī":8918,"Î´Î¹á½±":8919,"ĠÏĥÎºÏĮ":8920,"ĠÎºÎ±ÏĦá½±Î³":8921,"ĠÎ»ÎµÎ³ÎµÎ¹":8922,"Ġá½ĳÎ³Ïģá½¹Î½":8923,"ĠÏĢÎµÏĨ":8924,"ĠÏĢÎµÏĦÎµÎ¹Î½":8925,"á½³ÏĩÎ¿Î½":8926,"Ġá¼±Î¼Î¬":8927,"ĠÎºÎ¿ÏĢ":8928,"ĠÎºÎ¹Î½Î¿á½»Î½ÏĦÏīÎ½":8929,"ĠÎ¿á¼¶Î´ÎµÎ½":8930,"Ġnor":8931,"ĠÎ¼Î¹ÎºÏģá¿·":8932,"Î¿á½·ÏĥÎµÎ¹":8933,"ĠÏĢÏħÏģÎµÏĦá¿·":8934,"ĠÎ±ÏħÏĦÎ¿ÏĤ":8935,"ĠÎ´Î¿Î¾":8936,"Ġitem":8937,"ĠÏĦÎ¿á¿ĸÏĥÎ´Îµ":8938,"ĠÎºá½¹ÏĢ":8939,"ĠÎ±á¼°ÏĥÎ¸á½±Î½ÎµÏĥÎ¸Î±Î¹":8940,"Ġá¼ĲÏģÎ³á½±Î¶Î¿Î½ÏĦÎ±Î¹":8941,"Ġá¼ĦÏģÏĩÎµÏĦÎ±Î¹":8942,"ÏĥÏĦÏģÎµÏĨ":8943,"ĠÏĩÏħÎ»á¿·":8944,"ĠÏĥÏĦÎ¿Î¼Î±":8945,"ĠÎ´Î¹Î±Î¹Ïģ":8946,"Ġá¼ģÎ³Î¯ÏīÎ½":8947,"ĠÏĩÏģá¿ĨÏĦÎ±Î¹":8948,"Ġá¼ĢÎ´ÎµÎ»ÏĨÎ¿Î¯":8949,"Ġá¼ĢÎ¼á½³ÏĦÏģÏīÏĤ":8950,"Ġá½ĦÏģÏĩÎµÎ¹ÏĤ":8951,"ĠÎ¸Î±Î½á½±ÏĦÎ¿Ïħ":8952,"ĠÎ¿ÏħÏĦÏīÏĤ":8953,"ĠStich":8954,"á½§Î½":8955,"ÎµÏĢ":8956,"ÏĥÎ¼Î¿á½¶":8957,"ÏĢá½±Î»Î¹Î½":8958,"ĠÎºÎ·":8959,"ĠÎºÎ±Îºá½¹":8960,"ĠÏĢÏī":8961,"Î¸á½¹Î½":8962,"Î³ÎºÎ±":8963,"ĠÎ±ÏĢÎ±":8964,"ĠÎµÏħÎ»Î¿Î³":8965,"ÎµÎ½Î±Î½":8966,"Î¼Î±Î¯":8967,"Î¾á½¶Î½":8968,"Ġá¼ĶÎ´Îµ":8969,"ĠÎ»á½µ":8970,"Ġá¼ĦÎºÏģÎ±":8971,"ÏĢÎ¿á½¶":8972,"ĠÎ¼ÎµÎ¼Î±":8973,"Î¶á½¹Î½ÏĦÏīÎ½":8974,"ĠÏĢÎ¿Î¯":8975,"ĠÎ´Î¹Î±ÏĩÏī":8976,"ĠÏĩÏģÎ®":8977,"ĠÎĳÎ¹":8978,"ÏĦÎµÏģá½±":8979,"Ġá¼°Î¿á¿¦":8980,"ĠÎºÎ±Î¸Î±Î¹Ïģ":8981,"á¼ĢÏĨ":8982,"ĠÏĢÎ±ÏģÎ±Î³ÎµÎ½":8983,"ÏĦá½·Î¿Ïħ":8984,"ÏħÎ³Î¼á½³Î½Î¿Î½":8985,"ort":8986,"á½³ÏĩÎ¸Î±Î¹":8987,"Ġfa":8988,"ĠÏĢÎ»ÎµÏħÏģÎ¹":8989,"ĠÏĢÎ¿Î»ÎŃ":8990,"ĠÏĦá½¹ÏĢÏīÎ½":8991,"Î»Î¸ÏīÎ¼ÎµÎ½":8992,"Ġá¼ĲÎ¼ÏĢÎ¿":8993,"Ġá¼ĢÎ½Î±Î³Î¹Î½":8994,"ÏĦÎ¯ÏĤ":8995,"ÏģÎ¬Î¹Î¼":8996,"ĠÏĦÎŃÎºÎ½":8997,"ĠÎ¿á½ĲÎ´ÎµÎ¼á½·Î±":8998,"ĠÎĸÎ±":8999,"Ġá¼ĢÎ½Î´Ïģá½¶":9000,"Ġá½¤ÏĦÏīÎ½":9001,"Ġá¿¥á½·Î¶Î±":9002,"ĠÎ´ÏįÎ½Î±ÏĦÎ±Î¹":9003,"ĠÏĥÏĦá½»ÏĪÎµÏīÏĤ":9004,"ĠÏĦá½³Î½ÏīÎ½":9005,"ĠÏĥÏĦÏĮÎ¼Î±ÏĦÎ¿ÏĤ":9006,"ĠÎ¼ÎµÏĦÎ±Î²Î¿Î»á¿ĨÏĤ":9007,"ĠÏĦÎ¬Î´Îµ":9008,"ĠÏĢÎ¿ÏĦÎ±Î¼Î¿á¿¦":9009,"Ġá¼ĢÏĥÏĨÎ±Î»á¿¶ÏĤ":9010,"ĠÎºá½½Î»Î¿Ïħ":9011,"ĠÎ¼á½³Î»Î»Î¿Î½ÏĦÎ±":9012,"ĠÎ¾á½»Î»Î¿Î½":9013,"Ġcorrespond":9014,"Ġá¼ĶÎ½ÎµÏĥÏĦÎ¹":9015,"Ġaliq":9016,"ABBREV":9017,"de":9018,"ia":9019,"less":9020,"mm":9021,"ĠÏīÎ½":9022,"ÏĦá½´ÏĤ":9023,"Îµá½¶ÏĤ":9024,"ĠÏĢá½»Î»":9025,"ÏĩÎ·Î½":9026,"ĠÎ±Î´Î¹Îº":9027,"Î¼Î±ÏĦá½¹ÏĤ":9028,"Î¯ÏĥÎ±Î¹":9029,"Ġá¼ĲÎºÏĦÎ±":9030,"Ïģá½·Î¸Î·":9031,"Ġtr":9032,"Ġtim":9033,"ĠÎ½ÏħÎ½á½¶":9034,"hed":9035,"Ġá¿¥Î¿Î¹":9036,"ÏĢÎµÎ¯":9037,"ĠÎ¸ÎµÎ±Ïĥá½±":9038,"ĠÎ¸ÎµÏīÏģá½·Î±ÏĤ":9039,"ĠÎ¾ÏħÎ¼":9040,"á½±Î»Ïħ":9041,"Ġá¾Ĳ":9042,"Ġá¼ĲÏĨÎ±":9043,"ĠÎľÎµÎ¹":9044,"ĠÎºÎ¿á½¶":9045,"ĠÏĢÎ±Î½ÏĦÎ±ÏĤ":9046,"Ġá½ħÎ»ÏīÎ½":9047,"ĠÏĢá½¹Î´Î±ÏĤ":9048,"Î»ÎŃÎ³ÎµÎ¹":9049,"ĠÎ¾Î·Ïģá½¹ÏĦÎµÏģÎ¿Î½":9050,"ĠÎ³Î¹Î½Î¿Î¼á½³Î½Î·":9051,"ĠÎ»ÏĮÎ³ÏīÎ½":9052,"Ġá½ĳÏĢÎµÏģÎ·":9053,"ĠThis":9054,"ĠÎ±á¼´ÏĦÎ¹Î±":9055,"Ġher":9056,"á½¹ÏĦÎ±ÏĦÎ¿ÏĤ":9057,"Ġá½¦Î¼Î¿Î½":9058,"Ġá¼ĲÏĢÎ±Î³Î³ÎµÎ»":9059,"ÏĦÎµá¿ĸÎ½Î±Î¹":9060,"ĠÎ´Î¹Î±Î¹ÏĦ":9061,"que":9062,"ĠÎ¸Î±ÏħÎ¼":9063,"ĠÏĦÎ±ÏįÏĦá¿ĥ":9064,"ĠÏĥÏĦÎ¿Î¹ÏĩÎµá¿ĸÎ¿Î½":9065,"ĠÎ³Î½ÏīÏģá½·Î¶ÎµÎ¹Î½":9066,"ĠÎ¸ÏħÏĥÎ¹Î±ÏĥÏĦÎ·":9067,"ĠÎ¼á½³Î»Î»ÎµÎ¹":9068,"ĠÎ±á¼±Î¼Î¿á¿¤á¿¥Î±Î³á½·Î±ÏĤ":9069,"Ġá¼ĢÏĨÎ¿ÏģÎ¹ÏĥÎ¼á½¸Î½":9070,"Ġá¼ĲÏĢÎ¹ÏĨá½³ÏģÎµÎ¹":9071,"ĠÏĨÎ±Î½ÎµÏģá¿¶ÏĤ":9072,"ĠÏĢÏĮÎ»ÎµÎ¼Î¿Î½":9073,"Ġá¼ĶÎ¼ÎµÎ»Î»ÎµÎ½":9074,"Ġá¼ĶÏģÎ·Î¼Î¿Î½":9075,"ĠIsrael":9076,"con":9077,"Î¿ÎĲ":9078,"á¼ĥ":9079,"ÏĥÎ¼Î±ÏĦÎ¹":9080,"ÎºÎ¿á½»":9081,"Ġá¼ĲÎ´á½¹":9082,"ĠÏĢá½³Ïģ":9083,"Ïĩá½»":9084,"Ġá¼ĢÎ¾":9085,"ĠÎ¿ÏģÎ³":9086,"ĠÏĥÏĦÎ·Ïģá½·":9087,"Î¯ÎºÎ±":9088,"á½³Î½ÏĦÎ±ÏĤ":9089,"á½µÎ¸Î·ÏĥÎ±Î½":9090,"ÏĥÎ¸Î¹":9091,"ĠÎµá¼°Î´á½¹":9092,"Ġá¼ĲÎºÎºÏģÎ¹Î½":9093,"ĠAR":9094,"Ġá¼ĲÏĥÏĦÎµ":9095,"Ġá¼ĢÏĢÎµÏĥÏĦ":9096,"ĠÏĦÎ¹Ï²":9097,"ĠÎµá¼¶ÏĩÎµ":9098,"Ġá¼°á½³Î½Î±Î¹":9099,"Ġá¼°á¾¶ÏĦÎ±Î¹":9100,"Ġá¼ķÏģ":9101,"Î¸Î·ÏĦÎµ":9102,"ĠÎºÎ±ÏĦÎ±ÏĨá½»":9103,"ĠÎºÎ±ÏĦÎ±ÏĨÏģÎ¿Î½":9104,"ÏĦÎ¹Îºá½±":9105,"á¼°Î¿á¿¦":9106,"ĠÏĢÎ¿Î¹Î®ÏĥÎµÎ¹":9107,"ĠÏĢÎµÏģÎ¹ÏĨÎµÏģ":9108,"ĠÏĢÎµÏĨá½»":9109,"ĠÎ³ÎµÎ½Î½Î±":9110,"Ġá¼¥Î»Î¹Î¿ÏĤ":9111,"ĠÎ¼á½µÎºÏīÎ½Î¿ÏĤ":9112,"Î¯Î½Î·ÏĤ":9113,"ough":9114,"Î¿ÏĨÏħ":9115,"ĠSo":9116,"ĠÏĨÎ»ÎµÎ³Î¼Î¿Î½Î±á¿ĸÏĤ":9117,"Ġsec":9118,"ĠÎ²Î»á½±Î²Î·":9119,"ĠÎ±á¼°ÏĥÎ¸á½µÏĥÎµÎ¹":9120,"ÏĪÎ±ÏĦÎµ":9121,"ntly":9122,"Ġá¼ĢÎ¸Î»Î·":9123,"Ġá¼ĢÎ»Î·Î¸Îµá½·Î±ÏĤ":9124,"Ġá½ĢÎ´á½»Î½Î±ÏĤ":9125,"Î³Î½ÏħÏĥÎ¸Î±Î¹":9126,"ĠÎµá½ĲÏĨÏģÎ±Î½":9127,"ĠÎ¼ÎµÏĦÎ±Î²Î¿Î»á½´Î½":9128,"Ġá¼ĲÏĢÎ¿Î¹á½µÏĥÎ±ÏĦÎ¿":9129,"ĠÏĢÎ»Î·Î¸ÏīÏģÎ¹Îº":9130,"ĠÎºá¼ĢÎ³á½¼":9131,"ĠÏĢÎ¿Î»ÏħÎµÎ¹Î´á¿¶ÏĤ":9132,"ÏģÎ¹ÏĥÏĦÎ¿Î»Î¿Ïĩá½·Î±ÏĤ":9133,"Ġunto":9134,"ĠÎ¼Î±Î»Î¸Î±Îº":9135,"ove":9136,"Î½Î¿Î¹":9137,"Î¿ÏĥÎ¹Î½":9138,"Îµá½ĳ":9139,"ÎºÏģÎ¿":9140,"ĠÎºÎ±Î»Î»":9141,"á½±ÏĥÎµÎ¹ÏĤ":9142,"ĠÎ´Î¹Îº":9143,"Ġá¼ĲÏĢÎµá½·":9144,"Ġá½ĳÎµ":9145,"Ġá½ĳÎ¼Î½":9146,"á½½ÏĦÎµÏģÎ¿Î¹":9147,"ĠÎ¼ÎµÏĦÏģ":9148,"ĠÎ±á¼¶":9149,"ĠÏĢÎ±Î¸Îµá¿ĸÎ½":9150,"ÏģÎµÏĥÎ¹ÏĤ":9151,"ĠÎ±á¼°Î´Î¿":9152,"ĠÎ»ÎµÎ»":9153,"Ġá¼ĪÎ¶":9154,"ĠÎºÎ±ÏģÎ´Î¹Î±":9155,"Ġfound":9156,"á¼ĶÏĢÎµÎ¹ÏĦÎ±":9157,"ĠÏĦÎ¿ÏħÏĦá½¶":9158,"Â°)":9159,"ĠÎ¼á½¹Î³Î¹ÏĤ":9160,"Ġá¼ĲÎ»ÏĢá½·":9161,"ÎłÏģá½¸ÏĤ":9162,"Ġhath":9163,"Î¿Î¼ÎŃÎ½Î¿Î¹ÏĤ":9164,"Ġá¼ĲÏģÎ³á½±":9165,"Ġá¼ĳÏĦá½³ÏģÏīÎ¸Î¹":9166,"ĠÎ»ÎµÎ¹ÏĢÎ¿":9167,"Ġ306":9168,"ĠÎ½á½¹ÏĥÎ¿ÏħÏĤ":9169,"Ġá½¤Î¼Î¿":9170,"Ġá¼ĲÎ³ÎºÎµÏĨá½±Î»á¿³":9171,"ĠÏĦÎµÏĦá½±ÏģÏĦÎ·ÏĤ":9172,"ĠÏĦá½³Î½Î¿Î½ÏĦÎ±":9173,"Ġá¿¥Î¹Î½á½¸ÏĤ":9174,"ĠÎºÎ±ÏĦÏīÏĦá½³ÏģÏī":9175,"ĠÏĥÎºá½·á¿¤á¿¥":9176,"See":9177,"ÏĦÏħÎ»":9178,"á¿Ĵ":9179,"ĠÏĦÎ¼Î·":9180,"Î»ÏĢÎ¹":9181,"Î¼Î·ÏĥÎ±Î½":9182,"Î¸á½¼Î½":9183,"Î²Î·Î½":9184,"Î¯Î´ÏīÎ½":9185,"Ġá¼ĶÎ³Î½":9186,"ÏĦÎ·Î³":9187,"á½¹Î½Î´Ïħ":9188,"ĠÏĢÏģÎ¿Î±á½·ÏģÎµÏĥÎ¹Î½":9189,"Ġá¼ĢÏĢá¿ĨÎ»Î¸ÎµÎ½":9190,"ĠÎ¿á½ĲÎ´ÎµÎ½á½¶":9191,"á½¼Ïģ":9192,"ĠÎºÎ±ÏĦÎ±ÏĨÎµÏģ":9193,"ĠÎ¼á½³Î»Î±Î½Î±":9194,"ĠÎ»ÎµÎ»ÎµÎ³":9195,"ities":9196,"ĠÏĪÏħÏĩÏģá½°Î½":9197,"Ġwere":9198,"ÎºÎµÎ¹Î¼á½³Î½ÏīÎ½":9199,"ĠÏĦÏģÏħÎ³":9200,"Ġá¼ĲÏģÏħÎ¸":9201,"ÏīÎ¸á½µÏĥÎµÏĦÎ±Î¹":9202,"ĠÎ³Î½á½±":9203,"ÎĳQ":9204,"ÎĳÎĻ":9205,"Î»Î±Î²Îµá¿ĸÎ½":9206,"ĠRáµĥ":9207,"Ġá½ĢÎ½ÎµÎ¹":9208,"ĠÎ»ÎµÏĢÏĦá¿¶Î½":9209,"Ġá¼ĢÎ³Î³Îµá¿ĸÎ±":9210,"ĠÏĦÎ±Ïĩá½³ÏīÎ½":9211,"á½³Î»Î¿ÏħÏĤ":9212,"ĠÏĢÏħÎºÎ½á½¹ÏĦÎ·ÏĦÎ±":9213,"ĠÏĦÎµÎ»ÎµÏħÏĦá¿ĩ":9214,"ĠÎ²Î±ÏģÏħÎ½":9215,"ĠÎºÎ½á½µÎ¼Î·Î½":9216,"ĠÏĢÏģÎ¿ÎºÎµÎ¹Î¼á½³Î½Î·ÏĤ":9217,"ĠÎ³ÏģÎ±ÏĨá½´Î½":9218,"Ġá¼©Ïģá½¹":9219,"á½ķÎ´Î±":9220,"ĠÎ³á½±Î»Î±ÎºÏĦÎ¿ÏĤ":9221,"ĠÏĢÎ½ÎµÏįÎ¼Î±ÏĦÎ¹":9222,"ĠÏĨÏħÏĦá¿¶Î½":9223,"Ġá¼ĢÏĢÎ¿Î²Î»á½³":9224,"ĠÏĥÎ·Î¼Î±Î¹Î½á½¹Î¼ÎµÎ½Î¿Î½":9225,"ople":9226,"Ġá¼ĲÎ½Î±Î½ÏĦá½·Î±ÏĤ":9227,"Î»ÏĮÎ³":9228,"ĠÎºÎ±ÏĦÎ·Î³":9229,"Ġá¼Ħá¿¤á¿¥ÏīÏĥÏĦÎ¿Î½":9230,"ĠÎ¶á¿´ÏīÎ½":9231,"Ġgenerally":9232,"ĠÏĦÏģá½·ÏĩÎ±ÏĤ":9233,"ĠÎłÎ¿Î½ÏĦÎ¹ÎºÎ¿á¿¦":9234,"ĠÏĥÎºÎµá½»Î·":9235,"Ġá¼¶Î½Î±ÏĤ":9236,"ces":9237,"Î¿Î»Î»":9238,"Ïģá¿ĥ":9239,"Î»Î±Î¹ÏĤ":9240,"Î¼Î·Ïģ":9241,"ÏĩÎ¿Î»":9242,"Î´á½µ":9243,"ÏģÎ±ÏĦÎ±":9244,"ĠÏĨá½±":9245,"ĠÎ¸Ê¼":9246,"ĠÎ²á¿ĨÏĩ":9247,"Ġá¼ĲÎºÎºÎ±Î¸Î±á½·":9248,"Î´ÎµÎº":9249,"Î´Îµá½»ÏĦÎµÏģÎ¿Î½":9250,"Î·ÏĥÎµÎ¹ÏĤ":9251,"Î¼ÎµÏĦ":9252,"ÏĦÎ¿Î¹ÏĥÎ¹":9253,"ÏĢÎµÏĢÏĦÎ¿Î½":9254,"ĠÎºÎ±ÏĦÎ±ÎºÎ»":9255,"ÏĥÏĦÎ±ÏĤ":9256,"ÏĦÎ¹Îºá½µ":9257,"ĠÎļÎ±Ïģ":9258,"ĠÏĢÎ¿Î¹á½¹ÏĦÎ·":9259,"ĠÎµá½ĲÎºÏģá½±":9260,"ĠÎµá½ĲÎ»Î±Î²":9261,"Ġá¼ĦÎ½ÏĦÎ¹ÎºÏģÏħÏĤ":9262,"Ġá½ĳÎ³Ïģá½¹ÏĦÎ·":9263,"ĠÏĢÎµÏĢÎ±":9264,"ĠÏĢÎµÎ´á½·":9265,"ĠÏĢÎµÎ»Î¹Î´":9266,"ĠÎ¿á½ĶÏģÎ¿Î¹ÏĤ":9267,"ĠÎ³ÎµÎ½Î¿Î¼á½³Î½Î¿Ïħ":9268,"Ġá¼´Î½Î±":9269,"ĠÎ¸ÎµÏģÎ¼á½¹ÏĦÎ·ÏĤ":9270,"ĠÎĴÎ±Ïģ":9271,"ÏģÏĩÎµÏĦÎ±Î¹":9272,"ÏĨÎ±Î³":9273,"Î¾Î±ÏĦÎµ":9274,"á½±Î¶ÎµÎ¹":9275,"Ġ47":9276,"Ġá¼łÏģ":9277,"ĠÏĦá½¹ÏĢá¿³":9278,"ĠÏĦÏģÎ¹Ïĥá½¶Î½":9279,"ĠÏĥÎºÎ»Î·Ïģá½¹ÏĦÎ·ÏĦÎ±":9280,"Ġá½ĢÎ´á½¹Î½ÏĦÎ±ÏĤ":9281,"vel":9282,"ĠÏĢÎ½Îµá½»Î¼ÏīÎ½":9283,"ĠÏĦÎ¿ÏįÏĦÎ¿ÏħÏĤ":9284,"ĠÏĩÎ±Î»Î²":9285,"Ġá¼¡Î¼ÎŃÏģÎ±Î¹":9286,"ĠÏĥÏħÎ½ÎµÏĩá¿Ĩ":9287,"ÏĪÎ±Î½ÏĦÎ¿ÏĤ":9288,"Î®Î¼ÎµÏģÎ¿Î½":9289,"ĠÎºÏģÎ±ÏĦÎ±Î¹":9290,"ĠÎ´Î±ÎºÏĦá½»Î»Î¿Ïħ":9291,"ÏĢá½±Î½Î±ÎºÎ¿ÏĤ":9292,"Ġá¼ĲÎ´Îµá½·Î¾Î±Î¼ÎµÎ½":9293,"á½³ÏĥÏĦÎ±ÏĦÎ±":9294,"Ġá¼ĢÏĢÎ¿Î»Îµá½·ÏĢÎµÏĦÎ±Î¹":9295,"Ġá½łÏĨá½³Î»ÎµÎ¹Î±Î½":9296,"ĠÏĨÎ»ÎµÏĪá½¶":9297,"self":9298,"Báµĩ":9299,"Î»Î¯Î¿Ïħ":9300,"ÏīÎ¼":9301,"ĠÎ´Î±Î¹":9302,"ĠÎ´Î¿á½»":9303,"Î¹Î½ÏĦÎ¿":9304,"ĠÏĥÏįÎ½":9305,"á½»Î¿ÏħÏĥÎ¹Î½":9306,"ÏĥÏĦá½·":9307,"Î¯Î´Î¿ÏĤ":9308,"Îµá¿ĸÏĢÎ¿Î½":9309,"ĠÎ»ÏħÏĦ":9310,"Î¬Ïĩ":9311,"á½½ÏģÎ¿Ïħ":9312,"Î»ÎµÏĥÎ±Î½":9313,"á½±Î½Î¸Î¿Ïħ":9314,"Î´ÎµÏĥÏĦ":9315,"ĠÏĥÏħÎ½á½·ÏĥÏĦÎ±ÏĦÎ±Î¹":9316,"á½·Î½ÎµÏĥÎ¸Î±á½·":9317,"ĠÎ£Î¯Î¼ÏīÎ½":9318,"Ġá¼´Î´":9319,"ĠÏħá¼±á¿·":9320,"ĠÎľÎµÎ»":9321,"ĠÎ´ÏħÏĥÎµ":9322,"Ġá½ĳÏĢá½±ÏģÏĩÎ¿Î½ÏĦÎ±":9323,"ĠÏĥÏħÎ½ÎµÏĢÎ¹":9324,"ĠÎ¼ÎŃÎ³Î±":9325,"Ġá½ĦÎ½ÏĦÎ±ÏĤ":9326,"ĠÎºÎ±Îºá½¹Î½":9327,"ĠÏĢÏĮÎ»Î¹ÏĤ":9328,"Î»Îµá½·Î¿Î¹ÏĤ":9329,"ĠÎ´Î¹Î±Î¸á½³ÏĥÎµÏĥÎ¹Î½":9330,"ĠÏĢÎ»Îµá½·ÏĥÏĦÎ¿Ïħ":9331,"Ġá¼ĢÏĢá½¹Î»Î»Ïħ":9332,"ĠÎ²Î¹Î²Î»á½·Î¿Ïħ":9333,"Ġá¼ĦÏģÏĩÎ¿Î½ÏĦÎ±ÏĤ":9334,"Ġá¼ĢÎ½Î±ÏĥÏĦÎ¿Î¼":9335,"ĠÎ½ÏīÏĦÎ¹Î±":9336,"Ġá¼ĲÏĢÎ¹Î³á½±ÏĥÏĦÏģÎ¹Î¿Î½":9337,"ĠÎ³Î»á¿¶ÏĦÏĦÎ±Î½":9338,"ĠÎ¸Î±Î½Î±ÏĦ":9339,"Ġá¼ĿÎ»Î»":9340,"Ġá¼ĪÏģÎ¹ÏĥÏĦÎ¿ÏĦá½³Î»Î·ÏĤ":9341,"Ġá½łÎ¼Î¿ÏĢÎ»á½±ÏĦÎ·ÏĤ":9342,"ĠÏĥÏĢÎ»á½±Î³ÏĩÎ½Î¿Ïħ":9343,"ĠÎºÎµÏģÎºá½·Î´Î¿ÏĤ":9344,"ĠÏĥÏħÎ¼Î²Î¿ÏħÎ»Îµá½»":9345,"ĠÎ´Î¹á½±Î½Î¿Î¹Î±Î½":9346,"Ġá¼ĢÎ»á½»ÏĢÏīÏĤ":9347,"ÏĦá¿¶ÏĤ":9348,"Î¿ÏĦá½³ÏģÎ±Î½":9349,"Îºá½¹ÏĤ":9350,"ÏīÏĦá½³ÏģÎ±Î½":9351,"ĠÏĢá½·Î½ÎµÎ¹Î½":9352,"ĠÎ¼á½±Î½":9353,"ĠÎ³Î»Î¹":9354,"ÏĥÏĦÎ¿á¿¦":9355,"Î»Î»Î±Î³":9356,"Ġá¼ĲÏĢÎ¿Ïħ":9357,"ĠÎ»á½·Î±Î½":9358,"ĠÏĦÎµÏĥÏĥÎ±ÏģÎ±":9359,"Ġtake":9360,"Î·ÏĥÎ¿ÏħÏĥÎ¹Î½":9361,"Ġpoin":9362,"Ġá¼ĢÏģÏĥÎµÎ½":9363,"Ġá¼ĶÏĩÎµÎ¹ÏĤ":9364,"ÏĦÎ¹ÎºÎ¿á½¶":9365,"â¸Ĥ":9366,"ĠÏĢÎ¿Î¹Î¿á¿¦ÏĥÎ¹Î½":9367,"ĠÎµá½ĲÏģá½»":9368,"ĠÏĢÎ¿Î»Î»á½±":9369,"Ġá¼ĢÎºÎ¼á½´Î½":9370,"Îµá¼°Îºá½¹ÏĦÏīÏĤ":9371,"ĠÏĥÏĨÎ±Î³":9372,"Ġá½ħÎ»á¿ĥ":9373,"oub":9374,"Ġá¼ģÏĢÏĦÎ¿":9375,"ĠÎ¼Î¹ÎºÏģá½°Î½":9376,"ĠÏĢÎ¬Î½Ïħ":9377,"ĠÏĦÏģá½·ÏĦá¿ĥ":9378,"Ġá½ģÎ¼Î¿á½·Î±Î½":9379,"Ġá¼ĦÏģÏĦÎ¿ÏħÏĤ":9380,"ĠÎ¸ÎµÏģÎ¼Î±Ïĥá½·Î±":9381,"Ġever":9382,"Ġá½ĢÏĨÎ¸Î±Î»Î¼á½¸Î½":9383,"ĠÎºÎ¿Î¹Î½á½´Î½":9384,"ĠÎºÎ¿Î¹Î½á¿ĩ":9385,"Ġseq":9386,"Ġord":9387,"ĠÎ¶Î·ÏĦÎ·":9388,"Îµá¼´ÏĦÎµ":9389,"Ġá¿¬ÏīÎ¼Î±":9390,"ĠÎ»Î±Î¼Î²á½±Î½ÎµÎ¹Î½":9391,"ĠÎĳá¼°Î³ÏħÏĢ":9392,"ĠÏĪá½»Î¾Î¹ÏĤ":9393,"ĠÎ¿Î¹ÎºÎ¿Î½":9394,"Ïĥá½±Î¼ÎµÎ½Î¿ÏĤ":9395,"Ġá¼ĲÎ¾Î±ÏĢÎ¿ÏĥÏĦ":9396,"ĠÎºÎ±ÏĦÎ¿Î¹ÎºÎ¿á¿¦Î½ÏĦÎ±ÏĤ":9397,"ĠÎ´Î¹á½³Î¾":9398,"ĠÏĢÏģÎ¿ÏĥÎ·Î³Î¿Ïģá½·Î±ÏĤ":9399,"Ġá¼ĢÎ¼ÏĢÎµÎ»":9400,"Ġá¼ĢÎ»Î»Î¿á½·ÏīÏĥÎ¹Î½":9401,"ax":9402,"Ġáµĥ":9403,"Î¿á¼°":9404,"Î¹Î¬":9405,"ÏģÏīÏĥÎ¹Î½":9406,"ĠÏĦÎ¯Î½":9407,"Ïħá½·Î±ÏĤ":9408,"Î·ÏģÎ±":9409,"ĠÎ´Î®":9410,"ĠÎ¿ÏĤ":9411,"ĠÏĥÎ²":9412,"á½»ÏĥÎ±ÏĤ":9413,"ÏĥÏĦÎ¬":9414,"Ġá¼ĶÎ¼Î±":9415,"ÎŃÏĤ":9416,"ĠAD":9417,"ÏĦÎµÏģá½¹ÏĤ":9418,"á½·Î½Î´ÏħÎ½":9419,"Ġá¼ĢÏĢÎ¿ÎºÎ±Î»":9420,"rew":9421,"Î³Î¿Î½ÏĦÎ±ÏĤ":9422,"ĠÎ¸Îµá¿¶Î½":9423,"ĠÏħÎ¼Î±ÏĤ":9424,"ĠÎ´ÏģÎ±ÏĩÎ¼á½´Î½":9425,"Ġá¼±ÏĢ":9426,"ĠÏĢÎ»Îµá½·ÏīÎ½":9427,"á½·Î¶ÎµÎ¹":9428,"ĠÎµá¼°Ïĥá½·Î½":9429,"ĠÎµá¼°ÏģÎ·Î¼á½³Î½Î±ÏĤ":9430,"Ġdis":9431,"Î»Î¸Î¿Î¹":9432,"ĠÏĥÏħÎ¼ÏĢÎ»Î·":9433,"Ġá¼°ÏĥÏĩÏħÏģá½°":9434,"ĠÏĦÎ¿Î¹Î±á½»ÏĦá¿ĥ":9435,"ĠÎ³Ïģá½±ÏĪÎ±ÏĤ":9436,"Ġá¼ĢÎ»Î»á½µÎ»Î¿ÏħÏĤ":9437,"ĠÎ±Î½Î¿Î¼":9438,"Î¯Î¶ÎµÎ¹Î½":9439,"Ġá¼ĦÏģÏĩÎµÏĥÎ¸Î±Î¹":9440,"Ġá¼ĢÏģÎ¹Î¸Î¼á½¸ÏĤ":9441,"Ġá¼ĢÎ½á½³Î²Î·":9442,"ĠÎ»Î¹Î¸á½±ÏģÎ³":9443,"Ġá¼ĢÎ»Î»Î¿ÏĦÏģá½·":9444,"ĠÎµÎ»Î±Î»":9445,"Ġmany":9446,"ĠÎ²Î¹Î²Î»Î¯Î¿Î½":9447,"ĠÎºÎ¿ÏħÏĨ":9448,"2âģ°":9449,"Ġá¼¶":9450,"ĠÏĦÎ±Î»Î±Î¹":9451,"Î³á½³Î³ÏģÎ±ÏĢÏĦÎ±Î¹":9452,"Ġá½ĳÎ¼á½³Î½ÏīÎ½":9453,"Î¶Î¿Î¼ÎµÎ½":9454,"Î¹Îºá½´":9455,"Ġá¼ĢÎ½ÏīÎ´":9456,"ĠÎ½Ïį":9457,"Ġá¼ĲÎ¾á¿Ĩ":9458,"Ġá¼ĲÏĢÎ¹ÏĥÎ·Î¼Î±":9459,"ÏģÎ·Î¼":9460,"ÏĥÎ±Î½ÏĦÎ¹":9461,"ÎŃÎ½ÏĦÎ±":9462,"ĠÎļÏģÎ·":9463,"ĠÎºÎ±ÏĦÎµÎ¹":9464,"Î¸ÎµÏĥÎ¹":9465,"Ġcan":9466,"Ġway":9467,"ĠÎľÎ±Î½":9468,"Î»Î»Î¿Î½ÏĦÎ±Î¹":9469,"Î²Î±ÏĦÎ¿Î½":9470,"Ġá½łÏĩ":9471,"Ġá¼ĲÏģá½µÎ¼":9472,"ĠÎ²Î±ÏĥÎ¹Î»ÎµÏįÏĤ":9473,"ĠÎ±ÏħÏĦÎ±":9474,"Ġ51":9475,"ĠÎ»á½³Î¾ÎµÎ¹":9476,"imil":9477,"â¸ĥÂ·":9478,"ĠÎ´Î¹Î±Î¸á½³ÏĥÎµÎ¹":9479,"ĠÎ³Î¹Î³Î½á½½ÏĥÎº":9480,"ĠÎ´Î¹Î´ÏĮ":9481,"ÎºÎ±á½·Î´ÎµÎºÎ±":9482,"ĠÏĦÏģÎ±ÏĩÎµá½·Î±ÏĤ":9483,"Î²ÎµÏĥÏĥÎ±Î»":9484,"ĠÏĢÏģÎ¿Ïĥá½µÎºÎ¿Î½ÏĦÎ¿ÏĤ":9485,"ĠÎ²Î¿á½»Î»ÎµÎ¹":9486,"Ġá¼ĦÎºÏģÎ±ÏĤ":9487,"ĠÏĢá½¹Î½Î¿ÏħÏĤ":9488,"ĠÎ´Î¹Î±á½·ÏĦá¿ĥ":9489,"ĠÎ´Î¹ÏĦÏĦá½´Î½":9490,"Ġá½ĢÏĥÎ¼á½´Î½":9491,"Ġá¼ĲÎ´á½µÎ»ÏīÏĥÎµÎ½":9492,"Ġá¼ĢÏģÏĦá½·ÏīÏĤ":9493,"ĠÎĳá¼´Î³ÏħÏĢÏĦÎ¿Î½":9494,"ĠÏĦÏģÎ¿Ïĩá½·ÏĥÎºÎ¿ÏħÏĤ":9495,"Ġpeople":9496,"á½ĸ":9497,"Î¹Î³Î³":9498,"ĠÏĦÎ·Ïģ":9499,"ÎºÎ¹Î¿Î½":9500,"á½³Îº":9501,"ÏĦÎ±ÏħÎ¸":9502,"ĠÎ±ÏĨ":9503,"Î¹Î½Î±Î¹":9504,"Î²ÎµÎ¹Î±Î½":9505,"á½³Î½ÏīÎ½":9506,"Ġá¼ĶÏĥá¿ĥ":9507,"ÏĥÎ¸á½²Î½":9508,"ĠÎ»Î¿Î²":9509,"ĠÏĩá½½ÏģÎ±":9510,"ÏģÎ¹Î¼":9511,"Ġá¼ĲÎºÏĦÎµÎ¹Î½":9512,"ĠAss":9513,"ĠÏĢÏģÎ¿Î³Î¹Î½":9514,"Ġ(.":9515,"Î»Î¹Î¸":9516,"ĠÏĦá¿ĩÏĥÎ¹":9517,"Ġá¼ĢÏĢÎ¿Î´á½³Î´ÎµÎ¹ÎºÏĦÎ±Î¹":9518,"á½¹Î¼ÎµÎ½á½¹Î½":9519,"ĠÏĢÎ»Î¿Ïħ":9520,"Ġá¼ĢÎºá½·Î½Î·":9521,"ĠÎ¼Î·Îº":9522,"ĠÎ£Î¿Ïħ":9523,"Î¬Î½Ïī":9524,"ĠÎºÎ±Î»Î¿á½»Î¼ÎµÎ½Î±":9525,"ÏĥÏĦÎµÏį":9526,"llel":9527,"ÎµÎ¹Î´á¿Ĩ":9528,"ĠÎ³á½³Î½ÏħÎ¿ÏĤ":9529,"ĠÎ¼á½±Î»Î±":9530,"Ġ46":9531,"ĠÎ´Î¹Î±ÏĨÎ¿Ïģá¿¶Î½":9532,"ĠÏĦá½¹ÏĢÎ¿ÏħÏĤ":9533,"Ġá½ĢÏĥÏĦá½³Î±":9534,"ions":9535,"ĠÎ»á½·Î¸Î¿ÏħÏĤ":9536,"ĠÏĩÎµá¿ĸÏģÎ¬":9537,"usal":9538,"ĠÏĨÎ»ÎµÎ³Î¼Î¿Î½á¿¶Î½":9539,"ÏĥÎºÎµÏħá½±":9540,"ĠÏĥÎ¹Î´Î·":9541,"ÏĦÎ¿á½»ÏĦá¿³":9542,"Î¬Î¶ÎµÎ¹Î½":9543,"Î²Î±Î»á½¼Î½":9544,"Ġá¼ĢÎ»Î·Î¸Î¹Î½":9545,"ĠÎ³Î»ÏħÎºÎµá¿ĸ":9546,"rian":9547,"Ġá¼ĲÏĢÎ¹Î¸ÏħÎ¼Î·":9548,"Î¿Î¹Î½ÏĦÎ¿":9549,"ĠÎºá¾ĢÎºÎµá½·Î½":9550,"ĠÎ¸ÏħÏĥá½·Î±Î½":9551,"ĠÎ´Î¹Î´á½±ÏĥÎºÎµÎ¹Î½":9552,"ĠÏĨÎ¹Î»Î¿Ïĥá½¹ÏĨÏīÎ½":9553,"ĠÎ¿á½ĲÎ´á½³Î½Î±":9554,"ĠÏĨÏħÏĥá¿¶Î´ÎµÏĤ":9555,"Ġá¼¹ÏĢÏĢÎ¿ÎºÏģÎ¬ÏĦÎ·ÏĤ":9556,"ĠÎ»á½±ÏģÏħÎ³Î³Î¿ÏĤ":9557,"Ġá¼ĺÏĨÏģÎ¬Î¹Î¼":9558,"ĠÎ¸Î±ÏħÎ¼á½±Î¶ÎµÎ¹Î½":9559,"ĠÎ¸Î·ÏģÎ¹Î±Îº":9560,"á½¹Î½Î´ÏħÎ»Î¿Î½":9561,".'":9562,"Î¹Î¿Ïħ":9563,"Î¼Î¬Ïģ":9564,"ÏĦÎ±ÏĥÎ¹ÏĤ":9565,"á½¹ÏģÎ¿Ïħ":9566,"ÎµÎ¹Î±ÏĤ":9567,"ÎºÎ±ÏĦÎŃ":9568,"ÏģÎ¹Î¿Î¹":9569,"Î½Î±Î¯":9570,"á½¹Î½ÏīÏĤ":9571,"Î»ÎµÎ¯Î±ÏĤ":9572,"Î¹Îºá½°ÏĤ":9573,"Ġá¼ĢÏĢÎ®":9574,"Î»Î¹ÏĥÏĦÎ±":9575,"Ġá¼ĢÎ½Î±Î¼Î½á½µ":9576,"ÏİÏĥÎµÏīÏĤ":9577,"ĠÎºÎ±ÏĦÎ±ÏĢÎ»Î±":9578,"ĠÎºÎ±ÏĦÎ±Î»ÎµÎ¹ÏĨÎ¸":9579,"Ġá½ĦÏģÎ·":9580,"ÏĦÎ¹Îºá½½ÏĦÎµÏģÎ¿Î½":9581,"ĠÏĢÎ¿Î¹á½¹ÏĦÎ·ÏĤ":9582,"Î¸ÎµÏĦÎµ":9583,"ite":9584,"ĠÏĢÎµÎ¼ÏĢ":9585,"Ġcall":9586,"ĠÎ¸ÎµÏģÎ¼á½¸ÏĤ":9587,"ĠÎºÎ¹Î½Îµá¿ĸÎ½":9588,"ĠÏĢá½¹á¿¤á¿¥Ïī":9589,"ĠÎµÎ½Ïī":9590,"ÏĦÎ¿á¿¦ÏĥÎ¹Î½":9591,"Ġrevoc":9592,"Ġá¼ĢÎ½Î±Î³ÏīÎ³":9593,"ÏĥÏĢÏĮ":9594,"ÏĨÏħÎ»Î±":9595,"ÎĻÏĥÏģÎ±":9596,"Ġá¼ĳÎºÎ±ÏĦá½³Ïģá¿³":9597,"ÏĥÏĦÎ¹Îºá½¸Î½":9598,"Ġá¼ĲÎ½á½·Î¿ÏħÏĤ":9599,"Ġá¼ĢÎ³Î±Î¸á½¹Î½":9600,"ĠÎ±Î½ÏĦÎ¹":9601,"ĠÏĢÎ»Îµá½·ÏĥÏĦÎ¿Î¹ÏĤ":9602,"ade":9603,"ĠÎ¸á½½ÏģÎ±ÎºÎ¹":9604,"ĠÎºÎ·Ïģá½¸Î½":9605,"Ġá¼ĢÏģÎ¹Î¸Î¼":9606,"Ġexpl":9607,"Ġá¼ĢÏħÏĦá½´":9608,"Ġá¼ĲÏĢÎ¹Î´á½³ÏĥÎ¼":9609,"ĠÎĽÎµÏħÎµá¿ĸÏĦÎ±Î¹":9610,"Ġá¼ĲÎ¸á½³Î»Î¿Î¹":9611,"Ġá¼ĢÏĨÎ¿ÏģÎ¹ÏĥÎ¼Î¿á¿ĸÏĤ":9612,"ĠÎµÎ³ÎºÎ±ÏĦÎµ":9613,"ĠÏĢÎ»á½±Î³Î¹Î¿Î½":9614,"ĠÏĥÏĦá½³ÏģÎ½Î¿Î½":9615,"Î´á½»Î¿":9616,"Ġá¼ĲÎ¼Î½Î·Î¼á½¹Î½ÎµÏħÏĥÎµÎ½":9617,"ĠÎ²ÎµÎ²Î±á½·ÏīÏĤ":9618,"ÏĢÎµÎ¹Î´á½°Î½":9619,"á¼´ÏĥÏīÏĤ":9620,"(?)":9621,"ual":9622,"Î¿Î´Î¹Îº":9623,"ÏħÏĥÎ±Î½":9624,"ÏīÎ¼á½³Î½Î¿Î¹ÏĤ":9625,"Î·Î¸ÎµÏĤ":9626,"ÏĩÏİ":9627,"á¿¶ÏĥÎ±Î½":9628,"Ġá¼ĢÎ¼Î±Î¸":9629,"á½¹Î¼Î·Î½":9630,"Î»ÎµÏĢá½·Î´Î¿ÏĤ":9631,"ĠÏĦÎ¿ÏĥÎ±":9632,"ĠÏĢÎµÏģÎ¯":9633,"ĠÎ´Î¹Î±ÏĨÏħÎ»á½±":9634,"ĠÏĢÎ±Ïħ":9635,"Ġá¼ĲÏĢÎ¹Î´Îµ":9636,"Î»Î·ÏĦÎ±Î¹":9637,"Ġá¼ĢÎ½Î±ÏĦá½³":9638,"Ġpers":9639,"ÏİÏĦÎµÏģÎ¿Î½":9640,"Ġá¼ģÏĢÏĦ":9641,"Ġá½ĦÏģ":9642,"ĠÏĢÎ¿Î¹Î¿ÏĦá½µÏĦÏīÎ½":9643,"ĠÏĢÏģÎ¿ÏĥÎ´Î¿Îº":9644,"ĠÎ´ÎµÏħ":9645,"Ġá¼ĦÎ½Î¸ÏģÎ±":9646,"Î´Î¿Î¼ÎµÎ½":9647,"Î²Î±Î»Îµ":9648,"ĠÎ´ÏħÏĥÏĩ":9649,"ĠÎºá½±Î¸Î±Ïģ":9650,"ĠÎºÎ¹Î½Î´ÏħÎ½Îµ":9651,"Î¤á¿¶Î½":9652,"Ġ50":9653,"ĠÎ¼Î±ÎºÏģá½¸Î½":9654,"ĠÎ¼Î±ÎºÏģá½¸ÏĤ":9655,"Ġá½ģÎ´á½¸ÏĤ":9656,"Ġá¼ĳÏĦá½³ÏģÏīÏĤ":9657,"Î¯Î¶ÏīÎ½":9658,"Ġá¼°Î´á½·Î±ÏĤ":9659,"Ġá¿¾":9660,"ÏĥÏħÎ¿ÏĤ":9661,"ĠÏĥÏĦÎ¿Ïĩ":9662,"Ġá¼ĶÎ´ÏīÎºÎ±":9663,"ĠÎ½á½¹ÏĥÎ¿ÏĤ":9664,"ĠÏĩÎ±Î»Îºá½·":9665,"ĠÏĢÏģÏīá½¶":9666,"ĠÏĦÎ¿á½ĲÏĢá½·ÏĥÏī":9667,"ĠÏĥÏħÎ¼ÏĨÏħ":9668,"ĠÏĩÏģá¿¶Î¼Î±Î¹":9669,"ĠPro":9670,"Ġá¼©ÏģÎ±Îº":9671,"ĠÎ¼Î·Î½á½¸ÏĤ":9672,"Îµá½ĲÎ¸":9673,"ĠÎ´Î¹Î±ÏĨÎ¸Î¿Ïģ":9674,"ĠÏĢÎ»Î·Î¸ÏħÎ½":9675,"ĠÏĥÏħÎ½Î¹ÏĥÏĦá½±":9676,"ĠÏĨÎ¿Ïģá¾¶ÏĤ":9677,"ĠÏĩÏģá½µÏĥÎ±ÏĥÎ¸Î±Î¹":9678,"ĠÎ£Î¹ÏīÎ½":9679,"Ġá¼ĲÎ½ÎµÏĦÎµÎ¯":9680,"ÎºÎ±Îºá½·Î±ÏĤ":9681,"Ġá¼ĳÏĦÎ¿Î¹Î¼":9682,"ĠÏĥÏĢÎ»á½±Î³ÏĩÎ½Î±":9683,"Ġá½ģÎ¼Î¿Î¹Î¿Î¼ÎµÏģ":9684,"Ġá½ģÎ¼Î¿Î¹Î¿Î¼ÎµÏģá¿¶Î½":9685,"ĠÎ´Îµá¿¦ÏģÎ¿":9686,"ry":9687,"ÏĦÏħÎ³Ïĩ":9688,"ĠÎºÏģá½¹":9689,"ĠÎºÏģÎ±Î½":9690,"ĠÎºÎ±á¿¦":9691,"Î³Î¼Î±ÏĦÎ¹":9692,"ÏĦÎ±Î¾":9693,"á½°Î¸":9694,"á½±Î´Îµ":9695,"Î¿ÏħÎ¼á½³Î½Î·":9696,"ĠÏĥá½³":9697,"ÏĥÏĦÏħÏĢ":9698,"Î²Î±Ïģ":9699,"Îµá¿ĸÎ»ÎµÎ½":9700,"á¾§":9701,"Ġá½ģÎºÏĮ":9702,"Ġá½ĢÎº":9703,"ĠÏĢÏģÎ¿ÏĩÎµÎ¹":9704,"á½³ÏģÎ¿Ïħ":9705,"ĠÎ½ÏħÎ½":9706,"ÏģÎµÎ¼":9707,"Î»Î¹ÏĦÎ¹":9708,"ÏĥÏĩÎ¹":9709,"ÏİÏĤ":9710,"ĠÏĥÏħÎ½ÏĦÏģÎ¹Î²":9711,"á½·Î½ÎµÏĤ":9712,"ĠÏĢÎ±ÏģÎ±ÎºÎ±Î»":9713,"Ġchap":9714,"Ġá¾¤":9715,"ĠÎĴÎ±Î»":9716,"Ġá¼ĲÏģÎ®Î¼":9717,"Ġbec":9718,"Ġá¼ĦÏģÎ¸ÏģÎ±":9719,"ĠÏĢÎ±Ïĩá½³ÏīÎ½":9720,"ĠÎ¼ÎµÎ³á½±Î»Î±ÏĤ":9721,"ĠÎ»Î¿Î³Î¹ÏĥÏĦÎ¹Îº":9722,"ĠÏĢÎ±Î»Î±Î¹Î¿á¿ĸÏĤ":9723,"Î¯Î¶ÎµÎ¹":9724,"ĠÎ¾Î·ÏģÎ±Î¹Î½":9725,"Ġá¼ĢÏĢÎ¿ÎºÏģÎ¿Ïħ":9726,"ÏģÏħÎ¿Î½":9727,"Ġá¼ĢÎ»Î·Î¸á¿Ĩ":9728,"ĠÏĨá½³ÏģÎµÎ¹Î½":9729,"ĠÏĢÎµÏģÎ¹á½³ÏĩÎ¿Î½":9730,"ĠÏĢá½±ÏĥÏĩÎµÎ¹":9731,"ÏĦÏģÎ±ÏĢ":9732,"aART":9733,"Ġá¼°Î´Î¹á½½":9734,"ĠÎµÎ³ÎµÎ½ÎµÏĦÎ¿":9735,"ĠÏĢÏģÎ¿ÏĥÏĨá½±":9736,"Ġá¼ĢÎ½ÏīÎ¼Î±Î»á½·Î±Î½":9737,"Ġá¼ĲÎ²Î±ÏĥÎ¯Î»ÎµÏħÏĥÎµÎ½":9738,"á¼ĵÎ½":9739,"Î½ÏĮ":9740,"ÏĦÎ¼Î·":9741,"ÏĥÏĥÎµÎ¹":9742,"ÏĥÎ¼Î±ÏĥÎ¹":9743,"Î»Î·ÏĥÎµÎ½":9744,"ÏīÏĦá½³ÏģÎ±":9745,"á½³Î¸Î·":9746,"á½½ÏĥÎµÏīÎ½":9747,"Ġá¼¡ÏĢÎ±":9748,"Î»ÎµÏĢÏĦ":9749,"ĠÏĢÏģÎ¿á½Ķ":9750,"Ġá¼ĲÏĢÎ¹Î¼Îµ":9751,"Î¿á½»Î»":9752,"ĠÎ¼á½³Î¼Î½":9753,"á½·Î½ÎµÏĦÎ±á½·":9754,"ĠÏĢÎ¿Î»Î»Î±á½¶":9755,"Î³Î³Î±ÏĤ":9756,"Ġá¼ĲÏĨÎ·Î¼":9757,"ĠÎ¸ÎµÏģÎ¼á¿ĨÏĤ":9758,"á½³ÏĩÎ¸Î·":9759,"á¼ĶÏĥÏĦÎ¹Î½":9760,"ÎºÎµÎ¯":9761,"ĠÏĢÏģá¿¶ÏĦá½¹Î½":9762,"Ġá½ĢÎ»á½·Î³ÏīÎ½":9763,"ĠHebrew":9764,"ĠÎºÎ±ÏĦá½±á¿¤á¿¥":9765,"ĠÎ»ÎµÏĢÏĦÎ¿á¿¦":9766,"ÏĨÏħÏĥÎ¹ÏĤ":9767,"Ġá¾§Î´Îµ":9768,"ĠÎ³Î¹Î³Î½Î¿Î¼á½³Î½ÏīÎ½":9769,"ĠÎ²Î¹Î²Î»á½·Î±":9770,"Ġá¼ĢÎ½Î¸ÏģÏİÏĢÎ¿Î¹ÏĤ":9771,"Ġá¼ĢÏĢÎŃÎ¸Î±Î½ÎµÎ½":9772,"Ġcons":9773,"Î·Ïĥá½±Î¼ÎµÎ¸Î±":9774,"Ġá½ĦÎ³ÎºÏīÎ½":9775,"ÏĢÎµÏĢÏĦÎ±":9776,"ĠÎ³á½·Î³Î½Î¿Î¹ÏĦÎ¿":9777,"ĠÎºÎ¿ÏĦá½»Î»Î·ÏĤ":9778,"Ġá¼ģÎ»ÏħÎº":9779,"ĠÏĥÏĦÏħÏĢÏĦÎ·Ïģá½·Î±ÏĤ":9780,"Ġá¿¥ÏħÏĢÎ±Ïģ":9781,"ĠÏĢÏģÎ¿ÏĥÏĨá½³ÏģÎµÎ¹Î½":9782,"ĠÏĨÎ¹Î»Î¿Ïĥá½¹ÏĨ":9783,"Ġá¼´Î±ÏĥÎ¹ÏĤ":9784,"Ġquot":9785,"ĠÏĩá½¹Î½Î´ÏģÎ¿Ïħ":9786,"ĠÎ´á½»ÏĥÏĢÎ½":9787,"ĠÎ³Î»á½½ÏĦÏĦÎ·ÏĤ":9788,"ĠÏĢÎ±ÏģÎ·Î³Î¿":9789,"ĠÎºÎ¿á¿ĸÎ»Î¿Î½":9790,"ĠÎ¼ÎŃÎ³Î±ÏĤ":9791,"Î½Î±Î³Îºá½±":9792,"ĠÏĢÎµÏģÎ¹ÏĦÎ¿Î½Î±á½·Î¿Ïħ":9793,"ÏĦÎ±ÏħÎ¸Î¿á¿ĸ":9794,".:":9795,"ire":9796,"Î¹Î»Î±":9797,"ÏīÎ¼á½³Î½Î¿Î½":9798,"ĠÎ´ÎµÎ¹Î»":9799,"á½·ÏĤ":9800,"Î´Îµá¿ĸÎ½":9801,"Ġá¼ĢÏĩá½½":9802,"á½¹Ïģ":9803,"ĠÏĥÏīÎ¸":9804,"ĠÏĥÎ¿Î¯":9805,"ÏģÎ±ÏĥÎ¹ÏĤ":9806,"ĠÏĨÎ·":9807,"ĠÎ¸Î»":9808,"Ġá¼ĢÏĢá¿Ĩ":9809,"ĠÎ´Î¹Î±ÏĥÎº":9810,"Ġá½ĳÏĢÎ½":9811,"ÏģÎ¿Ïį":9812,"ÏģÎµá½¶":9813,"ĠÎµá¼´ÏĢ":9814,"Î³Î¿Î½Î±":9815,"ĠÏĥÎºÏħ":9816,"á¼°ÏĥÏĩ":9817,"ĠÏĢÏģÎ¿ÏĥÎµÎ½":9818,"have":9819,"ĠÏħÏĢÎµ":9820,"Î³Î³ÎµÎ¯":9821,"ish":9822,"ĠÎ½Î¿Ïĥá½µÎ¼Î±ÏĥÎ¹Î½":9823,"ĠÎĵÎµ":9824,"ĠÏĢÏģá½½ÏĦÎ¿Î¹ÏĤ":9825,"ĠÎ²Î±ÏĥÎ¹Î»ÎµÎ¯Î±":9826,"Ġá¼ĦÏģÏĦÎ¿Ïħ":9827,"ÎŃÏģÎ¼Î±":9828,"ÏĥÏĢá½³Ïģ":9829,"ĠÎĽÎ¹Î²":9830,"ĠÏĢÎ±ÏģÎµÎ¼ÏĢ":9831,"Ġá½ģÎ´Î¿á¿ĸÏĤ":9832,"ÏįÎ½ÏĦÏīÎ½":9833,"ĠÏĦÎ±á½ĲÏĦá½°":9834,"Ġá¼ĢÎ´ÎµÎ»ÏĨá½¸Î½":9835,"ĠBáµĩA":9836,"á½½Î´ÎµÎºÎ±":9837,"ĠÏĨÎ±Î¹Î½á½¹Î¼ÎµÎ½Î±":9838,"Ġá½ĢÎ½Î¿Î¼Î±Î¶á½¹Î¼ÎµÎ½Î¿Î½":9839,"ĠÎ²Î¿ÏħÎ»á½¹Î¼ÎµÎ½Î¿ÏĤ":9840,"ĠÏĥÏİÎ¼Î±ÏĦÎ¹":9841,"Ġá¼ĦÎ³Î±Î½":9842,"ĠÎ´ÏİÎ´ÎµÎºÎ±":9843,"Î´Îµá¿ĸÎ¾Î±Î¹":9844,"ĠÏĥÏĦÎµÎ³Î½":9845,"Ġomitted":9846,"ĠÎ¼Î·ÏĦÏģá½¸ÏĤ":9847,"ÏĢÏģá½¹Î´Î·Î»Î¿Î½":9848,"ĠÏĢÎ±ÏĦÏģÎ¹á¿¶Î½":9849,"ĠÎºÎµÏĨá½±Î»Î±Î¹Î¿Î½":9850,"ĠÎ´Î¿Î³Î¼á½±ÏĦÏīÎ½":9851,"ĠÏĢÏģÎ¿Ïĥá¿ĨÎºÎµÎ½":9852,"Ġá¼ĶÎ½Î´Î¿Î¸ÎµÎ½":9853,"VI":9854,"ved":9855,"ÏĨÎ¹Î»":9856,"á¿¶Î½ÏĦÎ±":9857,"ĠÎµÎ¸Î½":9858,"Î²á½³Î»ÏĦÎ¹Î¿Î½":9859,"Ġá½ħÏĤ":9860,"ĠÏĢÏģÎ¿Î³Îµ":9861,"Îµá½·Î¼ÎµÎ½Î±":9862,"ĠÎºÎ±ÏĦÎ±Î¼Î·Î½":9863,"Ġá¼ħÏģ":9864,"ÏĨÎ¿Ïģá½°Î½":9865,"ĠÏĥÏħÎ½á½±Î³":9866,"ĠÎ¸ÎµÏģÎ¹Î½":9867,"Ġá½ĳÎ³Ïģ":9868,"ÎºÎ¿Î½ÏĦÎ¹":9869,"ĠÎĻÎ±":9870,"ÎºÎ¿á½¶":9871,"ĠÎ»Î±ÏĦ":9872,"Î¸á½³Î¼ÎµÎ½Î¿Î½":9873,"á¼ĶÎ¼ÏĢ":9874,"ĠÎ´ÏħÎ¿":9875,"Î¯Î½ÏħÎ½":9876,"ÏĥÎ¸Î·ÏĦÎ¹":9877,"ĠÏĩÏħÎ¼Î¿á½¶":9878,"Ġsupp":9879,"ÏħÎ¸á¿ĨÎ½Î±Î¹":9880,"ĠÎ¾Î·ÏģÎ¿":9881,"ĠÏĥÏĩá½µÎ¼Î±ÏĦÎ¿ÏĤ":9882,"Ġend":9883,"ĠÎ§Îµ":9884,"ĠÎ¹ÎµÏģ":9885,"Ġá¼ĲÏĢá½·Î²Î±Î»Î»Îµ":9886,"Ġá½ĢÎ¾á½ºÏĤ":9887,"á½µÏĥÎµÏĥÎ¸Îµ":9888,"ÏĦÏģÎ¹Î¼":9889,"ĠÎ´Î¹Î±ÏĨÎ¿ÏģÎµá¿ĸ":9890,"ĠÎ¸ÏħÎ¼á½¸ÏĤ":9891,"ĠÎ±Î½Î´":9892,"Ġá¼¸ÎµÏģÎµÎ¼":9893,"ÏĨÏħÎºÎµÎ½":9894,"ĠÏĢÎ»Î±ÏĦá½³":9895,"ÏģÎ¹Îºá¿ĨÏĤ":9896,"ĠÎµÎ¾ÎµÎ»":9897,"Ġá¼ĲÏĥÏĨ":9898,"ĠÎµá½ķÏģÎ¿Î¹ÏĤ":9899,"ĠÏĢÏģÎ¿Ïĥá½³Î¸Î·ÎºÎµÎ½":9900,"ĠÏħÎ¹Î¿Ïħ":9901,"ĠÎµá¼´ÏģÎ·ÎºÎµÎ½":9902,"ĠÎ¼ÎµÎ³Î¬Î»Î·Î½":9903,"ĠÎ³ÎŃÎ³ÏģÎ±ÏĢÏĦÎ±Î¹":9904,"Ġá¼´Î±ÏĥÎ¹Î½":9905,"ĠÎ§Î±Î»Î´Î±":9906,"ĠÎłÎ±á¿¦":9907,"ĠÎ´Î¹Î±Î¸Î®ÎºÎ·Î½":9908,"ĠÏĥá½»Î½Î¸ÎµÏĦÎ¿Î½":9909,"Î¼Î¿ÏģÏģÎ±":9910,"ĠÎ²Î»ÎµÏĨ":9911,"Ġá¼¸ÏīÏĥá½´ÏĨ":9912,"ura":9913,"ÏĥÎ¼Î¿á½ºÏĤ":9914,"ÏĢÎ¿ÏħÏĥÎ¹Î½":9915,"á½³Î»Î¹ÏĦÎ¿ÏĤ":9916,"ĠÎ¼Î¯Î±":9917,"Î¿á¿¦ÏĦÎµ":9918,"ÏĥÏĦÏģÎ±ÏĨ":9919,"Î²ÏģÎ±":9920,"á½³Î½Î±ÏĤ":9921,"ĠÏĩÎ¿Ïģ":9922,"ĠÎ¿á½ĲÏĥá¿¶Î½":9923,"ĠÎ¸ÏģÎ¹":9924,"Ġá½ģÎºá½¹":9925,"Ġá½ħÏģÎ¿Î½":9926,"Ġá¼ĲÎºÏĢá½³":9927,"Ġá¼ĳÏĦÎµÏģ":9928,"Ġá¼ĳÏĢÏĦ":9929,"Ġover":9930,"Ġaut":9931,"ĠÎºÎ±Î¸Î±Î¹":9932,"ÏİÎ¼Î±ÏĦÎ¹":9933,"Î³Î±Î³Îµ":9934,"ĠÎ³ÎµÎ½Î·Î¸":9935,"ĠÎ·Î¼Î¹Î½":9936,"ĠÎ¼ÎµÏĦá½³ÏĩÎµÎ¹":9937,"Ġá½łÏĩÏģ":9938,"ÏĦÏĦÎ¿ÏħÏĤ":9939,"ĠÎ²ÏģÎ±ÏĩÎµá¿ĸ":9940,"ĠÎ¾Î·Ïģá½¹ÏĦÎ·ÏĦÎ¿ÏĤ":9941,"ÏĥÏĦÎ·ÎºÎµÎ½":9942,"Î»Î±Î²Î¿Î½":9943,"ĠÎµá½ĳÏģÎ·":9944,"ĠÎ²Î¿á½µÎ¸Î·":9945,"Ġá¼°ÏĥÏĩÏħÏģá½¹ÏĦÎµÏģÎ¿Î½":9946,"Ġá½ķÎ´Î±ÏĦÎ±":9947,"ĠÎ³Ïģá½±ÏĨÏīÎ½":9948,"ĠÎļÏħÏģÎ¹Îµ":9949,"ĠÎ¼ÎµÎ¸Ê¼":9950,"ĠÏĨÎ¸Î¿Ïģ":9951,"ĠÎºÏģÎ±ÏħÎ³":9952,"ĠÏĥá½»Î½Î¸ÎµÏĥÎ¹Î½":9953,"ĠÎºá½±Î¼Î½Î¿Î½ÏĦÎ¹":9954,"Ġá¼´ÏĥÎ¼ÎµÎ½":9955,"Ġreads":9956,"Ġá¼ĶÏģÎ³á¿³":9957,"ĠÎ¸Î±á¿¤á¿¥":9958,"ĠÏĢÏģÎ¿ÎºÎµÎ¹Î¼á½³Î½Î·Î½":9959,"ĠÎ´Î¹Î¿ÏĦÎ¹":9960,"ĠÎ´ÎµÏħÏĦá½³Ïģá¾³":9961,"Ġá½ĳÎ³Î¹Î±Î¹Î½á½¹Î½ÏĦÏīÎ½":9962,"Ġá½ģÏĢÎ¿á¿ĸÎ¿Î½":9963,"ĠÏĢÏģÏĮÏĥÏīÏĢÏĮÎ½":9964,"gether":9965,"ĠÎķá¼°ÏĤ":9966,"ĠÎ¼ÎµÎ³Î¬Î»á¿ĥ":9967,"ĠÎ´Ïģá¾·Î½":9968,"Ġá¼ĳÎºÎ¬ÏĥÏĦÎ¿Ïħ":9969,"ÏĥÏĦÎ¿Ïģá½·Î¿Ïħ":9970,"ĠÏĥÏĦÏģÎ¿Î³Î³á½»Î»":9971,"ĠÏĩÎ¹Î»Î¹Î¬Î´ÎµÏĤ":9972,"Ġá¼ĶÏĦÏħÏĩÎµÎ½":9973,"ĠÏĦÎ¹ÏĦÎ¸":9974,"ÏģÏħÎ½":9975,"ĠÏĢá½±Ïģ":9976,"Î´á¿³":9977,"ÏĨÎ¸Î±":9978,"á¿ĨÏģÎ¿ÏĤ":9979,"á¿ĸÎµ":9980,"á½µÏĥÎ±Î¼ÎµÎ½":9981,"ÎºÎ±Î»ÎŃ":9982,"ĠÏĩá½»":9983,"Î»ÎµÏĥÎ¹":9984,"ĠÏĥÏħÎº":9985,"ĠÏĥÏħá¿¤á¿¥":9986,"Ġá¼ĢÎ½á½¹":9987,"ĠÏĢÎ±ÏĥÏĩ":9988,"Ġaway":9989,"Ġá¼ĢÎ»Î»á½¹":9990,"Ġá¼°Î·ÏĦÏģ":9991,"ÏİÏĥÏī":9992,"Ġá¼ĢÏĢÎ¿Î»á½³":9993,"Ġá¼ĦÎ»Î»Î¿ÏĦÎµ":9994,"ĠÏĥÎºá½¹":9995,"ĠÏĢÏģÎ¿ÏĥÎ·":9996,"itz":9997,"Î¬Î½ÎµÎ¹":9998,"ÏħÎ³ÎµÎ½":9999,"ĠÏĢÎµÏĢÎ¹":10000,"ĠÎºÎ±ÏģÎº":10001,"ĠÎĴÎµ":10002,"Î·Î»Î¸ÎµÎ½":10003,"ĠÎ³á½³Î½ÏħÎ½":10004,"ÏīÎ¸á½³Î½ÏĦÎ¿ÏĤ":10005,"ĠÎ¼á½¹ÏĥÏĩ":10006,"ÏĦá½µÏģÏīÎ½":10007,"Ġá¼ĶÎ¼ÏĢÎ»Î±ÏĥÏĦ":10008,"ĠÎ³Î¹Î½Î¿Î¼á½³Î½Î·Î½":10009,"Ġá¼ĲÎ¼ÏĢÎµÏĥ":10010,"Ġá½ĳÏĢÎµÏģÎ¿Ïĩ":10011,"Ġá¼ĢÎ»á½¹Î³":10012,"Ġshalt":10013,"ile":10014,"ĠÎ»ÏĮÎ³Î¿Î¹ÏĤ":10015,"ÏĢá½³Î»Î±":10016,"ĠÎ´Î·Î»Î¿Î½ÏĮÏĦÎ¹":10017,"ĠÏĢÏģÎ¿ÎµÎ¹ÏĢ":10018,"Ġá¼ĲÏĢÎ¹ÏĥÎºÎµÏĪ":10019,"ĠÏĥÏĦÎ±ÏĨÏħÎ»":10020,"Ġá¼¸Î¿ÏįÎ´Î±ÏĤ":10021,"ĠÏĦÏģá½³ÏĨÎµÎ¹Î½":10022,"Î¿á¼·ÏĤ":10023,"ĠÏħÎ¹ÏīÎ½":10024,"ĠÏħÎ¼Î¹Î½":10025,"ÏĦÏģÎ¿ÏĢ":10026,"ĠÏĥÏĢÎ»á½±Î³ÏĩÎ½ÏīÎ½":10027,"ĠÏĦÎµÎºÎ¼á½µ":10028,"Ġá¼¡Î»á½·á¿³":10029,"ĠÎ¼ÏħÏĥá½¶":10030,"ÏħÏĥá½·ÏĢ":10031,"Ġpass":10032,"Ġcase":10033,"ĠÎ¼ÎµÎ³Î¬Î»Î·":10034,"Ġparallel":10035,"ĠÏĢÏģÎ¿ÏĥÎ·Îºá½¹Î½ÏĦÏīÏĤ":10036,"ĠÎ£Î±Î¼Î¿Ïħá½´Î»":10037,"ĠÎ¸Î·ÏĥÎ±ÏħÏģ":10038,"Ġá¼ĲÎ½Î¿ÏĩÎ»":10039,"cy":10040,"©ÏĤ":10041,"ÏĦÎ»":10042,"ÏģÏį":10043,"Î¼Î¼Î±ÏĦÎ¹":10044,"ÎºÎ¹Î½Î¿Î½":10045,"ĠÎºÎ±ÏħÏĩ":10046,"ĠÎ¼á½±Ïģ":10047,"ÏĩÎµÏĥÎ¸Î±Î¹":10048,"Î¿á¿¦ÏĦÎ¿ÏĤ":10049,"ĠÏĥÎ±Î»":10050,"Î¼Î±ÏĦÎ¬":10051,"ĠÏĨÎ¿Î½":10052,"Î¬ÏĥÎ¹Î½":10053,"ÏĥÎ¹Î¼Î±":10054,"ĠÏĦÎµÎ¯":10055,"ÏĪá½·Î±ÏĤ":10056,"ÏĪá¿ĥÏĤ":10057,"Î¶Î¿Î½ÏĦÎ±Î¹":10058,"ĠÏĢÎ¿Î¸":10059,"á¿¥Î·ÏĦ":10060,"ÏģÎ¿á½»Î½ÏĦÏīÎ½":10061,"ĠÏĢÎ±ÏĦá½³ÏģÎ±":10062,"ÏģÎµÏħÏĥ":10063,"ĠÎµá¼¶ÏĩÎ¿Î½":10064,"Ġá¼ĢÎ»Î»á½±":10065,"ĠÎ¼á½³ÏĥÏīÎ½":10066,"ĠÏĦÎ¿á½»ÏĤ":10067,"á½±Î»ÎµÎ¹":10068,"ÎºÎ¿ÏħÏĥÎ¹":10069,"Îºá½±ÏĦÏī":10070,"á½»Î½Î¸Î·":10071,"ÏĦÎŃÏģÎ±Î½":10072,"ĠÏĦá½³ÏĥÏĥÎ±ÏģÎµÏĤ":10073,"Ġá¼ĢÎ³ÏģÎ¿á¿¦":10074,"ĠÎµá¼°ÏģÎ·Î¼á½³Î½Î·Î½":10075,"Î¤Î±":10076,"ÎŃÏģÎµÎ¹Î½":10077,"ĠÏĥÎºÎ»Î·Ïģá½¸ÏĤ":10078,"Î´ÏģÎ±Î³á½¹":10079,"ÏĦÏģÎ¹ÏĦÎ±":10080,"á½½Î½Î¹Î¿ÏĤ":10081,"Ġá¼ĢÎ½ÏĦÎ¹Î»Î¿Î³":10082,"cept":10083,"ĠÎ¸ÏħÎ¼á¿·":10084,"ĠÎ³Î¹Î³Î½Î¿Î¼á½³Î½Î·":10085,"ÏĦÎ¿á½»ÏĦÎ¿Î¹ÏĤ":10086,"Ġá¼ĲÎ¾Î·Î³á½µÏĥÎµÏīÏĤ":10087,"ĠÎ³ÎµÎ³Î¿Î½á½¸ÏĤ":10088,"ĠÏĥÎºÎµÏħÎ±Î¶":10089,"ĠÎ²Î¿Î·Î¸á½µÎ¼Î±ÏĦÎ±":10090,"ĠÎºÎ±ÏĦÎ±ÏĥÏĦá½±ÏĥÎµÎ¹":10091,"ĠÎºá¿¶Î»Î±":10092,"ĠÏĥÏħÎ½Î´á½³ÏĥÎ¼ÏīÎ½":10093,"Ġsaid":10094,"ĠÏĪÎ±á½»":10095,"ertain":10096,"Ġá½ģÏĢÎ¿á½·Î±":10097,"Ġá¼ĲÎ½Î±Î½ÏĦá½·Î±Î½":10098,"ÏĦÎ±á½»ÏĦÎ·Î½":10099,"ĠÎ³ÎµÎ³ÏħÎ¼Î½Î±":10100,"Ġá¼ĲÏģÏħÏĥÎ¹ÏĢá½³Î»Î±":10101,"Ġdifferent":10102,"Ġá¼°ÎºÏĦÎµÏģ":10103,"Ġá¼¸ÏĥÎ±á½°Îº":10104,"gypt":10105,"ĠÎ§ÏģÏħÏĥá½·ÏĢ":10106,".;":10107,"rst":10108,"ĠÂ°":10109,"ÏģÎ®":10110,"ĠÏĦÏį":10111,"Î¼á¿ĩ":10112,"ĠÎ´á½½Î´ÎµÎºÎ±":10113,"Î¸Ïī":10114,"ÏĩÎ¿Î¹":10115,"ÏģÎ±ÎºÎ¿ÏĤ":10116,"á½µÏĥÎ±Î½ÏĦÎ¿":10117,"ÎŃÏģÎµÏīÏĤ":10118,"ÏĥÎ¸á½µ":10119,"ÏĥÎ¸Îµá½·Î·":10120,"Îµá¿ĸÎ»Î±Î¹":10121,"Î¬Î¼ÎµÎ½Î¿ÏĤ":10122,"Î¿á¿ĸÏĦÎ¿":10123,"Ġá½ĢÎºÎ½":10124,"Î¶Î¿ÏħÏĥÎ¹":10125,"Ġá¼ĢÏĢÏħÏģÎµ":10126,"Ġá¼ĲÏĢÎ¹Î³Î¹Î½":10127,"Ġá¼ĲÏĢÎ¹Î´ÎµÎ¹ÎºÎ½":10128,"Ġá¼°Î³Î½á½»":10129,"ĠÎºÎ±Î¸Îµ":10130,"Ġá¼ĢÎ½Î±ÏĥÏĢ":10131,"ĠÎ³Îµá¿¦ÏĥÎ¹Î½":10132,"Ïģá½¹ÏĦÎµÏģá½¹Î½":10133,"ĠÏĪÎµá¿¦":10134,"ĠÎ¸ÎµÎ¿á¿ĸÏĤ":10135,"ÏĦÏģÏīÎ½":10136,"Î´Î±Îº":10137,"ĠÏĥÏħÎ½Î¬":10138,"ĠÎ¶Î·Î»":10139,"ĠÏĢá½±Î½ÏĦá¿ĥ":10140,"Ġá¼ĪÎ²ÎµÏĥÏĥÎ±Î»":10141,"Ġá½ķÎ»Î·":10142,"ĠÏĥÏĨá½»":10143,"ĠÎ·Î¼Î±ÏĤ":10144,"ĠÎĴÎ±Î»Î±":10145,"ĠÏĢÏħá¿¤á¿¥":10146,"ĠÏĢá½¹Î»ÎµÎ¹":10147,"ĠÎµá¼°ÏĥÎ®":10148,"ĠÎ´Î¹á½±Î³Î½ÏīÏĥÎ¹ÏĤ":10149,"Î¿ÏħÏĥá½·Î±ÏĤ":10150,"Ġá¼ĲÎ¼ÏĢÎ»Î±":10151,"ĠÏĥÎºÎ»Î·ÏģÎ¿":10152,"ĠÎ³Î»Ïī":10153,"ĠÏĥÏħÎ¼Î²á½³Î²Î·":10154,"Ġá¼°Î´á½¼Î½":10155,"ĠÏĩÏīÏģá½·Î±":10156,"chol":10157,"ĠÎ¼Îµá½·Î¶Î¿ÏħÏĤ":10158,"ĠÏĢÎ±ÏĦÏģÏĮÏĤ":10159,"ÏĢÎµÏĢÏĦÏī":10160,"ĠÏĦÎµÏĦá½±ÏģÏĦÎ·":10161,"Ġá¿¥á¿ĨÏĥÎ¹ÏĤ":10162,"Ġá¼¡ÏĥÏħÏĩá½·Î±ÏĤ":10163,"ĠÎ¿á½ĲÎ´á½³ÏĢÎ¿ÏĦÎµ":10164,"Ġá¼ĲÎ¼ÏĢÎµÎ¹Ïģá½·Î±ÏĤ":10165,"ĠÏĢÎ±á¿ĸÎ´Î±ÏĤ":10166,"á¼¤Î´Î·":10167,"ĠÏĩÎµá½·Î»Î·":10168,"Ġá¼ģÏģÎ¼á½¹ÏĦÏĦÎµÎ¹":10169,"ĠÎ¼ÎµÎ¹Î¶":10170,"Ġá¼ĦÎ¼ÎµÏĦÏģÎ¿Î½":10171,"Ġá¼ĢÏĥÎ¹ÏĦ":10172,"Îºá¾Ģ":10173,"Ġá¼ŃÏģÎ±ÏĤ":10174,"ĠÎ¸Î±Î»á½±ÏĥÏĥÎ·ÏĤ":10175,"ĠÏĦÎ¿Î¹Î¿ÏįÏĦÏīÎ½":10176,"ĠÏĢÎ»Î±Î³á½·ÏīÎ½":10177,"Ġá¿¥á½·Î³Î¿ÏħÏĤ":10178,"Î´Î¼Îµá½·Î±ÏĤ":10179,"ting":10180,"Î¿Î¼ÎµÎ½Î¿ÏĤ":10181,"á¼ª":10182,"ÏĥÏĢÎ¹":10183,"ÏĥÎ±ÏģÎº":10184,"Î¼á½¹":10185,"ÎºÎ»Î¹":10186,"Î³Î¹Î³Î½":10187,"ĠÎ±Î»Î»Î±":10188,"á¿ĨÏĥÎ±Î½":10189,"ÏĦÎµÏį":10190,"ÏĮÎ»Î¿Ïħ":10191,"Î»ÎµÎ±":10192,"Î¶Î¿Î½ÏĦÎµÏĤ":10193,"ĠÏĢÏģÎ¿Î²á½±":10194,"Ġá½ĳÏĢÎµÎ½Î±Î½":10195,"Ġá¼ĲÎ¾Î¹Îº":10196,"Ġant":10197,"Ġá¼¸Î»Î»Ïħ":10198,"Ġá¼ģÎ»á½·ÏĥÎº":10199,"ĠÏĢÎ¿Î»Î»Î±á¿ĸÏĤ":10200,"Ġá¼ĢÎºÏģÎ±":10201,"Ġá½¥ÏģÎ±":10202,"ĠÏħÏĪ":10203,"ĠÎ»ÎµÏĢá½·Î´Î¿ÏĤ":10204,"ĠÏĥÏĨÏħÏģ":10205,"á½ħÏĢÎ¿Ïħ":10206,"Ġmade":10207,"Î·Î¸á½µÏĥÎµÏĦÎ±Î¹":10208,"ĠÎºÎ¹Î½á½µÏĥÎµÎ¹":10209,"ĠÎ¿á¼°ÎºÎ¿Ïħ":10210,"ĠÏĦÏģÏħÏĨ":10211,"ĠÎłÎ±Î½ÏĦÎ¿":10212,"Ġá½ĳÏĢá½±ÏģÏĩÏīÎ½":10213,"Ġnon":10214,"ĠÏĦá½±ÏĥÎ¹Î½":10215,"ÎĳÎ£":10216,"ĠÎºÎ¿Î¹Î¼Î·Î¸":10217,"Ġá¼ĲÎ»Î±Î¹":10218,"ĠÎ¹ÏĥÏĦ":10219,"ĠÎµÎ¹ÏĥÎ±":10220,"ĠÏĩÎµÎ¹Ïģá½·":10221,"ĠÎµá¼°Ïģá½µ":10222,"ĠÎ´á½¹Î³Î¼Î±":10223,"Ġvery":10224,"Ġá½¦ÏĥÎ¹Î½":10225,"Ġá¼ĢÏģÎ¹Î¸Î¼á¿·":10226,"ĠÎ»Î±Î¼Î²á½±Î½ÎµÎ¹":10227,"Ġcont":10228,"ĠÏĦÎµÎ»ÎµÏħÏĦá½´Î½":10229,"ĠÏĩÏģÏħÏĥÎ¯Î¿Î½":10230,"Ġá½ĢÏĢá½·Î¿Ïħ":10231,"Ġá¼ĲÏĩÏģá½µÏĥÎ±ÏĦÎ¿":10232,"ĠÎ½Î¿Î¼á½·Î¶Î¿ÏħÏĥÎ¹Î½":10233,"ĠÎ¼Î½á¾¶ÏĤ":10234,"Ġá¼ĶÏģÏĩÎ¿Î½ÏĦÎ±Î¹":10235,"ĠÎ²á½±ÏģÎ¿ÏħÏĤ":10236,"Ġá½ĢÏĩÏħÏģ":10237,"ĠÎºÏģÎ¿ÏĦÎ±":10238,"Ġá¼ĲÏĢÎ¹Î½Î¿":10239,"ĠÎ´ÏģÎ±ÏĥÏĦÎ¹Îº":10240,"ĠÎºá½±ÏģÏĦÎ±":10241,"Ġá¼ĶÏĦÎµÎºÎµÎ½":10242,"ĠÎ´Î¹Î±ÏĥÏĦá½³Î»Î»ÎµÏĥÎ¸Î±Î¹":10243,"ĠÎ³ÎµÏīÏģÎ³":10244,"from":10245,"pre":10246,"Ġ&":10247,"Î¿ÏĥÏĦ":10248,"ÏĥÎ¬Î½":10249,"ÏĢá½»":10250,"Ġá¼ĲÎ¼Îµ":10251,"Î¸ÏħÏĥ":10252,"Î¸ÎµÎ¹ÏĤ":10253,"á½·ÏĥÏĦÎ¿Ïħ":10254,"Ïĩá¿¶ÏĤ":10255,"Ġá¼ĢÎ¼Î½":10256,"ÏĨÎ¿Î¹":10257,"Ġá¼ĲÎ½Î´ÎµÎ¹":10258,"Îµá¿ĸÏĥÎ¸Î±á½·":10259,"Î¬Î¼Î·Î½":10260,"ĠÏĩÎ¿Î½":10261,"Ġá¼ĦÎ»Îµ":10262,"Ġá½ħÏģÎ¹Î±":10263,"Ġá½ĢÏĪ":10264,"Î¶Î±Î½":10265,"Î±Î»Î±Îº":10266,"ĠÏĥÏħÏĥÏĦá½±":10267,"Î®ÏĦÏī":10268,"ĠÏĢÎ¿Î»á½³":10269,"Î¹Îºá½¸ÏĤ":10270,"Î»Î·Î¼Î±":10271,"Ġá¼°Î·ÏĦ":10272,"ÏĥÏĩÎµ":10273,"Ġá¿¥á½¹Î´ÏīÎ½":10274,"ĠÏĢÎ±ÏģÎ±Î»Îµá½·":10275,"ÏĢÎ»Î·Ïĥ":10276,"ĠÏĥÏĦá½±":10277,"ĠÎ£Î±Ïģ":10278,"Ġá¼´Î´ÎµÎ½":10279,"ÎºÎ¿ÏħÏĥÎ¿Î½":10280,"ĠÏĢá½±Î¸ÎµÏĥÎ¹Î½":10281,"Î¿á½ĲÎ´Îµ":10282,"ĠÏĢÎ»ÎµÎ¯Î¿Î½":10283,"Ġá¼ĢÎ³Ïģ":10284,"Ġá¼ĺÎ»Î¹":10285,"....":10286,"ĠÎºá¾ĢÎ³á½¼":10287,"Ġá½ĢÎ´á½¹Î½ÏĦÏīÎ½":10288,"ĠÏĩÎµá¿ĸÏģÎµÏĤ":10289,"ĠÏĥÎ¼á½»Ïģ":10290,"ĠEgypt":10291,"ĠÎ¶Î·ÏĦÎ¿Ïħ":10292,"ĠÏĥÏħÏĥÏĦÎ¿Î»á½´Î½":10293,"Ġ301":10294,"ĠÏĢÏģÎ¿ÎºÎµÎ¹Î¼á½³Î½Î¿Ïħ":10295,"ÏģÎ¿á½»ÏĤ":10296,"ĠÎ±á½ĶÏĦÎ±Ïģ":10297,"Ġá¼ĶÏĢÎµÏĥÎµÎ½":10298,"á½ĳÏĢá½¸":10299,"Ġá¼Ģá¿¤á¿¥á½½ÏĥÏĦÏīÎ½":10300,"ĠÎºÎ¹Î²ÏīÏĦá½¸Î½":10301,"Ġá½ĢÎ¸Î¿Î½á½·ÏīÎ½":10302,"Ġá¼ĲÎ´á½·Î´Î±Î¾ÎµÎ½":10303,"ĠÎºÎ±ÏĦÎµÏģÎ³Î±":10304,"Î½ÏĦÎ¹Î½Î±Î¿á¿¦Î½":10305,"ĠÎºá½±Î»Î»Î¹ÏĥÏĦÎ±":10306,"Ġá¼¸Î½Î´Î¹Îºá¿ĨÏĤ":10307,"Ġá½ĳÏĢá¿ĨÏģÏĩ":10308,"Ġá½ĢÎ½ÎµÎ¹Î´Î¹":10309,"ÏĥÏĦÏħÏĢÏĦÎ·Ïģá½·Î±ÏĤ":10310,"cholz":10311,"Omit":10312,"Qmg":10313,"Ġ'":10314,"Ġá¼ĲÎ²Î¿Ïħ":10315,"Î¿ÏħÎ¼á½³Î½Î¿ÏħÏĤ":10316,"á½¹ÏĢ":10317,"ĠÎµÎ¹Îº":10318,"ĠÏĥÏĢÎ¿":10319,"ĠÏĥÎ®Î¼ÎµÏģÎ¿Î½":10320,"ÎµÎ½Î¿":10321,"ÏģÎ±á½·":10322,"Î¼Î±Î¸Îµá¿ĸÎ½":10323,"Î²ÏīÎ½":10324,"ĠÎ´Î¹Ïİ":10325,"Ġá¼ĶÎ¸ÎµÏĦÎ¿":10326,"ĠAÎĵ":10327,"á½³ÏģÎ¿ÏħÏĤ":10328,"ĠÏĦÎ±Ïħ":10329,"ĠÎ½Î¿á¿¦":10330,"Ġá¼ĲÎ¾Î¿Î¼Î¿Î»Î¿Î³":10331,"ĠÎ¿á½ĲÎ´ÎŃ":10332,"ÏħÏĥÏĥ":10333,"ĠÏĥÎºÎ¿Ïģ":10334,"ĠÎ´Îµá½»ÏĦÎµÏģÎ¿ÏĤ":10335,"ĠÏĨá½»ÏĥÎµÎ¹ÏĤ":10336,"ĠÎ£Î·":10337,"ĠÏĪÏħÏĩÏģá¾¶ÏĤ":10338,"ÎºÎ¿Î½ÏĦÎµÏĤ":10339,"Î´Î¿ÎºÎ¹":10340,"Î²Î±ÏĥÎ¹Î½":10341,"ĠÎºÎ¹Î½Î½Î±":10342,"ĠÎ¼ÎµÏĦÎŃ":10343,"Ġá¼ĲÏģÎ¿á¿¦ÏĥÎ¹Î½":10344,"ĠÎ»á½³Î³Î¿ÏħÏĥÎ¹":10345,"ĠÎºÏħÏģÎ¹Î¿ÏĤ":10346,"ĠÎ¼á½³Î½ÎµÎ¹":10347,"ÏĦÎŃÎ¿Î½":10348,"ĠÏĥÏħÎ½ÎµÎ»Î¸":10349,"ĠÎĵÎ¿":10350,"ĠÏĦá½±Ïĩ":10351,"ĠÏĥÏħÎ¼ÏĢÎµ":10352,"Ġá¼±ÎºÎ±Î½á½°":10353,"ĠÎ¦Î¹Î»":10354,"ĠÎ¼ÎµÎ³á½±Î»Î¿ÏħÏĤ":10355,"ĠÏĢÎ±Î»Î±Î¹á½¸Î½":10356,"ĠÎ±á¼°ÏĥÎ¸á½±Î½":10357,"ĠÎ¼á½³ÏĩÏģÎ¹ÏĤ":10358,"Î±á½ĲÏĦá½¸":10359,"á¼ĲÎºÎµá¿ĸÎ½":10360,"ĠÏĦÎ¿Î¹Î¿á¿¦ÏĦá½¹Î½":10361,"Î³Ïģá½±ÏĨÏīÎ½":10362,"ĠÎ¼Î¿ÏĩÎ¸Î·Ïģá½¸Î½":10363,"ĠÏĢÎµÎ½ÏĦá½µ":10364,"Ġá¼ĪÎ½ÏĦÎ¹":10365,"ÏģÎ¿á½»Î¼ÎµÎ½Î¿Î½":10366,"ĠJer":10367,"ĠÎ±á½ĳÏĦÎ¿á¿¦":10368,"ĠÏĩÎ¹ÏĦá¿¶Î½Î±ÏĤ":10369,"ĠÎ»Î¿Î³Î¹ÏĥÎ¼á½¸Î½":10370,"Ġá¼ĢÎ´ÎµÎ»ÏĨÎ¿á½ºÏĤ":10371,"ĠÎµá¼´ÏģÎ·ÏĦÎ±á½·":10372,"ĠÎ¸Î¬Î½Î±ÏĦÎ¿Î½":10373,"ĠÎºÎ¹á¿¤á¿¥":10374,"arently":10375,"ĠÎ´á½³Î¿Î½ÏĦÎ¿ÏĤ":10376,"igin":10377,"ĠÏĩÎ¿ÏģÎ·Î³":10378,"Ġï¬ģrst":10379,"udg":10380,"ĠÎ´Î¯ÎºÎ±Î¹Î¿ÏĤ":10381,"ĠÏĢÎµÎ»Î¹Î´Î½":10382,"ĠAssy":10383,"ĠÎ²Î¿á½µÎ¸Î·Î¼Î±":10384,"29":10385,"ÏĥÎ¼á½³Î½Î±":10386,"ĠÏĦÎ¼Î·Î¸":10387,"ĠÏĦá¼ĢÎ»Î·Î¸":10388,"ĠÎºÏĦÎ·Î½":10389,"Î´ÎµÎ¹Î½":10390,"Ġá¼Ģá½´Ïģ":10391,"ĠÎ±Î³Î¹":10392,"ĠÎ¿ÏĨÎ¸Î±Î»":10393,"ĠÎµÎ¼Î¿Ïħ":10394,"á½»ÎµÏĦÎ±Î¹":10395,"ÎµÎ¹á¿¶Î½":10396,"ÎŃÎ³":10397,"ÏģÎ¹Î±ÏĤ":10398,"Ġá½ĳÎ¼á½³Î½Î±":10399,"á½½Ïĥá¿ĥ":10400,"ĠÎ¸á½±Î»":10401,"ÏĮÏĦÎµ":10402,"Ġá¼ĦÏģÎ¹ÏĥÏĦ":10403,"á½¹Î½Î´Îµ":10404,"ĠÏĦÎ¿Î¯Î½ÏħÎ½":10405,"Ġá¼ĲÎºÎŃ":10406,"Ġá½ĢÎ¸á½¹Î½":10407,"ĠÏĦÎ±á¿ĸÏ²":10408,"ĠÏĢÎµÏģá½¹Î½":10409,"Î¹Îºá½¹Î½":10410,"Ġá¼ĢÎ½Î¸ÏģÏīÏĢ":10411,"ÏģÎµÎ³":10412,"Ġá¿¥Î®":10413,"Ġá¼ĢÏĢÎ¿Î¸Î½á½µ":10414,"Î¸Î·ÎºÎ±Î½":10415,"ĠÎ¸ÎµÎ¿á½ºÏĤ":10416,"Î´Î¹á½¹ÏĦÎ¹":10417,"Î½Î¿Î¼á½±":10418,"Î¸ÎµÎ½ÏĦÎ±Î¹":10419,"ÏĦá½·ÏīÎ½":10420,"ĠÏĥÏĦá½³Î±ÏĦÎ¿ÏĤ":10421,"ĠÎ´á½»ÏĥÎº":10422,"Ġá½ĳÎ³Îµá½·Î±Î½":10423,"Ġco":10424,"Ġá½ķÎ²":10425,"ĠÎ¸ÎµÏģÎ¼Î¿á¿ĸÏĤ":10426,"Î»Î»Î¿Î½ÏĦÎµÏĤ":10427,"Ġá¼¥Î¼Î±Ïģ":10428,"Ġá¼¥Î²Î·ÏĤ":10429,"ĠÏĢá½±Î¸ÎµÎ¹":10430,"Î´ÏģÎ¿ÏĤ":10431,"Î´á½·ÏīÎ½":10432,"ĠÎ´ÏħÎ½á½±Î¼ÎµÎ½Î±":10433,"ÏĨÎ±á½¶":10434,"ÏĦÎ¿á¿¦ÏĦ":10435,"Ġde":10436,"Ġlx":10437,"ĠÏĢá½³ÏĪÎ¹Î½":10438,"ÎłÎŁ":10439,"ĠÎºÎµÎ½á½¸Î½":10440,"Î¬Î»ÏĢÎ¹":10441,"ĠÏĥÎ±ÏĨá½²ÏĤ":10442,"ĠÎºÎ±ÏĦá½±ÏĩÏģÎ¹Îµ":10443,"ĠII":10444,"ĠÎ³Ïģá½±ÏĪÎ±Î¹":10445,"ĠÏĥÎ¹ÏīÏĢ":10446,"á½½Î½Î¹Î¿Î½":10447,"ĠÎľÏīÎ±Î²":10448,"ÏĩÎ±Î¯":10449,"ĠÎ¸á½½ÏģÎ±Î¾":10450,"ĠÎĶÎ±ÏħÎµá½·Î´":10451,"ĠÏĢÏģÏĮÎ²Î±ÏĦÎ±":10452,"ĠÎ²Î¹Î²Î»á½·Î¿Î¹ÏĤ":10453,"Ġá¼ĦÏĩÏģÎ¹ÏĤ":10454,"ĠÏĩÏīÏģá½·Î¿Î¹ÏĤ":10455,"ĠÏĢÎ¹ÎºÏģá½°":10456,"ĠÎ¼Î¿ÏĩÎ¸Î·Ïģá¿¶Î½":10457,"ĠÎ´Î¹Î±Î¹ÏĦÎ·":10458,"Ġá½ģÏģá¿¶Î¼ÎµÎ½":10459,"Ġá¼ĢÏĨÎ¹Îºá½³ÏĥÎ¸Î±Î¹":10460,"Ġá¼ĲÏ²ÏĦÎ¹Î½":10461,"ĠÎ´Î¹Î¿ÏģÎ¹":10462,"ĠÏĩÎµÎ¹Î¼á¿¶Î½Î±":10463,"Ġá¼ģÏĨá¿ĨÏĤ":10464,"Ġá¼°Î±ÏĦÏģÎ¿á½ºÏĤ":10465,"ĠÏĥÎ·ÏĢÎµÎ´Î¿Î½":10466,"ĠÎµá½ĹÏģÎµÎ½":10467,"Ġsaith":10468,"ĠÎ¼Î±ÏģÏĦÏħÏģÎµá¿ĸ":10469,"ĠÎ¼á½³Î»Î±Î½Î¿ÏĤ":10470,"Ġking":10471,"Ġá¼ĢÎ»Î»Î¿ÏĦÏģ":10472,"Î¼á½±Î½Î½Î·ÏĤ":10473,"Ġá¿¥á¾·Î¿Î½":10474,"Ġá¼ĶÏĥÏĩÎ±ÏĦÎ¿Î½":10475,"ĠÏĢÎ»Î·Î¼Î¼ÎµÎ»":10476,"Ġá½ģÎ´Î¿Î¹ÏĢÎ¿":10477,"ĠÎĿÎ±Î²Î¿ÏħÏĩÎ¿Î´Î¿Î½Î¿Ïĥá½¸Ïģ":10478,"Îµá½ĲÎ¸á½ºÏĤ":10479,"á¿¥Î·ÏĦá½·Î½Î·ÏĤ":10480,"This":10481,"nect":10482,"Ġ{":10483,"Î¿ÏģÎ±":10484,"Î¼Î®":10485,"ÏīÏĢÎµ":10486,"ĠÏĢá½½ÏĤ":10487,"Î¸Îµá½·ÏĥÎ·ÏĤ":10488,"á½·Î·ÏĤ":10489,"Ġá¼ĢÎµÏģ":10490,"ÏĥÏĦá¿¶Î½":10491,"âĢ¦":10492,"ÏĦÎµÎ»Îµ":10493,"Ġá¼ĶÏĥÎ¸":10494,"ĠÏĦÎµÎ¹Î½":10495,"Ġá¼ĦÎ´Î·Î»Î¿Î½":10496,"Ïģá½·ÏĦÎ¹":10497,"ÏĥÎ±Î¯":10498,"Ġá¼ĢÎ½Î¿á½·":10499,"ÏĥÏĩÎµÎ½":10500,"Ġá¼ĢÏģÎºá½³":10501,"ÏĢÎµÏĨÏħÎº":10502,"ÏĢÎ±Î³":10503,"ĠÎ»Îµá½±Î½Î±ÏĤ":10504,"ĠÏĢÎµÎ¶":10505,"Ġá¼¥ÎºÎµÎ¹Î½":10506,"Î»ÎµÎ¹Î¼":10507,"á¼ĶÏĥÏĦÎ±Î¹":10508,"Ġá½ħÎ»Î¿ÏĤ":10509,"ĠÎ¼ÎµÏĦÎ±ÏĩÎµÎ¹":10510,"ĠÎ¿á¼¶ÏĤ":10511,"Ġá¼ĳÎ±ÏħÏĦá¿ĩ":10512,"ĠÎ¼á½³Î½ÎµÎ¹Î½":10513,"ĠÎ½Î¿ÏĥÎµá¿ĸÎ½":10514,"á½ģÏĢá½¹":10515,"ÏĦÏĦÎ¿Î½ÏĦÎµÏĤ":10516,"Ġhard":10517,"Ġá½ĳÏĢÎµÏģÏħÏĪ":10518,"Î¾ÎµÏĥÎ¹Î½":10519,"ĠÎľÏīá½°Î²":10520,"ÏĦÎ®Ïģ":10521,"Ġ198":10522,"ĠÎ´Î¹Î±ÏĨá½³ÏģÎµÎ¹Î½":10523,"Î¿Î»Î¿ÏħÎ¸":10524,"ĠÎ³á¿ĨÏģÎ±ÏĤ":10525,"á¼ķÎºÎ±":10526,"ĠÏĢÎµÏģá½·Î¿Î´Î¿Î½":10527,"ĠÎ¼Î·Î½á½¶":10528,"ĠÎ´Î¹ÎºÎ±Î¹Î¿ÏĥÏįÎ½Î·ÏĤ":10529,"Ġá¼ĢÏģÎ¹ÏĥÏĦÎµÏģá¿¶Î½":10530,"Ġá¼ĲÎ¸ÎµÎ±Ïĥá½±":10531,"ĠÏĢÎ±ÏģÎµÎ¼Î²Î¿Î»á¿ĨÏĤ":10532,"ĠÏĥÏĦÏģÎ±ÏĦÎ·Î³":10533,"ĠÏĦá½³ÏĦÏĦÎ±ÏģÎ±":10534,"Ġá½ĢÎ»Î¹Î³á½±ÎºÎ¹ÏĤ":10535,"Ġá¼ħÎ³Î¹Î±":10536,"Ġá¼ĢÏĢÎ¿ÏĦÎµÎ»Îµá¿ĸÏĦÎ±Î¹":10537,"ĠÎ²Î»Î±Î²ÎµÏģ":10538,"ĠÏĥÏĢÎ±Î½á½·ÏīÏĤ":10539,"ĠÎĶÎ±Î¼Î±":10540,"Ġá¼ĲÎ»Î±Ïĩá½·ÏĥÏĦ":10541,"sch":10542,"Î¿ÏĢÎ¿Î½":10543,"ÎµÏħÎº":10544,"ÏĢÏīÏģ":10545,"ÏħÎ²":10546,"ĠÎºÎ±Î¼Î½":10547,"á½³ÏĥÏĦÎ¿Ïħ":10548,"Î³ÏħÎ¼":10549,"Î¿ÏħÏ²":10550,"ÏĨÎ±Ïģ":10551,"ÏģÎ±Î¾Î±":10552,"ÎºÎ±ÏĦá½±":10553,"Î¿á¿ĸÎ±":10554,"ĠÏĦÎµÏĦá½±":10555,"Ïģá½·á¾³":10556,"ĠÏĢÏģÎ¿ÎºÎ±ÏĦÎ±":10557,"á¿¦Î»Î±":10558,"Ġtit":10559,"ĠÏĢÎ±ÏĥÎ¹Î½":10560,"Ġá¼ĲÏĢÎ¹ÏĥÏĦÎ±":10561,"ÏĥÎºÎ¿Î½":10562,"Î¼á½±Ïĩá¿³":10563,"Ġá¼ĢÎ½Î±Î³Î½":10564,"ÏĦÏģá¾³":10565,"ĠÏĢÎ»Î¬":10566,"ĠÏĢÎ¿Î»Î»á¿ĩ":10567,"ĠÏĢÎµÏģÎ¹Î²":10568,"Ġá½¥ÏģÎ±Î¹ÏĤ":10569,"ĠÎ¶Ïİ":10570,"ĠÎ¾ÏħÎ»":10571,"Î¸Î±ÏĦÎµ":10572,"Ġá½ĳÎ³á½·":10573,"Ġá¼ĶÎ½Î½":10574,"ĠÏĨÎ±Î¼ÎµÎ½":10575,"ĠÏĢÎ±Î½Î¹Î±":10576,"ĠÎ¼ÎµÎ³á½·ÏĥÏĦÎ·":10577,"á½»Î½ÏĦÎµÏĤ":10578,"Ġá¼ĲÏģÏħÏĥá½·":10579,"ĠÏĢÏħÏģÎ¹":10580,"ĠÏĦá½¹ÏĢÎ¿ÏĤ":10581,"ĠÎºá¾ĢÏĢÎµÎ¹Î´á½°Î½":10582,"ĠÏĦÏģÎ¹Ïĥá½¶":10583,"ĠÎ´ÏħÎ½á½±Î¼ÎµÏĥÎ¹Î½":10584,"ĠÎ¹Î±":10585,"ĠÎ±Î½Î¸ÏģÏī":10586,"ĠÎºá½¹Îº":10587,"á¼ĺá½°Î½":10588,"Ġá¼ĶÎºÎºÏģÎ¹ÏĥÎ¹Î½":10589,"Îķá¼´":10590,"ĠÎ¶Î·ÏĦÎµá¿ĸ":10591,"ĠÏĢÎ±Î¸á½µÎ¼Î±ÏĦÎ±":10592,"ÎľÎµ":10593,"Ġá¼ĦÎºÏģÎ±Î½":10594,"Ġvari":10595,"ĠÎ¸á½³ÏģÎµÎ¹":10596,"Ġá¼ĢÎ½ÎŃÎ²Î·":10597,"ĠÏĥÎºÎ·Î½á½´Î½":10598,"Ġá¼ĲÏĥÎ¸Î¯":10599,"ĠÎ»ÎµÏĢÏĦÎ¿Î¼ÎµÏģá½²ÏĤ":10600,"Ġï¬Ĥ":10601,"Î´ÎµÎºá½±ÏĦá¿ĥ":10602,"á½ĥÏĤ":10603,"Ġá½ĳÏĢÎ¿Î¼Î½á½µÎ¼Î±ÏĥÎ¹":10604,"ĠÏĥÏħÎ½Î´á½³ÏĥÎ¼Î¿Ïħ":10605,"ĠÎºÎ·ÏģÏīÏĦá¿ĩ":10606,"Ġá¼¹ÏĢÏĢÎ¿ÎºÏģÎ¬ÏĦÎ¿ÏħÏĤ":10607,"ĠÏĥÏħÎ½ÏĦÎµÎ»Îµá¿ĸ":10608,"ĠÎ´Î¹Î±Ïĥá½½":10609,"Ġá¼ĪÏĥÏĥÏħÏģ":10610,"ĠÎºÎ±ÏĦÎ¿ÏģÎ¸":10611,"ĠÎºÝ²ÏĤÝ²":10612,"ĠÎ±á¼°ÏİÎ½Î¹Î¿Î½":10613,"Ġá½¡Î¼Î¿Î»á½¹Î³":10614,"ĠÎļÏħÏģÎ¯á¿³":10615,"á¼ĲÏĩÏģá¿ĨÎ½":10616,"shall":10617,"Ġá¼ĦÎ»ÎµÏħÏģÎ¿Î½":10618,"oice":10619,"ull":10620,"ÏĥÏĢÎ¿":10621,"ĠÏĦÎµÎ¹":10622,"Î»Î¸Îµ":10623,"á¿¶ÏĦÎ¿ÏĤ":10624,"Ġá¼ĢÏĥÎ¸á½³Î½":10625,"Î¿á¿¦Î½Î±Î¹":10626,"á¿¶Î½Î¹":10627,"ĠÏĥá¿¶":10628,"Î±Î½ÏĦÎ¹Î¿Î½":10629,"á½µÏĥÎ±Î½ÏĦÎ±":10630,"ÏĦÎ¹Î±Î½":10631,"ĠÎ¸Î±Î»Î±":10632,"ÏĮÎ¼Î·Î½":10633,"ÏįÎµÎ¹":10634,"Î¶Î¿Î½ÏĦÎ±":10635,"Î»Î±ÏĦÎµ":10636,"ÏģÎµÎ¯":10637,"Ġá¼ĲÏĢÎ¹Î¼á½³":10638,"ÏĥÎºÎµÏĪ":10639,"Ġá¼ĢÏģÎ¾Î±":10640,"Ġá¼ĲÎ³Ïİ":10641,"ĠÏĥÏħÎ½Î·":10642,"ÏĮÎ½ÏīÎ½":10643,"ÏĮÎ½ÏĦÎ¿ÏĤ":10644,"Ġá¼ĪÏĩÎ±":10645,"Î´Î¿ÏĦÎ±Î¹":10646,"ĠÎ»Î±á½¹Î½":10647,"ĠÎºÎ±Î»á½³":10648,"ĠÎ¼á½µÏĢÏī":10649,"ĠÏĦá½³ÏĥÏĥÎ±ÏģÎ±ÏĤ":10650,"ÏħÎ¸á¿ĩ":10651,"ĠÎ¤Î±":10652,"ĠÎ³Î»Ïİ":10653,"ĠÏĥÎ±ÏĨá½³ÏĥÏĦÎµÏģÎ¿Î½":10654,"Ġá¼ĢÎ´á½µÎº":10655,"ĠÎµá½ĲÎ¸ÎŃÏīÏĤ":10656,"ĠÎ¸ÏħÎ¼á½¸Î½":10657,"ĠÎµá½ĶÎºÏģÎ±":10658,"ĠÎºÏįÏģÎ¹Îµ":10659,"ĠÎ»ÎµÎ³á½¹Î½ÏĦÏīÎ½":10660,"ĠÏĥÏĨÎ¿Î´ÏģÎ¿":10661,"ĠÎ³ÏħÎ¼Î½Î±Ïĥá½·Î¿Î¹ÏĤ":10662,"ĠÏĢá½¹Î½Î¿ÏĤ":10663,"Î´á½³ÏĩÎµÏĥÎ¸Î±Î¹":10664,"Ġá¼¤ÎºÎ¿ÏħÏĥÎ±":10665,"ĠÏĢÎ±Î¹Î´á½·Î±":10666,"ĠÏĢÏģÎ¿ÏĥÎ±Î³Î¿ÏģÎµÏħ":10667,"ĠÏĥÏħÎ¶ÏħÎ³á½·Î±":10668,"ĠÏĢÎ»Î·Î³á½´Î½":10669,"ĠÎ¼ÎµÎ»Î±Î³ÏĩÎ¿Î»Î¹Îºá½¸Î½":10670,"Ġá½ģÎ¼Î±Î»á¿¶ÏĤ":10671,"Ġomits":10672,"Ġá¼ĲÎ½ÏĦÎ¿Î»á½°ÏĤ":10673,"ÎµÎ»Î¸á½¼Î½":10674,"ĠÎµá¼°Î´á½³Î½Î±Î¹":10675,"ĠÎºÏħá½±Î¸Î¿ÏħÏĤ":10676,"ĠÎ»Î·ÏĨÎ¸":10677,"ÏĥÏħÎ¼Î²Î±á½·Î½ÎµÎ¹":10678,"Ġá¼ĲÎ½Î½á½³Î±":10679,"ĠÎ³Î»Î¹ÏĥÏĩ":10680,"ĠÏĢÎµÎ½ÏĦá½µÎºÎ¿Î½ÏĦÎ±":10681,"end":10682,"eous":10683,"Â¶":10684,"Ġ<":10685,"ÏĥÏĥÏī":10686,"ÏĥÏħÎ³":10687,"ÎºÏĦÎ¹":10688,"ÎºÎ·ÏĥÎ±Î½":10689,"Î¸Î¬":10690,"á½³ÎµÎ¹Î½":10691,"á½³ÏĥÎµÏīÏĤ":10692,"Î³á½·Î³Î½ÎµÏĦÎ±Î¹":10693,"Î´ÎµÎ¹ÏĤ":10694,"Î¿ÏħÎ¼á½³Î½Î·Î½":10695,"ĠÏĥá¿Ĩ":10696,"á¿ĨÏĥÎ±á½·":10697,"ÏĥÏĦá½¹":10698,"Î¯ÏĥÏĦÎ¿Ïħ":10699,"Ġá¼ĲÏĢÎ»Î®":10700,"ĠÎ»Î¹Î³Î½":10701,"Ġá½ĳÎ¼á½³Î½":10702,"ĠÎ¸ÏħÏģ":10703,"Ġá¼ĦÎ³Î½":10704,"Ġá½ħÏĦ":10705,"ÏĪÏħ":10706,"ĠÏĦÎ±ÏħÏĦá½¶":10707,"Ġá¼ĢÎ½ÏĮ":10708,"á½·Î½Î¿ÏħÏĥÎ±":10709,"ĠÎºÎ±Î¸Î·":10710,"ĠÎºÎ±Î¸Î±ÏģÎ¹":10711,"Ġá¿¥á½µÎ¼Î±ÏĦÎ±":10712,"Ġá¼ĢÏĢÎ¿ÏĦá½·":10713,"ĠÎµá½ĲÏĢÎ¿Ïģ":10714,"Î»Î¿Î½ÏĦÎ±Î¹":10715,"ĠÎ¼Î¿ÏħÏĥÎ¹Îº":10716,"ĠÏĨÎ±á½·Î·":10717,"Î¸á½³ÏĥÎµÏīÏĤ":10718,"ÏĥÏĦÎµÎ¯":10719,"ĠÎºá½±Î»Î»Î¹Î¿Î½":10720,"ĠÏĢÏħÎ¸":10721,"Ġnations":10722,"ĠÎµá¼°ÏĥÏĢÎ½Î¿á¿ĨÏĤ":10723,"Ġá¼ĢÎ³ÏīÎ½":10724,"Ġá¼ħÏĢÎ±Î½ÏĦÎ¿ÏĤ":10725,"ÏĨÏħÎ»Î±Îº":10726,"ĠÎ´Î·Î»Î·":10727,"ĠÎµá½ĲÎ¸Îµá½·Î±ÏĤ":10728,"ĠÎºÏģá½·Î½ÎµÎ¹Î½":10729,"Ġá¼ģÎ¼Î±ÏģÏĦÎ¯":10730,"ÏĥÏĦÎ¹Îºá¿ĨÏĤ":10731,"ording":10732,"ĠÎ¼ÎµÎ¸á½¹Î´á¿³":10733,"ĠâĦµÎĴ":10734,"Î¹ÏĥÏĦÎ¿ÏĤ":10735,"ĠÎ³ÎµÎ½Î½Î·Î¸":10736,"Ġá¼¸Ïīá½°Î²":10737,"Î¿ÏħÏĥÎ±Î»Î·Î¼":10738,"ĠÏĥÏĦÎ¿ÏĩÎ±":10739,"Î³Ïģá½±ÏĨÎµÎ¹":10740,"ĠÏĨÎ±Î½Îµá¿ĸÏĦÎ±Î¹":10741,"Ġá¼ĢÎ´ÎµÎ»ÏĨá½¸ÏĤ":10742,"ĠÏĢÏģÎ¿ÏĨá½±":10743,"ÎºÏĮÏĥÎ¹Î¿Î¹":10744,"Ġá¼ĶÎ´ÏīÎºÎ±Î½":10745,"Ġá¼ĢÏĨÎ¹ÎºÎ½Î¿Ïħ":10746,"ĠÏĢÎ»Î·ÏĥÎ¼Î¿Î½":10747,"Ġá¼ĢÎ½Î±ÏĦÎ¿Î¼Î¹Îºá¿¶Î½":10748,"ĠÏĢÎ±ÏģÎ¿Î¾ÏħÏĥÎ¼á½¸Î½":10749,"Ġá¼ĲÏ²Î¸":10750,"ĠÎĽÎµÏħÎµÎ¹":10751,"ĠÎ±á¼±Î¼Î¿á¿¤á¿¥Î¿ÎĲ":10752,"Ġá½ĳÎ´Î±Ïģ":10753,"ĠÎ¸ÏħÏĥÎ¹Î±ÏĥÏĦÎ®ÏģÎ¹Î¿Î½":10754,"Ġmean":10755,"Ġá¼ĲÎ¾ÎµÎ»á½³Î³":10756,"ĠÏĥÏĢÎ¿Î½Î´á½»Î»Î¿Ïħ":10757,"Ġá¼ĶÎ½Î´ÎµÎ¹Î¾Î¹ÏĤ":10758,"ĠÏĪÎµÏħÎ´á¿Ĩ":10759,"ĠÎ´ÏģÏħÎ¼":10760,"ÎºÎ¿ÏįÏĥÎ±ÏĦÎµ":10761,"ĠÏĢÏĦÎ¹Ïĥá½±Î½Î·ÏĤ":10762,"Ġá¼ĢÎ½ÏīÎ¼Î±Î»á½·Î±ÏĤ":10763,"ĠÎ±á¼°Î³á¿¶Î½":10764,"ween":10765,"ĠÎµá¼°ÏĥÎµÎ»Î¸Îµá¿ĸÎ½":10766,"Ġá¼ĦÏĦÎ¿ÏĢÎ¿Î½":10767,"Ġá¼ĢÎ½Î±Î¼Î¹Î¼Î½á½µ":10768,"ĠÏĦÎŃÏĩÎ½Î·ÏĤ":10769,"ĠÏĦÎ·Î»Î¹Îº":10770,"Ġá¼ĲÏģá½µÎ¼á¿³":10771,"itzsch":10772,"á½Ń":10773,"ÏĥÎŃ":10774,"ÏĢá¾¶Î½":10775,"ĠÎºÎ¿á¿¦":10776,"ĠÏĢÏĦÏħ":10777,"Î³Îµá½·":10778,"Î´á½¸Î½":10779,"Î¿ÏħÏ²Î¹":10780,"ĠÏĨÏħÎ³":10781,"ĠÎ»Î±Î½Î¸":10782,"ĠÏĩÎ¿Î¹":10783,"Ġá¼¡Î½":10784,"Ġá¼ĢÏĢÎ±Î»Î»á½±":10785,"Î´ÎµÎºÎ¬":10786,"ĠÏĩÏģá½µÏĥÎµÎ¹":10787,"Ġá¼ĲÏĢÎ¹ÏĨÎ±":10788,"á½·Î½Î¿Î½ÏĦÎ±ÏĤ":10789,"Î¼á½±Î»Î¹ÏĥÏĦÎ±":10790,"Ġá¼°Î½":10791,"Ġá¼ĢÎ½Î±Î¼Î½":10792,"ĠÏĢÎ±ÏģÎ¿":10793,"ÏİÎ¼ÎµÎ¸Î±":10794,"Ġá¼ĢÏĢÎ¿Î»Î±":10795,"Î¿Î¼á½³Î½á¿ĥ":10796,"ÏĢÎ±ÏĦÎµ":10797,"Î´Î·Î»Î¿ÏĤ":10798,"ĠÏĢÎµÏģÎ¹á½³":10799,"Ġá½¥ÏĥÎ¸":10800,"ĠÏĢÎ±ÏģÎ±Î²á½±Î»Î»":10801,"ĠÏĥÏĦá¿Ĩ":10802,"Ġá¼ĪÎ½Î±":10803,"ĠÎ±á¼±Î¼Î±":10804,"ĠÎºÎ¿Ïĩ":10805,"ÎºÎ¿ÏħÏĥÎ±":10806,"Ġmis":10807,"ĠÏĢÎ±Î½ÏĦá½·":10808,"ĠÏĦÏģá½·ÏĦÎ¿ÏĤ":10809,"ĠÎ²ÏģÎ±ÏĩÎµá¿ĸÎ±Î½":10810,"Ġá½ĢÏĥÏĦá½³Î¿Î½":10811,"Îĳá¼±":10812,"ĠÎ´Î¿Î¾Î±":10813,"ĠÏĢá½³ÏĢÎ¿Î½":10814,"ĠÏĢÎ±Î»Î¹Î½":10815,"ĠÎºÎ±ÏĦÎµÎ±Î³":10816,"Ġá¼ĢÎ½Î±Î³ÎºÎ±Î¶":10817,"ĠÏĦÎ±Ïĩá½ºÏĤ":10818,"Ġgo":10819,"ĠGen":10820,"Ġá¿¬Î±":10821,"Ġá¼ĲÏģÎ³Î±ÏĥÎ±":10822,"ĠÎ¿á¼µÏĦÎ¹Î½ÎµÏĤ":10823,"ĠÎ´Î¹Î±Î»Î¿Î³":10824,"ĠÎ¸á½³ÏĥÎ¹ÏĤ":10825,"elitzsch":10826,"ĠÎĸÎ±Î²":10827,"Î±Î»Î»Î±Î³":10828,"ÏĢÎ¿Î»Î»á½°":10829,"ĠÎ´Î¯Î´Î¿Ïħ":10830,"Î¸ÎµÏģÎ¼":10831,"ĠÎ³ÏħÎ½Î±Î¹Îºá½¶":10832,"Ġá¼ĲÏĢÎ¹Î´á½³Î´ÎµÎ¹ÎºÏĦÎ±Î¹":10833,"ĠÏĩÏģá½µÏĥÎ¹Î¼Î±":10834,"ĠÏĦá½³Î½Î¿Î½ÏĦÎ±ÏĤ":10835,"ĠÎ´Î¿á¿¦Î»":10836,"ĠÎ¿á½ĲÎ´á½³ÏĦÎµÏģÎ¿Î½":10837,"ĠÎµá¼´ÏģÎ·ÎºÎµ":10838,"ĠÏĥÏħÎ¼Î²ÎµÎ²Î·":10839,"ĠÏĨÎ±ÏģÎ¼Î±ÎºÎµ":10840,"ĠÎ¾á½»Î»Î±":10841,"ĠÎºÎ·ÏģÏīÏĦá¿ĨÏĤ":10842,"Ġá¼ĢÏĥÎµÎ²á¿¶Î½":10843,"ĠÎ´á½¹Î¾ÎµÎ¹ÎµÎ½":10844,"Ġá¿¥Î¿Î´á½·Î½á¿³":10845,"Ġá½ĢÎ¼ÏĨÎ±Î»":10846,"ĠÏĥÏħÎ¼ÏĢá½±Î¸ÎµÎ¹Î±Î½":10847,"ÏĨÏģÎ±Î³Î¼Î±":10848,"Ġá¼ĲÎ´Îµá½·ÎºÎ½ÏħÏĦÎ¿":10849,"Ġroot":10850,"Ġá½ĳÏĢá½¹Î»Î¿Î¹ÏĢÎ¿Î½":10851,"Ġpassage":10852,"Ġá¼ĪÎ½Î´ÏģÎ¿Î¼á½±ÏĩÎ¿Ïħ":10853,"ĠÎ´Î¹Î´ÏĮÎ½Î±Î¹":10854,"ters":10855,"ung":10856,"wn":10857,"Ġ0":10858,"ÏģÎ·Ïĥ":10859,"ÏĢá½¸Î½":10860,"Ġá¼Ĳá¿¤á¿¥Ïī":10861,"Î¸Ê¼":10862,"ĠÎ±ÏĥÎµÎ²":10863,"Î¼Î±ÏĥÎµÎ½":10864,"Ġá¼ĶÎºÎ»":10865,"Ġá¼ĶÏĥÏĦÎ·ÏĥÎµÎ½":10866,"ĠÏĨÎ¿Î¹Î½":10867,"Î¬ÏĢ":10868,"ÏĮÏĦÎµÏģÎ±":10869,"ĠÏĢÏģÎ¿á½Ĳ":10870,"Ġá½ĳÏĢá½±Ïģ":10871,"ĠÎ½Î®":10872,"ĠÏĩÏģÏħ":10873,"Ġá¼°á½¸Î½":10874,"ÏħÏģÎ¿ÏĤ":10875,"Ïģá½¹ÏĦÎµÏģÎ¿Î¹":10876,"ĠÏĦÎ¹Î½á½³ÏĤ":10877,"ĠÏĥÏħÎ½á½·ÏĥÏĦÎ±ÏĥÎ¸Î±Î¹":10878,"erhaps":10879,"Ġá¼ĢÎºÎ¼Î±Î¶":10880,"ĠÏĢÎ±ÏģÎ±Î²Î±Î»Î»":10881,"ÏĦá½±ÏĥÎµÏīÏĤ":10882,"Î·Î¸Î®ÏĥÎµÏĦÎ±Î¹":10883,"ĠÎºÎµÏĨÎ±Î»á½µÎ½":10884,"ĠÎ¼Î¹ÎºÏģÎ¿á½ºÏĤ":10885,"icult":10886,"Ġá¼ĢÎ³Î±Î³":10887,"ĠÏĦÎµÎ»ÎµÏħÏĦÎ±":10888,"ĠÎ´á½¹Î¾Î·ÏĤ":10889,"Ġá¼ĢÎ¾Î¹Î¿Î»á½¹Î³":10890,"Î²Î±Î»Îµá¿ĸÎ½":10891,"Ġá¼ĢÎ½Î¸ÏģÏİÏĢÎ¿ÏħÏĤ":10892,"Ġorigin":10893,"ĠÏĢÎ¹ÎºÏģá½¸Î½":10894,"Ġconnect":10895,"Ġá¼ĲÏĢÎ¿Î¯Î·ÏĥÎ±ÏĤ":10896,"Ġá¼ĲÏĢÎ¹ÏĥÎºÎµ":10897,"ĠÏĢÎ»ÎµÎ¿Î½ÎµÎ¾":10898,"ĠÎ´ÏįÎ½Î±Î¼Î¹ÏĤ":10899,"Î¿ÎµÎ¹Î´á¿Ĩ":10900,"ĠÏĥÎ·ÏĢ":10901,"ĠÏĦÎ¿ÏħÏĦá½³ÏīÎ½":10902,"Ġá¼ĲÏ²ÏĦá½¶":10903,"ĠÏĢá½¹Î½Î¿Î½":10904,"Ġá¼ĳÎ±ÏħÏĦá½°":10905,"ĠÎ§ÏģÎ¹ÏĥÏĦá¿·":10906,"ĠÎ´Î±ÎºÎ½á¿¶Î´ÎµÏĤ":10907,"ĠÎ´Îµá½·ÎºÎ½Ïħ":10908,"ĠÎ½ÎµÎºÏģá¿¶Î½":10909,"ĠÏĨÎ¹Î»Î¿Î½":10910,"Ġá¿¥Îµá½»Î¼Î±ÏĦÎ¿ÏĤ":10911,"Ġidea":10912,"Ġá¼ĢÎ»á½¹Î·ÏĤ":10913,"Ġá¾łÎºÎ¿Î´ÏĮ":10914,"Ġá¼±Î¼á½±ÏĦÎ¹Î±":10915,"Ġtime":10916,"IV":10917,"ae":10918,"ken":10919,"ÏĦÏĦÎ¿Î¹":10920,"Î¹ÏĢ":10921,"Î¹Ïī":10922,"ÏĥÎ¼Î±ÏĥÎ¹Î½":10923,"Ïħá¿ĸÎ±":10924,"ĠÎºÎ»Î¿Î½":10925,"Î³Î·Î¼Î±":10926,"ĠÏĥÏĢÎµá½»":10927,"ĠÎ±á½ĲÏĦÎ¿á¿ĸÏ²":10928,"Ġá¼ĲÏĢÎµÎ»":10929,"ĠÎ»Îµá¿ĸÎ¿Î½":10930,"Î¬ÏĦá¿³":10931,"á½½ÏĥÎµÏĥÎ¹Î½":10932,"Ġá½ģÎ´Î¿":10933,"ÏĪÎ¹Î¼ÏħÎ¸á½·Î¿Ïħ":10934,"ĠÏĢÏģÎ¿ÏĦá½³ÏģÎ±ÏĤ":10935,"Ġá¼ĢÎ½Î¿Î¹":10936,"Ġá¼ĲÏĢÎ¹Î³ÏģÎ±ÏĨ":10937,"ĠÎĳÏģ":10938,"á¼ĲÎ½Î±":10939,"Î»Î¹ÏĢÎµ":10940,"ĠÏĢÎ±Ïģá½³Ïĩ":10941,"ĠÏĢÎ±Ïģá½¹Î½ÏĦÎ¿ÏĤ":10942,"ĠÎµá¼´ÎºÎ¿":10943,"Î¿á¿¦Î½ÏĦÎ¿":10944,"Î¸Î·ÏĦÎ¹":10945,"ÏĥÏĦÎ±ÏĦÎ±Î¹":10946,"Ġá¼ĢÎºÎ¿":10947,"ĠÏĥÏĦÏģÎµ":10948,"Îµá¼°Ïģ":10949,"ĠÏĥÏĨÏģÎ±Î³":10950,"Ġá¼´Î´Î¿Î½":10951,"ĠÎ¸ÎµÏģÎ¼Î±Î½Î¸":10952,"ĠÎĴÎ·Î¸":10953,"uplic":10954,"ĠÎ±ÏħÏĦÎ¿Î¹":10955,"Ġá¼łÎºÎ¿Î»":10956,"Ġdoub":10957,"ĠÎ´Î¹á½±ÏĢÎ»Î±":10958,"ÏĢÎµÎ¹ÏĦ":10959,"ĠÏĢÎ±Ïĩá½³Î±":10960,"Ġá¼ĳÎºá½±ÏĥÏĦÎ¿ÏĦÎµ":10961,"ĠÏĦÏģÎ¿ÏĨá¿ĩ":10962,"ĠÎĿÎ¹Îº":10963,"Ġá½ĢÏģÎ³á½±Î½Î¿Ïħ":10964,"á¼ĺÏĢá½¶":10965,"ÎºÎµá½·ÏĥÎ¸Ïī":10966,"ĠÎ³Î»ÏħÎºá½º":10967,"ĠÏĦÏĮÏĢá¿³":10968,"á¼ĶÎ½Î¹Î±":10969,"Ġá¼ĳÏĪÎ·Î¸":10970,"ĠÏĢÎ¯Î½ÎµÎ¹Î½":10971,"ĠÎ´Î¹Î´Î±ÏĥÎºÎ±":10972,"ĠÏĢÎ±Î¹Î´á½·ÏīÎ½":10973,"ĠÏĢÎ±ÏĦÏģá½¹ÏĤ":10974,"ĠÎ³ÎµÎ³á½¹Î½Î±":10975,"Ġá½ģÎ»Î¿ÎºÎ±á½»":10976,"ĠÏĨÎ¹Î»Î¿ÏĥÎ¿ÏĨ":10977,"ĠÎ¸á½»ÏģÎ±ÏĤ":10978,"Î±ÏģÎ¹ÏĥÎ±":10979,"Ġá¼ĪÏģÏĩÎ¹Î³á½³Î½Î¿ÏħÏĤ":10980,"ĠÎºá½³ÎºÏĦÎ·":10981,"Ġá¼ĺÏģÎ±Ïĥá½·ÏĥÏĦÏģÎ±ÏĦÎ¿Î½":10982,"Ġá¼ĲÎ½Î¹Î±ÏħÏĦá½¸Î½":10983,"Ġá¼ĲÏĢÎ¬ÏĦÎ±Î¾ÎµÎ½":10984,"ĠÎ´Î¹Î±Î¸á½µÎºÎ·Î½":10985,"Ġá¼ĲÏĢá½±ÏĦÎ±Î¾ÎµÎ½":10986,"ÎĶÎ¹á½°":10987,"Ġá¼ĶÎ´Î¿Î¾ÎµÎ½":10988,"ĠÎĴÎµÎ½Î¹Î±Î¼Îµá½¶Î½":10989,"Ġá¼ĢÎ¼ÏĨÎ¹ÏĥÎ²Î·":10990,"ĠÎ±á½ĶÏĦÎ±ÏģÎºÎµÏĤ":10991,"1âģ°":10992,"eb":10993,"ex":10994,"ÏĦÏħÏĢ":10995,"Î¼ÏĨÎ¿":10996,"Î¼Î¯Î±Î½":10997,"ÏħÎ¿Î½":10998,"ĠÎºÏĦÎ®":10999,"Î·ÎºÎ¿":11000,"á½³Î²Î»Î·":11001,"ÏĦÎ±ÎºÏĦÎ±Î¹":11002,"á½»ÏģÎµ":11003,"ĠÏĢÏģá½¹Î½":11004,"á½µÏĥá¿ĥÏĤ":11005,"ĠÏĨÏģÎ¹Îº":11006,"Î¬Î³Ïĩ":11007,"á½½Î²":11008,"Î¼á½³Î½ÎµÎ¹":11009,"ÏĢÎ¿Î¯":11010,"Ġá¼ĲÎºÏĢá½³Î¼ÏĢ":11011,"Îµá½·ÏĥÎ¸Ïī":11012,"Î·ÏĥÎ¿Î¼á½³Î½ÏīÎ½":11013,"Ġá¼ĲÎ¾á½±":11014,"Ġá¼ĢÏĢÎ¿ÏĥÏĦá½±":11015,"Ġá¼ĢÏĢÎ¿ÏĢÎ»Î·":11016,"Ġsc":11017,"ĠÎºÎ±ÏĦÎ±Î»Îµ":11018,"Ġá¼ħÏĦÎµ":11019,"ĠÎļÎµÎ»":11020,"Î´Î¹Î¬":11021,"ĠÏĢÎµÏģÎ¹ÏĥÏĦÎµÏģ":11022,"Î¼Î¿Î½Î±":11023,"ĠÎ£ÏħÏģ":11024,"Ġcha":11025,"Ġboth":11026,"ĠÎ¸ÎµÏģÎ¼á½´":11027,"ĠÏĨÎ±Î¯Î½ÎµÏĦÎ±Î¹":11028,"Ġá¼¥Î¾ÎµÎ¹":11029,"ĠÏĢá½±ÏĥÎ±Î¹ÏĤ":11030,"Ġmen":11031,"ĠÏĢÎ»ÎµÎ¯":11032,"ĠÎºÎ¹Î½Îµá¿ĸÏĦÎ±Î¹":11033,"Ġá½łÎº":11034,"Î¿á½ĸ":11035,"Ġdid":11036,"Ġdue":11037,"ÏĦá½µÏĥÎµÎ¹":11038,"other":11039,"ĠÏĥÏĢá½±Î½":11040,"Ġá¼ĦÏģÎ¾Î±ÏĥÎ¸Î±Î¹":11041,"ĠÎ³Î¹Î½ÏīÏĥÎº":11042,"ĠÎ¹ÏĢ":11043,"Î»Î¿ÏħÎ½":11044,"ĠÏĥÎ±ÏĨá½´ÏĤ":11045,"Ġá½ĢÎ½Î¿Î¼á½±Î¶ÎµÏĥÎ¸Î±Î¹":11046,"Ġhad":11047,"ÏģÏīÏĥÏĦ":11048,"ĠÎµÏĢÎ¹ÏĥÏĦÏģÎµ":11049,"Ġá½ĢÏģÎ³á¿ĨÏĤ":11050,"Ġá¼ĢÏĢá½¹ÏĥÏĦÎ±ÏĥÎ¹Î½":11051,"Ġvers":11052,"ĠÎ²Î±ÏĥÎ¹Î»ÎŃÏīÎ½":11053,"ĠÎ±á¼°ÏĥÎ¸Î·ÏĦá½´Î½":11054,"ĠÏĪá½»ÏĩÎµÎ¹":11055,"Ġá½łÏĨÎµÎ»Îµá¿ĸÎ½":11056,"ĠÏĢÏģÎµÏĥÎ²Ïį":11057,"Ġá¼¸Î¿ÏħÎ´Î±á¿ĸÎ¿Î¹":11058,"Ġá¼©ÏģÎ¿ÏĨ":11059,"ĠÏĩÎµÏģÏĥá½¶":11060,"ĠÏĢá½¹Î½Î¿Î¹":11061,"ĠÏĢÎ¯ÏĥÏĦÎµÏīÏĤ":11062,"Ġá½ķÏĢÎ½Î¿Î½":11063,"ĠÎ²ÎµÎ²Î»Î±Î¼":11064,"Ġá¼ĶÏĥÏĩÎµÎ½":11065,"Î¼Î±ÏĦÏĮÏĤ":11066,"ĠÏĥÏħÎ¶ÏħÎ³á½·Î±Î½":11067,"ĠÎºÏħÎºÎ»Î¿":11068,"Ġdifficult":11069,"Ġá¼ģÏģÎ¼á½¹ÏĦÏĦÎµÎ¹Î½":11070,"ĠÎºÎ¿á½·Î»Î·ÏĤ":11071,"Ġá½ĢÎ¼ÏĨÎ±Îº":11072,"ĠÎºÎ±ÎºÎ¿ÏĩÏħÎ¼á½·Î±ÏĤ":11073,"ĠÎºÎ±Î¸á½±ÏģÏĥÎµÏīÏĤ":11074,"ĠÎ¼á½³Î»Î±Î¹Î½Î±Î½":11075,"ĠÏĢÎ½Î¹Î³":11076,"ĠÎºÏģÏħÏĥÏĦÎ±":11077,"Ġá¼ĲÎ¾ÎµÏħÏģá½·ÏĥÎºÎµÎ¹Î½":11078,"ĠÏĢÎ±ÏģÎ·Î³Î¿ÏģÎ¹Îº":11079,"ÎµÏ²":11080,"ĠÏĦÏħ":11081,"ĠÏĦÎµá¿ĸ":11082,"Î»Îµá¿ĸ":11083,"Î¼á½¹ÏĤ":11084,"ĠÎºÎ±Ïħ":11085,"ÏīÏģÎ·":11086,"Ġá¼ĲÎ¼Î¿Î¯":11087,"Î¸Ïį":11088,"Î´á½¸ÏĤ":11089,"Ġá¼ĢÏĦá½¹":11090,"ĠÎ±ÏģÎ³":11091,"ĠÎ±Î»Î·Î¸":11092,"á¿¶Î½ÏĦÎ±ÏĤ":11093,"ĠÎ³ÎµÎ¹":11094,"Î¾á¿ĥÏĤ":11095,"Ġá¼ĶÎºÏģÎ¹Î½":11096,"ÎŃÏģÎ¿Ïħ":11097,"ÏĥÎ¸Î·ÏĤ":11098,"ĠÎ»Î·Ïģ":11099,"ÏģÎ¹Î±Î½":11100,"ĠÎ¸Î½Î·":11101,"Ġá¼ĦÎ³ÎµÎ¹":11102,"ÏĪÏħÎ³":11103,"ĠÏĥÏħÏĩÎ½":11104,"ĠÎ´Î¹Î±ÏĢÎ±Î½":11105,"á¿ĥÏĥÎ¹Î½":11106,"á¼ĲÎºÎµá¿ĸ":11107,"Î»Î¹Î±ÏĤ":11108,"á¼ĢÏģÏĩ":11109,"Î¸Î·ÎºÎ±ÏĤ":11110,"ĠÎºÎ±ÏĦá½±Î½":11111,"ĠÎµá½ĲÏĨÎ¿Ïģ":11112,"ĠÏĨá½»Î»Î»ÏīÎ½":11113,"ĠÎºÎµÏĩÏģÎ¿Î½":11114,"Î¸Î±ÏħÎ¼Î±":11115,"ÏģÎ¿Î½ÏĦÎµÏĤ":11116,"Î¼Î½Î¿Î½":11117,"ĠÏĥÏĨÎ±Î»ÎµÏģ":11118,"ĠÎ»Î±Î¿Ïħ":11119,"ĠÎ»Î±ÏĮÏĤ":11120,"Î¸á½³Î¼ÎµÎ½Î¿ÏĤ":11121,"ĠÎºÎ±Î»Î¿á¿¦":11122,"ĠÏĢÎ±Î½ÏĦá½¹ÏĤ":11123,"ÏĥÏĥá½·Î±ÏĤ":11124,"Î¿Î½ÏĦÎ±á½·":11125,"ĠÎ½Î¿Ïĥá½µÎ¼Î±ÏĦÎ¹":11126,"Ġá¼ĢÎºÏģÎ¹Î²Î¿á¿¦ÏĤ":11127,"Ġá¼ĺÎ³á½¼":11128,"ĠÎ²Î±ÏĥÎ¹Î»Îµá¿¦":11129,"á¼¡Î¼":11130,"Ġá¼ĲÎ¼ÏĢÎ»Î·":11131,"ĠÏĢÎ»Î·ÏģÎ¿á¿¦":11132,"Ġforth":11133,"Ġá¼ģÎ¼Î±ÏģÏĦÎ¹á¿¶Î½":11134,"ĠÎºÎ¿Î¹Î»á½¹ÏĦÎ·ÏĦÎ±":11135,"Ġ??)":11136,"ĠÎ´á½·ÎºÎ·Î½":11137,"ĠÎľÏīÏĥ":11138,"ÏĢá½¹ÏĦÎµÏģÎ¿Î½":11139,"ĠÎ³ÎµÎ½Î½á¾¶ÏĥÎ¸Î±Î¹":11140,"erem":11141,"Ġá¼ĢÏģÎ³á½»ÏģÎ¹Î¿Î½":11142,"ĠÏĢÏģÎ¿ÏĨÎ·ÏĦá¿¶Î½":11143,"ÏĥÏħÎ½Î¿Î½":11144,"Ïĥá½±Î¼Î¿Ïħ":11145,"Ġá¼ĢÏħÏĦá½´Î½":11146,"Ġá¼ĢÎ¼á½³Î»ÎµÎ¹":11147,"Ġá¼ĢÏĢÎ¿Î´Îµá½·Î¾ÎµÎ¹ÏĤ":11148,"Ġá¼ĲÎ¾Î±á½·ÏģÎµÏĦÎ¿Î½":11149,"ĠÎ¡Î±":11150,"ĠÏĦá½³ÏĦÏĦÎ±ÏģÎµÏĤ":11151,"ĠÎĻÎµÏģÎ¿ÏħÏĥÎ±Î»Î·Î¼":11152,"Ġá¼ĳÎ²Î´á½¹Î¼Î·Î½":11153,"Ġá¼ĦÎ¼ÎµÎ¼ÏĢ":11154,"ĠXXX":11155,"ĠÎ»á½±ÏģÏħÎ³Î³Î±":11156,"Ġshould":11157,"ĠÏĦÏģá½³ÏĨÎµÏĥÎ¸Î±Î¹":11158,"Ġá¼ĲÏĢÎ¿ÏģÎµÏįÎ¸Î·":11159,"ĠÏĢÎ¿á½·ÎµÎ¹":11160,"Ġá¼ĪÏĦÏĦÎ¹ÎºÎ¿á¿¦":11161,"ĠÎ¼Î±ÏĥÏĩá½±Î»Î·Î½":11162,"ĠÎ¼ÏħÎºÏĦá¿Ĩ":11163,"Ġá¼ĢÎ½Î´Ïģá½±ÏĥÎ¹Î½":11164,"Ġá¼ĢÏĥÏĨá½±Î»ÎµÎ¹Î±Î½":11165,"Ġexpress":11166,"ĠÎĳÎ¹Î³ÏħÏĢ":11167,"Ġsecond":11168,"ph":11169,"ÏĢÎµÎ¹Ïģ":11170,"Ïħá¿¤á¿¥":11171,"Ïħá¿ĸÎ±Î½":11172,"ÎºÏĦá½¸ÏĤ":11173,"ÏīÎ¼á½±ÏĦÏīÎ½":11174,"Î¸á½·Î¿Ïħ":11175,"ĠÏĥÎ±ÏħÏĦ":11176,"ĠÏĥÏĦÎ·ÏģÎ¹":11177,"Ġá¼ĲÎ½Î´":11178,"Ġá¼ĲÎ½ÏĦá½³ÏģÎ¿Î¹ÏĤ":11179,"Î¯ÏĤ":11180,"Î¯Î·Î½":11181,"Ġá¼ĶÏĥÏĦÎ·ÏĥÎ±Î½":11182,"Ġá¼ĲÎºÏĢÎ¿ÏģÎµÏħ":11183,"Î·Î½Î±Î¹":11184,"Ġá¼ĳÎ»":11185,"ĠÎ´Î¹Î±ÏĢÎµ":11186,"ĠÎ½á¿Ĩ":11187,"ÏģÎ¿Ïĩ":11188,"ĠÏĢÎ±ÏĦÎŃÏģÎµÏĤ":11189,"Ġá¿¥Î¹Î³":11190,"ÏħÎ¼Î¬ÏĦÏīÎ½":11191,"ĠÎµá¼´Î´ÎµÎ¹":11192,"ĠÎºÎ±ÏĦÎ±ÏĦÎµ":11193,"ĠÎºÎ±ÏĦÎ±Î¼á½µÎ½":11194,"Ġá¼ĲÎ³Î½Ïī":11195,"ĠÎ´Îµá½¹Î½ÏĦÏīÏĤ":11196,"ĠÎ»ÎµÏĩÎ¸á½µÏĥÎµÏĦÎ±Î¹":11197,"ÏīÏģÎµá¿ĸ":11198,"Ġá½ķÎ»Î±ÏĤ":11199,"ĠÎ¸ÎµÏģÎ¼á½¹ÏĦÎµÏģÎ±":11200,"á½µÎ½Î·Î½":11201,"ĠÏĦÏģÎ¬":11202,"ĠÎºÏħÏĢ":11203,"ĠÎµÎ½Î±Î½ÏĦÎ¹Î¿Î½":11204,"ĠÎłÏģÎ±Î¾Î±":11205,"ĠÎ²ÏģÎ±ÏĩÎµá½·Î±ÏĤ":11206,"Ġdown":11207,"Ġá¼ĺÎ»Îµ":11208,"ĠÎ´Î¹á½±ÏĨÏģÎ±Î³Î¼Î±":11209,"ĠÏĥÎºÎ»Î·Ïģá¿¶Î½":11210,"ĠÎ´ÏħÎ½Î±Î¼á½³Î½Î¿Ïħ":11211,"Ġá½ĢÎ´á½»Î½Î±Î¹":11212,"ÎŁÎ£":11213,"ÏĥÏĢÎ±Ïģ":11214,"ĠÏĢÎ±ÏģÎµÎ³":11215,"ĠÏĢÎ±ÏģÎµÏĥÎºÎµÏħÎ±Ïĥ":11216,"ĠÎµá½ĲÎ¸Îµá¿ĸÎ±Î½":11217,"ÎºÎ±Î»Îµá¿ĸÏĦÎ±Î¹":11218,"Ġá¼ĲÎ»Î±ÏĨ":11219,"ĠEx":11220,"Ġá¼±ÎµÏģá½¸Î½":11221,"ĠÎ´á½¹Î¾Î±":11222,"Ġá¼ĲÏĢÎ±á½»":11223,"ÏĢÏĦÎ¿Î½ÏĦÎµÏĤ":11224,"ĠÎ³Î»ÏħÎºá½³Î¿ÏĤ":11225,"ĠÎľÏīÏħÏĥá¿Ĩ":11226,"ĠÎ»á½»ÏĥÎ¹Î½":11227,"ĠÏĢÎ»ÎµÏħÏģá¾¶ÏĤ":11228,"ÏĥÏĥÎµÏģÎ±":11229,"Î¼ÏīÎ¼Î¿Î½":11230,"ĠÎ´ÏħÏĥÎºÏģÎ±Ïĥá½·Î±":11231,"Ġuse":11232,"Ġá¿¥á½±Î²":11233,"ĠÏĦÎµÏĦá½±ÏģÏĦá¿ĥ":11234,"umb":11235,"ĠÏĥÏħÎ¼ÏĢÏĦá½½Î¼Î±ÏĦÎ¿ÏĤ":11236,"Ġá¼ĻÎ¶ÎµÎº":11237,"ĠÏĢÏģá½±Î³Î¼Î±ÏĦÎ±":11238,"ĠÎ¼Î½Î·Î¼Î¿Î½Îµá½»ÎµÎ¹Î½":11239,"Î¸ÎµÎ¯Î·":11240,"Ġá¼ĲÎ¼Î²á½±Î»Î»ÎµÎ¹Î½":11241,"ĠÎ³ÏħÎ¼Î½á½±ÏĥÎ¹Î¿Î½":11242,"Ġtranslat":11243,"ĠÎ¼á½³Î»Î±Î¹Î½Î±":11244,"Ġá¼ĲÎ¾Î¿ÏħÏĥÎ¯Î±Î½":11245,"ĠÎ½á½·ÏĦÏģÎ¿Ïħ":11246,"ĠÎ»Î¹Î²Î±Î½ÏīÏĦÎ¿á¿¦":11247,"Ġinsert":11248,"ĠÎ¸á½±Î»Î±ÏĥÏĥÎ±Î½":11249,"imilar":11250,"Ġá¼ĲÏģÏħÏĥá½·ÏĢÎµ":11251,"ves":11252,"Ïĥá½±Î½":11253,"Î¼Î½Î±":11254,"á½·ÏĥÎ±Î¹":11255,"Î³ÎµÎ¹Ïģ":11256,"Î¾á½¶":11257,"Ġá¼ĲÏĢÎ¿ÏħÎ»":11258,"Ġá¼ĶÎ¼":11259,"Î¬ÏĦÏī":11260,"Î»ÎµÏħÎº":11261,"Î¶ÎµÎ½":11262,"Î¹Îºá¿·":11263,"Ġá¼ĢÏĢÎ¹ÏĥÏĦ":11264,"Ġá¼ĢÏĢá½»ÏģÎ¿Ïħ":11265,"Ġá¼ĲÎ¾Î·Ïģ":11266,"Ġá¼ĲÏĢÎ¹Î¼Î¹":11267,"Î»Î·ÏĥÎ±":11268,"á¼ĲÎ³Ïĩ":11269,"Ġá¼ĢÎ½Î±Î²á½±":11270,"Ġsy":11271,"Î´Î¹Î±Î½":11272,"Ġá¼¤Î¼ÏīÎ½":11273,"ÏĦÎ¿ÏħÎ½":11274,"ĠÏĢÏģÎ¿ÏĥÎµÎ½Îµ":11275,"ĠÎ¶á¿·":11276,"ĠÎ´ÎµÏĩ":11277,"Ġá¼ĪÎ¼Î¿ÏģÏģÎ±":11278,"ÏĥÎ¼á¿·":11279,"ĠÎ±á¼±Î¼Î±ÏĦ":11280,"Ġincl":11281,"Ġ305":11282,"ĠÎ¼ÎµÏĦÎ±ÏĥÏĦ":11283,"ĠÏĥá½»Î³ÎºÎµÎ¹ÏĦÎ±Î¹":11284,"atter":11285,"ĠÏĦÏģÎ¹ÏĦÎ±á½·":11286,"ĠÏĥÏĢá½¹":11287,"ĠÏĦÏģá½¹ÏĢÎ¿Ïħ":11288,"ĠÎ§ÎµÎ²":11289,"ĠÎ¿á¼°ÎºÎ¯Î±Î½":11290,"ĠÏĢÎ¹Î¸á½µ":11291,"Ġá¼ħÏĢÎ±ÏĥÎ±Î¹":11292,"ĠÎ»á½·Î¸Î¿Î½":11293,"Ġá¼ĢÎ´Î¯":11294,"ĠÎ¦Î±Î»ÎµÏģ":11295,"ĠÏĩÎ±Î»Î±ÏĥÏĦ":11296,"rod":11297,"ÏĩÎµÏīÎ½":11298,"they":11299,"ĠÏĥÎ±ÏģÎºá½¶":11300,"ntax":11301,"ĠÏĨÎ¹Î»á½¹":11302,"Ġá¼¸ÎµÏģÎ¿ÏħÏĥÎ±Î»á½µÎ¼":11303,"ĠÎ¼á½·Î³Î½ÏħÏĦÎ±Î¹":11304,"ĠÏĥÎºÎ¿ÏĢÎµá¿ĸÎ½":11305,"á¼ĪÎ½":11306,"Î»á½³Î³Ïī":11307,"ĠÎ´Î¹Î±ÏĨá½³ÏģÎ¿Î½ÏĦÎ±":11308,"ĠÎ´ÏħÎ½Î¬Î¼ÎµÎ¹ÏĤ":11309,"ĠÎ¿Î¹ÎºÎ¿":11310,"ĠÎµÏĢÏĦÎ±":11311,"Ġá¼ĢÎ½á½³ÏĥÏĦÎ·":11312,"ĠÎºÏĮÏĥÎ¼Î¿Ïħ":11313,"ĠÎ¼Î¹Î³Î½á½»":11314,"Î¾Î·ÏģÎ±":11315,"ĠÏĩÏģÏĮÎ½á¿³":11316,"Ġatt":11317,"ĠÏĢÏģÎ¿ÏĥÏĦá½·":11318,"ĠÎµá¼°Î´á½¼ÏĤ":11319,"ĠÏĦÏģÎ±Ïĩá½µÎ»á¿³":11320,"Ġá½ĢÏĥÏĨá½ºÎ½":11321,"ĠÎ½ÎµÏīÏĦá½³ÏģÏīÎ½":11322,"ĠÏĨÎ»ÎµÏĪá½¶Î½":11323,"Ġá½ĢÎ³Î´Î¿":11324,"Ġá½ĢÎ³Î´á½¹":11325,"Î´Î±Ïģá½±":11326,"Ġá¼ĢÎ½á½½Î¼Î±Î»Î¿ÏĤ":11327,"Ġá¼ĲÏĢá½±Î½Ïī":11328,"ĠÎłÎŃÏĦÏģÎ¿ÏĤ":11329,"Ġá¼ĢÎ½Î±ÏĢÎ½ÎµÏħÏĥÏĦÎ¹Îºá¿¶Î½":11330,"ĠÎ³ÎµÏģá½¹Î½ÏĦÏīÎ½":11331,"Ġá¼ĺÎ»ÎµÎ¹ÏĥÎ±":11332,"ĠÏĥÏĨá½·Î³Î³":11333,"ĠÎ»Î¹Î¸á½±ÏģÎ³ÏħÏģÎ¿Î½":11334,"ĠÎµÎ½ÏīÏĢÎ¹Î¿Î½":11335,"ĠÎºÏģÏħÏĥÏĦÎ±Î»Î»":11336,"For":11337,"]|":11338,"most":11339,"á½Ļ":11340,"ÏĦÏģÎ·":11341,"Î¼Îµá½·Î½":11342,"ĠÎºÎ»Îµá½·":11343,"ĠÎºÎ±ÏħÎ¸":11344,"ÏīÏĦÎ±":11345,"á½·Î´Î±ÏĤ":11346,"á½³Î»Î·":11347,"ÏĩÎ¿Î¹ÏĤ":11348,"ĠÏĥá¿ĸ":11349,"ÏģÎ±ÏĦÎ¿ÏĤ":11350,"Ġá¼ĲÎ½ÏĦÎµ":11351,"Ġá¼ĲÎ½ÏĦÎ±ÏħÎ¸Î¿á¿ĸ":11352,"Ġá¼ĲÏĢÎµÏģ":11353,"Î½ÎµÏĥÎ¸Î±á½·":11354,"Î¼á½³Î½ÎµÎ¹Î½":11355,"Ġá½ħÎ½":11356,"Ġá½ĢÏģá½³":11357,"ĠÏĥÏħÏĥÏĦá½±ÏĥÎµÏīÏĤ":11358,"ÏĥÎ±ÏĥÎ¹Î½":11359,"á¾¶Î¹":11360,"Î´ÎµÏ²":11361,"ĠÏĢÎ±ÏĦá½±":11362,"Ġá¼ĲÏĢÎ¹Î´Î·":11363,"á½±ÏģÎ´Î¿Ïħ":11364,"Î´Î¹ÏĮÏĦÎ¹":11365,"ĠÏĢÎµÏģÎ¹Î³ÏģÎ±ÏĨ":11366,"á½±Î»ÏīÎ½":11367,"ĠÎºÎµÎ»ÎµÏį":11368,"ĠÎ³ÎµÎ½á¿¶Î½":11369,"Ġwhat":11370,"ĠÎ¼ÎµÏĦÎ±Î²á½±Î»Î»":11371,"Î¯Î½Î¿Î½ÏĦÎ±Î¹":11372,"á½·Î¶ÏīÎ½":11373,"ical":11374,"ĠÎ¿á¼°Îºá½·Î±Î½":11375,"Ġá¼°ÏĥÏĩÏħÏģá½¸ÏĤ":11376,"ĠÎ»Î¿Î³Î¹Î¶":11377,"ÏĩÏģá¿ĨÏĥÎ¸Î±Î¹":11378,"ĠÏĥÎ¿ÏĨÎ¹ÏĥÏĦ":11379,"ĠÏĢÎµÏĢÎ¿Î½Î¸á½¹ÏĦÎ±":11380,"Ġconst":11381,"ĠÎ¿á¼µÎ±Î½":11382,"á¼ķÏĪÎµ":11383,"ĠÏĢÎ±ÏĦÏģá½¶":11384,"Ġá¼ģÎ³Î¯Î¿Ïħ":11385,"Ġá¼ĢÏĦÏģÎ¿ÏĨ":11386,"Ġá½ģÎ¼Î¿Î»Î¿Î³Îµá¿ĸ":11387,"Ġá½ĳÎ³Î¹ÎµÎ¹Î½á¿¶Î½":11388,"ĠÏĥÏħÎ½á½³Î²Î·":11389,"ĠÎ¾Î±Î½Î¸á½´Î½":11390,"Ġá¼ĢÎ»Î·Î¸á½³ÏĤ":11391,"ĠÎ´ÏİÏĥÎµÎ¹":11392,"Ġá¼ĶÎ½Î´ÎµÎ¹Î±Î½":11393,"Ġá¼ĲÎ¸Îµá½±":11394,"ĠÏĢÎ±Ïģá½±Î´ÎµÎ¹Î³Î¼Î±":11395,"Ġá¼ĢÏģá½·ÏĥÏĦÎ·Î½":11396,"ĠÎ»Î¿ÏħÏĦÏģá½¸Î½":11397,"Ġá¼ĲÏĢÎ¹ÏĦÎµÏĦÎµ":11398,"ĠÎ¼Î·Î´á½³ÏĢÎ¿ÏĦÎµ":11399,"Ġá½ĳÏĢÎ±ÏģÏĩÎ¿á½»ÏĥÎ·ÏĤ":11400,"Ġá¼ĢÎ»Î·Î¸ÎµÎ¯Î±ÏĤ":11401,"ĠÎµá¼°ÎºÎ¿ÏĥÏĦá½´Î½":11402,"Ġrather":11403,"Ġá¼ĢÎ½á½½Î¼Î±Î»Î¿Î½":11404,"Ġá¼ĢÎ»Î»Î¿ÏĨá½»Î»ÏīÎ½":11405,"ĠÏĦÎ·ÎºÏĦá½°":11406,"ĠÎ²Î¿ÏģÏģá¾¶":11407,"ĠÏĩÎ¹Î»Î¹á½±Î´ÎµÏĤ":11408,"Ġbetween":11409,"Ġá½ĳÎ¼Î½Îµá¿ĸÏĦÎµ":11410,"Ġá¼ĢÏĢÏħÏģÎµÎ¾á½·Î±Î½":11411,"ĠÎºá½³ÎºÏĦÎ·ÏĦÎ±Î¹":11412,"hold":11413,"ÏĦÎµÎ¹Ïģ":11414,"ÏģÎ³Î¿Î½":11415,"ÏĥÎ¼á½³Î½Î¿Ïħ":11416,"Ġá¼ĲÎ¬Î½":11417,"ĠÏĢÎ¹Î»":11418,"á½·Î´Î¹":11419,"Ġá¼ĢÏħ":11420,"ĠÏĥÎ¯":11421,"Ġá¼ĶÎ»Î¸á¿ĥ":11422,"Îµá¿ĸÏĥÎ±Î¹":11423,"Ġá½ĳÏĥÏĦÎµÏģÎ±":11424,"á½½ÏĦÎ¿Ïħ":11425,"ÏĮÎ½Î±":11426,"Î»ÎµÎ¿Î½":11427,"Ġá½ħÏĥÎ¿Î¹ÏĤ":11428,"Ġá¼ĲÎºÎ»Îµá½·":11429,"Ġá½ĢÎ¼Î²":11430,"ÏĥÎ±Ïį":11431,"Î®Ïĥá¿ĥÏĤ":11432,"ĠÏĢÎ¿Î»Î¹ÏĤ":11433,
[...]
