{
  "version": "1.0",
  "truncation": {
    "direction": "Right",
    "max_length": 128,
    "strategy": "LongestFirst",
    "stride": 0
  },
  "padding": {
    "strategy": {
      "Fixed": 128
    },
    "direction": "Right",
    "pad_to_multiple_of": null,
    "pad_id": 0,
    "pad_type_id": 0,
    "pad_token": "[PAD]"
  },
  "added_tokens": [
    {
      "id": 0,
      "content": "<s>",
      "single_word": false,
      "lstrip": false,
      "rstrip": false,
      "normalized": false,
      "special": true
    },
    {
      "id": 1,
      "content": "<pad>",
      "single_word": false,
      "lstrip": false,
      "rstrip": false,
      "normalized": false,
      "special": true
    },
    {
      "id": 2,
      "content": "</s>",
      "single_word": false,
      "lstrip": false,
      "rstrip": false,
      "normalized": false,
      "special": true
    },
    {
      "id": 3,
      "content": "<unk>",
      "single_word": false,
      "lstrip": false,
      "rstrip": false,
      "normalized": false,
      "special": true
    },
    {
      "id": 4,
      "content": "<mask>",
      "single_word": false,
      "lstrip": false,
      "rstrip": false,
      "normalized": false,
      "special": true
    }
  ],
  "normalizer": null,
  "pre_tokenizer": {
    "type": "ByteLevel",
    "add_prefix_space": false,
    "trim_offsets": true,
    "use_regex": true
  },
  "post_processor": {
    "type": "ByteLevel",
    "add_prefix_space": true,
    "trim_offsets": false,
    "use_regex": true
  },
  "decoder": {
    "type": "ByteLevel",
    "add_prefix_space": true,
    "trim_offsets": true,
    "use_regex": true
  },
  "model": {
    "type": "BPE",
    "dropout": null,
    "unk_token": null,
    "continuing_subword_prefix": null,
    "end_of_word_suffix": null,
    "fuse_unk": false,
    "byte_fallback": false,
    "ignore_merges": false,
    "vocab": {
      "<s>": 0,
      "<pad>": 1,
      "</s>": 2,
      "<unk>": 3,
      "<mask>": 4,
      "!": 5,
      "\"": 6,
      "#": 7,
      "$": 8,
      "%": 9,
      "&": 10,
      "'": 11,
      "(": 12,
      ")": 13,
      "*": 14,
      "+": 15,
      ",": 16,
      "-": 17,
      ".": 18,
      "/": 19,
      "0": 20,
      "1": 21,
      "2": 22,
      "3": 23,
      "4": 24,
      "5": 25,
      "6": 26,
      "7": 27,
      "8": 28,
      "9": 29,
      ":": 30,
      ";": 31,
      "<": 32,
      "=": 33,
      ">": 34,
      "?": 35,
      "@": 36,
      "A": 37,
      "B": 38,
      "C": 39,
      "D": 40,
      "E": 41,
      "F": 42,
      "G": 43,
      "H": 44,
      "I": 45,
      "J": 46,
      "K": 47,
      "L": 48,
      "M": 49,
      "N": 50,
      "O": 51,
      "P": 52,
      "Q": 53,
      "R": 54,
      "S": 55,
      "T": 56,
      "U": 57,
      "V": 58,
      "W": 59,
      "X": 60,
      "Y": 61,
      "Z": 62,
      "[": 63,
      "\\": 64,
      "]": 65,
      "^": 66,
      "_": 67,
      "`": 68,
      "a": 69,
      "b": 70,
      "c": 71,
      "d": 72,
      "e": 73,
      "f": 74,
      "g": 75,
      "h": 76,
      "i": 77,
      "j": 78,
      "k": 79,
      "l": 80,
      "m": 81,
      "n": 82,
      "o": 83,
      "p": 84,
      "q": 85,
      "r": 86,
      "s": 87,
      "t": 88,
      "u": 89,
      "v": 90,
      "w": 91,
      "x": 92,
      "y": 93,
      "z": 94,
      "{": 95,
      "|": 96,
      "}": 97,
      "~": 98,
      "¡": 99,
      "¢": 100,
      "£": 101,
      "¤": 102,
      "¥": 103,
      "¦": 104,
      "§": 105,
      "¨": 106,
      "©": 107,
      "ª": 108,
      "«": 109,
      "¬": 110,
      "®": 111,
      "¯": 112,
      "°": 113,
      "±": 114,
      "²": 115,
      "³": 116,
      "´": 117,
      "µ": 118,
      "¶": 119,
      "·": 120,
      "¸": 121,
      "¹": 122,
      "º": 123,
      "»": 124,
      "¼": 125,
      "½": 126,
      "¾": 127,
      "¿": 128,
      "À": 129,
      "Á": 130,
      "Â": 131,
      "Ã": 132,
      "Ä": 133,
      "Å": 134,
      "Æ": 135,
      "Ç": 136,
      "È": 137,
      "É": 138,
      "Ê": 139,
      "Ë": 140,
      "Ì": 141,
      "Í": 142,
      "Î": 143,
      "Ï": 144,
      "Ð": 145,
      "Ñ": 146,
      "Ò": 147,
      "Ó": 148,
      "Ô": 149,
      "Õ": 150,
      "Ö": 151,
      "×": 152,
      "Ø": 153,
      "Ù": 154,
      "Ú": 155,
      "Û": 156,
      "Ü": 157,
      "Ý": 158,
      "Þ": 159,
      "ß": 160,
      "à": 161,
      "á": 162,
      "â": 163,
      "ã": 164,
      "ä": 165,
      "å": 166,
      "æ": 167,
      "ç": 168,
      "è": 169,
      "é": 170,
      "ê": 171,
      "ë": 172,
      "ì": 173,
      "í": 174,
      "î": 175,
      "ï": 176,
      "ð": 177,
      "ñ": 178,
      "ò": 179,
      "ó": 180,
      "ô": 181,
      "õ": 182,
      "ö": 183,
      "÷": 184,
      "ø": 185,
      "ù": 186,
      "ú": 187,
      "û": 188,
      "ü": 189,
      "ý": 190,
      "þ": 191,
      "ÿ": 192,
      "Ā": 193,
      "ā": 194,
      "Ă": 195,
      "ă": 196,
      "Ą": 197,
      "ą": 198,
      "Ć": 199,
      "ć": 200,
      "Ĉ": 201,
      "ĉ": 202,
      "Ċ": 203,
      "ċ": 204,
      "Č": 205,
      "č": 206,
      "Ď": 207,
      "ď": 208,
      "Đ": 209,
      "đ": 210,
      "Ē": 211,
      "ē": 212,
      "Ĕ": 213,
      "ĕ": 214,
      "Ė": 215,
      "ė": 216,
      "Ę": 217,
      "ę": 218,
      "Ě": 219,
      "ě": 220,
      "Ĝ": 221,
      "ĝ": 222,
      "Ğ": 223,
      "ğ": 224,
      "Ġ": 225,
      "ġ": 226,
      "Ģ": 227,
      "ģ": 228,
      "Ĥ": 229,
      "ĥ": 230,
      "Ħ": 231,
      "ħ": 232,
      "Ĩ": 233,
      "ĩ": 234,
      "Ī": 235,
      "ī": 236,
      "Ĭ": 237,
      "ĭ": 238,
      "Į": 239,
      "į": 240,
      "İ": 241,
      "ı": 242,
      "Ĳ": 243,
      "ĳ": 244,
      "Ĵ": 245,
      "ĵ": 246,
      "Ķ": 247,
      "ķ": 248,
      "ĸ": 249,
      "Ĺ": 250,
      "ĺ": 251,
      "Ļ": 252,
      "ļ": 253,
      "Ľ": 254,
      "ľ": 255,
      "Ŀ": 256,
      "ŀ": 257,
      "Ł": 258,
      "ł": 259,
      "Ń": 260,
      "á½": 261,
      "Î½": 262,
      "ÏĦ": 263,
      "ĠÎ": 264,
      "Î±": 265,
      "Î¿": 266,
      "á¼": 267,
      "Î¹": 268,
      "Îµ": 269,
      "Ġá¼": 270,
      "Ïģ": 271,
      "ÏĤ": 272,
      "á¿": 273,
      "Ïĥ": 274,
      "ĠÏĦ": 275,
      "ÏĢ": 276,
      "Î»": 277,
      "Î¼": 278,
      "Ïħ": 279,
      "ĠÎº": 280,
      "Îº": 281,
      "á½¶": 282,
      "ĠÎºÎ±": 283,
      "Ïī": 284,
      "Î·": 285,
      "Ġá¼Ĳ": 286,
      "ĠÏĢ": 287,
      "ĠÎ´": 288,
      "Î¸": 289,
      "Ġá½": 290,
      "á½·": 291,
      "Î¿Î½": 292,
      "á½³": 293,
      "Î³": 294,
      "á½¸": 295,
      "ĠÎºÎ±á½¶": 296,
      "ĠÎ¼": 297,
      "Ïĩ": 298,
      "Î¿á¿": 299,
      "ÏĦÎ±": 300,
      "á½°": 301,
      "Î´": 302,
      "á¿¶": 303,
      "á½±": 304,
      "Î¿Ïħ": 305,
      "Ġá¼Ģ": 306,
      "á½Ĳ": 307,
      "ÏĨ": 308,
      "Î¿á¿¦": 309,
      "ĠÎ±": 310,
      "Î¹Î½": 311,
      "á½¹": 312,
      "á¿¶Î½": 313,
      "ĠÎ¿": 314,
      "ĠÎµ": 315,
      "ĠÏĥ": 316,
      "á½²": 317,
      "ÏīÎ½": 318,
      "á½´": 319,
      "á½»": 320,
      "ÎµÎ½": 321,
      "Î¿Î¹": 322,
      "á¿Ĩ": 323,
      "ÏģÎ±": 324,
      "ÎµÎ¹": 325,
      "Î¿ÏĤ": 326,
      "ĠÎ³": 327,
      "Î±Î¹": 328,
      "ÏĥÏĦ": 329,
      "ÎµÏģ": 330,
      "ĠÎ±á½Ĳ": 331,
      "âĢ": 332,
      "Î±Î½": 333,
      "ĠÏĦá½¸": 334,
      "ĠÎ±á½ĲÏĦ": 335,
      "âĢĻ": 336,
      "ĠÎµá¼": 337,
      "Î¼Î±": 338,
      "á¿ĸ": 339,
      "á½´Î½": 340,
      "á¿ĨÏĤ": 341,
      "Î¾": 342,
      "Ġá¼ĲÎ½": 343,
      "Î»Î»": 344,
      "ÏĦÎ±Î¹": 345,
      "ĠÏĢÏģ": 346,
      "Î²": 347,
      "ĠÏĦá¿¶Î½": 348,
      "ĠÏĦÎ¿á¿¦": 349,
      "Î¯": 350,
      "ĠÎ´Î¹": 351,
      "ÏĦÎµ": 352,
      "Ġá¼ĲÏĢ": 353,
      "á½³Î½": 354,
      "á½µ": 355,
      "Ġá¼Ķ": 356,
      "ĠÎ´á½²": 357,
      "ÏĦÎ¹": 358,
      "ÏīÏĤ": 359,
      "ÎºÎ±": 360,
      "ÎŃ": 361,
      "ÏĥÎ¸": 362,
      "Îµá¿ĸ": 363,
      "ĠÏĨ": 364,
      "á¾": 365,
      "ĠÎ»": 366,
      "ĠÎµá¼°": 367,
      "ĠÏĦá½´Î½": 368,
      "Î±ÏĤ": 369,
      "Î¬": 370,
      "ĠÏĩ": 371,
      "ÏģÎ¹": 372,
      "ĠÎ¿á½Ĳ": 373,
      "á½²Î½": 374,
      "Î¿á¿ĸ": 375,
      "ÏĥÎ¹Î½": 376,
      "ĠÏĦá¿ĨÏĤ": 377,
      "á½¸ÏĤ": 378,
      "á¿·": 379,
      "ĠÏĦá½°": 380,
      "Ġá½ĳ": 381,
      "á½½": 382,
      "ÏĥÎ¹": 383,
      "Ġá¼¡": 384,
      "ĠÎ¸": 385,
      "Î½Îµ": 386,
      "ÏĦÎ¿": 387,
      "á½º": 388,
      "Î¼á½³Î½": 389,
      "ĠÏĦÎµ": 390,
      "ĠÎ¼á½²Î½": 391,
      "ÏĦÎ·": 392,
      "ÏĮ": 393,
      "Î¿á¿ĸÏĤ": 394,
      "Î½Î±": 395,
      "Ġá¼Ħ": 396,
      "ÏĦá½°": 397,
      "Ġá½ģ": 398,
      "Î¼ÎµÎ½": 399,
      "á½¸Î½": 400,
      "ÏĦÏīÎ½": 401,
      "á½¹Î½": 402,
      "ĠÎ¿á½": 403,
      "Ġá½ħ": 404,
      "Î»Îµ": 405,
      "ÏĪ": 406,
      "Î±Ïģ": 407,
      "ÏĢÎ¿": 408,
      "Ġ|": 409,
      "ĠÎ²": 410,
      "Ïį": 411,
      "ÏĦÎ¿ÏĤ": 412,
      "ĠÏĦÎ¿": 413,
      "ÏĥÎµ": 414,
      "ĠÎ¿á¼": 415,
      "Ġá¼ĲÎº": 416,
      "ĠA": 417,
      "Ġá½Ģ": 418,
      "ĠÎ¼Îµ": 419,
      "Î·ÏĤ": 420,
      "Î¶": 421,
      "á¿³": 422,
      "Îĩ": 423,
      "á½ºÏĤ": 424,
      "Ïģá½·": 425,
      "ÏĥÎ¸Î±Î¹": 426,
      "á½°Ïģ": 427,
      "Î¿ÏħÏĤ": 428,
      "Î±Î»": 429,
      "05": 430,
      "ĠÎ³á½°Ïģ": 431,
      "ĠÏĦá¿·": 432,
      "ĠÏĦá½¸Î½": 433,
      "ĠÏĥÏħ": 434,
      "á¿ĩ": 435,
      "ĠÏĢÏģÎ¿": 436,
      "á½³Ïģ": 437,
      "á¿¦": 438,
      "ĠÎºÎ±ÏĦá½°": 439,
      "Îµá½·": 440,
      "ÏĥÎ±": 441,
      "Î¿Î¹ÏĤ": 442,
      "Î®": 443,
      "Î·Î½": 444,
      "Ġá¼¢": 445,
      "ĠU": 446,
      "ÎºÎ±á½¶": 447,
      "ĠÎµá¼°ÏĤ": 448,
      "ĠÏĦÎ±": 449,
      "Ġá¼ĳ": 450,
      "ĠÏĦÎ¿á¿ĸÏĤ": 451,
      "ĠÏĢÎµÏģ": 452,
      "á¾¶": 453,
      "ĠÏĢÎ¿": 454,
      "ÎµÎ¹Î½": 455,
      "Ġá¼ĲÏĥÏĦ": 456,
      "ĠÎ±á¼": 457,
      "ÏĦÎ¿Î½": 458,
      "Î¹Îº": 459,
      "Ġá½¡": 460,
      "Ġt": 461,
      "Ġá¼ĢÏĢ": 462,
      "á½±Î½": 463,
      "Ġá¼ĲÏĢá½¶": 464,
      "Î´Îµ": 465,
      "á¿¥": 466,
      "Ġá¼ĢÎ½": 467,
      "Î·Ïĥ": 468,
      "Î»Î±": 469,
      "ĠÎ´Î¹Î±": 470,
      "Ġá½ĳÏĢ": 471,
      "Ġo": 472,
      "ĠÎ½": 473,
      "ĠÏĩÏģ": 474,
      "ÏģÎ¿": 475,
      "ĠÏĢÎ±": 476,
      "Ġá½¡ÏĤ": 477,
      "á¿ĥ": 478,
      "ÏģÎµ": 479,
      "Ï²": 480,
      "Ġ(": 481,
      "ĠÎĳ": 482,
      "Ġá¼ĲÏĢÎ¹": 483,
      "Ġá¼ĲÎ¾": 484,
      "ÏĥÎµÎ¹": 485,
      "Ġ1": 486,
      "he": 487,
      "ĠÎ±á½ĲÏĦÎ¿á¿¦": 488,
      "Ġá¼ĢÎ»Î»": 489,
      "ĠÏĦÎ¹": 490,
      "ĠÎµá¼¶": 491,
      "Ġa": 492,
      "Î»Î·": 493,
      "ÏĦÎµÏģ": 494,
      "Ġá¼¡Î¼": 495,
      "ÏħÎ½": 496,
      "ĠÏĢÏģá½¸ÏĤ": 497,
      "á½·Î½": 498,
      "á¿¶ÏĤ": 499,
      "ÏħÏĦ": 500,
      "ÏĥÎº": 501,
      "Î¼á½±": 502,
      "Â·": 503,
      "Ġá¼°": 504,
      "áµ": 505,
      "ĠÎ¿á½ĸ": 506,
      "Ġá¼ķ": 507,
      "ÏĦÎµÏĤ": 508,
      "ĠÏĦá½°ÏĤ": 509,
      "ÏĢÎµÏģ": 510,
      "Î»Î¹": 511,
      "Î½Î±Î¹": 512,
      "ĠÏĦá¿ĩ": 513,
      "ĠÎ±á½ĲÏĦá¿¶Î½": 514,
      "ĠÎ´Î¹á½°": 515,
      "ÏĦÏī": 516,
      "Î¼Îµ": 517,
      "á½±Ïģ": 518,
      "in": 519,
      "ĠÎºÎ±Î¸": 520,
      "Î¿á½»": 521,
      "Îµá¿ĸÎ½": 522,
      "á¼Ĳ": 523,
      "ĠÎ¿á½ĸÎ½": 524,
      "Ġá¿¥": 525,
      "ÏģÎ·": 526,
      "ÏĥÏĩ": 527,
      "ÏģÎ±Ïĩ": 528,
      "Ġá¼ĢÎ½Î±": 529,
      "ĠÎ³Îµ": 530,
      "Ġp": 531,
      "ĠÎ¿á¼±": 532,
      "Î¼ÏĢ": 533,
      "ĠÎ¿á½ĲÎº": 534,
      "ĠÏĦÎ¿á½ºÏĤ": 535,
      "ĠÏĢÎ±Ïģ": 536,
      "Ïİ": 537,
      "á½·Î±ÏĤ": 538,
      "Ġá¼ĢÏĢÎ¿": 539,
      "Ġá¼ĢÏģ": 540,
      "Ġ2": 541,
      "ÏĥÎ±Î½": 542,
      "Ġs": 543,
      "ĠÎµá¼´": 544,
      "ÏħÎ¼": 545,
      "ÏħÏģ": 546,
      "Î¿Î¼á½³Î½": 547,
      "ĠÎ¼á½´": 548,
      "Ġá¼ĦÎ»Î»": 549,
      "Ġá¼¸": 550,
      "á¿ĸÏĤ": 551,
      "ĠÎ¿á½ĲÎ´": 552,
      "á½³ÏģÎ±": 553,
      "Î¿á¿¦Î½": 554,
      "Ïģá½±": 555,
      "Ġá¼ģ": 556,
      "ÏĦÎ¿Î¹": 557,
      "re": 558,
      "ĠÏĢÎµÏģá½¶": 559,
      "Ïģá½¹": 560,
      "Î¸Î·": 561,
      "ÏĥÎµÏīÏĤ": 562,
      "á½¼": 563,
      "á¼Ģ": 564,
      "Î¿Î¼": 565,
      "Ġthe": 566,
      "á½¹Î¼ÎµÎ½": 567,
      "ĠÏĪ": 568,
      "ÏĢÎµ": 569,
      "á½·Î±Î½": 570,
      "Ġá¼ĶÏĩ": 571,
      "ĠB": 572,
      "Î¼Î±ÏĦÎ¿ÏĤ": 573,
      "ĤÎ½": 574,
      "Î¿Î»": 575,
      "Î³Î¿Î½": 576,
      "ĠÎºÎ±ÏĦÎ±": 577,
      "Ġá¼ĲÎ³": 578,
      "Ġá¼ħ": 579,
      "ĠÎ¸Îµ": 580,
      "ÏĦÏīÏĤ": 581,
      "ÏĢÎ±": 582,
      "ÏĦÏģ": 583,
      "ĠÎ¼á½³": 584,
      "ÏĥÏĦÎ±": 585,
      "ĠÏĦÎ¿Î¹": 586,
      "ĠÏĢÎ»": 587,
      "ÏĥÎ±Î¹": 588,
      "ÎŃÎ½": 589,
      "ÏħÏĩ": 590,
      "Ġom": 591,
      "Ġá½Ħ": 592,
      "ÏĦÎ¹Îº": 593,
      "ĠÏĦÎ¹Î½": 594,
      "ĠÏĦÎ¿á¿¦ÏĦÎ¿": 595,
      "Î¹ÏĤ": 596,
      "ÏĢÎ¿Î½": 597,
      "ĠÎļ": 598,
      "Ġá¼¤": 599,
      "ÏĦÎµÏģÎ¿Î½": 600,
      "Î¸Ïģ": 601,
      "ĠÏĦÎ¿á½»": 602,
      "Î´Î¹": 603,
      "ÏħÏĥ": 604,
      "Î³Î±": 605,
      "Ġá½ħÏĦÎ¹": 606,
      "ÏĦÎ¿Ïħ": 607,
      "ĠÏĥÎº": 608,
      "ÏĨÎ¿": 609,
      "ĠÎºÎ±ÏĦ": 610,
      "â¸": 611,
      "Î´Î±": 612,
      "ĠÏĢÎ¿Î¹": 613,
      "ÎĦ": 614,
      "Î´Î·": 615,
      "ĠÏĥÏħÎ½": 616,
      "ÏĮÎ½": 617,
      "er": 618,
      "á¾³": 619,
      "á½·Î½Îµ": 620,
      "Î½Î¿": 621,
      "Ġá¼ĤÎ½": 622,
      "ĠÏĢÏģÎ¿Ïĥ": 623,
      "ĠÎµá½Ĳ": 624,
      "ha": 625,
      "Î±Îº": 626,
      "ĠÎ¸ÎµÏģ": 627,
      "ÏĦÎ±ÏĤ": 628,
      "ĠÏĢÎ¿Î»Î»": 629,
      "ĠÏĢÎµÏģÎ¹": 630,
      "ĠÎ¿á½ķ": 631,
      "Î¸Îµ": 632,
      "Ġá½¥": 633,
      "Ġá¼ĢÎº": 634,
      "ĠÏĥÎ¿Ïħ": 635,
      "ÏĥÎ¿Î½": 636,
      "ÎµÏĦÎ±Î¹": 637,
      "ÏĦÎ·ÏĤ": 638,
      "Î¸ÎµÎ½": 639,
      "Î¼Î¿": 640,
      "á½°ÏĤ": 641,
      "á¼±": 642,
      "ĠÎ¶": 643,
      "ÏħÎº": 644,
      "Ġpr": 645,
      "Î³Î½": 646,
      "ĠÏĢÎ±ÏģÎ±": 647,
      "á¼°": 648,
      "nd": 649,
      "ĠÎ±á¼°": 650,
      "ĠÎ´Îµ": 651,
      "ĠÏħ": 652,
      "ĠÎ¾": 653,
      "ÏĢÎ»": 654,
      "ĠÎºÎ±Î¹": 655,
      "ÏĦá½·": 656,
      "ĠÎ¼Î·": 657,
      "Ġá¼ĦÎ½": 658,
      "ĠÏĢá½±Î½": 659,
      "Î»Î¿Î½": 660,
      "á¿¦ÏĦÎ±": 661,
      "Î¼Î²": 662,
      "Ġá¼ĢÏĢá½¸": 663,
      "ĠÎ»Îµ": 664,
      "á½±Î»": 665,
      "ĠÏĥÏĦ": 666,
      "Î»á½·": 667,
      "ĠÎ´ÏģÎ±Ïĩ": 668,
      "Ġá¼Ī": 669,
      "ĠÏĨá½»": 670,
      "Î¼Î¿Î½": 671,
      "Î³Î³": 672,
      "ÏģÎ³": 673,
      "ÏĥÏī": 674,
      "ĠÎºÎµ": 675,
      "ÏĥÎ¹ÏĤ": 676,
      "ÏĢÎ¹": 677,
      "á¾¶ÏĤ": 678,
      "á½°Î½": 679,
      "Î¸Î±": 680,
      "Î¿ÏħÏĥÎ¹Î½": 681,
      "ĠQ": 682,
      "Î¼Î±ÏĦÎ±": 683,
      "ĠÏĦÎ±á¿ĸÏĤ": 684,
      "ÏīÏģ": 685,
      "ĠÎ£": 686,
      "it": 687,
      "ÏĦá½³Ïģ": 688,
      "ÏģÎ±Î½": 689,
      "ĠÎ²Î±": 690,
      "Î¬Î½": 691,
      "Ġá¼ĲÏĥÏĦÎ¹Î½": 692,
      "ÏħÎ³": 693,
      "ÏģÎ±ÏĤ": 694,
      "ĠÎ´á½»": 695,
      "Ġá½ĳÎ³": 696,
      "ĠÎ¼Î¿Ïħ": 697,
      "Î·Ïģ": 698,
      "Ġá¼ĢÎ»Î»á½°": 699,
      "ÎµÎ»": 700,
      "ĠÎ¼á½¹Î½": 701,
      "ĠÏĪÏħÏĩ": 702,
      "ÏĥÎµÎ¹ÏĤ": 703,
      "Î¿á½ºÏĤ": 704,
      "ĠÎ»á½¹": 705,
      "á½³Î³": 706,
      "is": 707,
      "ĠÎ¿á½Ķ": 708,
      "or": 709,
      "ĠÏĢÎµ": 710,
      "Ġâ¸": 711,
      "ĠÎ³ÎµÎ½": 712,
      "ĠÎ±á½ĲÏĦá¿·": 713,
      "ÏĥÎ¼": 714,
      "ÏĥÎµÏĦÎ±Î¹": 715,
      "ÏģÎ¿Î½": 716,
      "Ġc": 717,
      "ĠÎµá¼¶Î½Î±Î¹": 718,
      "Ġ+": 719,
      "á½¶Î½": 720,
      "Ġb": 721,
      "ĠÎ±á¼±": 722,
      "Î¼á½±ÏĦÏīÎ½": 723,
      "Ġá½ķ": 724,
      "ÎµÏĥÎ¸Î±Î¹": 725,
      "ĠÏĦÎ¹ÏĤ": 726,
      "Î¼ÏĨ": 727,
      "Ġá¼ĲÏĥÏĦÎ¹": 728,
      "ÎµÎ¹ÏĤ": 729,
      "Î¿Î³": 730,
      "¤á¿¥": 731,
      "Î¼Î½": 732,
      "áµĥ": 733,
      "Ġw": 734,
      "ÏĦÎ·Î½": 735,
      "Ġá¾": 736,
      "Î»á½±": 737,
      "Îµá¿ĸÏĤ": 738,
      "ÎºÎ¿Î½": 739,
      "Î¼á½³Î½ÏīÎ½": 740,
      "Ġin": 741,
      "Ġá½ĳÎ¼": 742,
      "Ġ3": 743,
      "ĠÎ±á½ĲÏĦá½¸Î½": 744,
      "ÏĦÎ±Î½": 745,
      "ĠÏĥÏĨ": 746,
      "ĠÎ±á½ĲÏĦÎ¿á¿ĸÏĤ": 747,
      "ĠÎ²Î±ÏĥÎ¹": 748,
      "Ġá¼¦": 749,
      "ĠÎĻ": 750,
      "á½¹ÏĤ": 751,
      "ÏĨÎ¸": 752,
      "Ġá½ĳÏĢÎ¿": 753,
      "Î´Î¿": 754,
      "ĠÎ½Îµ": 755,
      "Ġá¼ĢÏģÏĩ": 756,
      "ĠÎ¼ÎµÏĦá½°": 757,
      "Î¼Î¹": 758,
      "ÎºÎ¿": 759,
      "ĠÎ»Î±": 760,
      "á½¹Î½ÏĦÏīÎ½": 761,
      "Ġá¼´": 762,
      "Ġá¼ĲÏĨ": 763,
      "ra": 764,
      "ÏĢÏĦ": 765,
      "Ġá¼ĶÎ½": 766,
      "á¿ĸÎ½": 767,
      "ĠÎ¿á¼·": 768,
      "ÏĥÏĢÎµÏģ": 769,
      "ĠÎ·": 770,
      "ĠÎ±á½ĲÏĦá¿ĨÏĤ": 771,
      "ĠÏħá¼±": 772,
      "ĠÎ¸ÎµÏģÎ¼": 773,
      "ÏĥÎ±ÏĤ": 774,
      "ÏĦá½±": 775,
      "ÏĥÎ·ÏĤ": 776,
      "Î»Î»Î¿Î½": 777,
      "ĠÏĨÎ±": 778,
      "ĠÎľ": 779,
      "á½³Ïĩ": 780,
      "ĠÎµá½": 781,
      "ĠÎºÎ±Ïģ": 782,
      "Î¯Î±ÏĤ": 783,
      "on": 784,
      "ĠÎºÎ¿": 785,
      "ÎµÏħ": 786,
      "ĠÎ´ÏħÎ½": 787,
      "Ġá¼±": 788,
      "ĠÎ¿á½ķÏĦÏīÏĤ": 789,
      "ÏĨÎ±Î»": 790,
      "Î±ÏħÏĦ": 791,
      "ĠÏĢÏģá½¹": 792,
      "Î¿Ïĥ": 793,
      "á½³Î¿Î½": 794,
      "ÏĥÎ¸ÎµÎ½": 795,
      "ÏģÎ¹Î¿ÏĤ": 796,
      "Ġá¼¥": 797,
      "ÎºÎ¿Ïħ": 798,
      "á½¶ÏĤ": 799,
      "Î¸á½³": 800,
      "Î´ÎµÎ¹": 801,
      "ĠÎºÎ±Î»": 802,
      "Ġof": 803,
      "Î²Î±": 804,
      "ÏĢÎµÎ½": 805,
      "ĠÏĢá½±": 806,
      "âĢĺ": 807,
      "ÎĦ.": 808,
      "Îµá¼°": 809,
      "Ġm": 810,
      "ĠÏĨÎ»Îµ": 811,
      "ÎµÏĤ": 812,
      "ÏĢÎ±Î½": 813,
      "ÎºÎµÎ¹": 814,
      "Ġâ¸Ģ": 815,
      "ĠÎ¼á½µ": 816,
      "ĠÏĢÎ±Î½": 817,
      "Ġf": 818,
      "ĠÎĴ": 819,
      "ÏģÎ¹Î¿Î½": 820,
      "ĠÏĦÎ±á¿¦ÏĦÎ±": 821,
      "á¿¤á¿¥": 822,
      "Î±Î¹ÏĤ": 823,
      "Î·Î»": 824,
      "á¿¦Î½": 825,
      "ÏĥÏĦÎµ": 826,
      "Î»á½³": 827,
      "Ġá¼ĢÏĨ": 828,
      "á½ħ": 829,
      "Î´Ïģ": 830,
      "Îºá½±": 831,
      "Î¿Ïį": 832,
      "Ê¼": 833,
      "Î¿á½¶": 834,
      "Î»ÎµÎ¹": 835,
      "Î¸Î¿ÏĤ": 836,
      "á½·Î½ÎµÏĦÎ±Î¹": 837,
      "Î´á½·": 838,
      "Î¼Î±ÏĦÎ¹": 839,
      "ÏĥÎµÎ½": 840,
      "ĠÎ¼Î·Î´": 841,
      "ÏĦá½³ÏģÎ±": 842,
      "Î¿Î½ÏĦÎ±Î¹": 843,
      "á½±Î³": 844,
      "en": 845,
      "ĠÎ¼ÎµÎ³": 846,
      "Î¼ÎµÎ½Î¿Î½": 847,
      "Î¹Î±": 848,
      "Ġá½ĳÏĢá½¸": 849,
      "á½¹Î¼ÎµÎ½Î¿Î½": 850,
      "Î·ÏĥÎ±Î½": 851,
      "ĠÎ»á½¹Î³": 852,
      "ĠÎ´Ïħ": 853,
      "ĠÏĢÎ»Îµ": 854,
      "Ġá½ĥ": 855,
      "ĠÎ´á½´": 856,
      "á½»Î½": 857,
      "ĠÎºá½±": 858,
      "Ïģá½¸Î½": 859,
      "Ġá½¥ÏĥÏĢÎµÏģ": 860,
      "Î·ÏĥÎµÎ½": 861,
      "Ïĥá¿ĥ": 862,
      "Î¿ÏħÏĥÎ¹": 863,
      "Î·Î¸": 864,
      "es": 865,
      "Ġand": 866,
      "ÏĦá¿³": 867,
      "ĠÎºÎ¹Î½": 868,
      "ĠÏĦÎ¿Ïħ": 869,
      "Ġá½ħÎ»": 870,
      "up": 871,
      "Î¯Î±Î½": 872,
      "ll": 873,
      "ĠÎ±á½": 874,
      "ÏĦá½¸ÏĤ": 875,
      "ĠÎ¼ÎµÏĦÎ±": 876,
      "ĠÎ¼á¾¶": 877,
      "ÏħÎ»": 878,
      "Î·Î¼": 879,
      "á½¼Î½": 880,
      "Ġá½§": 881,
      "Î¯Î½": 882,
      "Ġá¼°ÏĥÏĩ": 883,
      "á¿ĨÎ½Î±Î¹": 884,
      "ÏĥÏĦÎ¿Î½": 885,
      "á¾¿": 886,
      "ĠÎ±á½ĲÏĦá½¸": 887,
      "á¼Ķ": 888,
      "ÏĢÎ¿Ïħ": 889,
      "âģ": 890,
      "ĠÏĢá¾¶": 891,
      "á¼ĢÎ»Î»": 892,
      "ĠÎ¼Î¿": 893,
      "ÎµÎ¹Î´": 894,
      "Î¿á½Ĳ": 895,
      "ĠÎºá¾": 896,
      "ĠÏĥá½½": 897,
      "Î±á½·": 898,
      "ĠÎ¼ÎµÏĦ": 899,
      "ÎºÎµÎ½": 900,
      "Ġá¼ĶÏĦÎ¹": 901,
      "á½µÎ½": 902,
      "Ïĥá½·": 903,
      "ÏģÏĩ": 904,
      "ĠÎ¿á½Ĺ": 905,
      "Î¯Î¿Ïħ": 906,
      "Î¼ÎµÎ½Î¿ÏĤ": 907,
      "ĠÎ½á¿¦Î½": 908,
      "ĠÎ³á½³Î½": 909,
      "ed": 910,
      "ÏģÎ¿Ïħ": 911,
      "ing": 912,
      "ĠÎ¼á½³Ïģ": 913,
      "á½·Î¶": 914,
      "Î³ÏģÎ±": 915,
      "ÎºÎµ": 916,
      "ĠÎ¿á¼°": 917,
      "ÏĦá¿¶Î½": 918,
      "ÏģÏīÎ½": 919,
      "ĠÎ¼á½¹Î½Î¿Î½": 920,
      "Ġá½ł": 921,
      "ĠÏĦÏģ": 922,
      "ĠÏĦÎ¿á½»ÏĦÏīÎ½": 923,
      "ĠÎ¼á¾¶Î»Î»Î¿Î½": 924,
      "á½¹ÏĦÎ·": 925,
      "Ġá¼ĲÏģ": 926,
      "ĠÏĦÎ¿Î¹Î±": 927,
      "ĠÎ¼á½±": 928,
      "ĠÎ´ÏħÎ½á½±": 929,
      "ĠÏĢÏħ": 930,
      "ĠÎ¿á¼¶": 931,
      "Ġá½§Î½": 932,
      "ĠÎ»á½³Î³": 933,
      "ĠâĢĺ": 934,
      "ĠÎ±á½ĲÏĦá½´Î½": 935,
      "Î·Î³": 936,
      "ÏĥÏĥ": 937,
      "ĠÎµá¼¶ÏĢÎµÎ½": 938,
      "ÏĥÏĦÎ±Î¹": 939,
      "om": 940,
      "Ġá½ħÏĦÎ±Î½": 941,
      "ĠÎĶ": 942,
      "Ġá¼¤Î´Î·": 943,
      "Î±Ïħ": 944,
      "ĠÏĢÎ½Îµ": 945,
      "Ġá¼¦Î½": 946,
      "Î¿Ïģ": 947,
      "ĠÎ´á½»Î½Î±": 948,
      "ĠÏĩÏģá½´": 949,
      "ĠÏĢá½¹": 950,
      "á½±ÏģÏĩ": 951,
      "Î¿Î½ÏĦÎ±": 952,
      "Î±ÏĥÏĦ": 953,
      "Ġá¼ĳÎ±ÏħÏĦ": 954,
      "ĠÎºÏħ": 955,
      "ĠÎºÎµÏĨÎ±Î»": 956,
      "ĠF": 957,
      "ÏĦÎ¿Î¹ÏĤ": 958,
      "ÏģÎ¹Î²": 959,
      "Î³Îµ": 960,
      "ĠÎ¼á½³Î½": 961,
      "ĠÎµÎ½": 962,
      "ĠÏĨÎ±Ïģ": 963,
      "Â°": 964,
      "ÎµÎ¹Ïģ": 965,
      "ĠV": 966,
      "Îµá½·Î±ÏĤ": 967,
      "ĠÏĢÎ¿Î»": 968,
      "ĠÎ¿á½ĲÎ´á½²": 969,
      "Î´á½³": 970,
      "áµĩ": 971,
      "ĠÏĦÎ±á½»": 972,
      "Ġá½ĢÎ½Î¿": 973,
      "ÏĦá½¸": 974,
      "ou": 975,
      "á½·Î¿Ïħ": 976,
      "ÏĨÎ±": 977,
      "ĠÎ´á½³": 978,
      "ÏĦÏĦ": 979,
      "Î³Î¼Î±": 980,
      "á½±Îº": 981,
      "ÏĥÏĦÎ¹": 982,
      "Ġá½ĳÏĢá½±ÏģÏĩ": 983,
      "Ġá¼§": 984,
      "Îµá½·Î½": 985,
      "Îµá¿ĸÏĦÎ±Î¹": 986,
      "ÏĥÏģÎ±": 987,
      "ĠÎ¼Î¿Î¹": 988,
      "Ġá¼ģÏĢ": 989,
      "Î·ÏĦÎ±Î¹": 990,
      "á½µÎ»": 991,
      "ÎµÏīÏĤ": 992,
      "ÏĦÎŃ": 993,
      "ras": 994,
      "ĠÎł": 995,
      "ĠÎ¿á¼´": 996,
      "ĠÎ¿á½ĲÏĩ": 997,
      "Ġá¼ħÎ¼Î±": 998,
      "Î¿Î¼á½³Î½ÏīÎ½": 999,
      "Î¾Î±": 1000,
      "Î¼ÎŃÎ½": 1001,
      "ĠÎ¿á½ĲÎ´á½²Î½": 1002,
      "ĠÏĥÏħÎ½Îµ": 1003,
      "ĠÎ¼Î¹Îº": 1004,
      "Ġn": 1005,
      "ĠÎ±á½ĲÏĦÎ¿á½ºÏĤ": 1006,
      "Î¿Î½ÏĦÎµÏĤ": 1007,
      "ĠÎ±ÏħÏĦ": 1008,
      "ea": 1009,
      "ĠÎ¿á½ķÏĦÏī": 1010,
      "ĠÎµá¼°Ïĥ": 1011,
      "Î¸ÏģÏī": 1012,
      "ĠÎ½Î¿Ïĥ": 1013,
      "ĠÏĦá½³": 1014,
      "ÎµÎ¾": 1015,
      "ĠÏĨá½»ÏĥÎ¹Î½": 1016,
      "ÏīÎ¸": 1017,
      "ĠÏĥÎµ": 1018,
      "ÏĦÎ·Ïģá½·": 1019,
      "ÏĦÎ¿ÏħÏĤ": 1020,
      "ĠÎ³Î½": 1021,
      "Ġto": 1022,
      "á½·Î±": 1023,
      "ÏĦÎ¿á¿¦": 1024,
      "Î»ÎŃ": 1025,
      "Î´Îµá½·": 1026,
      "Îµá½¶": 1027,
      "á½½Î´": 1028,
      "Î¿Î¼ÎµÎ½": 1029,
      "ĠÏĦÏģá½·": 1030,
      "Ġá¼ĢÎ³": 1031,
      "Î¿á½": 1032,
      "ĠÏĢÎ±Ïģá½°": 1033,
      "Ġá¼¡Î¼á¿¶Î½": 1034,
      "vi": 1035,
      "ĠÎµá¼°ÏģÎ·": 1036,
      "ÏħÏĢ": 1037,
      "st": 1038,
      "Îļ": 1039,
      "Î´Î¿ÏĤ": 1040,
      "á½±Î¶": 1041,
      "ĠAF": 1042,
      "Î»Îº": 1043,
      "ÏĥÏĦÎ¹Î½": 1044,
      "Î±á½¶": 1045,
      "ĠÏĢÎ¬Î½": 1046,
      "Ġ4": 1047,
      "Ġá¼ł": 1048,
      "ÎºÏģ": 1049,
      "á½»Î»": 1050,
      "á¾·": 1051,
      "ĠÎĵ": 1052,
      "ĠÏĥÏĨÏħÎ³": 1053,
      "Î¼Î¹Î½": 1054,
      "Î¾Ïī": 1055,
      "ic": 1056,
      "ĠÎºá½»": 1057,
      "ÏĥÎ¸Î·": 1058,
      "ĠÎ²ÏģÎ±Ïĩ": 1059,
      "Ġre": 1060,
      "á½²ÏĤ": 1061,
      "ĠÏĥá½»": 1062,
      "á½ģ": 1063,
      "ÏĩÎ¸": 1064,
      "ĠÏĥÎ¿Î¹": 1065,
      "Î¼ÎµÎ¸Î±": 1066,
      "Î¯Î±": 1067,
      "ĠÏĩÏħÎ¼": 1068,
      "ĠÎ¼á½±Î»Î¹": 1069,
      "Î¿á½·": 1070,
      "âģ°": 1071,
      "ĠÏĢÏģá½½": 1072,
      "Ġá¼ĶÏĩÎµÎ¹": 1073,
      "ĠÎ¼á½´Î½": 1074,
      "ĠÎºÏģ": 1075,
      "Ġá¼ĢÎ¼": 1076,
      "ÏĥÏĦÎµÏģ": 1077,
      "Ġá¼°Î±": 1078,
      "Î³ÎµÎ¹": 1079,
      "ÎºÏīÎ½": 1080,
      "Î´Î¿Î½": 1081,
      "ÏĮÏĤ": 1082,
      "ĠÏĦá½±": 1083,
      "ÏĦÎµÎ¹Î½": 1084,
      "á¼ĲÎ½": 1085,
      "ĠÏĢÏħÏģÎµ": 1086,
      "Î´ÎµÏĤ": 1087,
      "ĠÏĦá½¹": 1088,
      "á½±ÏĢÎµÏģ": 1089,
      "ĠÎ¿á½ĶÏĦÎµ": 1090,
      "á¿¶Î¼Î±": 1091,
      "Ġá¼ĢÎºÏģÎ¹Î²": 1092,
      "Î¹Î²": 1093,
      "Îºá½¹": 1094,
      "ÏĩÏģÎ¹": 1095,
      "ĠÎ¼á½¹": 1096,
      "ĠÎ´Î¹Î±ÏĨÎ¿": 1097,
      "Î±ÏĨ": 1098,
      "Ġá¼ĲÎºÎµá½·Î½": 1099,
      "Ġá¼ĲÏĥÏĦá½¶": 1100,
      "ĠÎ»ÎŃ": 1101,
      "ÏĢÎ¿Î¹": 1102,
      "á¿ĨÎ½": 1103,
      "Ġd": 1104,
      "Ġá¼ĳÎºá½±": 1105,
      "ÏģÎ¿ÏĨ": 1106,
      "ÏĦÏĦÎ¿Î½": 1107,
      "ĠÏĨÏħ": 1108,
      "Ġl": 1109,
      "Ġsup": 1110,
      "Ġá¼¸ÏĥÏģÎ±": 1111,
      "Î¼ÏīÎ½": 1112,
      "ĠÎ²Î±ÏĥÎ¹Î»Îµ": 1113,
      "ĠÏĨÎ±ÏģÎ¼á½±": 1114,
      "Ġá¼ħÏĢÎ±Î½": 1115,
      "Î¾Î¹": 1116,
      "ĠÏĢÏģá¿¶": 1117,
      "Î½Î·": 1118,
      "á½µÏĥÎµÏĦÎ±Î¹": 1119,
      "Ġá¼ĲÏĩ": 1120,
      "Ġras": 1121,
      "ÏħÎ¸": 1122,
      "..": 1123,
      "at": 1124,
      "Î¼á¿¶Î½": 1125,
      "Îµá¿ĸÏĥÎ¸Î±Î¹": 1126,
      "ĠÎ¾Î·": 1127,
      "ÏĦá½³": 1128,
      "ĠÎ´Î¹á½±": 1129,
      "Ġbe": 1130,
      "Î»Î¸": 1131,
      "Î¿á¿¦ÏĦÎ¿Î½": 1132,
      "ĠÎºÎ±Î¸á½±ÏĢÎµÏģ": 1133,
      "ĠÎºá¾Ģ": 1134,
      "ÎºÎ±Î½": 1135,
      "ÏĥÏĦÎ·": 1136,
      "ÏģÎ·ÏĦÎ±Î¹": 1137,
      "Ġá¼¹": 1138,
      "Ġá¼µ": 1139,
      "ĠÎ¼ÎŃ": 1140,
      "Î´Ïī": 1141,
      "Î»Î·Î¸": 1142,
      "Î¼á½±Î¶": 1143,
      "ĠÏĩÏģá½¹Î½": 1144,
      "Ġá¼ĺ": 1145,
      "Ġá½ĢÏĥÏĦ": 1146,
      "ĠH": 1147,
      "ĠÏĦá½·": 1148,
      "Ġá¼ĲÎ¼": 1149,
      "Ġá½ħÏĥÎ±": 1150,
      "Î¼Î±Ïģ": 1151,
      "ÏĢá½·": 1152,
      "ÏĥÎ¸Îµ": 1153,
      "Î¼Î·Î½": 1154,
      "Ġá½ĢÎ»á½·": 1155,
      "Ġá½ĦÎ½": 1156,
      "ÏĦá½µ": 1157,
      "ÏĢÏĢÎ¿": 1158,
      "ĠÏĦÏģÎ¹": 1159,
      "ÏĦÎµÏģÎ±": 1160,
      "ĠÎ¼Ïħ": 1161,
      "ÎºÏģá½±": 1162,
      "ÏģÎ¹Î±": 1163,
      "ĠÎ±Ïħ": 1164,
      "ÎºÎ±Î¹": 1165,
      "ÏĦá½¸Î½": 1166,
      "ĠÎ¼Î¿Ïģá½·": 1167,
      "Îĳ": 1168,
      "Ġá¼ĲÏĥÏĦá½¶Î½": 1169,
      "ĠÏĢá½±Î½ÏĦÎ±": 1170,
      "Ġis": 1171,
      "Ġá¼ĢÎ½Î¸Ïģ": 1172,
      "se": 1173,
      "Ġá¼¹ÏĢÏĢÎ¿": 1174,
      "Î¤": 1175,
      "Ġá¼ĶÎ¼ÏĢ": 1176,
      "ot": 1177,
      "Ġá½ģÎ¼Î¿": 1178,
      "Ïģá½¸ÏĤ": 1179,
      "ÎºÎ½": 1180,
      "ĠAQ": 1181,
      "ĠÏĥÏĩ": 1182,
      "ĠÏĥá¿¶Î¼Î±": 1183,
      "Î¼á½³Î½Î¿Ïħ": 1184,
      "ĠÎºÎ¿Î¹": 1185,
      "Î¼á½³Î½Î¿Î½": 1186,
      "ÏĢÎ½": 1187,
      "ĠÎļÏį": 1188,
      "á½·ÏīÏĤ": 1189,
      "ĠÎķ": 1190,
      "Ġá¼ĶÏĥÏĦÎ±Î¹": 1191,
      "ĠÏĥÏĢ": 1192,
      "Î¾ÎµÎ¹": 1193,
      "á½±Î½ÏĦÏīÎ½": 1194,
      "ÏĦá¿ĥ": 1195,
      "Î¼Î¿Ïħ": 1196,
      "Î½ÎµÏĦÎ±Î¹": 1197,
      ".]": 1198,
      "Ġá¼¡Î¼á½³ÏģÎ±": 1199,
      "ÎºÎ¿ÏĤ": 1200,
      "ÏīÏģá½·": 1201,
      "Î³ÎµÎ½": 1202,
      "Ġá¼¡Î¼á¿ĸÎ½": 1203,
      "Ġá¼ĦÎ»Î»ÏīÎ½": 1204,
      "ĠÎ¼á½±Î»Î¹ÏĥÏĦÎ±": 1205,
      "Î¹Î¿Î½": 1206,
      "Ġá½ĳÎ¼á¿¶Î½": 1207,
      "á¼¡": 1208,
      "Ġá¼ĦÏģ": 1209,
      "ÏīÏĥÎ¹Î½": 1210,
      "Îł": 1211,
      "Î´Î¿Ïħ": 1212,
      "ĠÎ´Î¿": 1213,
      "Î¸ÎµÎ¹": 1214,
      "ĠÏĢá½³": 1215,
      "ĠÎ¸ÎµÏģÎ¼Î±": 1216,
      "Ġe": 1217,
      "ĠÎºÎ±ÏģÎ´": 1218,
      "ĠÎ³Î±ÏĥÏĦ": 1219,
      "Î¿ÏħÏĥ": 1220,
      "ÏĨá½³Ïģ": 1221,
      "Î¾Î¹Î½": 1222,
      "Î»Î±Î²": 1223,
      "á½ºÎ½": 1224,
      "Î¹Î»": 1225,
      "ĠÎ³Î¹Î½": 1226,
      "Ïģá½¹ÏĦÎ·": 1227,
      "Î¼ÎµÎ½Î¿Î¹": 1228,
      "Î¿ÏĨ": 1229,
      "á¿ĨÏĥÎ±Î¹": 1230,
      "Ġá¼ĢÎ½Î±Î³": 1231,
      "á½·Î¿Î½": 1232,
      "ĠÎ´ÏħÎ½á½±Î¼Îµ": 1233,
      "ĠÏĨá½±Ïģ": 1234,
      "ÏĦÎ¿Î¼": 1235,
      "á¼Ħ": 1236,
      "Î·Î¼Î±": 1237,
      "Î½Î·ÏĤ": 1238,
      "ÏĦÎ¯": 1239,
      "ÏĨÎ¸Î±Î»": 1240,
      "ĠÏĦÏģá½¹": 1241,
      "ÏĥÏĦá½±": 1242,
      "á½·Î³": 1243,
      "Î¼Î¿Î¹": 1244,
      "Î¿Î½ÏĦÎ¿ÏĤ": 1245,
      "ĠÎ¹": 1246,
      "ĠÎ§": 1247,
      "ĠÎ±á½ĲÏĦá½¸ÏĤ": 1248,
      "Ġá¼ĲÎ»": 1249,
      "ĠÎµá½ĳ": 1250,
      "Ġá¼ĢÏģÏĦÎ·Ïģá½·": 1251,
      "á½±ÎºÎ¹ÏĤ": 1252,
      "Î·ÏĥÎ¹Î½": 1253,
      "ÎµÏĦÎ¿": 1254,
      "ĠÎ¿á¼°Îº": 1255,
      "Î¹Î³Î½": 1256,
      "Î»Î¿Ïħ": 1257,
      "Ġá¼ĦÎ½Î¸ÏģÏī": 1258,
      "Ġá¼£": 1259,
      "Ġá¼ĲÏĢá½·": 1260,
      "á½¹ÏĦÎ¹": 1261,
      "Î¿ÏĢ": 1262,
      "ĠÏĦÎ¹Î½Î±": 1263,
      "Ġï": 1264,
      "á½´Î»": 1265,
      "Î¿á¿¦ÏĤ": 1266,
      "ver": 1267,
      "ÏĥÎ¿Î½ÏĦÎ±Î¹": 1268,
      "Î±Î²": 1269,
      "á½·ÏīÎ½": 1270,
      "ĠÎ´á½»Î¿": 1271,
      "ÎµÎ²": 1272,
      "ĠÎ¤": 1273,
      "á½µÏĥÎµÏīÏĤ": 1274,
      "ĠHe": 1275,
      "Ġá¼¹ÏĢÏĢÎ¿ÎºÏģá½±": 1276,
      "ĠÏĢÎ¹": 1277,
      "ÎŃÏģ": 1278,
      "ly": 1279,
      "á½²Ïģ": 1280,
      "Î¬Ïģ": 1281,
      "ĠÎ¼Î±": 1282,
      "Ġá¼ĶÎ¾Ïī": 1283,
      "ĠÏĥÏħÎ¼ÏĢ": 1284,
      "Ġá¼¤ÏĦÎ¿Î¹": 1285,
      "ÏģÎ¿á¿¦": 1286,
      "Ġá¼ĲÎ¼ÏĢ": 1287,
      "ĠÏĥÎºÎ»Î·": 1288,
      "ĠÎµÎ¹": 1289,
      "Ġá¼ħÏĢÎ±": 1290,
      "ar": 1291,
      "Ïģá¿¶Î½": 1292,
      "Ġ5": 1293,
      "Ġá¼ĢÎ³Î±": 1294,
      "ĠL": 1295,
      "Ġth": 1296,
      "á½¹Î¼ÎµÎ½Î¿ÏĤ": 1297,
      "á½µÏĥÎµÎ¹": 1298,
      "ĠÎ¿Ïħ": 1299,
      "Î¼á½³Î½Î¿Î¹ÏĤ": 1300,
      "ÏĢÎµÎ¹": 1301,
      "ÎŁ": 1302,
      "ĠR": 1303,
      "ĠÎ³Î»": 1304,
      "ĠÎ¾Î·Ïģ": 1305,
      "ÏĢÎ¿ÏĤ": 1306,
      "Î¿Î¼Î±Î¹": 1307,
      "ĠÎ¶á½½": 1308,
      "á½¹Î¼ÎµÎ½Î±": 1309,
      "Ġá¼ĲÎ½Î±Î½": 1310,
      "Ïģá½·Î¿Ïħ": 1311,
      "Î½ÎµÎ¹Î½": 1312,
      "ĠÏĨá½±ÏģÎ¼Î±": 1313,
      "ĠÎ³á½·Î½ÎµÏĦÎ±Î¹": 1314,
      "Ġá½ĢÎ¾": 1315,
      "ÏģÎ¿ÏĥÎ¸ÎµÎ½": 1316,
      "ÎºÎ»": 1317,
      "Ġá½ĢÏĨÎ¸Î±Î»": 1318,
      "Ġá½ĳÏĢá½²Ïģ": 1319,
      "Ġá¼£Î½": 1320,
      "ĠÏĥÏī": 1321,
      "ĠÏĥá½½Î¼Î±ÏĦÎ¿ÏĤ": 1322,
      "ĠÎ¼Î±Î»": 1323,
      "Ġá¼ģÏĢÎ»": 1324,
      "ĠÎºÎ¿Î¹Î½": 1325,
      "ĠÎ´ÏħÎ½Î±": 1326,
      "á¼´": 1327,
      "Ġá½ĢÎ´": 1328,
      "Ġá¼ĥ": 1329,
      "ĠÎ»á½¹Î³Î¿Î½": 1330,
      "xx": 1331,
      "ĠÎºÎµÎ½": 1332,
      "Ġá¼ķÎºÎ±": 1333,
      "Î¼Î·": 1334,
      "ĠÎ±á½ĲÏĦá½°": 1335,
      "ĠÎ¼á½³ÏģÎ¿ÏĤ": 1336,
      "Î¼á½³Î½Î·ÏĤ": 1337,
      "ĠÏĢÎ»Î·": 1338,
      "ĠHeb": 1339,
      "ĠÎ¿á¼·Î¿Î½": 1340,
      "ÏĦÎ±á½·": 1341,
      "ĠÎºÎ±Îº": 1342,
      "Î¾Î±Î½": 1343,
      "ĠÏĢÎ±Ïĩ": 1344,
      "ĠÏĥÏĨÎ¿": 1345,
      "Î¿á¿¦ÏĥÎ¹Î½": 1346,
      "Ġas": 1347,
      "Ïģá½°": 1348,
      "mg": 1349,
      "Ġá¼ĶÎ¼ÏĢÏģÎ¿ÏĥÎ¸ÎµÎ½": 1350,
      "Ġá¼ĢÎºÏģÎ¹Î²á¿¶ÏĤ": 1351,
      "Ġá¼ĳÎºá½±ÏĥÏĦ": 1352,
      "ut": 1353,
      "ÎµÎ¾á¿ĨÏĤ": 1354,
      "ÎļÎ±á½¶": 1355,
      "ĠÎ¸ÎµÏģÎ±": 1356,
      "ĠÎ»ÏĮ": 1357,
      "Ġ(-": 1358,
      "Ġá½ĢÎ½Î¿Î¼á½±Î¶": 1359,
      "Ġfor": 1360,
      "Î¬Î»": 1361,
      "ĠÏĥÎ±ÏĨ": 1362,
      "an": 1363,
      "ĠÏĦÎ¿Î¹Î¿á½»": 1364,
      "á½±Î»Î¹Î½": 1365,
      "ve": 1366,
      "á½³Î½Î±Î¹": 1367,
      "Îµá½»": 1368,
      "ĠÎµá¼´Î·": 1369,
      "ÏĢÏīÏĤ": 1370,
      "ĠÏĦÎ¿á¿¦ÏĦ": 1371,
      "ĠÎºÎ±ÏĦá½±": 1372,
      "ĠÎ±á½ĲÏĦá¿ĩ": 1373,
      "ÏĥÏĢ": 1374,
      "ĠS": 1375,
      "ĠÎ±á¼·": 1376,
      "ÏĦÎ±á¿¦": 1377,
      "ĠÎ±á¼µ": 1378,
      "ion": 1379,
      "Ġha": 1380,
      "Ġá½ĢÎ½": 1381,
      "ÎµÏģÎ³": 1382,
      "ĠÎ»á½³": 1383,
      "Ġá¼ķÏīÏĤ": 1384,
      "»¿": 1385,
      "Î³Ïĩ": 1386,
      "ĠÎĽ": 1387,
      "á½µÏĥÎµ": 1388,
      "Ġá¼±ÎºÎ±Î½": 1389,
      "áµį": 1390,
      "ĠÎ»á½·": 1391,
      "ĠÏĢÏģá¿¶ÏĦÎ¿Î½": 1392,
      "Î¸Î¿ÏħÏĤ": 1393,
      "ÏģÏī": 1394,
      "Ïģá½³": 1395,
      "ÏģÎ±Î¹": 1396,
      "ĠÏĦÏģÎ¿ÏĨ": 1397,
      "ĠÏĥÏħÎ¼Î²": 1398,
      "ÎºÎ¹": 1399,
      "ĠÎ±á½ĸ": 1400,
      "RE": 1401,
      "ÏħÏģÎ¯Î¿Ïħ": 1402,
      "ĠÎ»ÎµÏĢÏĦ": 1403,
      "ĠÏĢÏĮ": 1404,
      "REV": 1405,
      "ĠÎ½á½¹": 1406,
      "ĠÎ³á¿ĨÏĤ": 1407,
      "Ġ10": 1408,
      "Î»Î¿Î³": 1409,
      "ĠBáµĥ": 1410,
      "ÏĥÎ±ÏĥÎ¸Î±Î¹": 1411,
      "Î²Î¿Î»": 1412,
      "á½µÏĥÎµÎ¹ÏĤ": 1413,
      "vid": 1414,
      "Î¼Î±Î¹": 1415,
      "Î¼Î±ÏĥÎ¹Î½": 1416,
      "ĠÎµá¼°ÏĢ": 1417,
      "ĠÎºá½±ÏĦÏī": 1418,
      "ÏĦá½³ÏģÏīÎ½": 1419,
      "BB": 1420,
      "Ïĥá½·Î±ÏĤ": 1421,
      "Î±Î³": 1422,
      "Î´ÎµÎ»": 1423,
      "BBREV": 1424,
      "Ġ6": 1425,
      "im": 1426,
      "Î¹Î¿Î¹": 1427,
      "á½±Î»Î»": 1428,
      "Î¼ÎµÎ½Î±": 1429,
      "Ġá¼ģÏĢá½±Î½ÏĦÏīÎ½": 1430,
      "Î¯ÏīÎ½": 1431,
      "ĠÏĢÎ¿ÏĦ": 1432,
      "ĠÎµá¼´ÏģÎ·ÏĦÎ±Î¹": 1433,
      "ÏĨÏħ": 1434,
      "ĠÎ¸ÎµÎ¿á¿¦": 1435,
      "ĠÏĢÎ±Î¹": 1436,
      "á½ħÏĦÎ¹": 1437,
      "Î¿Î¯": 1438,
      "Î»Îµá½·": 1439,
      "Ġá½ĳÏĢÎµÏģ": 1440,
      "ĠÎ´Î·": 1441,
      "á¼ĢÎ»Î»á½°": 1442,
      "Ġá¼ĢÎ´": 1443,
      "Îµá¿ĸÎ¿Î½": 1444,
      "Î®Î»": 1445,
      "Î¿Î¼ÎŃÎ½": 1446,
      "ĠÏĦÎ¿á½»ÏĦÎ¿Î¹ÏĤ": 1447,
      "Î¸Î±Î½": 1448,
      "ĠÏĢá½±Î»Î¹Î½": 1449,
      "ĠC": 1450,
      "ĠÏĩÏīÏģ": 1451,
      "ÏģÎ¿ÏĤ": 1452,
      "Ġá¼¡Î¼á¾¶ÏĤ": 1453,
      "ĠÏĩÎµá¿ĸ": 1454,
      "Ġá¼°Î±ÏĦÏģ": 1455,
      "Ġá¼ĲÎ³á½¼": 1456,
      "Ġá¾ĸ": 1457,
      "ĠT": 1458,
      "Î½Î¿Ïħ": 1459,
      "Â°]": 1460,
      "á¿¶Î´ÎµÏĤ": 1461,
      "ĠÎ²Î¿": 1462,
      "ÎĻ": 1463,
      "Ġï»¿": 1464,
      "ÏģÎ¹Î¸": 1465,
      "â¸ĥ": 1466,
      "ĠÏĨÎ»ÎµÎ³": 1467,
      "ĠÏĢÎ¿Î»Î»á½±ÎºÎ¹ÏĤ": 1468,
      "á¼ĲÏĢ": 1469,
      "ĠÏĦÎ¿Î¹Î±á½»": 1470,
      "Î¿ÏĦÎµ": 1471,
      "ĠÏĨÎ»ÎµÎ²": 1472,
      "á½·Î½ÎµÏĥÎ¸Î±Î¹": 1473,
      "Ġá¼°ÏĥÏĩÏħÏģ": 1474,
      "ĠÎļÏįÏģÎ¹Î¿ÏĤ": 1475,
      "Ġ8": 1476,
      "ĠÏĢÎ±ÏģÎµ": 1477,
      "á½»Ïĩ": 1478,
      "ĠÏĥÎ¼": 1479,
      "Ġá¼ĲÏģÎ³": 1480,
      "ÎµÏģá¿¶Î½": 1481,
      "ĠÎ¦": 1482,
      "ĠÎ¼ÎµÎ³á½±Î»": 1483,
      "Îĵ": 1484,
      "ĠÎ´ÏħÎ½á½±Î¼ÎµÏīÏĤ": 1485,
      "Ġá¼ĲÏĨÎµÎ¾á¿ĨÏĤ": 1486,
      "ĠÎµÏĢÎ¹": 1487,
      "á¿ĨÏĥÎ¸Î±Î¹": 1488,
      "ĠâĢĻ": 1489,
      "Ġá¼Ĳá½°Î½": 1490,
      "ĠÏĢÏħÏģ": 1491,
      "ĠI": 1492,
      "Ġ?": 1493,
      "á½·Î½ÎµÎ¹": 1494,
      "ÏĢÏī": 1495,
      "ĠÏĢÎ±Î»": 1496,
      "Î¼á½³Î½Î±": 1497,
      "ĠÏĢÏģÎ±": 1498,
      "Î³ÏģÎ±Î¼": 1499,
      "Ġá½ħÏĥÎ¿Î½": 1500,
      "ĠABBREV": 1501,
      "ĠÏĩÎµÎ¹": 1502,
      "us": 1503,
      "ĠÎµá½ĲÎ¸": 1504,
      "Î¯á¾³": 1505,
      "Ġá½ķÎ´Î±": 1506,
      "ĠÎ³Ïģá½±": 1507,
      "ĠÏĨÏīÎ½": 1508,
      "Ġá½¥ÏĥÏĦÎµ": 1509,
      "Î¿Î¹ÏĦÎ¿": 1510,
      "Î´ÏģÎ±": 1511,
      "ĠÎºÎ±ÏĦÎµ": 1512,
      "Î¿á½ķ": 1513,
      "Ġá¼ĳÎºÎ±": 1514,
      "ĠÎ³á½±Ïģ": 1515,
      "ÏĢÏīÎ½": 1516,
      "ĠÎ¸Ïħ": 1517,
      "ÏĪÎµÎ½": 1518,
      "ĠÎ³á½·Î³": 1519,
      "Î´ÏīÎ½": 1520,
      "ĠÏĢÎ½Îµá½»": 1521,
      "ÏģÎ¬": 1522,
      "Î·ÏĦ": 1523,
      "ĠÎ²Î¿Ïħ": 1524,
      "ÏĦÎµÏģÎ¿ÏĤ": 1525,
      "Î½ÎµÏħ": 1526,
      "Î¼Î¬": 1527,
      "ĠÏĨÎ»ÎµÎ³Î¼Î¿Î½": 1528,
      "ĠÏĥÏĨÏħÎ³Î¼": 1529,
      "ĠD": 1530,
      "áµĲ": 1531,
      "Ġá¼ĢÎ»": 1532,
      "ĠÎ³ÎµÎ½á½³": 1533,
      "ĠÎ¼á½µÏĦÎµ": 1534,
      "hat": 1535,
      "ĠÎ³Î¿á¿¦Î½": 1536,
      "ÏĥÎºÎµÏħ": 1537,
      "AQ": 1538,
      "ÏĥÎ¿Î¹": 1539,
      "ĠÏĩÎ¿Î»": 1540,
      "ĠÎ¼Î±Îº": 1541,
      "Î³Ïī": 1542,
      "ĠÎ±ÏħÏĦÎ¿Ïħ": 1543,
      "Ġh": 1544,
      "ĠÎºÏģá½·": 1545,
      "ÏģÎ¸": 1546,
      "Ġá½ģÎ´": 1547,
      "Î³Î½Ïī": 1548,
      "ĠÏĩÎµÎ¹Ïģ": 1549,
      "Ġá¼µÎ½Î±": 1550,
      "ĠÎĿ": 1551,
      "ĠÎ´á½»Î½Î±Î¼Î¹Î½": 1552,
      "ĠÏĩÎ±Î»": 1553,
      "Ġá¼ĲÎ½á½·": 1554,
      "ÏģÎ¹ÏĥÏĦ": 1555,
      "Ġá¼ĦÎ½Ïī": 1556,
      "âĻ": 1557,
      "ĠÎ´ÏħÏĥ": 1558,
      "Î¿á½»ÏĥÎ·ÏĤ": 1559,
      "âĻĥ": 1560,
      "Î¾Îµ": 1561,
      "ĠÏĦÎ¿Ïį": 1562,
      "ĠÏĥÎ¹": 1563,
      "Ġá¼ģÎ¼Î±Ïģ": 1564,
      "ith": 1565,
      "ÏĩÎ¸Î·": 1566,
      "Î±ÏģÎº": 1567,
      "Î¼Î¼Îµ": 1568,
      "ĠÏĢÎ¿Î»á½º": 1569,
      "ÏĥÏĦÎµÏģÎ¿Î½": 1570,
      "ĠÎ£Î±": 1571,
      "ÏĩÎµÎ¹": 1572,
      "Ġá½ĢÏģÎ³": 1573,
      "ĠÎ¼á½³Î½ÏĦÎ¿Î¹": 1574,
      "ÏĢÎ±Ïģ": 1575,
      "Î¼á½³": 1576,
      "ĠÎ±á¼´": 1577,
      "ĠÎ¿á¼·ÏĤ": 1578,
      "ÏĦá½¶": 1579,
      "ĠÎ´Î¹Î±Î¸á½³": 1580,
      "ÎµÎ¯": 1581,
      "ĠÎ´á½³Ïģ": 1582,
      "ĠÏĦÎ¿Ïĥ": 1583,
      "ĠÏĨÎ±ÏģÎ¼á½±ÎºÏīÎ½": 1584,
      "á½·Î½ÎµÎ¹Î½": 1585,
      "Î±ÏģÎ³": 1586,
      "Ġá¼ĲÎ»Î±": 1587,
      "ab": 1588,
      "ĠÎ³ÏħÎ¼": 1589,
      "áµĲáµį": 1590,
      "ĠÎºÎ±á½·": 1591,
      "á½´ÏĤ": 1592,
      "ÎºÎ±Î»": 1593,
      "Ġsha": 1594,
      "ĠÏĢÏģá½¸": 1595,
      "á½½Î½": 1596,
      "Î®Î½": 1597,
      "Ġá¼ķÏĦÎµÏģÎ¿Î½": 1598,
      "ÏĦÏģÎ¹": 1599,
      "ÏĥÏĦÎ¹Îº": 1600,
      "ĠÎ²Î¹Î²": 1601,
      "Î®ÏĥÎµÏĦÎ±Î¹": 1602,
      "ĠÎºÎ¿Î¹Î»": 1603,
      "ord": 1604,
      "Ġâ¸Ĥ": 1605,
      "Î¸Î¹": 1606,
      "Ïĥá½·Î±Î½": 1607,
      "Î¿Ïĩ": 1608,
      "Î¼á½³Î½Î·Î½": 1609,
      "Ġá½ħÏĢÏīÏĤ": 1610,
      "Ġá¼ĢÎ¼ÏĨ": 1611,
      "Ġá¾§": 1612,
      "Ġá¼ĢÎ½Î±Î³ÎºÎ±": 1613,
      "ĠÎ»Î¿Î³": 1614,
      "ĠÎ¼Î·Î´á½²Î½": 1615,
      "ĠÎļÏħ": 1616,
      "ĠÏ²": 1617,
      "Î»Î¿ÏĤ": 1618,
      "Ġá¼ĢÎ³Î³": 1619,
      "Ġá¼ĢÎ½ÏĦÎ¹": 1620,
      "Ġ??": 1621,
      "Ġá¼ĶÏĥÏĦÎ¹Î½": 1622,
      "ĠÎ±á¼·Î¼Î±": 1623,
      "ĠÎ±á¼°ÏĦ": 1624,
      "ro": 1625,
      "Î½Î¿Î¼Î±": 1626,
      "Î³Î¹": 1627,
      "Ġá¼ĲÎ½ÎµÏģÎ³": 1628,
      "ĠÏĦÎ¿á½»ÏĦÎ¿Ïħ": 1629,
      "al": 1630,
      "ĠÎ´á½·": 1631,
      "ĠÎ¼Î¹": 1632,
      "Î¿ÏħÏĥÎ±": 1633,
      "Î½ÎµÏĥÎ¸Î±Î¹": 1634,
      "Î´Î±ÏĤ": 1635,
      "ĠÏĦÎ¿Î¹Î±á¿¦ÏĦÎ±": 1636,
      "á½¹ÏĦÎ·ÏĦÎ±": 1637,
      "ĠÏĦÎ·Î½": 1638,
      "á½µÎ¼Î±ÏĦÎ±": 1639,
      "á½½ÏģÎ±": 1640,
      "ÏĥÎ±ÏĦÎ¿": 1641,
      "ĠÎµÎº": 1642,
      "ĠÎ´Î¹Î±ÏĨÎ¿Ïģ": 1643,
      "Ġit": 1644,
      "ÏĦá½¹Î½": 1645,
      "ÏĨá½»": 1646,
      "ĠÎ¸Îµá½¸ÏĤ": 1647,
      "á½´Ïģ": 1648,
      "Ġ9": 1649,
      "ĠÎ¼Î¿Ïģá½·ÏīÎ½": 1650,
      "ÎºÏĦÎ±Î¹": 1651,
      "ĠÏĢÎ¿ÏĦÎµ": 1652,
      "ĠÎ¼Î±Î»Î±Îº": 1653,
      "ÏģÎµá½»": 1654,
      "á½½ÏĥÎº": 1655,
      "Î²Î·": 1656,
      "ÏĦÎ±á¿¦Î¸Î±": 1657,
      "ĠÏĢÎ»á½³Î¿Î½": 1658,
      "ĠÏĥÏĦá½¹": 1659,
      "Ġá¼ĲÏĢÎµÎ¹Î´": 1660,
      "ÏįÎ½": 1661,
      "ĠQmg": 1662,
      "Î¿Î¾": 1663,
      "Ġá¼ĢÎ»Î»á½µÎ»": 1664,
      "Ġá¼¡Î¼ÎŃ": 1665,
      "ĠÏĦÎ¿á¿ĸ": 1666,
      "á¿ĸÎ¿Î½": 1667,
      "ce": 1668,
      "hab": 1669,
      "Ġá¼ĢÎ³Î±Î¸": 1670,
      "Ġá¼ĦÎ»Î»Î±": 1671,
      "ÏĦá½³ÏģÎ±ÏĤ": 1672,
      "ĠÏĦÏģá½¹ÏĢÎ¿Î½": 1673,
      "ĠÎµá½Ķ": 1674,
      "á¿¦Î¼Î±": 1675,
      "ĠÏĩÏīÏģá½¶ÏĤ": 1676,
      "Ġá¼ĶÏĩÎµÎ¹Î½": 1677,
      "ĠÎºá½¹": 1678,
      "ĠÎ¸ÏħÎ¼": 1679,
      "Î¾ÎµÎ½": 1680,
      "Î¿Î¼á½³Î½Î·ÏĤ": 1681,
      "ÎµÎ¹Î»": 1682,
      "ĠÎ±Î½": 1683,
      "ĠÎµá¼°Ïģ": 1684,
      "ÎµÏĥ": 1685,
      "ÎµÎº": 1686,
      "Î»Ïħ": 1687,
      "Ġá¼ĶÏĨ": 1688,
      "ĠBáµĥáµĩ": 1689,
      "em": 1690,
      "ĠÎ»Î¹": 1691,
      "ĠÎ´Î±Îº": 1692,
      "ÎºÎµá¿ĸ": 1693,
      "Îºá½³": 1694,
      "ĠÏĦÎ¿Î¹Î¿á¿¦ÏĦÎ¿Î½": 1695,
      "Î»Î¸ÎµÎ½": 1696,
      "Î¿Î½ÏĦÎ±ÏĤ": 1697,
      "Î³ÏīÎ½": 1698,
      "Î»Î»Î±": 1699,
      "Î¼Î¿á½¶": 1700,
      "ii": 1701,
      "ÏĦÏģá½·": 1702,
      "ĠÎ³Î¹Î³Î½": 1703,
      "á½¥": 1704,
      "á¼ĺ": 1705,
      "ĠÎ»á½¹Î³á¿³": 1706,
      "ÏĥÎ·": 1707,
      "Ġá¼ķÎºÎ±ÏĥÏĦÎ¿Î½": 1708,
      "Î»Î¹Îº": 1709,
      "ÏĦá½³ÏģÎ±Î½": 1710,
      "Î±Î½Î±": 1711,
      "ĠÎ´Î¹Î´": 1712,
      "ÏģÎ¼": 1713,
      "ĠÎºá¾ĢÎ½": 1714,
      "Ġá¼ĢÎ½Î¸Ïģá½½": 1715,
      "á½½Î´Î·": 1716,
      "ĠÏĩÎ¹": 1717,
      "ĠÏĦÎŃ": 1718,
      "ÏĦÎ¬": 1719,
      "ĠÏĨá½±ÏģÎ¼Î±ÎºÎ¿Î½": 1720,
      "ĠÎľÏī": 1721,
      "ĠÎ³á¿ĨÎ½": 1722,
      "á½·Î½ÏħÎ½": 1723,
      "ĠE": 1724,
      "ÏĦÎ¹Î¿Î½": 1725,
      "ĠÏĢá½±Î½ÏĦÏīÎ½": 1726,
      "ĠÏĦÎ¿á½·Î½ÏħÎ½": 1727,
      "ĠÎ´ÎµÏħÏĦ": 1728,
      "Ġá¼ĵ": 1729,
      "Ġá¼ĲÎ³á½³Î½": 1730,
      "ĠÏĢÎ»Îµá½·": 1731,
      "Ġshall": 1732,
      "Ġá¼ĢÎ´ÎµÎ»": 1733,
      "Ġá½ħÎ»ÏīÏĤ": 1734,
      "il": 1735,
      "ĠÏĢÎ±Î½ÏĦá½¸ÏĤ": 1736,
      "ĠÏĦÎµÎ»Îµ": 1737,
      "ĠÎºá½·Î½": 1738,
      "ÎºÏģÎ±": 1739,
      "Ġá½ĥÎ½": 1740,
      "ÏĩÎ½": 1741,
      "Ġá¼ĢÏĥ": 1742,
      "ĠÎ³ÏħÎ½": 1743,
      "ĠÏĢÎ¿ÏĦá½²": 1744,
      "ĠÏĢÎ±Î»Î±Î¹": 1745,
      "ĠÎ´Ïį": 1746,
      "Ġá¼ĲÎºÎµá¿ĸ": 1747,
      "ers": 1748,
      "th": 1749,
      "ĠÏĦÎ¿á½»ÏĦá¿³": 1750,
      "Ġá½ģÎ¼Î¿á½·ÏīÏĤ": 1751,
      "ÏħÏĨ": 1752,
      "ĠÏĢá¾¶Î½": 1753,
      "cr": 1754,
      "ÏĥÎ¿Ïħ": 1755,
      "Ġá¼ĦÎ»Î»Î¿": 1756,
      "Î¼Î¿á½ºÏĤ": 1757,
      "á½¼ÏĤ": 1758,
      "ĠÎ¿Î¹": 1759,
      "ĠÏĦÎ±Ïĩ": 1760,
      "Î¿Î¼á½³Î½Î¿Ïħ": 1761,
      "Î»Îµá½»": 1762,
      "Ġá¼¸ÏĥÏģÎ±á½´Î»": 1763,
      "Î´á½¹": 1764,
      "ĠÏĦÎµÏĦ": 1765,
      "Î»Î¿": 1766,
      "Ġnot": 1767,
      "Î·Îº": 1768,
      "ĠÏĢÎ»Îµá¿ĸ": 1769,
      "Ġá¼ĳÏĦá½³Ïģ": 1770,
      "Îµá½·ÏīÎ½": 1771,
      "Ġá¼ĲÎ¾Îµ": 1772,
      "Ġ14": 1773,
      "Î´Î¹á½°": 1774,
      "ĠÏĥá½»Î¼ÏĢ": 1775,
      ")]": 1776,
      "Î¿á¼±": 1777,
      "Ġhe": 1778,
      "Ġg": 1779,
      "ĠÏĥÏĢÎ»": 1780,
      "Ġthat": 1781,
      "ÏĦÎµÎ»": 1782,
      "ĠÏĢÎ»á¿Ĩ": 1783,
      "ÏĦÎ¹Îºá½¸Î½": 1784,
      "ad": 1785,
      "Î¿Î²": 1786,
      "Ġá¼ĶÏģ": 1787,
      "Ġá¼±ÎµÏģ": 1788,
      "Î´ÏīÏģ": 1789,
      "Î¿á¿ĸÎ½": 1790,
      "ĠÏĨÎ±á½·Î½ÎµÏĦÎ±Î¹": 1791,
      "Ġ7": 1792,
      "ÏĩÎ±": 1793,
      "Îµá¿ĸÎ±": 1794,
      "Ġá¼ĶÎ¾ÏīÎ¸ÎµÎ½": 1795,
      "ÏĥÎ¸Ïī": 1796,
      "ĠÎ½Î¿Î¼": 1797,
      "Îµá½·Î±Î½": 1798,
      ",âĢĻ": 1799,
      "ĠÏĥá½ºÎ½": 1800,
      "ĠÏĦá¿Ĩ": 1801,
      "Ġ11": 1802,
      "Ġá¼ĢÎ½á½°": 1803,
      "ÏĩÎµ": 1804,
      "á¼¶": 1805,
      "Î±Î½Î¸": 1806,
      "ÏħÎ½Î±": 1807,
      "ĠÎ´á½¹": 1808,
      "Ġal": 1809,
      "Ġá¼¸ÎµÏģ": 1810,
      "Ġá½ĳÎ¼á¿ĸÎ½": 1811,
      "á½µÎ¼": 1812,
      "ÏĦá½»Î»": 1813,
      "á½»Ïģ": 1814,
      "ĠÏĥÏħÎ½Î±": 1815,
      "Ġá¼ĳÎ½": 1816,
      "Ġá¼ĢÏĢá½¹": 1817,
      "ĠÏĢÏħÎº": 1818,
      "á½ĳ": 1819,
      "á½½ÏĥÎµÏīÏĤ": 1820,
      "ÏĪÎµ": 1821,
      "ĠÏĥÎ·Î¼": 1822,
      "á¼ĢÎ½": 1823,
      "ÏĩÏīÏģ": 1824,
      "Ġ2âģ°": 1825,
      "ÏĩÏģ": 1826,
      "ĠÎ±ÏĢÎ¿": 1827,
      "ÏħÏĥÎµÎ½": 1828,
      "Î´Î¿á½º": 1829,
      "Ġá½ħÎ»Î¿Î½": 1830,
      "Î¾ÎµÏīÏĤ": 1831,
      "ÏĥÎ¸Î±á½·": 1832,
      "ĠÎ¼ÎµÎ¸": 1833,
      "Ġse": 1834,
      "ĠÏĦÎ¿Î½": 1835,
      "Îķ": 1836,
      "á½¹ÏĦÎ±": 1837,
      "ÎºÎ¿Î½ÏĦÎ±": 1838,
      "Ġá¼ĶÎ³ÏģÎ±": 1839,
      "Î¸ÏħÎ¼": 1840,
      "á½¹ÏĦÎµÏģÎ¿Î½": 1841,
      "Ġá¼ĶÎº": 1842,
      "ĠÎ´Î¹Î±ÏĥÏĦ": 1843,
      "Ġver": 1844,
      "ĠÎ¿á½ĹÏĦÎ¿ÏĤ": 1845,
      "ÎºÎ±ÏĦÎ±": 1846,
      "Î»Î±Î¼Î²": 1847,
      "ĠÎ»ÎµÏħÎº": 1848,
      "ÏĦá½¹ÏĤ": 1849,
      "Î»Î¿Î¹": 1850,
      "ent": 1851,
      "ĠÎļÏħÏģÎ¯Î¿Ïħ": 1852,
      "Ġwith": 1853,
      "Î¿á¿¦Î½ÏĦÎµÏĤ": 1854,
      "ĠÎ±á¼µÎ¼Î±ÏĦÎ¿ÏĤ": 1855,
      "ĠÏĥÏħÎ½ÎµÏĩ": 1856,
      "ÏģÎ±ÏĨ": 1857,
      "ĠÎ´ÎŃ": 1858,
      "Î¯Î¶": 1859,
      "ĠÎ²Î»á½±": 1860,
      "á¿ĨÎ¼Î±": 1861,
      "Ġá¼ĲÎºÎµá¿ĸÎ½": 1862,
      "ÏĢÎµÎ¹Î½": 1863,
      "ĠÎºÏį": 1864,
      "ÏģÎµÏħ": 1865,
      "ÎĿ": 1866,
      "ÎµÏĥÏĦ": 1867,
      "ĠÎ¸á½½ÏģÎ±": 1868,
      "Î¼á½³Î½Î·": 1869,
      "Î½ÏĦÏīÎ½": 1870,
      "?)": 1871,
      "Ġá¼§ÏĦÏĦÎ¿Î½": 1872,
      "ķÏĦÎ·": 1873,
      "Ġá¼ķÎ»Îº": 1874,
      "Ġá¼ĢÏģÏĩá½´Î½": 1875,
      "ĠÎ¼Ïħá¿¶Î½": 1876,
      "ay": 1877,
      "Î»Ïī": 1878,
      "Ġá½ĢÎ»á½·Î³Î¿Î½": 1879,
      "Î¾Î±Î¹": 1880,
      "ÏĥÎ±ÏĦÎµ": 1881,
      "ĠÏĢÎ¿Î»Î»á½°": 1882,
      "ĠÏĢÏģá½¹ÏĥÎ¸ÎµÎ½": 1883,
      "Î¬Î¶": 1884,
      "ĠÎ¸ÎµÏģÎ±ÏĢÎµ": 1885,
      "Î»á½»": 1886,
      "ÏģÎµÏĤ": 1887,
      "Ġá¼ĶÎ¸": 1888,
      "ÏĦÎ¹Î½": 1889,
      "ĠÎ»á½¹Î³Î¿ÏĤ": 1890,
      "ÏĩÎ¿ÏĤ": 1891,
      "ÎµÏģá½¶": 1892,
      "Î¸ÎµÏĥÎ¹Î½": 1893,
      "Ġá¼°Î´": 1894,
      "ĠÏĦÎ¹Î½Î¿ÏĤ": 1895,
      "ĠÏĥÏĢá½³Ïģ": 1896,
      "ĠÎ»ÏĮÎ³": 1897,
      "Î¼Î¿ÏĤ": 1898,
      "ĠÎ¸ÎµÏģÎ¼á½¸Î½": 1899,
      "ĠÎĶÎ±Ïħ": 1900,
      "Î»Î¯": 1901,
      "ÏĦÏħ": 1902,
      "ĠÎĺ": 1903,
      "Ġá½ħÏĢÎµÏģ": 1904,
      "ĠÎ»ÎµÏĢ": 1905,
      "Ġá¼ĲÎ½á½·Î¿ÏĦÎµ": 1906,
      "ÏĥÎµÏīÎ½": 1907,
      "âĦ": 1908,
      "âĦµ": 1909,
      "ĠÎ»Î¿Î¹": 1910,
      "ĠÎŁ": 1911,
      "Î¿á¿¤á¿¥": 1912,
      "ĠÏĢÎ»á¿ĨÎ¸Î¿ÏĤ": 1913,
      "gh": 1914,
      "ĠÏħá¼±Î¿á½¶": 1915,
      "ĠÏĨá½»ÏĥÎµÏīÏĤ": 1916,
      "ÏĪÎ±Î½": 1917,
      "ÎºÎ±ÏĦá½°": 1918,
      "Î¸á½³Î½": 1919,
      "ĠÏĢÏģÏĮ": 1920,
      "ĠÎ³ÎµÎ³ÏģÎ±Î¼": 1921,
      "Î¼ÎµÎ¹Î½": 1922,
      "á½³Î»": 1923,
      "Î¿á¿¦ÏĥÎ¹": 1924,
      "ĠÎ±á¼°ÏĥÎ¸": 1925,
      "ĠÏĢÏģÎ¿ÏĥÎµ": 1926,
      "á½·Î½Î¿Î½ÏĦÎ±Î¹": 1927,
      "Ġ13": 1928,
      "Ġá½łÏĨ": 1929,
      "á½Ģ": 1930,
      "Ġá¼ķÎ½Îµ": 1931,
      "Î¿Î¼á½³Î½Î·": 1932,
      "ÏĦÎµÎ¹": 1933,
      "Î±Ïĥ": 1934,
      "Ġá½ĳÏĢá½±ÏģÏĩÎµÎ¹Î½": 1935,
      "ĠÏĦÎ¹Î½á½°": 1936,
      "ĠÎ²á½±": 1937,
      "ĠÎµá¼´ÏĦÎµ": 1938,
      "the": 1939,
      "Ġá¼ĲÎ½Î±Î½ÏĦá½·": 1940,
      "Î¸Î¹ÏĤ": 1941,
      "Ġá¼ĢÏģÏĩá¿ĨÏĤ": 1942,
      "ĠÏĥÎ¼Î¹Îº": 1943,
      "ĠÎ´á½µ": 1944,
      "ÏĪÎ±": 1945,
      "ĠÏĦÏī": 1946,
      "Ġá¼ĲÎ¼ÏĨ": 1947,
      "ÏĦÎ¿á½»": 1948,
      "Ġá¼ĢÎµá½¶": 1949,
      "ÎºÎ·ÏĤ": 1950,
      "á½µÎ¼Î±ÏĦÎ¿ÏĤ": 1951,
      "ĠÏĥÎ±ÏģÎº": 1952,
      "and": 1953,
      "Î¸Îµá¿ĸÎ½": 1954,
      "ÏĨÎµÏģ": 1955,
      "Ġá¼ĲÎ¾Î·Î³": 1956,
      "ĠÎ´ÏģÎ¹": 1957,
      "Î¼Î±ÏĥÎ¹": 1958,
      "ĠÎ¿á½ĶÏĦ": 1959,
      "ĠÏĢÎ¬Î½ÏĦÎ±": 1960,
      "ĠÎ¼á½¹ÏģÎ¹Î±": 1961,
      "ĠÎ¿á½ĲÎ´Îµ": 1962,
      "Î¼á½°ÏĤ": 1963,
      "Ġá¼ĢÏģÏĦÎ·Ïģá½·Î±ÏĤ": 1964,
      "le": 1965,
      "Ġá¼ĵÎ½": 1966,
      "ĠÎ¼á½³ÏĩÏģÎ¹": 1967,
      "á½¡": 1968,
      "ĠÏĨÎ¸": 1969,
      "ĠÎ¸Î±Ïħ": 1970,
      "Ġá½ķÎ´ÏīÏģ": 1971,
      "Ïģá¿·": 1972,
      "Ġá¼¡Î¼á½³ÏģÎ±ÏĤ": 1973,
      "ĠÎ¼á½µÏĦ": 1974,
      "ĠÎ¾Î·ÏģÎ±": 1975,
      "Â¹": 1976,
      "ĠÎ³ÎµÎ½á½³ÏĥÎ¸Î±Î¹": 1977,
      "ÏĨÏħÎº": 1978,
      "Ġ12": 1979,
      "ÏĪÎµÎ¹": 1980,
      "ur": 1981,
      "Ġá¼ĢÎ¾Î¹": 1982,
      "ĠÏĥÎ¿ÏĨ": 1983,
      "Ġá¼ħÏĢÎ±Î½ÏĦÎ±": 1984,
      "ÏĢá½¹": 1985,
      "á¿¶ÏĥÎ¹Î½": 1986,
      "ÏĨÎ±Î½": 1987,
      "ĠÎ²Î±ÏĥÎ¹Î»ÎŃ": 1988,
      "Î¼á½¸Î½": 1989,
      "ĠâĦµ": 1990,
      "ÏĢÎ»Î±": 1991,
      "ÎłÎµÏģá½¶": 1992,
      "ĠÎ´Îµá¿ĸ": 1993,
      "ÏĨá½±Î»": 1994,
      "Î¼Î±Î¶": 1995,
      "Î¼á½³Î½Î¿ÏħÏĤ": 1996,
      "Ġá¼ĢÎ½á½±Î³": 1997,
      "ĠÎ´Î·Î»Î¿Î½": 1998,
      "Î£": 1999,
      "Ġá¼¹ÏĢÏĢÎ¿ÎºÏģá½±ÏĦÎ·ÏĤ": 2000,
      "ĠÎºÎ±Î»á¿¶ÏĤ": 2001,
      "Ġá½ĢÏģÎ¸": 2002,
      "âĢĻ,": 2003,
      "ĠÎ²Î¹Î²Î»á½·": 2004,
      "ĠÏĢÏħÎºÎ½": 2005,
      "ÏĦÎ¹Îºá¿ĨÏĤ": 2006,
      "á½·á¾³": 2007,
      "ÎºÎ±ÏĤ": 2008,
      "ÏĥÎ¿ÏħÏĥÎ¹Î½": 2009,
      "á½µÏĥÎ¹": 2010,
      "Ġá¼¸Î·Ïĥ": 2011,
      "Ġá½ĳÎ¼á¾¶ÏĤ": 2012,
      "ow": 2013,
      "Î²Î±Î»": 2014,
      "Ġá¼ĲÏĢÎµ": 2015,
      "Ġá¼ĳÎ»Îº": 2016,
      "ÏĢá½³": 2017,
      "Ïĥá¿³": 2018,
      "Ġá¼ĳÎ¾": 2019,
      "ĠÏĩÏģÎ·": 2020,
      "á½¹Î¼ÎµÎ½Î¿Î¹": 2021,
      "ĠÎµÎ¹ÏĤ": 2022,
      "Î¿Î»Î¿Î³": 2023,
      "ĠÎ´Î·Î»": 2024,
      "Î¸Î·ÏĥÎ±Î½": 2025,
      "Ġá¼ĲÏĢÎ¹Îº": 2026,
      "ĠÎ±á½ĸÎ¸Î¹ÏĤ": 2027,
      "Î³Îº": 2028,
      "Î¹ÏĥÏĦ": 2029,
      "Ġ15": 2030,
      "Ġá¼ģÏĢÎ»á¿¶ÏĤ": 2031,
      "Î²á½±Î»Î»": 2032,
      "...": 2033,
      "ÏģÎ¿Ïĥ": 2034,
      "ĠÎĳá¼°": 2035,
      "Ġá½ĦÎ½Î¿Î¼Î±": 2036,
      "ÏĨÏīÎ½": 2037,
      "Ġá½ĳÏĪ": 2038,
      "ÏĦá½´Î½": 2039,
      "á¼¢": 2040,
      "á½³ÏīÎ½": 2041,
      "Ġá¼ĲÏģÎ³á½±Î¶": 2042,
      "nt": 2043,
      "Î±á½Ĳ": 2044,
      "ĠÏĢÏģÎ¿ÎµÎ¹": 2045,
      "ĠÏĦÎ¯": 2046,
      "ĠÎ³ÎµÎ½Î½": 2047,
      "Ġá¼ĢÎ½Î¸ÏģÏİ": 2048,
      "á½³Î±": 2049,
      "Ġ16": 2050,
      "ÎºÎ½Ïħ": 2051,
      "Ġá¼ĲÎ¼Î²": 2052,
      "ĠÎµá¼°ÏĢÎµá¿ĸÎ½": 2053,
      "ÏĦá½¹": 2054,
      "Ġá¼ĢÎ½Îµ": 2055,
      "ĠÎ³Î¿": 2056,
      "Ġ1âģ°": 2057,
      "Î®Î¼": 2058,
      "Ġ22": 2059,
      "Î¿Î¼á½³Î½Î¿Î¹ÏĤ": 2060,
      "ĠÎ½Îµá½»": 2061,
      "ĠÏĥÎ±ÏĨá¿¶ÏĤ": 2062,
      "á¿ĥÏĤ": 2063,
      "as": 2064,
      "ÏĦÏĦÎµÎ¹Î½": 2065,
      "ĠÏĦÎ¿á¿¦ÏĦÎ¿Î½": 2066,
      "ÏģÎµÎ¹": 2067,
      "Ġá½¦": 2068,
      "Î¹Î³": 2069,
      "ÏĥÎ¿Î¼Î±Î¹": 2070,
      "á¿¤á¿¥Ïī": 2071,
      "Î¿ÏħÏĥÎ±Î»": 2072,
      "Î¯á¿³": 2073,
      "Ġor": 2074,
      "ĠÎ»ÎµÎ³": 2075,
      "ĠÏĢÎ½Îµá¿¦Î¼Î±": 2076,
      "ĠÎµá½ĳÏģ": 2077,
      "Ġá¼¸Ïī": 2078,
      "ĠÏĢÎ¬": 2079,
      "Ġá¼ĲÎ³á½³Î½ÎµÏĦÎ¿": 2080,
      "ĠÏĩÎ±": 2081,
      "ÏĪÎ±Î¹": 2082,
      "Ġá¼ĲÎ½Î±ÏģÎ³": 2083,
      "Î»Î±Î¹": 2084,
      "Ġá¼ĢÎ¸": 2085,
      "ct": 2086,
      "Ġá¼ĲÏĢÎ±": 2087,
      "ĠÎ»á½·ÏĦ": 2088,
      "ÏĦÎ®": 2089,
      "ĠÏĥÏĨÎ¿Î´Ïģ": 2090,
      "Î·Î¼á½±ÏĦÏīÎ½": 2091,
      "Î³á½¼": 2092,
      "á½»ÎµÎ¹Î½": 2093,
      "ÏģÎ±Î¼": 2094,
      "Ġá¼¢Î½": 2095,
      "ÏĬ": 2096,
      "ĠÏĢÎ¿Î½": 2097,
      "á½Ķ": 2098,
      "ĠÎ´á¿Ĩ": 2099,
      "ĠÏĨÎ»á½³": 2100,
      "ÏģÎ¹Îµ": 2101,
      "Î´Î¹Îº": 2102,
      "Ġ17": 2103,
      "á½¹ÏĦÎ·ÏĦÎ¿ÏĤ": 2104,
      "ĠÎµá¼°ÏģÎ·Î¼á½³Î½ÏīÎ½": 2105,
      "ĠÎºÏģÎ±": 2106,
      "Ġá¼ĦÏģÏĩ": 2107,
      ".,": 2108,
      "ÏĥÎ¼Î±": 2109,
      "rom": 2110,
      "ĠÎºÏī": 2111,
      "ĠÏĦÏīÎ½": 2112,
      "ÎºÎ±Î¸": 2113,
      "Ġá¼ĦÏĩÏģÎ¹": 2114,
      "Ġ19": 2115,
      "Ġá¼ĢÏĥÎ¸ÎµÎ½": 2116,
      "Î¿á½ķÏĦÏī": 2117,
      "ÏĥÏĦÏģÎµ": 2118,
      "ÏĦÎ·ÏģÎ¹": 2119,
      "ĠÏĩÏħÎ¼á¿¶Î½": 2120,
      "Ïģá½¹Î½": 2121,
      "ÏĥÎ±á½»": 2122,
      "ĠÎ¶á¿¶": 2123,
      "ĠÏĦÎ±á½»ÏĦÎ·Î½": 2124,
      "ÏĢÏĦÎ¿Ïħ": 2125,
      "á½»ÏĦÎµÏģÎ¿Î½": 2126,
      "ÏĦÎ±Î¹ÏĤ": 2127,
      "ĠÎºÎ·Ïģ": 2128,
      "ĠÎ´Î¹Îµ": 2129,
      "Ġá¿": 2130,
      "ĠÏĦá½³Ïĩ": 2131,
      "Î¼ÏīÏĤ": 2132,
      "á½½Î´Î·ÏĤ": 2133,
      "Ġá¼ĶÎ½Î¹Î¿Î¹": 2134,
      "ĠÎºÎµÏĨÎ±Î»á¿ĨÏĤ": 2135,
      "Ġá¼±ÎºÎ±Î½á¿¶ÏĤ": 2136,
      "ĠÏĢÎ»Î±": 2137,
      "Ġá½ĳÏĢá½¹": 2138,
      "Î»ÏīÎ½": 2139,
      "ÏģÎ¹Îº": 2140,
      "ĠG": 2141,
      "ÏģÎ¿ÏħÏĤ": 2142,
      "ÎºÎ±á½·": 2143,
      "ĠÎºÎµÏĨÎ±Î»á½´Î½": 2144,
      "Ïģá½¹ÏĦÎ·ÏĦÎ±": 2145,
      "ÏĩÎ¿Î½": 2146,
      "Ġwh": 2147,
      "á½¹Î¼ÎµÎ¸Î±": 2148,
      "ĠÎ´Î·Î»Î¿Î½á½¹ÏĦÎ¹": 2149,
      "ÎµÏĦÎµ": 2150,
      "ÏĢÏĦÎµ": 2151,
      "ĠÏĩÏħÎ»": 2152,
      "á½·Î½Î¿Ïħ": 2153,
      "Î¿á¿¦Î½ÏĦÎ±Î¹": 2154,
      "Î´Î·Î»Î¿Î½": 2155,
      "ĠÎ²Î±ÏĥÎ¹Î»Îµá½ºÏĤ": 2156,
      "ĠÏĦÎ¿ÏĥÎ¿á¿¦ÏĦÎ¿Î½": 2157,
      "ĠÏĢÎ±ÏģÎ¿Î¾": 2158,
      "á¼ĶÏĥÏĦÎ¹": 2159,
      "Ġá¼ĦÎ»Î»Î¿Î¹ÏĤ": 2160,
      "Î»á½³ÏīÏĤ": 2161,
      "id": 2162,
      "ĠÏĨÎ¹Î»": 2163,
      "ĠÏĢÏģá½¹ÏĦÎµÏģÎ¿Î½": 2164,
      "ĠÎ¼Î·Î´á½²": 2165,
      "ĠÏĨÏħÎ»á½±": 2166,
      "ÏĥÏħ": 2167,
      "ĠÎ½Îµá¿¦": 2168,
      "ÏĦÎ±á¿ĸÏĤ": 2169,
      "Î¿á½»ÏĤ": 2170,
      "á¾¶ÏĥÎ¸Î±Î¹": 2171,
      "Ġá¼ĢÏĢá½³": 2172,
      "ĠÎºÏģá½±": 2173,
      "ĠÎºÏģÎ¹": 2174,
      "ÏģÎ¿á½ºÏĤ": 2175,
      "Î¿á½»Î¼ÎµÎ½Î¿Î½": 2176,
      "ĠÎ¿á½ĲÏģÎ±Î½": 2177,
      "ÏĢá¿³": 2178,
      "ÏĪÎµÏīÏĤ": 2179,
      "ÎºÎ¬": 2180,
      "ĠÏĦÎ¿Î¹Î¿á¿¦": 2181,
      "Ïĥá¿¶Î½": 2182,
      "ĠÎ¶Î·": 2183,
      "Ġá¼ĢÏĢÎµ": 2184,
      "ĠÎ´ÏģÎ±ÏĩÎ¼á½°ÏĤ": 2185,
      "ÏĦá½½": 2186,
      "ĠÏĢÎµÏĢÎ¿Î½": 2187,
      "á¼Ī": 2188,
      "ÏĦÎ±Ïģ": 2189,
      "á½·Î½Î·ÏĤ": 2190,
      "Ġá½ĳÎ³Î¹": 2191,
      "Ïģá½°Î½": 2192,
      "ĠÏĥÏĦÎ¿": 2193,
      "ĠÏĢÎ±Î¸": 2194,
      "ĠÎºá½»ÏģÎ¹Î¿ÏĤ": 2195,
      "am": 2196,
      "Ġ18": 2197,
      "Ġá¼ĦÎ½ÎµÏħ": 2198,
      "Î¼Î¿á¿¦": 2199,
      "ĠÏĩÏīÏģá½·": 2200,
      "XX": 2201,
      "od": 2202,
      "Ġá¼ĢÏĢÎ¿Îº": 2203,
      "Ġá¼ĲÏĢÊ¼": 2204,
      "á½·á¿³": 2205,
      "Îµá½·Î·": 2206,
      "ÏģÎµÏį": 2207,
      "ĠÏĢÎµÏĢÎ¿Î½Î¸": 2208,
      "ost": 2209,
      "ĠÎ±á¼°ÏĦá½·": 2210,
      "á¼ĲÏĢá½¶": 2211,
      "âĢĶ": 2212,
      "Ġ20": 2213,
      "Ġá¼ĢÎ¼ÏĨÎ¿": 2214,
      "ÏģÏħ": 2215,
      "ĠÏĥá½º": 2216,
      "Ý²": 2217,
      "á¿ĨÎ»Î¸ÎµÎ½": 2218,
      "Î¼á½³Î½á¿³": 2219,
      "ĠÏħá¼±á½¸ÏĤ": 2220,
      "ĠÎ´Î¹ÎºÎ±Î¹": 2221,
      "ĠÎ³á½·Î³Î½ÎµÏĦÎ±Î¹": 2222,
      "Î¹ÏĥÎ¼": 2223,
      "ĠÏĢÏģÎ¿ÎµÎ¹ÏģÎ·": 2224,
      "Îľ": 2225,
      "Î¼á½´": 2226,
      "ĠÏĦÎ¿Î¹Î¿á½»ÏĦÏīÎ½": 2227,
      "á½³ÏģÎ±ÏĤ": 2228,
      "Ġá½ĢÎ»á½·Î³": 2229,
      "ĠÎ¼á½¹ÏģÎ¹Î¿Î½": 2230,
      "ĠÎ±Î¹": 2231,
      "ĠÏĥá½»Î½": 2232,
      "ÏĪÎ±ÏĤ": 2233,
      "Î³ÎµÎ¸Î¿ÏĤ": 2234,
      "Ġá¼ĢÏģÎ¹Î¸": 2235,
      "ĠÏĩá½½": 2236,
      "á¼ĲÎº": 2237,
      "ÏĦÎ¿á½ºÏĤ": 2238,
      "Î´Î¹Î±": 2239,
      "ÏĥÏĦÎ¿ÏĤ": 2240,
      "ĠÏĥÎºá½³": 2241,
      "ĠÏĨÎ»ÎµÎ³Î¼Î±": 2242,
      "ÏĢÎ»á½±": 2243,
      "ĠÏĢá½±Î½ÏĦÏīÏĤ": 2244,
      "Î¿Î½ÏĦÎ¿": 2245,
      "ĠÎºá¾ĤÎ½": 2246,
      "Î¿Ïģá½·": 2247,
      "Ġá¼ĢÎ»Î·Î¸": 2248,
      "ĠÎµÎ¾": 2249,
      "á¾¶ÏĦÎ±Î¹": 2250,
      "Ġá¼ĲÎ´": 2251,
      "ĠÏĦÎ±á½Ĳ": 2252,
      "Ġá¼ĲÏĥÏĩ": 2253,
      "ĠÎ´ÏĮ": 2254,
      "ĠÎºÎ±ÏģÏĢ": 2255,
      "Ġá¼¸ÎµÏģÎ¿ÏħÏĥÎ±Î»": 2256,
      "Ġá¾Ĺ": 2257,
      "ÎºÎµá½·": 2258,
      "ĠÎ¼á½·": 2259,
      "ĠÎºá½±Î¼Î½": 2260,
      "Îµá¼¶": 2261,
      "ÏĢÏĦÎ¿Î½": 2262,
      "ĠÏĨÎ±Î½": 2263,
      "ĠÎ¼ÎµÏĦÎ±Î¾": 2264,
      "Ġá¼ĦÎ½Î¸ÏģÏīÏĢÎ¿ÏĤ": 2265,
      "ere": 2266,
      "Î¹Î¶": 2267,
      "ÏĥÏĦÎ¿Ïħ": 2268,
      "ÏĥÎ±Î½ÏĦÎµÏĤ": 2269,
      "ÏĮÎ½ÏĦÏīÎ½": 2270,
      "ĠÎºÎ±Î¸Î±Ïģ": 2271,
      "ĠÎ´ÎµÎ¾Î¹": 2272,
      "á½½Î´Î¿ÏħÏĤ": 2273,
      "ÏĪÎ¹Î½": 2274,
      "ĠÏĢÎµÏĢ": 2275,
      "ĠÎ½ÎµÏĨ": 2276,
      "ÎµÎ´": 2277,
      "ÎºÎ·": 2278,
      "Îºá¿³": 2279,
      "ĠÏĨá½»ÏĥÎ¹ÏĤ": 2280,
      "ĠÏĦÎ·ÏĤ": 2281,
      "Ġá¼§ÏĤ": 2282,
      "ĠÎ³ÏħÎ½Î±Î¹": 2283,
      "Ġá¼ĢÏĢÎŃ": 2284,
      "Ġon": 2285,
      "ĠÏĦÎ±á½»ÏĦÎ·ÏĤ": 2286,
      "Î³Ïģá½±": 2287,
      "ich": 2288,
      "ĠÏĦÎ·": 2289,
      "Ġá¼ĢÏģÎ³": 2290,
      "Î¿Î¼á½³Î½Î·Î½": 2291,
      "ÏīÎ´": 2292,
      "ÏĦÎµÏģÎ¿Î¹": 2293,
      "á½±Î»Î±": 2294,
      "ĠÏĥÏħÏĥÏĦ": 2295,
      "ĠÎ³ÎµÎ³Î¿Î½": 2296,
      "Ġá¼ĢÎ´ÎµÎ»ÏĨ": 2297,
      "ÏĦÎ¹Îºá¿¶Î½": 2298,
      "ĠÏĢá½±Î½Ïħ": 2299,
      "ĠÏĨá½»ÏĥÎµÎ¹": 2300,
      "Î¸Îµá½¶ÏĤ": 2301,
      "ĠÎ³Î»ÏħÎº": 2302,
      "ĠÎ²ÏģÎ±": 2303,
      "ĠÏĩÏģá½¹Î½á¿³": 2304,
      "ĠÎ´ÏģÎ¹Î¼": 2305,
      "á½µÎ¸Î·": 2306,
      "á½±Î½ÏīÎ½": 2307,
      "ÏīÎ¼Î±": 2308,
      "á½¹Î³": 2309,
      "ĠÏĢÏģÎ¿ÏĨ": 2310,
      "Ïģá½¹ÏĦÎµÏģÎ¿Î½": 2311,
      "ÏĦÎ¿á¿ĸÏĤ": 2312,
      "ĠÎ»ÎµÎ¹": 2313,
      "Ġá¼ĲÏĢÎ¹ÏĥÏĦ": 2314,
      "ÏĦÏģÎ¿Î½": 2315,
      "ĠÏĢÎ»á½µ": 2316,
      "Ġfrom": 2317,
      "ÏģÎŃ": 2318,
      "Î±Î¸": 2319,
      "ÏĢÎ·": 2320,
      "ĠÎºÎ±ÏĦÎ¿Î¹": 2321,
      "Ġá¼¡Î¼Îµá¿ĸÏĤ": 2322,
      "The": 2323,
      "Îµá¼´": 2324,
      "ĠÏĦÏģÎ±Ïĩ": 2325,
      "ĠÏĢÏģÎ¿ÏĥÎ¸": 2326,
      "ĠÎ¼á½³Î³ÎµÎ¸Î¿ÏĤ": 2327,
      "ĠÎ¼Î±Ïģ": 2328,
      "ĠÎ»ÎŃÎ³ÎµÎ¹": 2329,
      "Î¿á¿Ĩ": 2330,
      "ĠÏĥÎºÎ¿ÏĢ": 2331,
      "Î®ÏĥÎµÎ¹": 2332,
      "Ġá¼ĢÏĢÎ¿ÏĥÏĦ": 2333,
      "ĠÏĢÎ±ÏģÎ±ÏĢÎ»": 2334,
      "á¾·Î½": 2335,
      "Î´á½·ÏīÏĤ": 2336,
      "ĠÎ´ÏħÎ½á½±Î¼": 2337,
      "á¼Ĳá½°Î½": 2338,
      "ÏĦÏģá½³": 2339,
      "Î½ÎµÏĦÎ¿": 2340,
      "ÏĦÎ·Ïģ": 2341,
      "ĠÏĦÏĮ": 2342,
      "ÏĢÎ½Î¿": 2343,
      "Ġá¼ĶÏĥÏĦÎ¹": 2344,
      "ĠÏĦÎ¹Î½ÎµÏĤ": 2345,
      "ĠÎ»Î±Î¼Î²": 2346,
      "ke": 2347,
      "á½¡ÏĤ": 2348,
      "ÏĩÎ¹": 2349,
      "ĠBáµĩ": 2350,
      "ĠÏĢÎ½Îµá½»Î¼Î¿Î½": 2351,
      "ÏĥÎ±Î¹ÏĤ": 2352,
      "Î½Î±Î½": 2353,
      "ĠÏĢÎ¹Îº": 2354,
      "ear": 2355,
      "Ïĥá½¶": 2356,
      "ĠÎ»á½³Î³ÎµÎ¹Î½": 2357,
      "ĠÏĢÏģÎ±Î³Î¼Î±": 2358,
      "ĠÎ¼ÎµÏĦÎ±Î¾á½º": 2359,
      "á¿¦ÏĤ": 2360,
      "Ġá¼ĦÎ½Î¸ÏģÏīÏĢÎ¿Î½": 2361,
      "ĠÎºÎ±ÎºÎ¿": 2362,
      "Ġá¿¬": 2363,
      "Î¾ÎµÎ¹ÏĤ": 2364,
      "ĠÎµá¼°ÏĥÎ¹Î½": 2365,
      "Ġcon": 2366,
      "ĠÎ±á½ķÏĦÎ·": 2367,
      "Î¿Î½ÏĦÎ¹": 2368,
      "ĠÎ¿á½ĹÏĦÎ¿Î¹": 2369,
      "if": 2370,
      "Ġá¼ĲÏģÎ³Î±": 2371,
      "ÎºÏĮ": 2372,
      "Î²Îµ": 2373,
      "á½±Î½Î¿Ïħ": 2374,
      "á½½Î´ÎµÎ¹ÏĤ": 2375,
      "ÏĢÏĦÎ±Î¹": 2376,
      "Ġá¼ĲÏĢÎ¿á½·": 2377,
      "Ġá¼°Î±ÏĦÏģá¿¶Î½": 2378,
      "Î¸Î½": 2379,
      "Ġá½ħÏĦÎµ": 2380,
      "Î¶Îµ": 2381,
      "Ġá¼ĳÎ¾á¿ĨÏĤ": 2382,
      "ÏģÎ¿á½¶": 2383,
      "Ġá½ĳÏĢá½±ÏģÏĩÎµÎ¹": 2384,
      "ĠM": 2385,
      "Î´Î¿Î¼": 2386,
      "ĠÎ¿á¼µ": 2387,
      "ĠÎ±á½ĲÏĦÏĮÎ½": 2388,
      "Ġá½ĳÏĨ": 2389,
      "ĠÏĥÏīÎ¼á½±ÏĦÏīÎ½": 2390,
      "á¿¶Î½Î±": 2391,
      "Ġá¼¸ÏĥÏģÎ±Î®Î»": 2392,
      "ĠÎ¶Ïī": 2393,
      "ĠÏĪÏħÏĩÏģá½¸Î½": 2394,
      "ĠÎ¿á¼·á½¹Î½": 2395,
      "ĠÏĥÎ·Î¼Î±": 2396,
      "ĠÎ´ÏħÏĥÎº": 2397,
      "ĠÎ¼Î¿ÏĩÎ¸Î·": 2398,
      "Î»Î·ÏĤ": 2399,
      "Î¼ÎŃ": 2400,
      "Ġá¼ĳÏĢ": 2401,
      "Ġá¿¥á¾³": 2402,
      "ĠÎ´Î¹Î±Î»": 2403,
      "ĠÎļá½»": 2404,
      "ĠÏĢÏģÎ¿Ïĥá½µ": 2405,
      "ĠÎ¼ÏĮÎ½": 2406,
      "Ġá¼ĶÎ´Ïī": 2407,
      "Î¿á½»Î½ÏĦÏīÎ½": 2408,
      "ÏĦá½³ÏģÎ¿Ïħ": 2409,
      "ÏģÎ¹ÏĥÎ¼": 2410,
      "ĠÏĢÏģá½¹ÏĥÏī": 2411,
      "ĠÎ½Îµá½»ÏģÏīÎ½": 2412,
      "Î¼á½³Î½Î±ÏĤ": 2413,
      "ĠÏĨá½³Ïģ": 2414,
      "á½½ÏĦÎ±": 2415,
      "ĠÎºÎ±ÏģÎ´á½·Î±ÏĤ": 2416,
      "ÏĦÎµá¿ĸ": 2417,
      "ĠÎĳá¼°Î³": 2418,
      "ĠÎ³á½·Î½ÎµÏĥÎ¸Î±Î¹": 2419,
      "ĠÎµá¼·": 2420,
      "ĠÎ¸á½³": 2421,
      "ĠÎ¼á½³Î»Î¹": 2422,
      "Ġby": 2423,
      "all": 2424,
      "ÎµÏĥÎ¹Î½": 2425,
      "Ġá¼ĲÏĢÎ¹ÏĥÎº": 2426,
      "ĠÏĢÏģÎ±Î³Î¼Î±ÏĦÎµ": 2427,
      "ÏĦá¿·": 2428,
      "ÏĦá¿ĨÏĤ": 2429,
      "ÎµÎ¹Î±Î½": 2430,
      "Î¸á½µ": 2431,
      "Ġá¼ĲÎ½ÏĦÎ±á¿¦Î¸Î±": 2432,
      "Ġá¼ĲÏĢÎ¿Î¯": 2433,
      "Ġá¼¡Î³": 2434,
      "Ġá¼´Ïĥ": 2435,
      "ÏĥÎ±á½»ÏĦÏīÏĤ": 2436,
      "el": 2437,
      "ĠÎ±á½ĲÏĦá½°ÏĤ": 2438,
      "ÏĢÎ¿ÏħÏĤ": 2439,
      "Î´ÎµÎ½": 2440,
      "ÏĦá½³Î¿Î½": 2441,
      "Î´Î¹Î¿Î½": 2442,
      "ĠÏĦÏģÎµá¿ĸÏĤ": 2443,
      "ĠÎ¼Î¹ÎºÏģá½¸Î½": 2444,
      "Ġá¼ķÎ½ÎµÎºÎ±": 2445,
      "Ġá¼ĲÎ³Î³": 2446,
      "ĠÏĢÏīÏĤ": 2447,
      "Ġá¼ĢÎ½Î´Ïģ": 2448,
      "Ġá½ĥÏĤ": 2449,
      "Ġá¼ĳÎºá½±ÏĥÏĦÎ¿Ïħ": 2450,
      "ÏĦÏĦÎµ": 2451,
      "ÏħÎ¼Î±": 2452,
      "ĠÎ´Î±ÎºÏĦá½»Î»": 2453,
      "ĠÎĸ": 2454,
      "ĠÏĦÏģÎ¿": 2455,
      "ĠÏĨÎ·Ïĥ": 2456,
      "ĠÎ´Î¹Î±ÏĨá½³Ïģ": 2457,
      "ĠÎľÏīÏħÏĥ": 2458,
      "Î±Î»Î»": 2459,
      "Î¹Î¼": 2460,
      "ĠÎµá¼¶ÏĦÎ±": 2461,
      "Î¾Î¹ÏĤ": 2462,
      "Î»á½³Î³": 2463,
      "Î¿ÏħÎ´Î±": 2464,
      "á½½Î´Îµ": 2465,
      "ĠÏĦÎµÎ»ÎµÏħÏĦ": 2466,
      "ĠÏĥÏĨÎ¿Î´": 2467,
      "ĠÎ´Î¹Î±Î¹": 2468,
      "Ġá½ķÎ´Î±ÏĦÎ¿ÏĤ": 2469,
      "ght": 2470,
      "Ġ23": 2471,
      "ĠÎ³ÏħÎ¼Î½": 2472,
      "Ġá¼ĲÏĥ": 2473,
      "Î½Î±á½·": 2474,
      "Î»ÎµÏį": 2475,
      "ĠÎ²Î¿á½»": 2476,
      "Ġá¼ĳÎ±ÏħÏĦÎ¿á¿¦": 2477,
      "ĠÏĢÎµÎ½": 2478,
      "Ġá¼¡Î¼ÎµÏģá¿¶Î½": 2479,
      "Ġá½ĢÎ´á½»Î½": 2480,
      "Ïĥá½¶Î½": 2481,
      "Î³Î¿": 2482,
      "ĠÎ¼á½·Î±Î½": 2483,
      "ĠÎ´Î¹Î´Î±": 2484,
      "Ġ30": 2485,
      "ĠÏĨÎ±Î¹Î½": 2486,
      "Î¼á½³Î½Î¿ÏĤ": 2487,
      "Î¾Î±ÏĤ": 2488,
      "Î¿á¿¦Î½ÏĦÎ±": 2489,
      "ĠÏī": 2490,
      "Î½á½·": 2491,
      "Ġá¼ĢÏģÏĦÎ·ÏģÎ¹": 2492,
      "ĠÏĢÎµÏģÎ¹ÏĦÏĦ": 2493,
      "ĠÎ»á½»": 2494,
      "ÏİÎ½": 2495,
      "Ġ21": 2496,
      "ĠÎ±á¼°ÏĥÎ¸Î·": 2497,
      "ÏĢÎ¹Î¿Î½": 2498,
      "imp": 2499,
      "Ġá½ĳÏĪÎ·Î»": 2500,
      "ĠÎºÎ¹Î½á½µÏĥÎµÏīÏĤ": 2501,
      "Ġá½ĢÎ½Î¿Î¼Î±Î¶": 2502,
      "ĠÎ½á½¹Ïĥ": 2503,
      "ĠÎ¼á¿¦ÏĤ": 2504,
      "Î¿ÏįÏĤ": 2505,
      "ĠÎ»Î¿Î¹ÏĢ": 2506,
      "ĠÏĥÏħÎ¼": 2507,
      "Ïģá½»": 2508,
      "ĠÏħá¼±á¿¶Î½": 2509,
      "Ġá¼ĲÏĢÎ±Î½": 2510,
      "ĠÎ²Î¿ÏħÎ»": 2511,
      "Ġá¼ĲÏĤ": 2512,
      "ĠÏĢÎµÏģÎ¹á½³Ïĩ": 2513,
      "Ġpl": 2514,
      "ĠÏĢá½±Î¸Î¿ÏĤ": 2515,
      "ome": 2516,
      "ch": 2517,
      "Î´ÏħÎ½": 2518,
      "os": 2519,
      "ÏģÎµÎ½": 2520,
      "ÏĦÏĦÏī": 2521,
      "Î»Î¬": 2522,
      "Î¸Î¿Î½": 2523,
      "ĠÎ¼ÎµÏĦÏģá½·": 2524,
      "ter": 2525,
      "á½·ÏĥÏĦÎ±": 2526,
      "á½³ÏģÎ³ÎµÎ¹": 2527,
      "Î·ÏĥÎ±": 2528,
      "ain": 2529,
      "Ġá¼¡Î»Î¹Îº": 2530,
      "Î±Î»Î±": 2531,
      "Î¹Ïĥ": 2532,
      "áµĪ": 2533,
      "Î´Îµá½·ÎºÎ½Ïħ": 2534,
      "ĠÎ²ÏģÎ±Î´": 2535,
      "Î¿Î»Î¿Ïħ": 2536,
      "Ġá½ģÏģ": 2537,
      "Ġá¼ĲÎ½á½³ÏģÎ³ÎµÎ¹": 2538,
      "Ġá¼ģÏĢá½±": 2539,
      "Ġá¼ħÏĢÎ±ÏĥÎ¹": 2540,
      "ĠÎµá½ĲÎ¸á½ºÏĤ": 2541,
      "á½³Î½ÏĦÎ¿ÏĤ": 2542,
      "Ġá¼ĳÎ²": 2543,
      "ÏīÎ¼ÎµÎ½": 2544,
      "ÎºÎ±Ïħ": 2545,
      "ĠÎ¿á½ĲÏĥá½·Î±ÏĤ": 2546,
      "ĠÏĦÎ±á¿¦": 2547,
      "ĠÎ½ÏĮ": 2548,
      "ĠÎµá¼´ÏĢÎµÏģ": 2549,
      "ir": 2550,
      "ĠÎºÎ±ÏĦÎ±ÏĥÎºÎµÏħ": 2551,
      "Ġá¼ĲÎ¼Î¿á¿¦": 2552,
      "á½½ÏĦÎµÏģÎ¿Î½": 2553,
      "Î¯Î¿Î½": 2554,
      "ĠÏĢÏģÎ¿ÏĥÎ±": 2555,
      "ÏĢÎµá½¶": 2556,
      "ĠÏĩÏģÎ·ÏĥÏĦ": 2557,
      "ĠÏĪÏħÏĩá¿ĨÏĤ": 2558,
      "ĠÏĩÎ±Î»Îº": 2559,
      "ub": 2560,
      "ÏĦÏĦÎ±": 2561,
      "ÎºÏģá½·": 2562,
      "Î»ÎµÏīÏĤ": 2563,
      "ĠÏĢÏģÏī": 2564,
      "á½½ÏĤ": 2565,
      "ÏĢÎµÏĦÎ±Î¹": 2566,
      "Î»Î¸Î¿Î½": 2567,
      "ĠÎ´á½³ÏģÎ¼Î±": 2568,
      "Î¸Î¿Ïħ": 2569,
      "á½±ÏĥÎº": 2570,
      "ĠÏĥá½»Î¼ÏĢÎ±Î½": 2571,
      "ÏĥÏĦÎ±ÏĥÎ¹Î½": 2572,
      "qu": 2573,
      "Ġá¼ĲÏĢÎµÎ¹Î´á½´": 2574,
      "ĠÏĨÎ»á½³Î²": 2575,
      "ĠÎ¼Îµá½·Î¶": 2576,
      "ÏĦÏģÎ¿Ïħ": 2577,
      "ĠÏĢá½±ÏĥÏĩ": 2578,
      "ÏĢÎµÎ¹ÏĦÎ±": 2579,
      "Ïģá¾³": 2580,
      "Î»á½µ": 2581,
      "Î¼á½·": 2582,
      "Ġex": 2583,
      "iv": 2584,
      "ĠÏĦÎ¿á½Ĳ": 2585,
      "ĠÏĢÎ»ÎµÎ¿Î½": 2586,
      "Î¶ÎµÎ¹Î½": 2587,
      "Î¼ÎµÎ¹Î½Î¿Î½": 2588,
      "ÏĢá½±": 2589,
      "ĠÎ¼á½»": 2590,
      "Ġá½ĳÎ³Ïģá½¸Î½": 2591,
      "ĠÏĩÏģÏħÏĥ": 2592,
      "Ġ24": 2593,
      "ĠÏĢÎ»Îµá¿ĸÏĥÏĦÎ¿Î½": 2594,
      "á½ħÏĦÎ±Î½": 2595,
      "ĠÏĥÏĦá½¹Î¼Î±": 2596,
      "res": 2597,
      "Ġá½ħÏĥÎ¿Î¹": 2598,
      "Î»ÎµÏħ": 2599,
      "Ġá½ĢÏĢ": 2600,
      "ÏĦÎ¹Îºá½´Î½": 2601,
      "Ġá¼¡Î¼á½³ÏģÎ±Î½": 2602,
      "Ïģá½¹ÏĦÎ·ÏĦÎ¿ÏĤ": 2603,
      "II": 2604,
      "ĠÎ´ÏħÎ½Î¬": 2605,
      "ĠÏĢá¿¦": 2606,
      "Î³Î¿Î½ÏĦÎµÏĤ": 2607,
      "ĠÏĦá½µÎ½": 2608,
      "Ġá¼¥ÏĢÎ±": 2609,
      "Ġhave": 2610,
      "ul": 2611,
      "ĠÎ´Î¯": 2612,
      "ĠÎ¼á½³ÏĥÎ¿Î½": 2613,
      "Ġá¼ĦÎ½Î´": 2614,
      "ĠÏĥÏĦÎµÎ½": 2615,
      "Î¿ÏħÏĥÎ±Î½": 2616,
      "ĠÎ¸á½±": 2617,
      "Î¼Î½á½µ": 2618,
      "ÏĮÏĦÎ·": 2619,
      "Ġá½¤": 2620,
      "ĠÎ¿Î¹Îº": 2621,
      "Ġá¼ĶÏĨÎ·Î½": 2622,
      "ĠÏĦÎµÎ»á½³ÏīÏĤ": 2623,
      "ĠÏĩÏģá½¹Î½Î¿Î½": 2624,
      "ĠÎ¼á¿Ĩ": 2625,
      "ĠÎ³á¿Ĩ": 2626,
      "Î¼Î±ÏĥÏĦ": 2627,
      "ĠBab": 2628,
      "ĠÎ¼Î½Î·": 2629,
      "ĠÎ¶á½½Î¿Ïħ": 2630,
      "ĠÏĨÏħÎ»": 2631,
      "ÏĢÎ¿Î»Î»": 2632,
      "ri": 2633,
      "Ġá¼ĶÎ»Îµ": 2634,
      "ĠÎ»Î±Î»": 2635,
      "Ġá¿¥á½·Î¶": 2636,
      "ÏĦá½³ÏģÏī": 2637,
      "ĠÎ»á½¹Î³Î¿Ïħ": 2638,
      "Ġá¼°Î´Î¿á½º": 2639,
      "áµĽ": 2640,
      "ĠÏĢÎ»á½´Î½": 2641,
      "ĠÏĥÏĨÏħÎ³Î¼á¿¶Î½": 2642,
      "erscr": 2643,
      "ÏĢÏĦÎµÎ¹Î½": 2644,
      "ĠÎºÏħÏģ": 2645,
      "á½»Î½Î±": 2646,
      "ĠQáµĲáµį": 2647,
      "Ġá¼ģÎ¼Î±ÏģÏĦ": 2648,
      "ĠÎ´ÏįÎ½Î±": 2649,
      "ĠÎľÎ±": 2650,
      "Î»á¿¶Î½": 2651,
      "ÏĥÎ¹Îº": 2652,
      "á¿¦ÏĥÎ±Î¹": 2653,
      "ĠÎ³á½³Î½Î¿ÏĤ": 2654,
      "á½½ÏĥÎµÎ¹ÏĤ": 2655,
      "Îµá½¶Î´": 2656,
      "Ġá¼ĪÎ½": 2657,
      "Ġá¼ĢÎ½Î±Î³ÎºÎ±á¿ĸÎ¿Î½": 2658,
      "Ġá¼ĲÎ½Î±ÏģÎ³á¿¶ÏĤ": 2659,
      "ol": 2660,
      "Ġá¼ĢÏģÎ±Î¹": 2661,
      "ĠÎ³Î±ÏĥÏĦÏģá½¸ÏĤ": 2662,
      "ĠÎ»Î±Î²": 2663,
      "ĠÏĢÎ»ÎµÏħÏģ": 2664,
      "ĠÎ¿á¼¶ÎºÎ¿Î½": 2665,
      "Ġ26": 2666,
      "Î´ÎµÎ¹ÎºÏĦÎ±Î¹": 2667,
      "Î¼Î¹ÏĤ": 2668,
      "ÏħÎ½Î±á¿ĸ": 2669,
      "Ġread": 2670,
      "ÏĥÏĥÎ±": 2671,
      "Ġá¼ĶÏģÎ³": 2672,
      "Îµá½·Î±": 2673,
      "ĠÏĨÏħÎ»Î±": 2674,
      "Ġá¼ĲÏĩÏģ": 2675,
      "Ġá¼ĲÎ»á½±": 2676,
      "ĠÎĶÎ±ÏħÎµá½¶Î´": 2677,
      "Î³Î³ÎµÎ»": 2678,
      "ÏĥÏĥÎµ": 2679,
      "ĠÎ²Î±Ïģ": 2680,
      "Ġá¼ĢÎ½á½±": 2681,
      "Ġá¼ĪÎ²": 2682,
      "ĠÏĢÎŃ": 2683,
      "Ġá½ģÎ¼": 2684,
      "ĠÏĢÎ±ÏĦÏģ": 2685,
      "Ġá¼ĢÏĨÎ¹Îº": 2686,
      "á¿¶ÏĥÎ±Î¹": 2687,
      "Ġan": 2688,
      "ĠÎ¶á¿¶Î¿Î½": 2689,
      "ĠÎ½Î¿": 2690,
      "Ġá¼ĲÎ³ÎºÎµ": 2691,
      "ĠÏĢÎ»Î·Ïĥ": 2692,
      "Î¿ÏĦÎ¿Î¼": 2693,
      "ĠÎ¼ÎµÏģá¿¶Î½": 2694,
      "Î¿á¿¦Î¼ÎµÎ½": 2695,
      "ĠÏĥÏħÎ¼Î²Î±": 2696,
      "ĠÎ³ÏħÎ¼Î½Î±": 2697,
      "Ġá¼ĢÎ»Î»Î¿Î¹": 2698,
      "Î¼á½¸ÏĤ": 2699,
      "ĠÎ³Î±ÏĥÏĦá½³ÏģÎ±": 2700,
      "Î¸Îµá¿ĸ": 2701,
      "ĠÏĥÏĦÎ¿Î¹": 2702,
      "Ġá½ģÎ¼Î¿Î¹": 2703,
      "Ġá¼ģÎ³": 2704,
      "ĠÏĢÎµÏģá½·": 2705,
      "ĠÏĦá½·ÏĤ": 2706,
      "ĠÏĦÏģÎ±": 2707,
      "ÏĥÎµÏĥÎ¹Î½": 2708,
      "Îµá½·Î¿Ïħ": 2709,
      "ĠÏĥÎºÎµÏħ": 2710,
      "Ġvid": 2711,
      "Î¿Î´": 2712,
      "ĠÏĥÏĦÎ±": 2713,
      "ĠÏĢÏģá½¶Î½": 2714,
      "Î»Î·ÏģÎ¿Î½": 2715,
      "Ġá¼ĢÎºÎ¿á½»": 2716,
      "ĠÎ¿á¼´Î½Î¿Ïħ": 2717,
      "á½·ÏĥÏĦ": 2718,
      "Ġá¼ĢÎ½Î±ÏĦÎ¿Î¼": 2719,
      "Î¿Î´Î¿Î½": 2720,
      "Ġá¼ĦÎº": 2721,
      "Î¿á¿¦Î½ÏĦÎ±ÏĤ": 2722,
      "ĠÏĢá¾¶ÏĤ": 2723,
      "Î½Î¿Î½": 2724,
      "Î¸Î®": 2725,
      "Ġá¼ĢÏĨÎ¿": 2726,
      "ĠÏĥÏħÎ¼ÏĨ": 2727,
      "ÏĦÎ¿á¿¦ÏĦÎ¿": 2728,
      "ÎĴ": 2729,
      "Î·ÏĥÎ¹ÏĤ": 2730,
      "Î¹Î½Î¿Î½": 2731,
      "ĠÏĩÏģá¿ĨÏĥÎ¸Î±Î¹": 2732,
      "ĠÏĢÎ±ÏģÎ¿Î¾ÏħÏĥ": 2733,
      "ĠÎ¼Î®": 2734,
      "ĠÎµÏĢ": 2735,
      "ÎŃÎ½ÎµÏĦÎ¿": 2736,
      "Ġá¼ķÎ½Î±": 2737,
      "ĠÏĢÎµÏģÎ¹Îµ": 2738,
      "ĠÎ¸Î±": 2739,
      "ÎµÎ¹Î»ÎµÎ½": 2740,
      "Î¹Î½á½¹Î½ÏĦÏīÎ½": 2741,
      "á½¹ÏĦÎ·ÏĤ": 2742,
      "ĠÏĢÎ¿Î¹á½µ": 2743,
      "Î±Î½ÏĦÎ¹": 2744,
      "ĠÎ±á½ĲÏĦÎ¿á½¶": 2745,
      "ÏĮÎ¼ÎµÎ½Î¿ÏĤ": 2746,
      "ÎĽ": 2747,
      "ĠÎ±Î½Î±": 2748,
      "ĠÎ³ÏħÎ½Î±á¿ĸ": 2749,
      "ĠÎ»á½³Î³ÏīÎ½": 2750,
      "ĠÏĦÎ±á½»ÏĦá¿ĥ": 2751,
      "ÏĢÏĦÎµÎ¹": 2752,
      "est": 2753,
      "ĠÏĥá½½Î¼Î±ÏĦÎ¹": 2754,
      "Î¡": 2755,
      "Î¼Ïī": 2756,
      "Ġ;": 2757,
      "ĠÎ¼ÎµÎ»Î±": 2758,
      "ĠÎ³Î¯": 2759,
      "ÏĥÎµÎ²": 2760,
      "Ġá½ĢÏĥÏĦá¿¶Î½": 2761,
      "Ġá½ĢÎ½á½¹": 2762,
      "Ġá¼ĢÏģÏĦÎ·ÏģÎ¹á¿¶Î½": 2763,
      "Î»Î¿ÏħÏĤ": 2764,
      "Î¿á½ĲÎ´": 2765,
      "ĠÎ´Î¿ÎºÎµá¿ĸ": 2766,
      "ÏģÎ±Îº": 2767,
      "ĠÏĢá½±Î½ÏĦÎµÏĤ": 2768,
      "Ġthis": 2769,
      "Ġá¼ĢÏĦ": 2770,
      "á½³ÏīÏĤ": 2771,
      "Ġá¼¹ÏĢÏĢÎ¿ÎºÏģá½±ÏĦÎ¿ÏħÏĤ": 2772,
      "ÏĢÎ¿Î¹ÏĤ": 2773,
      "ĠÎ³á½·Î½Î¿Î½ÏĦÎ±Î¹": 2774,
      "á½³ÏģÎ±Î½": 2775,
      "ĠÎºÎ½": 2776,
      "Î¿Î»á¿ĨÏĤ": 2777,
      "Ġbut": 2778,
      "ĠÎ³Ïģá½±ÏĨ": 2779,
      "Ïģá½·ÏĥÎº": 2780,
      "ĠÏĢá¾¶ÏĥÎ±Î½": 2781,
      "ÏĦÎµÏĦÎ±": 2782,
      "Î·Ïĥá½±": 2783,
      "Î¼ÎµÎ»": 2784,
      "ĠÎºÏħÏģá½·Î¿Ïħ": 2785,
      "á¿¶Î¼ÎµÎ½": 2786,
      "ĠÎļá½»ÏģÎ¹Î¿ÏĤ": 2787,
      "Î±Î¹Ïģ": 2788,
      "ĠÏĦÎ¹Î½á½¸ÏĤ": 2789,
      "ĠÎºÎ±ÏģÎ´á½·": 2790,
      "ĠÎµá¼·ÏĤ": 2791,
      "ÏĥÎ¼Î±ÏĦÎ±": 2792,
      "á¼ĲÏĢÎµá½¶": 2793,
      "ĠÏĢÎ¿Ïĥ": 2794,
      "Ïĥá¿ĥÏĤ": 2795,
      "Ġá½ħÎ»Î·Î½": 2796,
      "Ïĥá½±": 2797,
      "á½°Î¼": 2798,
      "Ġá¼ĢÏħÏĦ": 2799,
      "á¼ĢÏĢ": 2800,
      "ĠÎ²Î±ÏĥÎ¹Î»ÎŃÏīÏĤ": 2801,
      "ĠÏĨÎ¿Î²": 2802,
      "Ġá½ĦÎ³": 2803,
      "ÏĥÏħÎ½": 2804,
      "ÏĥÏĦÏī": 2805,
      "ĠÏĨÏį": 2806,
      "ÏĦá½°ÏĤ": 2807,
      "ĠÎ²ÏģÎ±Ïĩá½º": 2808,
      "Î³Î¹Î½": 2809,
      "Ïģá½¹ÏĤ": 2810,
      "ĠÎ±á¼°ÏĦá½·Î±Î½": 2811,
      "ĠÏĢÎ¿Î»Î»á¿¶Î½": 2812,
      "ĠÎ²Î¿Î·Î¸": 2813,
      "Ġá¿¥á¾³Î´á½·ÏīÏĤ": 2814,
      "ĠÎ¸ÎµÏģÎ±ÏĢ": 2815,
      "Ġwhich": 2816,
      "á½½ÏĥÎµÎ¹": 2817,
      "Ġá¼ĲÎ¾Î±": 2818,
      "á½³Î³ÏģÎ±": 2819,
      "ĠÎºÎ±ÏĦÎ¿Î¹Îº": 2820,
      "Î»Î¹Î½": 2821,
      "ĠÎµá¼°ÏĥÎ¹": 2822,
      "Î¿ÎµÎ¹Î´": 2823,
      "ÏĦÎ¹ÏĤ": 2824,
      "ĠÎ´ÏħÎ¿á¿ĸÎ½": 2825,
      "Ġá½ħÎ»Î·ÏĤ": 2826,
      "Ġá¼ĦÏģÎ¸Ïģ": 2827,
      "ÏĦÏĮ": 2828,
      "Ïģá¾¶ÏĤ": 2829,
      "Î¸ÎµÏģ": 2830,
      "ÏĥÎ¹Î±": 2831,
      "ĠÏĪá½»": 2832,
      "ĠÎ´Îµá½»ÏĦÎµÏģÎ¿Î½": 2833,
      "Ġá¼ĶÎ½Î´Î¿Î½": 2834,
      "ess": 2835,
      "ĠÎºá½·Î½Î·ÏĥÎ¹Î½": 2836,
      "ĵÏĤ": 2837,
      "Î¿á½º": 2838,
      "á½¹Î½ÏĦÎµÏĤ": 2839,
      "Ï²Î¹Î½": 2840,
      "á½³Î»Î»": 2841,
      "Î¿á½Ķ": 2842,
      "ĠÎ´á¿ĨÎ»Î¿Î½": 2843,
      "ÏĥÎ¿Î¼ÎµÎ½": 2844,
      "rob": 2845,
      "ĠÎ´ÏħÏĥÎºÏģÎ±": 2846,
      "ÏĢÏģ": 2847,
      "ÏĦÎ±á¿¦ÏĦÎ±": 2848,
      "Ġá¼¸Î¿Ïį": 2849,
      "ore": 2850,
      "ĠÎºÎ¬": 2851,
      "ĠÏĢÎ¿Ïħ": 2852,
      "ÏĢÎµÏĢ": 2853,
      "ĠÎºÏģÎ¯": 2854,
      "á½³Î½ÏĦÏīÎ½": 2855,
      "ĠÎ´Î¿Îº": 2856,
      "ĠÎ½Î¿Î¼á½·Î¶": 2857,
      "ĠÎ¿á¼¶Î¼Î±Î¹": 2858,
      "Ġá½ĢÏģÎ¸á¿¶ÏĤ": 2859,
      "Î²á½±": 2860,
      "ĠÎµá¼¶Î´Î¿ÏĤ": 2861,
      "ĠÏĨÎ»ÎµÎ²Î¿ÏĦÎ¿Î¼": 2862,
      "ÏĩÎµÎ¹Ïģ": 2863,
      "Ġá½¡ÏĥÎ±á½»ÏĦÏīÏĤ": 2864,
      "ĠÎµá¼°Ïĥá½¶Î½": 2865,
      "ĠÎºÎ±á½·ÏĦÎ¿Î¹": 2866,
      "sic": 2867,
      "Î¸Î±Î¹": 2868,
      "Ġá¼ĲÎ½ÎµÏģÎ³Îµá½·Î±ÏĤ": 2869,
      "Î±á¿ĸÏĤ": 2870,
      "Ġword": 2871,
      "Î´ÏĮ": 2872,
      "ĠÎ±á½ĲÏĦá½¹Î½": 2873,
      "ĠÎ²ÏģÎ±Ïĩá½·Î¿Î½": 2874,
      "ÏĢá½·ÏĥÏī": 2875,
      "Ġu": 2876,
      "Ġx": 2877,
      "ÎºÏģÎ¹": 2878,
      "ĠÎ±á½ĲÏĦá½¹": 2879,
      "ĠÏĦÎ±Ïį": 2880,
      "Ġá¿¥á½±": 2881,
      "ĠÎ´Î¹Î±Î¸á½³ÏĥÎµÎ¹ÏĤ": 2882,
      "ÎµÏį": 2883,
      "Ġá¼ĲÎºÎµá½·Î½ÏīÎ½": 2884,
      "ĠÎ³ÏħÎ½Î±Î¹Îº": 2885,
      "Ġá½ĦÎ¾": 2886,
      "ÏĥÏĦÏģÎ±": 2887,
      "Î»Î»Î¹": 2888,
      "Ġmg": 2889,
      "ĠÎ±á¼°ÏĦá½·Î±ÏĤ": 2890,
      "Ġv": 2891,
      "ĠÎ¶á½½ÏīÎ½": 2892,
      "ĠÎ¿á½ĲÏĥá½·Î±Î½": 2893,
      "Ġá¼ĶÏĩÎ¿Î½ÏĦÎ±": 2894,
      "Ġá¼ĶÎ³ÏģÎ±ÏĪÎµÎ½": 2895,
      "Î¿á¿ĨÏĤ": 2896,
      "Ġy": 2897,
      "ĠÏĩÏģá¿¶": 2898,
      "ĠÎ¼Î¬": 2899,
      "Ġá¼¡Î¼á½³Ïģ": 2900,
      "ĠÎµá½ķ": 2901,
      "Ïĥá½·Î±": 2902,
      "Ġá¼ĥÏĤ": 2903,
      "Ġá¼ĶÎ»Î±Î²": 2904,
      "á½³ÏģÏĩ": 2905,
      "ÎµÏĥÎ²": 2906,
      "á½¹Î½ÏĦÎ±": 2907,
      "Ġá½łÏĨÎµÎ»": 2908,
      "Î¬ÏĦÏīÎ½": 2909,
      "ĠÎ´á½»Î½Î±ÏĦÎ±Î¹": 2910,
      "Î¿á¿¦ÏĥÎ±": 2911,
      "Î¹Îºá¿¶Î½": 2912,
      "á½½ÏĥÎºÎµÎ¹Î½": 2913,
      "ĠÏĥÎ·": 2914,
      "ĠÏĢÏģÎ¿Ïĥá½³": 2915,
      "ĠÏĦÎ¿ÏħÏĦá½³": 2916,
      "Ġá½ĢÏĨÎ¸Î±Î»Î¼": 2917,
      "Ġá¼ĲÏĢÎ¹Î´á½³": 2918,
      "ĠÏĥÏĦá½»": 2919,
      "ÎºÎµÎ¹ÏĦÎ±Î¹": 2920,
      "ĠÎ³á½³Î½Î·ÏĦÎ±Î¹": 2921,
      "á¼ķ": 2922,
      "ĠÎ³á½³": 2923,
      "Î¿Î¼á½³Î½Î¿ÏħÏĤ": 2924,
      "Î¬Îº": 2925,
      "Î®ÏĥÏī": 2926,
      "Ġá¼ĲÎ³ÎºÎµÏĨá½±Î»": 2927,
      "ĠÎ¼Î½": 2928,
      "ÎºÏģÎ¬": 2929,
      "ĠÎ¿á½ĵÏĤ": 2930,
      "Î²Î±Î»Î»": 2931,
      "Î¿á½ķÏĦÏīÏĤ": 2932,
      "ĠÎ²Î±ÏĥÎ¹Î»": 2933,
      "Îµá¿ĸÏĦÎµ": 2934,
      "Ġá½ķÎ´Î±ÏĦÎ¹": 2935,
      "ĠP": 2936,
      "ÏģÎ¿Î¹ÏĤ": 2937,
      "á¿¶Î½Î¿ÏĤ": 2938,
      "Ġá¼´ÏĥÎ¿Î½": 2939,
      "Ġá¼ĲÎºÎµ": 2940,
      "ĠÎ±á½ĲÏĦÎ±á¿ĸÏĤ": 2941,
      "Î¿á¿¦ÏĦÎ±Î¹": 2942,
      "á½¹ÏĦÎµÏģÎ±": 2943,
      "ĠÏĥÏİ": 2944,
      "ĠÏĢÏģÎµÏĥÎ²": 2945,
      "Ġxx": 2946,
      "Ġá¼ĦÎ³": 2947,
      "Ġá¼ĲÏ²": 2948,
      "ĠÏĢÎ¬Î½ÏĦÎµÏĤ": 2949,
      "Ġá¼¡Î¼ÎŃÏģÎ±ÏĤ": 2950,
      "Ġab": 2951,
      "ÏĢÏģÎ¿": 2952,
      "ĠÎºÏħÏģá½·": 2953,
      "ĠÎ³Î½á½½": 2954,
      "ĠÎ¸Î±ÏħÎ¼Î±ÏĥÏĦ": 2955,
      "ÎµÎ¼": 2956,
      "Î»Î±Î½": 2957,
      "Î¸á¿ĨÎ½Î±Î¹": 2958,
      "ĠÏĢÏģÎ¿ÎºÎµÎ¹": 2959,
      "ĠÏĦÏģá½³": 2960,
      "ĠÏĩÎµá¿ĸÏģÎ±ÏĤ": 2961,
      "Î¥": 2962,
      "ÎĶ": 2963,
      "Ġá½ģÏģÎ¼": 2964,
      "ĠÎ¿ÏħÏĦÏīÎ½": 2965,
      "Ġá¼ĲÏĢÎµÎ¹Î´á½°Î½": 2966,
      "á¿´": 2967,
      "Î·ÏĥÎ¹": 2968,
      "ĠAáµĥ": 2969,
      "ĠÎºÎ±Î»Î¿Ïħ": 2970,
      "ĠÏĥÏĦÎ¿Î¹Ïĩ": 2971,
      "Î¹ÎºÎ±": 2972,
      "ĠÏĥÎ±": 2973,
      "Ġá½ģÏĢ": 2974,
      "ĠÏĦÏģÎ¿ÏĨá¿ĨÏĤ": 2975,
      "ĠÏĩÎµÎ¹Ïģá½¸ÏĤ": 2976,
      "Ġá¼ĶÏģÎ³Î±": 2977,
      "ÏĦÎµÏģá½¹Î½": 2978,
      "ÏĥÏĥÎ±Ïģ": 2979,
      "á½·Î±Î¹ÏĤ": 2980,
      "ÏĦÎµá¿ĸÎ½": 2981,
      "ation": 2982,
      "ĠÎ¸ÏħÎ³Î±": 2983,
      "Î±Î½Î¿Î½": 2984,
      "á¼ĲÎ³á½¼": 2985,
      "ĠÏĢÏģá½½ÏĦÎ·Î½": 2986,
      "Ġá½ģÎ¼Î¿Î»Î¿Î³": 2987,
      "RT": 2988,
      "Î¼á½·Î±Î½": 2989,
      "ĠÎ´Î¹á½±Î¸ÎµÏĥÎ¹Î½": 2990,
      "ĠÎ³ÏģÎ±ÏĨ": 2991,
      "ĠÎ¼ÎµÏĦÏģá½·ÏīÏĤ": 2992,
      "ĠÎ³á½·Î³Î½ÎµÏĥÎ¸Î±Î¹": 2993,
      "Ġá¼ĲÏģÎ³á½±Î¶ÎµÏĦÎ±Î¹": 2994,
      "ÏĦÎ¿á½·": 2995,
      "ĠÎºÏģá¾¶": 2996,
      "Ġá¼ĲÎ½Îµ": 2997,
      "Î³Î½Ïħ": 2998,
      "ĠÏĨá½±ÏģÎ¼Î±ÎºÎ±": 2999,
      "Ġá¼ĶÏģÎ³Î¿Î½": 3000,
      "ĠÏĦÎ±ÏĢÎµÎ¹Î½": 3001,
      "ĠÏĢÎ±Î½ÏĦá½¶": 3002,
      "ÏĩÎ¿Ïħ": 3003,
      "Ġá¼ĲÎ³ÎŃÎ½ÎµÏĦÎ¿": 3004,
      "á¼ĦÎ»Î»": 3005,
      "ĠÎ¸ÏħÏĥÎ¹": 3006,
      "ĠÏĦÎµÏĦá½±Ïģ": 3007,
      "ÏĮÎ¼ÎµÎ½Î¿Î½": 3008,
      "ÏģÎ¿á½»": 3009,
      "Ġá¼¸Î¿ÏħÎ´Î±": 3010,
      "ĠÎ´ÎµÏħÏĦá½³Ïģ": 3011,
      "Ġá¼ĲÏĥÏĩá½±": 3012,
      "Ġst": 3013,
      "Ġá¼ĲÎ³Îºá½³": 3014,
      "Î¼Î¿á¿¤á¿¥": 3015,
      "Î¿Î¹Î±Î½": 3016,
      "Ġá½ķÏĥÏĦÎµÏģÎ¿Î½": 3017,
      "Î¿á½ĲÎº": 3018,
      "Î»Î·ÏģÎ¿Î½Î¿Î¼": 3019,
      "Ġá¼ĲÎºÎµÎ¯Î½": 3020,
      "ĠÎ´Îµá¿ĸÏĦÎ±Î¹": 3021,
      "ĠÎ´Î¹Î¿": 3022,
      "ĠQáµĥ": 3023,
      "ĠÏĢÏħÏģÎµÏĦá¿¶Î½": 3024,
      "Î»Î±Î¹Î¿Î½": 3025,
      "ÎĲ": 3026,
      "ĠÎ±á½ĲÏĦÎ¿ÏįÏĤ": 3027,
      "ĠÎ´Î¹ÎµÎ»": 3028,
      "ĠÏĩÎµÏģ": 3029,
      "Î»ÎµÎ³": 3030,
      "Ġá¼ĢÎ½á½³": 3031,
      "ĠÎ»Î±Î¿á¿¦": 3032,
      "ÏĦá½±ÏĢÎ±": 3033,
      "ÏĥÏĨ": 3034,
      "Ġá½ħÎ¼Î¿Î¹": 3035,
      "ĠThe": 3036,
      "á½»ÏĦÎ·": 3037,
      "á¼ĶÎ½": 3038,
      "Î´á½»Î»": 3039,
      "ĠÏĢÎ±Î¹Î´": 3040,
      "Ġá¿¥á¿Ĩ": 3041,
      "ĠÎ³Î½ÏīÏģá½·": 3042,
      "Ġá¼ĲÎ³Îºá½³ÏĨÎ±Î»": 3043,
      "ĠÏĢá½¹Î½": 3044,
      "ĠÏĩÏģá½µÏĥÎ¹": 3045,
      "ĠÏĢÎ»Îµá½·Î¿Î½": 3046,
      "ĠÏĥÎ¹ÏĦá½·": 3047,
      "á½¥ÏĥÏĢÎµÏģ": 3048,
      "Ġá½ĳÎ³Î¹ÎµÎ¹Î½": 3049,
      "Î¿á¿¦ÏĥÎ¸Î±Î¹": 3050,
      "ĠÎºÎ±ÏģÎ´á½·Î±Î½": 3051,
      "ĠÏĥÏĢÎ»á½±Î³": 3052,
      "Ġá¼©": 3053,
      "Î¼á½´Î½": 3054,
      "Î²Î¿Ïħ": 3055,
      "Ġá¼ĳÏĦá½³ÏģÎ±Î½": 3056,
      "Î¸á½³ÏīÏĤ": 3057,
      "Ġá½ĢÏģÎ³á½±Î½ÏīÎ½": 3058,
      ".âĢĻ": 3059,
      "Î½Î¿ÏĤ": 3060,
      "Î»ÎµÎº": 3061,
      "ÏĦÎ¹Îºá½°": 3062,
      "ĠÎ½Î¿ÏĥÎ·Î¼á½±ÏĦÏīÎ½": 3063,
      "ÏĩÎ·": 3064,
      "Î¿Î¹Îº": 3065,
      "ĠÎ´Î¹á½¹ÏĦÎ¹": 3066,
      "ĠÏĢá¾¶ÏĥÎ¹Î½": 3067,
      "Ï²Î¹": 3068,
      "Î³ÏīÎ³": 3069,
      "ĠÏĢÎ¿Î½Î·Ïģ": 3070,
      "ĠÏĩÏģá¿Ĩ": 3071,
      "ĠÎµá¼¶ÏĢÎ¿Î½": 3072,
      "ĠÏĥÏħÎ½á½³": 3073,
      "ĠÎ¿á¼´Î½": 3074,
      "Î¸ÎµÎ¹Î±Î½": 3075,
      "á½¹Î»Î¿Ïħ": 3076,
      "Ġá¼¡Ïĥ": 3077,
      "ĠÎ½Î±": 3078,
      "á¼ĳ": 3079,
      "ÏģÎ±Î¹ÏĤ": 3080,
      "ÏĢÎµÏģá½¶": 3081,
      "ĠÎ¼á½³Î³Î¹": 3082,
      "Ġá¼¸Î·ÏĥÎ¿á¿¦ÏĤ": 3083,
      "ĠÎ¼á½³ÏģÎ·": 3084,
      "Ġá¼ĲÏģÎ³Î±Î¶": 3085,
      "Î¹Î¿ÏĤ": 3086,
      "ĠÎºÏĮ": 3087,
      "ĠÎ¸á½³Ïģ": 3088,
      "Ġá¼ĢÎ½á½´Ïģ": 3089,
      "Ġ25": 3090,
      "ĠÏĢÎ±Î½ÏĦá½±ÏĢÎ±": 3091,
      "Ġá¼ĳÎ±ÏħÏĦá¿·": 3092,
      "ĠÏĨÎ»ÎµÎ²á¿¶Î½": 3093,
      "ive": 3094,
      "ÏīÎ³": 3095,
      "á½³ÏĥÏĦÎµÏģÎ¿Î½": 3096,
      "Î´Ïħ": 3097,
      "Ġá¼ĲÏĢÎ¿": 3098,
      "Ġá¼ĦÎ¼ÎµÎ¹Î½Î¿Î½": 3099,
      "Ġare": 3100,
      "á¿Ħ": 3101,
      "á¿ĸÎ¿ÏĤ": 3102,
      "ÏģÎ¹Ïĥ": 3103,
      "Ġá¼ĦÏģÎ±": 3104,
      "Î¶ÎµÎ¹": 3105,
      "á¾¶Î½": 3106,
      "Î¿á¿¦Î½ÏĦÎ¿ÏĤ": 3107,
      "Ġpro": 3108,
      "ĠÎ¿á½ĶÎ¸": 3109,
      "ĠÎ±á¼´ÏĥÎ¸Î·": 3110,
      "Ġá¼ĢÎ½á½±Î³ÎºÎ·ÏĤ": 3111,
      "Î¿Î³Î¿Î½": 3112,
      "Ġá¼ķÎ½": 3113,
      "á½±ÏĥÎ±ÏĥÎ¸Î±Î¹": 3114,
      "ĠÎ±á½ĲÎ¾": 3115,
      "ÏĮÏĦÎ¹": 3116,
      "Ġet": 3117,
      "et": 3118,
      "ÎºÎ·Î½": 3119,
      "ĠÏĢÏģÎ¿ÏĤ": 3120,
      "Ġá¼ĳÏĪ": 3121,
      "Î¿á½Ĺ": 3122,
      "Ġá½ĢÎ»Î¹": 3123,
      "á½»ÏģÎ½Î·ÏĤ": 3124,
      "ĠÏĦá½³Î½": 3125,
      "Î»ÎµÎ¹ÏĤ": 3126,
      "á½³Î½ÏĦÎ±": 3127,
      "ĠÏĦá½¹Î½": 3128,
      "ĠÏĩÏģá½½": 3129,
      "ĠÎ¼Î·Î½": 3130,
      "ÏĥÎ¸á¿ĨÎ½Î±Î¹": 3131,
      "ĠÏĢá¿¶ÏĤ": 3132,
      "Ġá¼ĲÏĢÎ¹ÏĦÎ·": 3133,
      "Ġá¼ĢÎ³Î³Îµá½·ÏīÎ½": 3134,
      "Î±Î¶": 3135,
      "Î»ÎµÏĢ": 3136,
      "ĠÏĥÏħÎ³": 3137,
      "ther": 3138,
      "ill": 3139,
      "ĠÏĢÎ¯": 3140,
      "ĠÏĢÏģá½±": 3141,
      "ĠÏĨÎµÏģ": 3142,
      "ĠÏĢÎ±Ïģá½³": 3143,
      "ĠÏĦÏģá½·ÏĦÎ¿Î½": 3144,
      "Î¼Î½Î·": 3145,
      "ĠÎ´á½»Î½Î±Î¼Î¹ÏĤ": 3146,
      "Ġá¼ĢÏģÎ¹": 3147,
      "âģ±": 3148,
      "ĠÎĽÎµÏħ": 3149,
      ".)": 3150,
      "ĠÏĦá½¼": 3151,
      "Î¸ÎŃ": 3152,
      "ĠÎ¸Î±Î»": 3153,
      "Ïģá½·ÏīÎ½": 3154,
      "ĠÎµá½ĲÏĨ": 3155,
      "Ġad": 3156,
      "ĠÎ´Î¹ÎºÎ±Î¹Î¿Ïĥ": 3157,
      "ÏĦÎ¹Î±": 3158,
      "á½¹Î½ÏĦÎ¿ÏĤ": 3159,
      "Ïģá½·Î±ÏĤ": 3160,
      "ĠÎ¼á¿ĨÎºÎ¿ÏĤ": 3161,
      "Î¬Î³": 3162,
      "Î½ÎµÎ³": 3163,
      "Ġá½ĳÎ³Î¹Î±": 3164,
      "ĠÎ½Îµá¿¦ÏģÎ±": 3165,
      "ĠÏĥÏĢÎ¿Î½": 3166,
      "Ġ27": 3167,
      "Ġá¼°Î´á½·": 3168,
      "ĠÏĦÎ¹Î½á½²ÏĤ": 3169,
      "ĠÎµá½ĲÎ¸á½³ÏīÏĤ": 3170,
      "ĠÎ±á¼±Î¼Î¿á¿¤á¿¥": 3171,
      "Î¼Î¬ÏĦÏīÎ½": 3172,
      "ĠÏĢá¿¦Ïģ": 3173,
      "Î¾Î±ÏĦÎ¿": 3174,
      "ÏĦÏģÎ±": 3175,
      "ĠÏĩÏģÎµá½·Î±ÏĤ": 3176,
      "ĠÏĥá½»Î¼Î¼Îµ": 3177,
      "á¼ĦÎ»Î»Î±": 3178,
      "Ġá¼ĢÎ»Î»á½µÎ»Î¿Î¹ÏĤ": 3179,
      "ĠJ": 3180,
      "Î»Î±ÏĤ": 3181,
      "Îºá½·": 3182,
      "ĠÏĥÏħÎ»Î»": 3183,
      "Ġá¼ĶÏĩÎ¿Î½": 3184,
      "ĠÏĨÏħÏĥÎ¹Îº": 3185,
      "um": 3186,
      "Î¹á¿¶Î½": 3187,
      "Î¬Î²": 3188,
      "Ġá½ĳÎ´": 3189,
      "ĠÎ£Î±Î»": 3190,
      "Î¼ÎŃÎ½ÏīÎ½": 3191,
      "Î±á¼±": 3192,
      "Î¶Î¿Î½": 3193,
      "ĠÎ¾Î±Î½Î¸": 3194,
      "ĠÎ»ÎŃÎ³ÏīÎ½": 3195,
      "âģ±áµĪ": 3196,
      "ĠÏīÏĤ": 3197,
      "Î±Î¼": 3198,
      "ĠÏĢá½µ": 3199,
      "á½±Î½ÎµÎ¹Î½": 3200,
      "Ġup": 3201,
      "ĠÎ´Î¹Î±ÏĨÎ¸": 3202,
      "ĠÏĦÎ¿ÏįÏĦÏīÎ½": 3203,
      "ĠÏĢÎ±Î¸á¿¶Î½": 3204,
      "ĠÏĢÏģÎ¿ÏĥÎº": 3205,
      "ĠÏĥÎºÎ·Î½": 3206,
      "ĠÎ´Î¹Î±Ïģ": 3207,
      "ÏĥÎ¹Î¿Î½": 3208,
      "Ġá¼ĢÎ½Î±ÏĥÏĦ": 3209,
      "ns": 3210,
      "Ġá¼ĢÎ½ÎŃ": 3211,
      "ÏħÎ½á½¶": 3212,
      "Î±ÏģÎ±": 3213,
      "Ïģá¿³": 3214,
      "Î¿Î¹ÏĥÎ¹": 3215,
      "Ġá¼ĶÏĩÎ¿ÏħÏĥÎ¹": 3216,
      "ÏĦÎ¹ÎºÎ¿á¿¦": 3217,
      "ĠÎ»ÏĮÎ³Î¿Î½": 3218,
      "ĠÏĦÏģÎ¿ÏĨá½´Î½": 3219,
      "Ġá¼ĢÏģÎ¹ÏĥÏĦÎµÏģ": 3220,
      "ÏĥÏīÎ½": 3221,
      "ĠÎ¸Î±Î½": 3222,
      "Ġá¼´ÏĥÏĩ": 3223,
      "Ġá¼ĳÎ½á½¸ÏĤ": 3224,
      "ĠÏĩá½½ÏģÎ±Î½": 3225,
      "Î´á½³Ïĩ": 3226,
      "ĠÎ´Î¹Î±Î½": 3227,
      "ĠÏĩÏģÎ¿Î½": 3228,
      "ĠÏĥÏĢá½³ÏģÎ¼Î±ÏĦÎ¿ÏĤ": 3229,
      "ted": 3230,
      "á½·Î³Î½": 3231,
      "ÏĢÎ¿Î»": 3232,
      "ĠÎºÎ±ÏĦá½³": 3233,
      "ĠÏĢÎ¿Î¹Îµá¿ĸÎ½": 3234,
      "Ġá¼ĲÎ½á½³ÏģÎ³ÎµÎ¹Î±Î½": 3235,
      "ĠÎ¼Î½Î·Î¼Î¿Î½": 3236,
      "ÏĦá½»": 3237,
      "Îµá½Ĳ": 3238,
      "ÏįÏĤ": 3239,
      "Ġá¼ĶÏĩÏīÎ½": 3240,
      "ĠÎºÎµÎºÎ±Ïħ": 3241,
      "ĠÏĥÏĢá½³ÏģÎ¼Î±": 3242,
      "Ġá¼ķÎ»": 3243,
      "ĠÎ»á½·ÏĦÏģÎ±Î½": 3244,
      "ÎµÏĪ": 3245,
      "ĠÏĢá½·": 3246,
      "Ġá¼ĢÎ¼Ïħ": 3247,
      "Ġá¼ĳÏĢÏĦá½°": 3248,
      "improb": 3249,
      "á½¹Î´": 3250,
      "Ġá¼ĢÎ´á½»Î½Î±": 3251,
      "Ġá¼¡ÏĥÏħÏĩ": 3252,
      "ĠÂ": 3253,
      "ĠÏĥÎ¿á¿¦": 3254,
      "Î²Î¿": 3255,
      "ĠÏĦÎ¹Î½Î¹": 3256,
      "ÏīÏĥÎµÎ½": 3257,
      "ĠÎ´á½±Îº": 3258,
      "Î¯Î¿Î¹ÏĤ": 3259,
      "Ġá¼ĲÎºÏĦá½¸ÏĤ": 3260,
      "ĠÏĥá½½Î¼Î±ÏĦÎ±": 3261,
      "Î¼á¿³": 3262,
      "Î´ÎŃ": 3263,
      "ĠÏĥÏĢÎ±": 3264,
      "ÏĥÎºÎ»Î·": 3265,
      "Ġthey": 3266,
      "Î´Î·ÏĤ": 3267,
      "ÏģÎµÏĥÎ¹Î½": 3268,
      "Ġá¼ĲÏĢÎ¹Î¸ÏħÎ¼": 3269,
      "Î¸ÎµÏĥÎ¹ÏĤ": 3270,
      "ÏĢÎ½Î¿á¿ĨÏĤ": 3271,
      "ĠÏĦá¼ĦÎ»Î»Î±": 3272,
      "Î¿Î¼á½³Î½Î±ÏĤ": 3273,
      "Ġá¼§ÏĢÎ±Ïģ": 3274,
      "ĠÏĥÏį": 3275,
      "ÏĦÎµá¿¦": 3276,
      "ĠÎ¿á¼´ÎºÎ¿Ïħ": 3277,
      "sup": 3278,
      "Î¼á½µ": 3279,
      "ĠÏĥÏħÎ³Î³": 3280,
      "á¿¤á¿¥ÏīÏĥÏĦ": 3281,
      "ĠÎ½Î¿Ïĥá½µÎ¼Î±ÏĦÎ¿ÏĤ": 3282,
      "Î¼á½¼Î½": 3283,
      "Î®ÏĥÎ¿Î½ÏĦÎ±Î¹": 3284,
      "Ġá¼¤ÎºÎ¿Ïħ": 3285,
      "ĠÏĢá½±Î¸Î·": 3286,
      "ÏĥÏĥÎ¿Î½": 3287,
      "Î»Î·Î½": 3288,
      "Ġá¼ĲÎ»Î±á½·Î¿Ïħ": 3289,
      "áµĽâģ±áµĪ": 3290,
      "ãĢ": 3291,
      "ĠÏĢÎµá½·": 3292,
      "ĠÏĢÎ¿Î»Î»Î¿á½¶": 3293,
      "ÏĦá½³ÏģÎ¿Î¹ÏĤ": 3294,
      "á½±ÏĤ": 3295,
      "Ġá¼ĢÎºÎ¿Î»Î¿Ïħ": 3296,
      "ÏĦÏħÏģ": 3297,
      "ÏĩÏħÎ¼": 3298,
      "ÏĥÏĦÎµÎ¹Î»ÎµÎ½": 3299,
      "ĠÎ²Î±Î»": 3300,
      "Îµá½·ÏĥÎ·ÏĤ": 3301,
      "Ġá¼ĢÏģÏĩá½°ÏĤ": 3302,
      "ÏĢÏģá½¸ÏĤ": 3303,
      "ÏĥÎ±Î¼ÎµÎ½": 3304,
      "Ġá¼ĦÎ»Î»ÏīÏĤ": 3305,
      "Ġá¼ĲÏĩá½¹Î½ÏĦÏīÎ½": 3306,
      "ĠÏĥÏħÎ¼ÏĢÏĦá½½": 3307,
      "Ġá¼¥ÏĢÎ±ÏĦÎ¿ÏĤ": 3308,
      "á¼ĲÎ¾": 3309,
      "ĠÏĪá½»Ïĩ": 3310,
      "ĠÎ»ÎµÏĢÏĦÎ¿Î¼": 3311,
      "ÏĦá¿ĩ": 3312,
      "Î¹á½±": 3313,
      "Ġá¼ĲÎ¸á½³": 3314,
      "á¼ĲÏĢÎ¹": 3315,
      "Ġá¼ĲÏģÏħ": 3316,
      "ÏĦÎŃÏģÎ±": 3317,
      "ĠÎµá¼°Ïĥá½¶": 3318,
      "ÏĢá½¶": 3319,
      "Î³Î¼á½±ÏĦÏīÎ½": 3320,
      "Ġá¼ĲÏĢá½³": 3321,
      "Ġá½ĢÏĢá½·ÏĥÏī": 3322,
      "ĠÎ¸á½½ÏģÎ±ÎºÎ¿ÏĤ": 3323,
      "ĠÏĢÏģÎ¿Ïĥá½µÎºÎµÎ¹": 3324,
      "ÎºÎ¿Î¹ÏĤ": 3325,
      "ĠÏĩÎµá¿ĸÏģÎ±": 3326,
      "11": 3327,
      "á½±Î½ÎµÎ¹": 3328,
      "ĠÎºÎ¿Î¹Î½á½¸Î½": 3329,
      "ĠÎ¼ÎŃÎ½": 3330,
      "Î²Î¬": 3331,
      "Î²ÎµÎ²": 3332,
      "Î®Î¸Î·": 3333,
      "ĠÎ¸ÎµÏģÎ±ÏĢÎµÏħ": 3334,
      "ĠÎ´Î¿á¿¦": 3335,
      "Î¿ÏħÎ½": 3336,
      "ĠÏĥÎºÎ¿": 3337,
      "Ġcl": 3338,
      "Ġthou": 3339,
      "ĠÏĥÏĨÏħÎ³Î¼á½¸ÏĤ": 3340,
      "Ġá½ģÏĢÎ¿á¿ĸ": 3341,
      "Î¼Î¼Î±": 3342,
      "ĠÎ¸Î·": 3343,
      "ĠÎ¼á½³Î³Î±": 3344,
      "ĠÏĥÏĦÏĮ": 3345,
      "Ġá½ħÎ»Î¿Ïħ": 3346,
      "ĠÏĢÎ±Î½ÏĦá½±ÏĢÎ±ÏĥÎ¹Î½": 3347,
      "Î¶ÏħÎ³": 3348,
      "á½·Î½ÏīÎ½": 3349,
      "ings": 3350,
      "ĠÏĢÎ½Îµá½»Î¼Î±ÏĦÎ¿ÏĤ": 3351,
      "ek": 3352,
      "Ġá¼ĦÎ»Î»Î·": 3353,
      "ÏĦÏĦÎµÎ¹": 3354,
      "á½³Î»ÏĦÎ¹Î¿Î½": 3355,
      "ĠÎ´Î¹ÎµÎ¾": 3356,
      "ÎºÎ±Ïģ": 3357,
      "Ġá¼°Î´á½³": 3358,
      "ah": 3359,
      "ÏĦÏĦÎ¿Ïħ": 3360,
      "Î±á½": 3361,
      "Îµá½·á¾³": 3362,
      "ĠÎ¼ÎµÏĦÎ±Î²Î¿Î»": 3363,
      "Ġá¼ĺÏģÎ±": 3364,
      "ĠÎ´ÏįÎ¿": 3365,
      "ĠÎ´á½µÏĢÎ¿Ïħ": 3366,
      "ÏĮÎ¼ÎµÎ½Î¿Î¹": 3367,
      "Ġá½ķÏĢÎ½": 3368,
      "Ġlit": 3369,
      "Ġá¼ĢÎ¼ÏĨÎ¿á¿ĸÎ½": 3370,
      "ÏĥÎ¬": 3371,
      "ĠÎ¿ÏĦÎ¹": 3372,
      "ÏģÎ±á½¶": 3373,
      "á½µÏĥÎ±ÏĤ": 3374,
      "ĠÏĢÎ±ÏģÎ±Îº": 3375,
      "ĠLxx": 3376,
      "Ġus": 3377,
      "ĠÏĢÎ¿Î»Î»á¿·": 3378,
      "Î©": 3379,
      "ÏĦá¿Ĩ": 3380,
      "ÏĢÏħ": 3381,
      "á½³ÏĩÎµÎ¹Î½": 3382,
      "Ġá½ĢÏĥÏĦÎ¿á¿¦Î½": 3383,
      "ĠÏĦÏģÎ¹á¿¶Î½": 3384,
      "Ġá¼´ÏĥÏīÏĤ": 3385,
      "Ġá¼ĶÏĥÏī": 3386,
      "ĠÏĨÎ±ÏģÎ¼á½±ÎºÎ¿Ïħ": 3387,
      "ĠÏĨÏīÎ½á¿ĨÏĤ": 3388,
      "ÏĥÏĦÎ¹ÏĤ": 3389,
      "ĠÏĢÎ¿Î»Î»Î¿á¿ĸÏĤ": 3390,
      "ĠÎ»Î¹Î¸": 3391,
      "Ġá¼ĲÎ³ÎºÎµÏĨá½±Î»Î¿Ïħ": 3392,
      "ÎµÏģÎ¿Î½": 3393,
      "Î»Î¹Î²": 3394,
      "ÏĦÏīÏĥÎ±Î½": 3395,
      "ÏĨÏģÎ¿Î½": 3396,
      "ĠÎ¿ÏħÎº": 3397,
      "á½¹Î½ÏīÎ½": 3398,
      "ĠÎ±ÏħÏĦÏī": 3399,
      "Î½Î·Î½": 3400,
      "Ïĥá½·Î½": 3401,
      "ĠÎºÎ»": 3402,
      "ĠÎºÎ»Î·ÏģÎ¿Î½Î¿Î¼": 3403,
      "ĠÎ²ÎµÎ²": 3404,
      "Ġá¼ĢÎ½ÏĦá½¶": 3405,
      "ĠÎ´Î¹Î±ÏĨ": 3406,
      "Î»Î¿Î³Î¿Î½": 3407,
      "Î»á½¹Î³": 3408,
      "ÏħÏĤ": 3409,
      "Îµá¿ĸÎ±Î½": 3410,
      "ĠÏĢÎ¿Î»Îµ": 3411,
      "ĠÎ´Î¹Î±á½·": 3412,
      "ÎºÏģÎ¹Î½": 3413,
      "Ġá¼Ļ": 3414,
      "ĠÎ³á¿ĩ": 3415,
      "Î¿Î¼á½³Î½á¿³": 3416,
      "ĠÎ¸ÎµÏģÎ¼Î±Ïĥá½·Î±ÏĤ": 3417,
      "ÏĩÏīÏģÎµá¿ĸ": 3418,
      "Ġá¼ĲÏĥÎ¸": 3419,
      "ĠÎ´Î¹ÏĦÏĦ": 3420,
      "ĠÎ±á½ĳ": 3421,
      "á½µÏĥÎµÏīÎ½": 3422,
      "ÏīÏĥÎ¹ÏĤ": 3423,
      "ĠÏĥÏħÎ³Ïĩ": 3424,
      "ĠÎ²Î»á½±Î²": 3425,
      "ĠÎ¸ÏħÏĥÎ¹Î±ÏĥÏĦ": 3426,
      "ĠX": 3427,
      "ĠÎ±á½ĲÏĦá½´": 3428,
      "ÏĥÎµÏĥÎ¸Î±Î¹": 3429,
      "Î»Î¹ÏĢ": 3430,
      "ÏĥÎ±Î½ÏĦÎ¿": 3431,
      "Î´á¿¶Î½": 3432,
      "Î»á½±ÏĦÏīÎ½": 3433,
      "ĠÎµá½ĳÏģá½·ÏĥÎº": 3434,
      "ĠÏĦÎ¿Î¹Î±á½»ÏĦÎ·Î½": 3435,
      "Ġá¼ĶÎ´ÏīÎºÎµÎ½": 3436,
      "ĠÎ´Î¹Î´Î±Ïĥ": 3437,
      "Î¼á½³Î½Î¿Î¹": 3438,
      "ĠÎ¼Î·Î´Îµ": 3439,
      "ĠLord": 3440,
      "ĠÏĢÎ±Î¹Î´á½·": 3441,
      "Ġá¼ĶÏĥÏĩ": 3442,
      "ĠÎºÎ±ÏĦÎŃ": 3443,
      "Ġá¼ĦÎ½ÏīÎ¸ÎµÎ½": 3444,
      "ĠÏĦÎ¿ÏħÏĤ": 3445,
      "Î±ÏģÏĩ": 3446,
      "ÏĦÎµá¿¦Î¸ÎµÎ½": 3447,
      "ÏĦÎ¿á½¶": 3448,
      "ĠÎ»Î¿Î³Î¹ÏĥÎ¼": 3449,
      "ĠÎļÏħÏģÎ¹Î¿ÏĤ": 3450,
      "ĠÏħÎ¼": 3451,
      "Î¿Î¹Î½": 3452,
      "Î¸Î·Î½": 3453,
      "ĠÎ¼á½³Î³": 3454,
      "Î³Î³Î¿ÏĤ": 3455,
      "ĠÏĢÎ»Î·Ïģ": 3456,
      "ĠÏĦÎ¿á¿ĸÏĥÎ¹": 3457,
      "ĠÏĩÎ¹ÏĦá¿¶Î½": 3458,
      "ĠÏĥÏħÎ¼Î¼á½³": 3459,
      "ĠÎ»ÎµÏĢÏĦÎ¿Î¼ÎµÏģ": 3460,
      "á¿¶ÏĥÎ¹": 3461,
      "Ġá¼Ģá¿¤á¿¥ÏīÏĥÏĦ": 3462,
      "á½µÏĥá¿ĥ": 3463,
      "ĠÎ¿á½ĲÎºá½³": 3464,
      "Ġ28": 3465,
      "Ġá¼ĲÎ³ÎµÎ½": 3466,
      "ĠÎ±á½Ķ": 3467,
      "ĠÏĨÎ»á½³Î²Î±ÏĤ": 3468,
      "ĠÏĢÎµÏģÎ¹ÎµÏĩ": 3469,
      "ÏħÏģÎ¿": 3470,
      "ÏĪÎ¹ÏĤ": 3471,
      "Ġá½ĳÎ¼Îµá¿ĸÏĤ": 3472,
      "Ġá¼±Î´Ïģ": 3473,
      "ĠÎ±ÏħÏĦÎ¿Î½": 3474,
      "á½³Î³ÏģÎ±ÏĢÏĦÎ±Î¹": 3475,
      "ÎµÎ½á½¸ÏĤ": 3476,
      "Î½ÎµÏĥÎ¹Î½": 3477,
      "Ġá¼ĳÎºá½±ÏĦÎµÏģÎ¿Î½": 3478,
      "Ġ[": 3479,
      "ĠÎ±á½ĲÏĦÎ¿á½»ÏĤ": 3480,
      "ĠÎ»Î±á½¸ÏĤ": 3481,
      "ĠÎ¾Î·ÏģÎ±Î½": 3482,
      "ĠÎ»á½·ÏĦÏģÎ±ÏĤ": 3483,
      "pp": 3484,
      "á¿ĨÎ»Î¸Î¿Î½": 3485,
      "ĠÎ¸Îµá¿·": 3486,
      "ĠSy": 3487,
      "á½·ÏĥÎº": 3488,
      "ÏĨÎ·": 3489,
      "Î¿á½»ÏĥÎ±ÏĤ": 3490,
      "ĠÎ±ÏħÏĦÎ¿ÏħÏĤ": 3491,
      "ĠÏĩÎµÎ¹Î¼á¿¶Î½": 3492,
      "ĠÎŁá½Ĳ": 3493,
      "ÏĥÏĥÎ·ÏĤ": 3494,
      "Ġ29": 3495,
      "ÎºÎ¿ÏĥÎ¹": 3496,
      "Ġá¼´Î´Î¹Î¿Î½": 3497,
      "Îµá¼°ÏĤ": 3498,
      "ĠÎºÎ¿Î¹Î»á½·Î±ÏĤ": 3499,
      "ĠÎ¼ÏĮÎ½Î¿Î½": 3500,
      "ĠÏĦá½»Ïĩ": 3501,
      "ĠÏĥá½±Ïģ": 3502,
      "Ġá¼ĲÏĢÎ¿Î¹": 3503,
      "ĠÏĩÏģÎµá½·Î±Î½": 3504,
      "Ġmea": 3505,
      "ĠÏĢÎ¬Î½ÏĦÏīÎ½": 3506,
      "á½½Î¼Î±ÏĦÎ±": 3507,
      "Ġá¼ĲÎ¾ÎµÎ»": 3508,
      "ÏĦÎ¹ÎºÎ¿á¿ĸÏĤ": 3509,
      "ĠÎºá¾ĢÎº": 3510,
      "Ġá¼ĢÎ»Î»á½µÎ»ÏīÎ½": 3511,
      "ĠÎ´ÏħÎ½á½±Î¼ÎµÎ¹ÏĤ": 3512,
      "ĹÏĦÎ±Î¹": 3513,
      "Î±Ïĩ": 3514,
      "ÏīÏ²": 3515,
      "ĠÏĢÏģá½±Î³": 3516,
      "Î¯ÏīÏĤ": 3517,
      "ĠÏĨÎ·ÏĥÎ¹Î½": 3518,
      "ÏĪÏī": 3519,
      "ĠÎ½ÏħÎº": 3520,
      "Ġá¼¡Î¼ÎŃÏģ": 3521,
      "ĠÏĢÏģÎ¿ÏĥÎ±Î³Î¿": 3522,
      "Î¹ÎºÎ±á¿¦ÏĦÎ±": 3523,
      "sa": 3524,
      "ĠÏĨÎ·ÏĥÎ¹": 3525,
      "Î»Î¹ÏĤ": 3526,
      "ÏĦÏīÎ¼Î±": 3527,
      "Ġá¼ĲÎºÎµá¿ĸÎ½Î¿": 3528,
      "Ġá¼ĲÎ´Îµ": 3529,
      "ĠÎµÏĢÎµ": 3530,
      "Î³Î±Î³": 3531,
      "Ġá¼¸ÏĥÏģÎ±á½µÎ»": 3532,
      "ĠÏĩÏģá½¹Î½Î¿Ïħ": 3533,
      "ĠÎļÏħÏģá½·Î¿Ïħ": 3534,
      "for": 3535,
      "Î½Î¹": 3536,
      "Î¸ÏīÎ½": 3537,
      "Î¼Î±ÏĦ": 3538,
      "ĠÎ´Î¹á½³": 3539,
      "Ïģá½¹ÏĦÎ·ÏĤ": 3540,
      "Î¼ÏĨÏī": 3541,
      "ĠÎºÏĤ": 3542,
      "ÏĩÎ±Î»": 3543,
      "ĠÏĢÎ±ÏģÎ±Ïĩ": 3544,
      "ĠÏĢá¾¶ÏĥÎ¹": 3545,
      "ÎĹ": 3546,
      "Î¹Îºá½¸Î½": 3547,
      "Ġá¼ĢÎ³Î½Î¿": 3548,
      "Ġá¼ĳÎ»Îºá¿¶Î½": 3549,
      "Ġá¼ĲÏĢÎ¿á½·Î·ÏĥÎµÎ½": 3550,
      "Ġi": 3551,
      "Î»Î¿Î¹ÏĤ": 3552,
      "ĠÎ¼Î¹Î³Î½": 3553,
      "ÏģÎ±Î³": 3554,
      "Ġá¼ĲÎºÏĦÎµ": 3555,
      "ĠÏĦá¿·Î´Îµ": 3556,
      "Î·ÏĥÎ¿Î½": 3557,
      "cc": 3558,
      "Ġá¼ĶÎ»Î±Î¹Î¿Î½": 3559,
      "ĠÏĢá¾¶ÏĥÎ±": 3560,
      "Ġá¼ĢÎ»Î³": 3561,
      "ĠÎ³ÏģÎ±Î¼": 3562,
      "Î±Î½Î¹": 3563,
      "Î¯Î¿ÏħÏĤ": 3564,
      "Î»ÎµÎºÏĦÎ±Î¹": 3565,
      "Ġá¼ĶÏĩÎ¿ÏħÏĥÎ¹Î½": 3566,
      "á½±Î»Î¿Î³Î¿Î½": 3567,
      "ÏģÎ¿á¿ĸÏĤ": 3568,
      "ÏģÏĮÎ½": 3569,
      "Ġá¼ĲÎºÎºÏģá½·": 3570,
      "Ġá¼¸Î±Îº": 3571,
      "ĠÏĢÎ¿Î»Ïħ": 3572,
      "0Â¹": 3573,
      "ld": 3574,
      "Î±Î´": 3575,
      "ĠÎ³á½·Î³Î½": 3576,
      "ÎµÎ¹Î±": 3577,
      "ĠÎºÎ±Î¹Ïģá¿·": 3578,
      "Ġrend": 3579,
      "Î¿ÏħÏģÎ³": 3580,
      "Ġá¼ĢÎ»Î·": 3581,
      "á½³Î½ÏĦÎµÏĤ": 3582,
      "ÏĥÎµÏĥÎ¹": 3583,
      "Ġá¼ĲÏĢÎ¹á¿¤á¿¥": 3584,
      "Î´Î¹Î´": 3585,
      "ĠÏĥÏĩÎµÎ´": 3586,
      "ÎºÎ¿ÏħÏĤ": 3587,
      "ĠÏĢá½³ÏģÎ±": 3588,
      "ĠÎ³Î»á½·": 3589,
      "ÎºÎ¿Î´Î¿Î¼": 3590,
      "ÎŁá½Ĳ": 3591,
      "Î¼á¿ĨÏĤ": 3592,
      "ÎºÏħ": 3593,
      "ĠÎ»Î¿Ïħ": 3594,
      "ĠÎ´á½»Î½Î±ÏĥÎ¸Î±Î¹": 3595,
      "ĠÎ¿á½ĲÎ´Îµá½¶ÏĤ": 3596,
      "ĠÎ¿á½ĲÏģÎ±Î½Î¿á¿¦": 3597,
      "ĠÏĢÎ±ÏģÎ±ÏĢÎ»Î·Ïĥ": 3598,
      "ÏĢÎ»Î·": 3599,
      "ĠÏĢÎ·": 3600,
      "Ġ31": 3601,
      "ĠÏĩÎµÎ¹Ïģá½¶": 3602,
      "ĠÎ´á½³ÏģÎ¼Î±ÏĦÎ¿ÏĤ": 3603,
      "Î¸á¿ĩ": 3604,
      "Îµá¿ĸÎ½Î±Î¹": 3605,
      "á½ķ": 3606,
      "Î¸Î·ÏĤ": 3607,
      "á½³ÏĤ": 3608,
      "Ïĩá½½": 3609,
      "Ġá¿¥Î·ÏĦ": 3610,
      "ĠÎ³ÎŃÎ½": 3611,
      "á½µÎ¼Î±ÏĦÎ¹": 3612,
      "ÏĪÎµÏĦÎ±Î¹": 3613,
      "Ġá½ĦÏģÎ³": 3614,
      "Î¼ÏĨÏħ": 3615,
      "ĠÎºÎ¹Î½á½µÏĥÎµÎ¹ÏĤ": 3616,
      "ÏĦÏģÎ¹Îº": 3617,
      "Ġá¼ĶÏĨÎ·": 3618,
      "ĠÏĢÏģÏĮÏĥÏī": 3619,
      "ĠÎ²Î¹Î²Î»á½·Î¿Î½": 3620,
      "ĠÏĦÎ¬": 3621,
      "ĠÎ´Ïİ": 3622,
      "ÏĥÎ±ÏĨ": 3623,
      "ĠÎ¿á½ĲÎ´á½³": 3624,
      "Î³ÎµÎ³ÏģÎ±Î¼": 3625,
      "ĠÏĥÏħÎ¼Î¼Îµ": 3626,
      "ĠÎµá¼¶Î½Î±á½·": 3627,
      "Ġthem": 3628,
      "Î¾Î±ÏĥÎ¸Î±Î¹": 3629,
      "ĠÎ³Î»á½·ÏĥÏĩ": 3630,
      "ÎºÎµÏĤ": 3631,
      "ĠÎ´Î±": 3632,
      "Ġá¼ĢÎºÎ¿Ïį": 3633,
      "ÎºÎ»á¿³": 3634,
      "ĠÏĩÎ¹Î»Î¹": 3635,
      "Ġá¼ĲÏĢÎŃ": 3636,
      "ĠÏħá¼±Î¿á¿¦": 3637,
      "ĠÏĦá¿ĨÏ²": 3638,
      "ĠÏĢÎµÎ¹": 3639,
      "Î¼Î±Î»": 3640,
      "Ġá¼ĳÎ±Ïħ": 3641,
      "ĠÏĥÏħÎ½ÏĦÎµ": 3642,
      "hap": 3643,
      "Ġá¼ĢÎ¼á½³": 3644,
      "ĠÏĥÏĢÎ¿Î½Î´á½»Î»": 3645,
      "Ġá¼¡Î¼ÎŃÏģá¾³": 3646,
      "ĠÏĢÎ¿Î¹Îµá¿ĸ": 3647,
      "ÎºÎ¿ÏĥÏĦ": 3648,
      "ĠÎ¼ÎµÏĦÊ¼": 3649,
      "Ġá¼ĢÎ´ÎµÎ»ÏĨÎ¿": 3650,
      "ge": 3651,
      "á½ī": 3652,
      "á¼ĢÎ½Î±": 3653,
      "Ġá½¥ÏĥÏĦ": 3654,
      "ĠÏĥÎ·Î¼Îµá¿ĸÎ¿Î½": 3655,
      "Ġá½ģÏĢá½¹": 3656,
      "ĠÎºÎ¿ÏĦá½»Î»": 3657,
      "Î·Î¸Î·": 3658,
      "ÏĦÎ±Î¯": 3659,
      "ĠÏĨÏģÎµÎ½": 3660,
      "ÏĦÎ±Î¾ÎµÎ½": 3661,
      "ÏĥÏĦÏīÎ½": 3662,
      "ĠÏĥÏħÎ¶ÏħÎ³": 3663,
      "ĠÎ¼ÎµÎ³á½³": 3664,
      "ĠÎłÎ»á½±ÏĦÏīÎ½": 3665,
      "ĠÎºá¾ĢÎ½ÏĦÎ±á¿¦Î¸Î±": 3666,
      "ÏĢÎ¿ÏģÎµÏħ": 3667,
      "Ġá¼ĳÏģ": 3668,
      "Ġá¼ĲÏĥÏĦá½·Î½": 3669,
      "Î´ÎµÎºÎ±": 3670,
      "ĠÎ½Ïī": 3671,
      "ĠÎ¸ÎµÏģÎ¼Î¿á¿¦": 3672,
      "ĠÎ³Î½Ïī": 3673,
      "ĠLXX": 3674,
      "Ġá¼ĲÏĢÎ¿Î¯Î·ÏĥÎµÎ½": 3675,
      "Î¸Î±Ïģ": 3676,
      "á¿ĸÎ¿Î¹": 3677,
      "ĠÎ´Î¹Î±ÏĨÎ¿ÏģÎ·": 3678,
      "Ġá¼ķÎ»ÎºÎ¿ÏĤ": 3679,
      "ally": 3680,
      "ĠÎ³á½³Î½Î¿ÏħÏĤ": 3681,
      "Îºá½¹ÏĦÏīÏĤ": 3682,
      "ĠÎ±ÏħÏĦÎ·ÏĤ": 3683,
      "ĠÎ¼á½»ÎµÏĤ": 3684,
      "pl": 3685,
      "so": 3686,
      "ÏĢÎ½Îµ": 3687,
      "ĠÎºÏħÏģÎ¯Î¿Ïħ": 3688,
      "ĠÏĥÏĦÎµÏģ": 3689,
      "ĠÎ¸ÏħÏĥ": 3690,
      "Ġá¼ĦÎ¼ÏĨÏī": 3691,
      "ĠÏĢÎ±ÏĦ": 3692,
      "â¸Ģ": 3693,
      "á½¹ÏĦÎ·ÏĦÎ¹": 3694,
      "Î¼Î·ÏĤ": 3695,
      "Ġá¼ĲÎ½ÏĦá½¸ÏĤ": 3696,
      "Ġá¼ĲÏĢÎ¯": 3697,
      "Î»ÎµÎ¸": 3698,
      "Ġá¼¦ÏĥÎ±Î½": 3699,
      "Î³ÏģÎ±ÏĨ": 3700,
      "ĠÏĢá½³ÏĨÏħÎº": 3701,
      "ÏĦÏħÏĩ": 3702,
      "ÎºÏĦÎ±": 3703,
      "ĠÏĢá½³Î½": 3704,
      "Ġá¼ĶÎ½Î´ÎµÎ¹": 3705,
      "ĠÎĴÎ±Î²": 3706,
      "ĠÎ³á½³Î½ÎµÏĥÎ¹Î½": 3707,
      "ÏĨÎµÎ¹": 3708,
      "Î¾ÎµÏĦÎ±Î¹": 3709,
      "ĠÏĢÎ¿ÏĦÎ±": 3710,
      "ĠÎºÎµÎ»Îµá½»": 3711,
      "ĠÎ³ÎµÎ½Îµ": 3712,
      "Ġá¼ĶÎ½Î¸Î±": 3713,
      "xt": 3714,
      "ÏģÏħÏĢ": 3715,
      "ÏĦá½³Ïģá¿³": 3716,
      "ĠÏĦÎ¿á¿ĸÏ²": 3717,
      "ÏĦÏģÎ¿": 3718,
      "Îµá¿¦": 3719,
      "Î´ÏģÎ¿": 3720,
      "Î±Î¹Î¿Î½": 3721,
      "ĠÎµá¼´ÏģÎ·": 3722,
      "ĠÏĢÎ»Î·Î³": 3723,
      "Ġá½ģÎ´á½¸Î½": 3724,
      "ÏĢÎ¯": 3725,
      "Î´Îµá¿ĸ": 3726,
      "Î¼ÏīÎ½Î¹": 3727,
      "ĠÎ½á½¹ÏĥÎ·Î¼Î±": 3728,
      "Ġá¼ĦÎ½Î´ÏģÎµÏĤ": 3729,
      "ÏĥÎºÎ»Î·ÏĢÎ¹": 3730,
      "ÏģÎ¿Î¹": 3731,
      "ĠÏĦÎ¿Î¹ÏĤ": 3732,
      "á¿¶Î½Î±Î¹": 3733,
      "á½»ÏģÎ¿Ïħ": 3734,
      "á½½ÏĢÎ¿Ïħ": 3735,
      "Î¼Î¿ÏħÏĤ": 3736,
      "ÏĩÏīÎ½": 3737,
      "Ġá¼ĲÏĢÎ¹Î³": 3738,
      "ĠÎ¼á½³Î»Î»": 3739,
      "á½¥ÏĥÏĦÎµ": 3740,
      "Ġá¼¸ÎµÏģÎ¿ÏħÏĥÎ±Î»Î®Î¼": 3741,
      "á½į": 3742,
      "Î¿Î½Î¿": 3743,
      "ÏģÎ¹Î¶": 3744,
      "ĠÎ¸Î¬": 3745,
      "Ġá¼ĢÎ¸Ïģá½¹": 3746,
      "ib": 3747,
      "ÏĢÎ±ÏģÎ±": 3748,
      "Ġhis": 3749,
      "Î¾Î¿Î½": 3750,
      "ĠÎµá¼¶ÏĦ": 3751,
      "Ġá¼°ÏĥÏĩÏħÏģá¿¶ÏĤ": 3752,
      "ĠÏĩÎ±Î»ÎµÏĢ": 3753,
      "aA": 3754,
      "ĠÎ³Î¬Ïģ": 3755,
      "Î¾á½±": 3756,
      "ÏĢÎ¿ÏĦÎµ": 3757,
      "Î·ÏĥÎ±ÏĤ": 3758,
      "Î¿á½»Î¼ÎµÎ½Î¿ÏĤ": 3759,
      "Ġá¼ĦÎ»Î»Î¿Î¹": 3760,
      "Ġï¬": 3761,
      "Ġá½ĢÎ´ÏħÎ½": 3762,
      "ÏĩÏī": 3763,
      "Î´á¿Ĩ": 3764,
      "á½´Î¼": 3765,
      "ÎºÎµÎ¹Î½": 3766,
      "á½µÏĥÎ¿Î½ÏĦÎ±Î¹": 3767,
      "Î¹ÎºÎ¿á¿ĸÏĤ": 3768,
      "Ġá¼ĲÎ³ÏĩÏīÏģÎµá¿ĸ": 3769,
      "á¿ĸÎ½Î¿Î½": 3770,
      "ĠÏĦá½³ÏĩÎ½Î·ÏĤ": 3771,
      "ĠÏĢÎ»Î·Ïĥá½·Î¿Î½": 3772,
      "á¼ĤÎ½": 3773,
      "ÏĨÎµ": 3774,
      "Î»ÎµÎ¯": 3775,
      "ĠÎ½Î¿á¿¦Î½": 3776,
      "ĠÎ»á½³Î¾Î¹Î½": 3777,
      "Ġá¼ĢÎ´Î¹Îº": 3778,
      "Ġá¼ĲÏĩÏģá¿ĨÎ½": 3779,
      "Ġá¼¡Î¼á½³Ïģá¾³": 3780,
      "Îµá½·Î¿Î¹ÏĤ": 3781,
      "Î³Î±Î³ÎµÎ½": 3782,
      "ĠÎ¾Î·Ïģá½¸Î½": 3783,
      "Ġá¼ĲÎ¸Îµ": 3784,
      "ĠÎ±á½ĲÏĦá½µÎ½": 3785,
      "ÏĨÎ¸Î±Î¹": 3786,
      "Ġá¼ĳÎ±ÏħÏĦá¿¶Î½": 3787,
      "ĠÎ´ÏħÎ½Î±ÏĦá½¸Î½": 3788,
      "ÏģÎ¼á½¹": 3789,
      "Ġá¼ĶÎ¸Î½Î·": 3790,
      "Ġá½ĦÎ¾Î¿ÏħÏĤ": 3791,
      ").": 3792,
      "ak": 3793,
      "ĠÎ±ÏĢÎµ": 3794,
      "ÏĥÎ±Î½ÏĦÎ±": 3795,
      "Î¿Î»á½´Î½": 3796,
      "ÏĦÎ¹Îºá½´": 3797,
      "Ġá¼ĢÏģÏĩá¿ĩ": 3798,
      "Î¼Î¹ÏĥÏħ": 3799,
      "Ġá¼ĢÏĥÏĨÎ±Î»": 3800,
      "Ġá¼¸Î¿ÏįÎ´Î±": 3801,
      "Î¸ÏģÎ±": 3802,
      "ĠÎ»ÎŃÎ³": 3803,
      "Ġá¼ĲÎ¼ÏĢÎµÎ¹": 3804,
      "Ġá¼ħÏĢÎ±ÏĥÎ¹Î½": 3805,
      "Ġá¼ĶÎ»Î±Î²ÎµÎ½": 3806,
      "ĠÏĢÎ»Î·Î¸": 3807,
      "ÏĨÎµÎ¹Î½": 3808,
      "á½µÏĥÎ±ÏĦÎ¿": 3809,
      "ĠAnd": 3810,
      "Ïģá½¹ÏĦÎ±": 3811,
      "ÏĮÎ½ÏĦÎµÏĤ": 3812,
      "ĠÎĻÏī": 3813,
      "our": 3814,
      "Ġá½ĦÎ½ÏĦÏīÎ½": 3815,
      "ĠÎ±ÏħÏĦÏīÎ½": 3816,
      "Ġá½ĢÎ½Î¿Î¼á½±Î¶ÎµÎ¹Î½": 3817,
      "ame": 3818,
      "Ġá¿¥á½±Ïĩ": 3819,
      "ĠÎĴÎ±Î²ÏħÎ»": 3820,
      "ĠÎ´Î¹Î·Î³": 3821,
      "Ġá¼ĶÏĨÎ±": 3822,
      "ĠÏĨÏģÎ¿Î½": 3823,
      "Ġsome": 3824,
      "Ġá¼°Î±ÏĦÏģÎ¹Îº": 3825,
      "Î´Îµá½·ÎºÎ½ÏħÏĦÎ±Î¹": 3826,
      "á½·ÎºÎ±": 3827,
      "ĠÏĩÏģÎµá½·Î±": 3828,
      "ĠÏĪÎµÏħ": 3829,
      "ĠÎ¼ÎµÎ³Î¬Î»": 3830,
      "ĠÎ¼Î¿Ïģá½·Î¿Î¹ÏĤ": 3831,
      "ĠÏĦÎ·Î½Î¹ÎºÎ±á¿¦ÏĦÎ±": 3832,
      "ĠÎ¸á½½ÏģÎ±ÎºÎ±": 3833,
      "ĠÎ½Îµá¿¦ÏģÎ¿Î½": 3834,
      "ĠÎ±á¼±Î¼Î¿á¿¤á¿¥Î±Î³": 3835,
      "á¼ħ": 3836,
      "ÏĢÎŃ": 3837,
      "ĠÎ´ÎµÎ¹": 3838,
      "ĠÏĦÎ¿á¿¦Î´Îµ": 3839,
      "ĠÎ³ÎµÎ³": 3840,
      "Ïģá½¹ÎºÎ¿Ïħ": 3841,
      "ĠÎ¸ÎµÏĮÏĤ": 3842,
      "Ġá½ĳÎ³ÏģÎ±": 3843,
      "ÏĦá½µÎ´ÎµÎ¹": 3844,
      "ĠÏĥÏĨÏħÎ³Î¼á½¸Î½": 3845,
      "ĠÏĦÎ¿Î¹Î¿á¿¦ÏĦÎ¿ÏĤ": 3846,
      "Î¹ÎºÎ¿á¿¦": 3847,
      "ĠÏĢÎ±Ïģá½±": 3848,
      "ĠÏĢÏģÎ¿ÏĥÏİ": 3849,
      "ĠÎºÎ±Î¹Ïģá½¸Î½": 3850,
      "ĠÎ£Îµ": 3851,
      "á½¹ÏĦÎ±ÏĦÎ¿Î½": 3852,
      "ĠÎºÏģá¾¶ÏĥÎ¹Î½": 3853,
      "Î½á½¹": 3854,
      "Ġá¼ĲÎ½Ïİ": 3855,
      "ĠÎºÏħÏģÎ¹": 3856,
      "ĠÎ´Î¹Î´á½±ÏĥÎº": 3857,
      "Ġá¼ĢÎ½Î¸ÏģÏİÏĢÎ¿Ïħ": 3858,
      "á¼µ": 3859,
      "ÏĥÎ´Îµ": 3860,
      "ĠÎ´Ïģ": 3861,
      "ĠÎ²Ïģ": 3862,
      "ĠÎµá¼¶ÏĢÎ±Î½": 3863,
      "Ġá¼ĢÏĢÎ¿Î´Îµá½·": 3864,
      "ĠÏĢÎ¿Î¹á¿ĨÏĥÎ±Î¹": 3865,
      "Ġá½ĦÎ½ÏĦÎ±": 3866,
      "ÎºÎ¹ÏĥÏĦÎ±": 3867,
      "ĠÏĨÎ»ÎµÎ³Î¼Î¿Î½á¿ĨÏĤ": 3868,
      "Î½ÎµÏĤ": 3869,
      "Î»ÎµÏĥÎµÎ½": 3870,
      "ĠÏĥÎºÎ¹": 3871,
      "ĠÏĦá½¹ÏĢÎ¿Î½": 3872,
      "Ġá¼ĢÎ½Î¸Ïģá½½ÏĢÏīÎ½": 3873,
      "ostea": 3874,
      "ĠÎ¼á½³Î»Î¹ÏĦÎ¿ÏĤ": 3875,
      "ĠÎ´Î¹Î±ÏģÎ¸Ïģ": 3876,
      "ect": 3877,
      "ÎºÎ±ÏĦÎµ": 3878,
      "ĠÏĥÏħÎ½Î¹": 3879,
      "ĠÏĩÎ¿Î»á¿ĨÏĤ": 3880,
      "ĠÏĥÏĨÎ¿Î´Ïģá¿¶ÏĤ": 3881,
      "ÎºÎµá½·Î¼ÎµÎ½Î¿Î½": 3882,
      "Î±Î¯": 3883,
      "ĠÎ´Î¿Ïħ": 3884,
      "ĠÎ³á½±Î»Î±": 3885,
      "ĠÏĢÎ»á½±": 3886,
      "Ġá¼ĪÏĥÎºÎ»Î·ÏĢÎ¹": 3887,
      "Ġverb": 3888,
      "Ġá¼ĲÎ½Î±Î½ÏĦá½·Î¿Î½": 3889,
      "Î¼Î¿Î¹ÏĤ": 3890,
      "Ġá¼ĳÏĦá½³ÏģÎ±ÏĤ": 3891,
      "ÎºÎ¿Ïį": 3892,
      "ĠÎ£Î±Î»Ïī": 3893,
      "Ġá½ĳÎ´Î±": 3894,
      "ÏĦÏģÎ¿ÏĤ": 3895,
      "ĠÎµá½ĲÎ»Î¿Î³": 3896,
      "ĠÎļÏįÏģÎ¹Îµ": 3897,
      "iff": 3898,
      "Ġá¼ĢÏĨÎ¿ÏģÎ¹ÏĥÎ¼": 3899,
      "ec": 3900,
      "Ġá¼ĢÎ¼Îµ": 3901,
      "ĠÎ²á½³Î»ÏĦÎ¹Î¿Î½": 3902,
      "Ġá¼ĲÎ¾ÎŃ": 3903,
      "ĠÎ±á¼°á¿¶Î½Î±": 3904,
      "Î¹Î±ÏĤ": 3905,
      "Î¬ÏĢÎµÏģ": 3906,
      "Î´ÎµÎºá½±": 3907,
      "ĠÏĦÎ¹Î½Î±ÏĤ": 3908,
      "Ġá¼°Î±ÏĦÏģÎ¿á¿ĸÏĤ": 3909,
      "ĠÏĦÎ±Ïĩá½³ÏīÏĤ": 3910,
      "ĠÏĦÎ±á¿¦ÏĦ": 3911,
      "Ġá¼ĲÎ³Îºá½³ÏĨÎ±Î»Î¿Î½": 3912,
      "SS": 3913,
      "ning": 3914,
      "ÓĦ": 3915,
      "ĠÎºÏħÎº": 3916,
      "ĠÏĦÏģÎ¯": 3917,
      "ĠÏĢÎ±ÏģÎµÎ¼Î²": 3918,
      "ĠÎ´Î¹Î±ÏĨÎ¿Ïģá½°ÏĤ": 3919,
      "ĠÏĥÏĩÎµÎ´á½¸Î½": 3920,
      "Ġá¼ī": 3921,
      "ÏĢá¿¶ÏĤ": 3922,
      "ÎºÏĦ": 3923,
      "ÏģÎµÏīÏĤ": 3924,
      "Ġper": 3925,
      "Ġá¼ģÎ»": 3926,
      "ĠÎ»á½³Î³ÎµÎ¹": 3927,
      "Ġá½ĢÏĨÎ¸Î±Î»Î¼á¿¶Î½": 3928,
      "ĠÏĢÎµÏĢÎ¿Î½Î¸á½¹": 3929,
      "á½Ħ": 3930,
      "ĠÏĦÏģá½±": 3931,
      "ĠÏĢÎµÏģÎ¹ÏĦÏĦÏī": 3932,
      "ĠÏĢÎ½ÎµÏį": 3933,
      "Î¼Î¹Î½Î¸": 3934,
      "Ġá¼ĢÎ½Î¿Î¼": 3935,
      "Ġá¼ĲÎ¾Î±á½·": 3936,
      "her": 3937,
      "ĠÎºÎ±Î¸á½¼ÏĤ": 3938,
      "Ġá¼ĢÎ½Î±Î²": 3939,
      "Î³Î½ÏīÏĥÎ¹Î½": 3940,
      "ĠÏħá¼±Î¿á¿ĸÏĤ": 3941,
      "ĠÏĢÎ¬Î½ÏĦÎ±ÏĤ": 3942,
      "ĠÎ´ÏħÎ½á½±Î¼ÎµÎ¹": 3943,
      "ĠÏĢÎ±ÏģÎ±ÏĩÏģ": 3944,
      "Î¼Î±Î½": 3945,
      "ĠAa": 3946,
      "á½±Î½Î·ÏĤ": 3947,
      "ĠÎ¿á¼´Îºá¿³": 3948,
      "Ġá¼ķÎºÎ±ÏĥÏĦÎ¿ÏĤ": 3949,
      "ĠÏĥÏħÎ¼Î²Î±á½·Î½ÎµÎ¹": 3950,
      "ĠN": 3951,
      "ĠâĻĥ": 3952,
      "Ġá¼Ģá¿¤á¿¥": 3953,
      "ĠÏĨÎ¿Ïģ": 3954,
      "ĠÏĩá½¹Î½": 3955,
      "ĠÏĢÏħÏģÎµÏĦá½¸ÏĤ": 3956,
      "Ġli": 3957,
      "ĠÎ¼ÎµÎ»Î±Î³Ïĩ": 3958,
      "to": 3959,
      "Î¿Ï²": 3960,
      "Î¿ÏħÎ¼á½³Î½ÏīÎ½": 3961,
      "á¿¶Î½ÏĦÎ±Î¹": 3962,
      "Ġá¿¥Î¹Î½": 3963,
      "ĠÎºÎ±ÏĦÎ±ÏĥÏĦá½±": 3964,
      "ĠÏĦá½¹ÏĦÎµ": 3965,
      "ĠÎºÏīÎ»á½»": 3966,
      "Î¿á½ĲÎ´á½²": 3967,
      "10": 3968,
      "Î¦": 3969,
      "ĠÎ´Î¹ÎºÎ±": 3970,
      "ĠÏĢÎ±á½»": 3971,
      "ĠÎºÎ±Î¸á½¹Î»Î¿Ïħ": 3972,
      "Î±ÎºÎ¿á¿¦": 3973,
      "Î¼Î½Î·Î¼": 3974,
      "ĠÎ§ÏģÎ¹ÏĥÏĦ": 3975,
      "Î¿Î¼ÎŃÎ½ÏīÎ½": 3976,
      "AF": 3977,
      "Î¼ÏĢÎ¿": 3978,
      "ĠÎºá½½": 3979,
      "ÏĥÏĦÎ·Î½": 3980,
      "Î¼Î±ÏĤ": 3981,
      "ĠÎµá¼°Î¼Î¹": 3982,
      "ĠÎ¸Î»á½·": 3983,
      "Î¶ÎµÏĥÎ¸Î±Î¹": 3984,
      "ĠÎ´Î¹Î±Î³Î½": 3985,
      "Ġá¼°á½±": 3986,
      "Ġhas": 3987,
      "Ġá¼¸ÎµÏģÎ¿ÏħÏĥÎ±Î»á½´Î¼": 3988,
      "ÏĦÏģÎµ": 3989,
      "Ġá¼ĲÎ»Îµ": 3990,
      "Ġá¼ģÏĨ": 3991,
      "á½³Î¿ÏĤ": 3992,
      "Ġá½ĢÎ»Î¯": 3993,
      "Ġá¼°Î´Î¹": 3994,
      "ÏĢÏĦÎµÏĥÎ¸Î±Î¹": 3995,
      "á½³ÏĥÎ¸Ïī": 3996,
      "á½»Î½Î±Î¹": 3997,
      "Ġá¼ĲÎ½Î¹": 3998,
      "Ġá¼ĶÏģÏĩ": 3999,
      "Ġá¼ĢÎ½Ïī": 4000,
      "Î»Î±Î¼": 4001,
      "ÏħÏĦá½³Ïģ": 4002,
      "ĠÏĥÏħÎ½Î¸á½³": 4003,
      "Ġcom": 4004,
      "á½·Î·": 4005,
      "Î»Î»Ïħ": 4006,
      "Î¼á½³Î½á¿ĥ": 4007,
      "ĠÏĦÎµÏĦÎ±": 4008,
      "ĠÏĦÎ¿á½Ķ": 4009,
      "ĠÎµá¼´Ïī": 4010,
      "ĠÏĦÎ¿á½»ÏĦÎ¿ÏħÏĤ": 4011,
      "ĠÏĪÏħÏĩá½´Î½": 4012,
      "Ġá¼ĲÎ¼ÏĨá½»": 4013,
      "Ġá¼ĢÏĢÊ¼": 4014,
      "á½¹Î¼ÎµÎ½Î±Î¹": 4015,
      "ĠÏĢá½±ÏĥÎ±ÏĤ": 4016,
      "ĠÏĦÎ±á½»ÏĦÎ±ÏĤ": 4017,
      "pt": 4018,
      "Ġá½ĢÏģ": 4019,
      "ĠÏĩÏģá½µ": 4020,
      "Î´ÎµÎ¹ÎºÎ½": 4021,
      "ÏĦÏĦÎµÏĥÎ¸Î±Î¹": 4022,
      "ĠÎ±á¼´ÏĥÎ¸Î·ÏĥÎ¹Î½": 4023,
      "ĠÎ´Î¹Î´Î±ÏĥÎºÎ±Î»": 4024,
      "ĠÏĢÎ±ÏģÎ±ÏĩÏģá¿ĨÎ¼Î±": 4025,
      "á½µÎ³": 4026,
      "ĠÎµá¼°ÏĥÎµ": 4027,
      "ĠÏĦÎµÏĩÎ½": 4028,
      "Î®Î¼Î±ÏĦÎ±": 4029,
      "ĠÏĢÎ±á¿ĸ": 4030,
      "Ġá¼ĲÎ¾á½³": 4031,
      "Î¸Î·ÎºÎµÎ½": 4032,
      "Ġá¼ħÏĢÎ±Î½ÏĦÎµÏĤ": 4033,
      "ĠÏĦÎ±á½ĲÏĦá½¸Î½": 4034,
      "ĠâĢ": 4035,
      "ĠÎºÎµÏģ": 4036,
      "âĢĻ.": 4037,
      "ÏĦÎ¹Ïĥ": 4038,
      "ĠÎ»á½±": 4039,
      "Ġá¼ĢÏĢÎ¿Î¸Î±Î½": 4040,
      "ĠÎ¿á½ĶÏĥÎ·ÏĤ": 4041,
      "ĠÎķá¼°": 4042,
      "ĠÏĢá½³Î¼ÏĢ": 4043,
      "ĠSyr": 4044,
      "ĠÎ¼ÎµÎ»Î±Î³ÏĩÎ¿Î»": 4045,
      "ÎºÏīÏĤ": 4046,
      "ĠÎ¼ÎµÏģ": 4047,
      "Ġá½ħÎ¸ÎµÎ½": 4048,
      "ĠÏĩÏģÏĮÎ½": 4049,
      "ĠÎµá¼¶Î¸": 4050,
      "Î¸ÏģÎ¿Î¹": 4051,
      "Ïĥá½·ÏīÎ½": 4052,
      "ĠÎ¿á¼¶Î½Î¿Î½": 4053,
      "ĠÎºá¿¶": 4054,
      "ÏĩÏħ": 4055,
      "ĠÏĦÎ¹Î½á½¶": 4056,
      "AQÎĵ": 4057,
      "ÏĥÎ¯": 4058,
      "ÎŃÏīÎ½": 4059,
      "ĠÏĩÎµá½·": 4060,
      "Ġá¿¥á½»": 4061,
      "Ġá¼ĦÎ»Î»Î·Î½": 4062,
      "Î¬Î»Î¹Î½": 4063,
      "á½³ÏģÎµÏīÏĤ": 4064,
      "ĠÎ¿á½ĶÏģÏīÎ½": 4065,
      "ĠÏĩÏħÎ¼á½¸Î½": 4066,
      "ÏīÎ´á¿¶Î½": 4067,
      "ĠÎºÏģÎ¹Î¸": 4068,
      "ÏĪÎµÎ¹ÏĤ": 4069,
      "Ġag": 4070,
      "Î¸ÎµÏĤ": 4071,
      "ĠÏĥÏĦÏģÎ±": 4072,
      "ĠÏĥÏĦÏħÏĢ": 4073,
      "ĠÎ¾Î·Ïģá½°": 4074,
      "ĠÏĥÏħÎ¼Î¼ÎµÏĦÏģá½·": 4075,
      "ĠÎ¡": 4076,
      "Ġá¼ĲÎ¼Î¿á½¶": 4077,
      "ÏĦÎ¿Ï²": 4078,
      "Ġá¿¥ÏħÏĢ": 4079,
      "Ġwill": 4080,
      "ĠÎºÏįÏģÎ¹Î¿ÏĤ": 4081,
      "AC": 4082,
      "á½¹Î´Î¿Ïħ": 4083,
      "Ġá¼ĳÎ±ÏħÏĦá½¸Î½": 4084,
      "ĠÎºÎ¿Î¹Î»á½·": 4085,
      "Ġá¼ħÏĢÎ±Î¾": 4086,
      "ÎŁÎ¥": 4087,
      "13": 4088,
      "are": 4089,
      "ĠÎºÎ¹": 4090,
      "ĠÏĥÏħÎ½á½±": 4091,
      "Ġá¼ĢÎ½Î±Î³ÎºÎ±á¿ĸ": 4092,
      "ake": 4093,
      "Ïģá½¶": 4094,
      "á½·Î±Î¹": 4095,
      "ÏĨÎ¿Î½": 4096,
      "Î¸ÎµÏĦÎ¿": 4097,
      "Ġá½ĢÏĨÎ¸Î±Î»Î¼Î¿á½ºÏĤ": 4098,
      "ĠÏĢÏħÏģá½¸ÏĤ": 4099,
      "Ġseem": 4100,
      "á½·Î½Î·": 4101,
      "á½±ÏģÏīÎ½": 4102,
      "Ġá¼ĦÎ»Î»Î±ÏĤ": 4103,
      "ĠÏĢÏģÎ¿ÏĥÎ·Î³": 4104,
      "ĠMSS": 4105,
      "ĠÎĳá¼°Î³á½»": 4106,
      "Î¼á¿·": 4107,
      "Î»Î¹ÏĦÎ¿ÏĤ": 4108,
      "ĠÎµá¼´ÏĥÏī": 4109,
      "ĠÏĪÏħÏĩÏģÎ¿á¿¦": 4110,
      "Ġá¼¥Î¼Î¹ÏĥÏħ": 4111,
      "Ġá¼µÏĢ": 4112,
      "Ġá½ĢÎ½ÏĮ": 4113,
      "ĠÎ»ÏĮÎ³Î¿ÏĤ": 4114,
      "ĠÎ±á¼°ÏĦá½·ÏīÎ½": 4115,
      "ĠO": 4116,
      "Ġá¼ĲÎ»Î¸": 4117,
      "ĠÎ»Î¹Î²": 4118,
      "ĠÎ²ÎµÎ»": 4119,
      "Ġá¼ĢÎ½Î±ÏĦÎ¿": 4120,
      "Ġá¼ģÏģÎ¼á½¹": 4121,
      "ĠÎ»Î±á½¸Î½": 4122,
      "Ġmay": 4123,
      "Ġdiff": 4124,
      "Ġá¼ģÏĢá½±ÏĥÎ±ÏĤ": 4125,
      "Î¼á½¹Î½": 4126,
      "ÎºÎ»Î·": 4127,
      "ÎµÎ½Îµ": 4128,
      "Ġá¼ĲÎ½ÎµÏģ": 4129,
      "Ġat": 4130,
      "ong": 4131,
      "ous": 4132,
      "ĠÎ´Î±ÎºÎ½": 4133,
      "ĠÎºá½·Î½Î·ÏĥÎ¹ÏĤ": 4134,
      "ĠÏĢá½³Î½ÏĦÎµ": 4135,
      "ÏĥÏĦÎ¿Î¹": 4136,
      "Î¾Î·": 4137,
      "ĠÎµá¼°Îº": 4138,
      "á¼ĲÏĨ": 4139,
      "ĠÏĢÏħÏģá½³": 4140,
      "Ġá¼ĢÎ¼ÏĨÎ¿ÏĦá½³ÏģÏīÎ½": 4141,
      "ĠÎ³ÎµÎ³Î¿Î½á½³Î½Î±Î¹": 4142,
      "Î¬ÏģÏĩ": 4143,
      "Ġá¼ĳÏĦÎ¿á½·": 4144,
      "á½·Î½Î¿Î½ÏĦÎ±": 4145,
      "ĠÏĢÎ¿Î¹Î®": 4146,
      "ĠÏĦÏģÏĮ": 4147,
      "Ġá¼ĲÎ´Îµá½·": 4148,
      "Î³Î¼Î±ÏĦÎ¿ÏĤ": 4149,
      "ĠÎ±á½ĲÏĩ": 4150,
      "á½½Î¼ÎµÎ¸Î±": 4151,
      "Ġá¼ĢÎ½á½±Î»Î¿Î³Î¿Î½": 4152,
      "ĠÎµá¼´ÏĦ": 4153,
      "ÏĨÎ¿Ïģ": 4154,
      "Ġá¼ĳÏĦá½³ÏģÎ¿Ïħ": 4155,
      "á½ĥ": 4156,
      "Î¼Î·Î¸": 4157,
      "ĠÏĢÏį": 4158,
      "Ġá¼ĢÏĥÎº": 4159,
      "Ġá¼ķÏĦÎµÏģÎ¿ÏĤ": 4160,
      "ÏĦá½·Î¿Î½": 4161,
      "Ġá¼ĲÎºÎµá½·Î½Î¿Ïħ": 4162,
      "Î»á¿³": 4163,
      "ĠÎ¼Î±Î½": 4164,
      "Ġá¼ĶÎ¼Îµ": 4165,
      "ĠÏĢá½±Î½ÏĦÎ±ÏĤ": 4166,
      "ĠÏĦá½³ÏĦÏĦÎ±": 4167,
      "Ġá¼ĢÏģÏĦÎ·Ïģá½·Î±Î½": 4168,
      "ĠÏĨÎ¸Î¹Î½": 4169,
      "ĠÏĢÏģá½¹ÏĥÏīÏĢÎ¿Î½": 4170,
      "Ġá½ĢÎ»Î¹Î³": 4171,
      "Ġá¼ĢÎ´á½»Î½Î±ÏĦÎ¿Î½": 4172,
      "sub": 4173,
      "ĠÏĦÎ±ÏĤ": 4174,
      "ÏĩÎ¿ÏħÏĤ": 4175,
      "Ġá¼ĶÏĦÎ·": 4176,
      "ĠÏĨÎ»á½³Î³": 4177,
      "Ġá¼ĲÎºÎºÎµÎ½": 4178,
      "Î±Î»Î¹Î½": 4179,
      "Ġá¼ĦÎ»Î»Î¿Ïħ": 4180,
      "á¼ĢÏĢÎ¿": 4181,
      "ĠÏħÎ¹": 4182,
      "Ġ33": 4183,
      "ÎµÏĥÎ¹": 4184,
      "Ġá¼ĶÏĢÎµÎ¹ÏĦÎ±": 4185,
      "Î¬ÏĤ": 4186,
      "Ġá½ĢÎ½Î¿Î¼á½±ÏĦÏīÎ½": 4187,
      "Ġá¼ĢÏģÎ¹Î¸Î¼á½¸Î½": 4188,
      "á½µÏĥÏī": 4189,
      "Ġá½ģÎ»Î¿": 4190,
      "Ġá¼ĲÏĢÎ¹ÏĩÎµÎ¹Ïģ": 4191,
      "Î±á½·Î¿Ïħ": 4192,
      "ĠÎ´Î¹á½±Î¸ÎµÏĥÎ¹ÏĤ": 4193,
      "ĠÎ³Î»á¿¶": 4194,
      "ĠÏĦá½³ÏĩÎ½Î·Î½": 4195,
      "ĠÎ¼Î½Î·Î¼Î¿Î½Îµá½»": 4196,
      "ĠK": 4197,
      "ÏīÏĦá½±": 4198,
      "Î±Î½Îµ": 4199,
      "ĠÏĨÎ»": 4200,
      "á½¹Î½ÏĦÎ¹": 4201,
      "ĠÎ¸Îµá½¸Î½": 4202,
      "ĠÏĢÏģÎ¿ÏĥÏĨá½³Ïģ": 4203,
      "ĠÏħá¼±Î¿á½ºÏĤ": 4204,
      "ĠÎµá¼°ÏģÎ·Î¼á½³Î½Î¿Î¹ÏĤ": 4205,
      "Ġá¼ĳÎºá½±ÏĥÏĦÎ·Î½": 4206,
      "Î³Î½ÏīÏĥÏĦÎ¹Îº": 4207,
      "ĠÎºÏįÏģÎ¹Î¿Î½": 4208,
      "\".": 4209,
      "ĠÎºá½³Î½": 4210,
      "á½°Î²": 4211,
      "ÏĥÎ¸Î·ÏĥÎ±Î½": 4212,
      "Ġá¼ĲÏĢÎ¹ÏĦá½µÎ´ÎµÎ¹": 4213,
      "Î¿á½»Î¼ÎµÎ½Î±": 4214,
      "ĠÏĥÏĩá¿ĨÎ¼Î±": 4215,
      "ĠÎ¶á½½Î¿Î¹ÏĤ": 4216,
      "Ġá¼ĢÏĨÎ¹ÎºÎ½": 4217,
      "superscr": 4218,
      "au": 4219,
      "Ġá¼¨": 4220,
      "ÏĥÎ¿ÏĤ": 4221,
      "ĠÏĥÏĦÏģ": 4222,
      "Î»ÎµÏħÏĥÎµÎ½": 4223,
      "ĠÏĢÏģÎ¿ÏĥÏĦ": 4224,
      "ĠÏĢÎµÏģÎ¹Îº": 4225,
      "Î»Î±ÏĥÏĦ": 4226,
      "Ġá¼¥ÎºÎ¹ÏĥÏĦÎ±": 4227,
      "Î»ÎµÎ¹Î±Î½": 4228,
      "ĠÎ´Î¹Î±Î¸á½³ÏĥÎµÏīÏĤ": 4229,
      "Ġá¼ĶÎ³ÏģÎ±ÏĪÎµ": 4230,
      "Ġá¼ĶÏģÎ³ÏīÎ½": 4231,
      "ĠÎ¿á¼´Î½á¿³": 4232,
      "ÏĦÏĦÎ¿": 4233,
      "Î¿Îº": 4234,
      "Î»Î»Î·": 4235,
      "Ġá¼ĲÏĢÎµá½¶": 4236,
      "Ġ87": 4237,
      "ĠÎ´ÏħÎ½Î¬Î¼Îµ": 4238,
      "ĠÎ»Î¯": 4239,
      "ĠÎ»Î¿Î¾": 4240,
      "ÏĥÎ¹Î¿Î¹": 4241,
      "Ġsu": 4242,
      "Ġá¼ĪÏģÏĩ": 4243,
      "ĠÏĢÎµÏĢÎ¿Î¹": 4244,
      "ĠÎ´á½³Î¿Î½": 4245,
      "ÏĨÏģ": 4246,
      "ĠÎµÏħ": 4247,
      "ĠÎ³ÎŃ": 4248,
      "Ġá½ħÎ¼ÏīÏĤ": 4249,
      "Ġá¼ĢÏģÏĩá½´": 4250,
      "ÏĦÎŃÏģÏīÎ½": 4251,
      "Ġsuperscr": 4252,
      "ÏĦÏį": 4253,
      "ÏĦÏĮÏĤ": 4254,
      "Ġá¼ĢÏģá½·": 4255,
      "ĠÏĥÏĦÎµ": 4256,
      "Î¾Î·ÏĤ": 4257,
      "Î¾á¿ĥ": 4258,
      "Î»Î»ÏīÎ½": 4259,
      "ÏĥÏĩÏħÎ½": 4260,
      "Î´Î·Î¼Î¹": 4261,
      "te": 4262,
      "á¼¸": 4263,
      "Ġá¼ĲÎ¸Î½": 4264,
      "ĠÏĢá½³ÏģÎ±ÏĤ": 4265,
      "ÏĥÎ¹Î¿ÏĤ": 4266,
      "Î´á½³ÏĥÎ¼": 4267,
      "viii": 4268,
      "ĠÎ»Î¿ÏħÏĦÏģ": 4269,
      "ĠÏĢÏģÎ¿ÏĥÏİÏĢÎ¿Ïħ": 4270,
      "ĠÎ¼ÎµÎ¹": 4271,
      "ÏīÎ½ÏĦÎ±Î¹": 4272,
      "here": 4273,
      "Ġá½ĳÎ³Ïģá¿¶Î½": 4274,
      "ĠÎºÎ¿á½·": 4275,
      "iii": 4276,
      "ÏĥÏĢÎ±": 4277,
      "Î·ÏĦÎµ": 4278,
      "ĠÎ½Î¿Ïĥá½µÎ¼Î±ÏĦÎ±": 4279,
      "á½±Î¶ÎµÎ¹Î½": 4280,
      "ĠÎ»ÎµÏħÎºÎ¿á¿¦": 4281,
      "ĠÎºÏħÏģÎ¯á¿³": 4282,
      "ac": 4283,
      "ig": 4284,
      "á¼·": 4285,
      "Î¿á¿¦ÏĥÎ±Î¹": 4286,
      "ĠÏĢÏģá½¹ÏĤ": 4287,
      "Ġá¼ĶÏĥÎ¿Î½ÏĦÎ±Î¹": 4288,
      "ĠÏĨÏħÏĦ": 4289,
      "Ġá¼ĶÎ½Î¹Î±": 4290,
      "Ġá¼ĢÎ½Î¸Ïģá½½ÏĢÎ¿Ïħ": 4291,
      "ĠÏĢÎ±ÏģÎ±ÏĢÎ»á½µÏĥÎ¹": 4292,
      "ĠÎ±á½ĲÏĦÎ®Î½": 4293,
      "ĠÏĢÏģá¾¶": 4294,
      "Ïģá½·Î±": 4295,
      "Î»Î¹Î±": 4296,
      "ÏĦÏģÏīÏĤ": 4297,
      "ĠÎ¼ÎµÎ³á½·ÏĥÏĦ": 4298,
      "ÏĩÎ¸Î±Î¹": 4299,
      "Ġá¼µÎ½": 4300,
      "á¼ĲÏĢÎµÎ¹Î´": 4301,
      "Î¼á¿ĥ": 4302,
      "ĠÎ¿á½ĸÏģÎ±": 4303,
      "ĠÏĢÎ¹ÏĥÏĦÎµ": 4304,
      "ĠÎ±á¼·ÏĤ": 4305,
      "á¿ĨÏĩ": 4306,
      "Ġá¼ĲÎºÎµá½·Î½á¿³": 4307,
      "Ġhere": 4308,
      "Ġá¼ĢÎºÎ¿Î»Î¿ÏħÎ¸": 4309,
      "ÏĢá¿ĥ": 4310,
      "Î»Î®": 4311,
      "Î¼Î½ÎµÎ¹Î½": 4312,
      "ÎºÎ±ÏĥÎ¹Î½": 4313,
      "ĠÎºÎ±Î¸Î¬ÏĢÎµÏģ": 4314,
      "Ġá¼ĢÏĢÎ¿ÏĨá½»": 4315,
      "ÏĦá½·Î±": 4316,
      "ÏĥÎ¼ÎŃÎ½": 4317,
      "ÏĥÏĦÎµÏīÏĤ": 4318,
      "Ġá¼ĲÎºÎµá½·Î½Î¿Î¹ÏĤ": 4319,
      "ĠÏĦÎ¿Î¹Î¿á½»ÏĦÎ¿Î¹ÏĤ": 4320,
      "ĠÏĥÏĢÎ»á½±Î³ÏĩÎ½": 4321,
      "ÏģÎµÎ¹Î½": 4322,
      "Ġá¼ħÎ³": 4323,
      "Ġá¼¥ÏĦÎ¹ÏĤ": 4324,
      "ĠÎĶÎ¹": 4325,
      "Ġá¼ĢÎ³Îº": 4326,
      "ĠÎ¼Î¿Ïģá½·Î¿Ïħ": 4327,
      "ĠÎ¼Î±Î¸Î·": 4328,
      "ĠÎ³Ïģá½±Î¼": 4329,
      "ĠÏĦÎ¿ÏĥÎ¿á½»": 4330,
      "ĠÏĥÎ·Î¼Îµá¿ĸÎ±": 4331,
      "ĠÏĨÎ¹Î»Î¿Ïĥ": 4332,
      "Ġá¼ĪÏĥÎºÎ»Î·ÏĢÎ¹á½±": 4333,
      "Î¯Î±Î¹ÏĤ": 4334,
      "ÏĢÎµÏĥÎ¸Î±Î¹": 4335,
      "Ġá½ĳÏĢÎ¿Î¼Î½á½µ": 4336,
      "ÏīÎ¸á¿ĨÎ½Î±Î¹": 4337,
      "Ġá½ĦÎ½ÏĦÎ¿ÏĤ": 4338,
      "¶Î½": 4339,
      "á½·Î¿Î¹ÏĤ": 4340,
      "ĠÎ¸Î±Î½Î±": 4341,
      "á½±Î½Î±Î¹": 4342,
      "Ġá¼ĲÏĢÎ¹ÏĨá½³Ïģ": 4343,
      "ĠÏĦÎ¹Î½ÏīÎ½": 4344,
      "Ġ32": 4345,
      "Î¿ÏģÎ´": 4346,
      "Ġá¼°Î±ÏĦ": 4347,
      "ĠÎ²ÏģÎ±Ïĩá½·Î¿Î½Î¿ÏĤ": 4348,
      "ĠÎºÏħÏģá½·á¿³": 4349,
      "Ġá¿¥á¿ĨÏĥÎ¹Î½": 4350,
      "Ġá¼ĲÎ¸Î½á¿¶Î½": 4351,
      "ÏĦÏĦÏīÎ½": 4352,
      "Ġá¼ĶÎ»Î±": 4353,
      "Î»Î±ÏĦÎ¿": 4354,
      "ĠÎĻÏĥÏģÎ±": 4355,
      "ĠÎĴÎ±": 4356,
      "ĠÏĢÏħÏģÎµÏĦÎ¿á¿¦": 4357,
      "ĠÎºá¾ĢÏĢá½¶": 4358,
      "ĠÏĦÎ¿Î¹Î±á½»ÏĦÎ·": 4359,
      "Î¼ÎµÎ¹": 4360,
      "ÏħÏģÎ¹": 4361,
      "ĠÎ´Ïī": 4362,
      "Ġá¼ĲÎ½Î´Îµá½·": 4363,
      "ÎŃÏīÏĤ": 4364,
      "ÏĦá½³ÏģÎ¿ÏħÏĤ": 4365,
      "Î·ÏģÎ¿á¿¦": 4366,
      "ĠÎĻÎµÏģ": 4367,
      "ĠÎ¼á½³ÏģÎ¿ÏħÏĤ": 4368,
      "Ġá¼ĳÎºá½±ÏĥÏĦá¿³": 4369,
      "á½½ÏĦÎ±ÏĦÎ¿Î½": 4370,
      "á¼¤": 4371,
      "ĠÏĦÎµÎº": 4372,
      "Ġá¼ĦÏģÎ¹": 4373,
      "Ġá¼°ÏĥÏĩÎ½": 4374,
      "Î²á½±Î»Î»ÎµÎ¹Î½": 4375,
      "ÏĥÏĦÏģÎµÏĪÎµÎ½": 4376,
      "ĠÏĢÎ½Îµá½»Î¼Î¿Î½Î±": 4377,
      "Ġá½ĢÏĨÎ¸Î±Î»Î¼Î¿á¿ĸÏĤ": 4378,
      "Î¼Î¹Îº": 4379,
      "ĠÎ¼á½·Î±": 4380,
      "Ġá¼ĲÎºÎºÎ»": 4381,
      "ÏĢÎµÏģÎ¹": 4382,
      "Ġá¼ĪÏģÎ¹ÏĥÏĦ": 4383,
      "ÏįÎ½Î·Î½": 4384,
      "Î»ÎµÏĦÎ±Î¹": 4385,
      "ĠÏĥÏħÎ½Î´á½³ÏĥÎ¼": 4386,
      "ĠÏĥÏħÎ¼Î²ÎµÎ²": 4387,
      "ĠÏĢÏģÎ±Î³Î¼á½±ÏĦÏīÎ½": 4388,
      "Î¹Î³á½³Î½": 4389,
      "),": 4390,
      "ÏĥÏĥÎ±Î½": 4391,
      "ÎºÏĦÎ·": 4392,
      "Ġá¼ĲÎ½Î´Îµ": 4393,
      "Ġá¼¡Î½á½·": 4394,
      "Ġá¼ĢÎ½ÏīÎ¼Î±": 4395,
      "Ġá½ĳÏĢÎ¿ÎºÎµÎ¹": 4396,
      "Ġá¼ĲÎ»Î±á½·á¿³": 4397,
      "ĠÎ²Î±ÏĥÎ¹Î»ÎŃÎ±": 4398,
      "ĠÎ´ÏįÎ½Î±Î¼Î¹Î½": 4399,
      "ĠÏĨÏħÎ»Î±Îº": 4400,
      "ÏģÎ±á¿ĸÏĤ": 4401,
      "ÏĥÎºÎµ": 4402,
      "ĠÎ·Î¼Îµ": 4403,
      "Ġthy": 4404,
      "Ġ.": 4405,
      "Ġá¼ĶÎ¸Î¿ÏĤ": 4406,
      "ĠÏĦÎµÏĦÎ±Ïģ": 4407,
      "á½·Î½á¿³": 4408,
      "ĠÏĨÎ±ÏģÎ¼á½±ÎºÎ¿Î¹ÏĤ": 4409,
      "ĠÎ³Î¹Î½á½½ÏĥÎº": 4410,
      "ĠÎ¼Î¹á¾¶ÏĤ": 4411,
      "ĠÎ³ÏħÎ½Î±á¿ĸÎºÎ±": 4412,
      "ĠÎºÎ±ÏģÎ´á½·Î±": 4413,
      "Î´Î¯": 4414,
      "ĠÎ³á½³Î³ÏģÎ±ÏĢÏĦÎ±Î¹": 4415,
      "Ġá¼¦Î»Î¸ÎµÎ½": 4416,
      "Î´Î¿Îº": 4417,
      "Ġá¼ģÏĢÎ»á¿¶Î½": 4418,
      "ÏĢÏĦÎ¿": 4419,
      "Ïģá½·Î±Î½": 4420,
      "Ġá¼ĲÏĢÎ¹ÏĢÎ»": 4421,
      "Ïģá½¹ÏĦÎµÏģÎ±": 4422,
      "Ġtheir": 4423,
      "ĠÏĩÏħÎ»Î¿á¿¦": 4424,
      "ĠÎ¼Îµá½·Î¶Î¿Î½": 4425,
      "ĠÎ²Î±ÏĥÎ¹Î»Îµá¿ĸ": 4426,
      "Î´á½³ÏĩÎµÏĦÎ±Î¹": 4427,
      "á¼Į": 4428,
      "ĠÏĦá¼ĢÎ½": 4429,
      "ĠÎ±á½ĲÏĦá½·ÎºÎ±": 4430,
      "á½µÏĤ": 4431,
      "Ġá¼ĳÎº": 4432,
      "Ġá¼ĳÏĦá½³ÏģÎ±": 4433,
      "Ġá¼ĢÎ½Î±ÏĢÎ½Î¿á¿ĨÏĤ": 4434,
      "ĠÎ¼á½³Î»Î»Î¿Î½": 4435,
      "Ġcf": 4436,
      "á½³ÏĩÎµÎ¹": 4437,
      "Ġá¼ĳÎ±ÏħÏĦÎ¿á¿ĸÏĤ": 4438,
      "ĠÏĦÎ¿á¿¦ÏĦá½¹": 4439,
      "ĠÎ³ÎµÎ½á½³ÏĥÎµÏīÏĤ": 4440,
      "ĠÏĢÎ½Îµá½»Î¼Î¿Î½Î¿ÏĤ": 4441,
      "Ġá¼ĶÏĥÏĦÏī": 4442,
      "Îµá¿ĸÏĥÎ±": 4443,
      "ĠÎºÏģá½±ÏĥÎµÏīÏĤ": 4444,
      "ĠÏĢÏģÎ¿ÏĥÎ±Î³Î¿ÏģÎµá½»": 4445,
      "Ġr": 4446,
      "Ġá¼Į": 4447,
      "á½»ÏĦÎ·ÏĤ": 4448,
      "ÏĥÏĦÎµÎ¹": 4449,
      "ĠÎ¸ÎµÏģÎ¼á½¹ÏĦÎ·ÏĦÎ¿ÏĤ": 4450,
      "ĠÏĩÏħÎ¼Î¿á½ºÏĤ": 4451,
      "Î»Î±Î¼Î²á½±Î½": 4452,
      "ĠÎĺÎµ": 4453,
      "Ġá¼¸Î·ÏĥÎ¿á¿¦": 4454,
      "ĠÎºÎ·ÏģÎ¿á¿¦": 4455,
      "ÏĢÏĦÏī": 4456,
      "ÏĦÎ±á½¶": 4457,
      "ĠÎ¸ÎŃ": 4458,
      "Ġá¼ĲÏĢÎ¹ÏĦÎµ": 4459,
      "Ġá¼ĲÏĢÎ¹ÏĦÎ¹": 4460,
      "ÏĥÎ¼á½»ÏģÎ½Î·ÏĤ": 4461,
      "Ġá¼´Î±": 4462,
      "ÎºÎ¿ÏħÎ½": 4463,
      "ĠÏĥÏĢÎŃÏģ": 4464,
      "ÏĦÎ¯Î¿Î½": 4465,
      "Ġá½ĢÎ½Î¿Î¼á½±Î¶Î¿ÏħÏĥÎ¹Î½": 4466,
      "Ġá¼ĢÎ½á½±Î³ÎºÎ·": 4467,
      "á½±ÏĦÏīÎ½": 4468,
      "ÏĥÏĦÎ·ÏĥÎ±Î½": 4469,
      "Ġá¼ĶÏĥÎµÏĥÎ¸Î±Î¹": 4470,
      "ĠÏĩÎ¿": 4471,
      "Ġá¼¡Î»á½·": 4472,
      "ĠÎ´Î¹Î±Î²": 4473,
      "Î´Î¹á½¸": 4474,
      "ĠÏĢÎ¿Î»Î»Î¿á½ºÏĤ": 4475,
      "ĠÎ£Î¹": 4476,
      "ĠÎ¼ÎµÎ³Î±Î»": 4477,
      "Ġá½ĳÏĢá½±ÏģÏĩÎ¿Î½": 4478,
      "ĠÏĢÏģá½½ÏĦÎ¿Ïħ": 4479,
      "ĠÎ¼Ïħá½¸ÏĤ": 4480,
      "Ġá¼ĲÎ»á½±Î»": 4481,
      "art": 4482,
      "ÏĨÏħÏĥÎ¹Î½": 4483,
      "ĠÏĨÎ±Î½ÎµÏģ": 4484,
      "ĠÏĥÎ·ÏĢÎµ": 4485,
      "Ġá¼ĲÎ½ÏİÏĢÎ¹Î¿Î½": 4486,
      "Ġá½Ī": 4487,
      "Î¿ÏħÏĥÎ±Î¹": 4488,
      "Ġá¼ĳÎºÎ¬": 4489,
      "Ġá¼ĪÎ±Ïģ": 4490,
      "ĠÎ¼á½¹Î½Î·Î½": 4491,
      "ĠÏĢÎ±Î½ÏĦÎ±": 4492,
      "ĠÏĥÎµÎ±ÏħÏĦ": 4493,
      "Ġá¼ĲÏĩÎ¸Ïģ": 4494,
      "Ġá¼ĲÎ»á½³Î³": 4495,
      "Î¿á½ĶÏĦÎµ": 4496,
      "Î»á½¹Î³ÏīÏĤ": 4497,
      "01": 4498,
      "Î±Ï²": 4499,
      "ĠÎºá¼Ģ": 4500,
      "Ġá¼ĲÎ¼Î½Î·Î¼": 4501,
      "reek": 4502,
      "Ġá¼ĶÏĩÎ¿Î½ÏĦÎµÏĤ": 4503,
      "Ġá¼ĶÎ½Î±Î½ÏĦÎ¹": 4504,
      "ĠÎµá½Ĺ": 4505,
      "ĠÏĨÎ±ÏģÎ¼Î±": 4506,
      "ĠÏĦÏģá½·ÏĦÎ·ÏĤ": 4507,
      "Ġsee": 4508,
      "ÏģÏīÏĤ": 4509,
      "ÏĨÏģÎ¿Ïĥ": 4510,
      "ÏĦÎ·ÏĥÎµÎ½": 4511,
      "Ġá½ģÎ¼Î¹": 4512,
      "á½µÏĥÎµÏĥÎ¸Î±Î¹": 4513,
      "Ġá¼ĢÎ½Î´Ïģá¿¶Î½": 4514,
      "ĠÎ¼ÏĮ": 4515,
      "ĠÎ¸á½»": 4516,
      "Ġthere": 4517,
      "Ġá¼ĶÏĩá¿ĥ": 4518,
      "Î³Î³Îµ": 4519,
      "ÏĩÏģá½´": 4520,
      "Ġá¼ĲÏĢÎ±Î¹Î½": 4521,
      "14": 4522,
      "ÎµÎ½ÏĦÎµÏģ": 4523,
      "Ġá¿¥á¿ĨÎ¼Î±": 4524,
      "ĠÏĢÎ¿Î¹Îµá¿ĸÏĥÎ¸Î±Î¹": 4525,
      "ĠÏĢÎ¿Î¹á½¹ÏĦÎ·ÏĦÎ±": 4526,
      "ĠÎ¼á½³ÏģÎµÎ¹": 4527,
      "ĠÎ±ÏħÏĦÎ¿Î¹ÏĤ": 4528,
      "ĠÏĥÏĨÏħÎ³Î¼Î¿á½ºÏĤ": 4529,
      "ĠÏĢÏģá½½ÏĦá¿³": 4530,
      "ĠÎºÎ¿Î¹Î»á½·Î±Î½": 4531,
      "ĠÎ»ÏħÏĢ": 4532,
      "ĠÎ¿á½ĲÎ³Î³": 4533,
      "ÏħÏģÎ¿Î½": 4534,
      "Ġá½ĳÏĢÎ¿Î¼Î½": 4535,
      "ĠÏĦÏģÎ¿Ïĩ": 4536,
      "Ġá¼ĲÎ½Î´Îµá½·ÎºÎ½ÏħÏĦÎ±Î¹": 4537,
      "Ġá½ģÎ¼Î±Î»": 4538,
      "Ġá¼ĢÏĢÎ¿ÏĨ": 4539,
      "ĠÎµá½ĲÏģ": 4540,
      "ĠÎ¾á½»": 4541,
      "ĠÎ¼á½¹Î½Î·ÏĤ": 4542,
      "ĠÎĴÎ±Î¹": 4543,
      "ĠÏĥÏħÎ¼ÏĢÏĦÏī": 4544,
      "ĠÏĥÏĢÎ»Î·Î½": 4545,
      "ĠÏĥÏħÎ½ÎµÏĩá¿¶ÏĤ": 4546,
      "ĠÓĦ": 4547,
      "Ġá¼ĲÎ²": 4548,
      "Î¸ÎŃÎ½": 4549,
      "ĠÎµÎ¾Îµ": 4550,
      "Î²Î»Î·": 4551,
      "Î¼ÎµÎ½Î±Î¹": 4552,
      "Î¼ÎµÏĦá½°": 4553,
      "Î¬Î½ÏĦÏīÎ½": 4554,
      "ÏĥÎ¸Îµá½¶ÏĤ": 4555,
      "ĠÏĦÎ¿Î¹Î±á½»ÏĦÎ·ÏĤ": 4556,
      "ĠÏĢÎ»Îµá½·Ïī": 4557,
      "ĠÏĥÏħÎ½Î±Î³ÏīÎ³": 4558,
      "ĠÏĢÎ±ÏĦÏģá½¸ÏĤ": 4559,
      "ĠÏĥÏĢÎ±ÏĥÎ¼": 4560,
      "haps": 4561,
      "Ġï¬ģ": 4562,
      "Ġ-": 4563,
      "ÏĢÏĦÏīÎ½": 4564,
      "á½¹Î´ÏģÎ±": 4565,
      "ÏĦÎ¹Î¿á¿¦Î½": 4566,
      "Ġá¼ĢÏĢÎ¿ÏĨÎ±": 4567,
      "ĠÎ¿á½ĲÎ´á½³Î½": 4568,
      "Ġomit": 4569,
      "ĠÏĩÎµÎ¹Ïģá¿¶Î½": 4570,
      "Ġá¼°Î´á½·á¾³": 4571,
      "á¼ľ": 4572,
      "ÏĩÏģÎ·": 4573,
      "Ġá¼ĦÏĢÎ¿": 4574,
      "ĠÎ¿á¼³": 4575,
      "Ġá¼ĢÏĢÎ¿á¿¤á¿¥": 4576,
      "Ġá¼ĢÎ½Î¬": 4577,
      "ĠÏĢÎ»ÎµÎ¹": 4578,
      "Ġá¾¿": 4579,
      "Ġá¼ĲÏĨÊ¼": 4580,
      "ĠÏħá¼±á½¸Î½": 4581,
      "ĠÏĦÏģÎ¹ÏĦÎ±": 4582,
      "ĠÎ¦Î±ÏģÎ±": 4583,
      "Î¿ÏħÎ´": 4584,
      "Ġá½ģÏĦÎ¹Î¿á¿¦Î½": 4585,
      "Ġá¼ĢÏĢÎ¿Î²": 4586,
      "Ġá½ķÏĪ": 4587,
      "Ġá½ķÎ»Î·ÏĤ": 4588,
      "ĠÎ¼Î·Î´á½³": 4589,
      "ĠÎºÎ±Îºá¿¶ÏĤ": 4590,
      "ĠÎºÏģá½·ÏĥÎ¹Î½": 4591,
      "á¼ĺÎ½": 4592,
      "ĠÏĢÎ¬Î»Î¹Î½": 4593,
      "á½·Î´Î¿ÏĤ": 4594,
      "Ġá¼ĢÎ½Î±Î¹": 4595,
      "á½·Î½Î·ÏĦÎ±Î¹": 4596,
      "Î©ÎĿ": 4597,
      "of": 4598,
      "ond": 4599,
      "Î±ÏģÎ¹": 4600,
      "ÏīÏĥ": 4601,
      "Ġá¼ĢÏģÎµ": 4602,
      "ÏĥÎ¸á¿ĩ": 4603,
      "ÏĢÎ¿Ïģ": 4604,
      "Ġsa": 4605,
      "Î´á½³Î´ÎµÎ¹ÎºÏĦÎ±Î¹": 4606,
      "ĠÎµá¼°Ïģá½µÏĥÎµÏĦÎ±Î¹": 4607,
      "ĠÎ¼Î±ÏģÏĦÏħÏģ": 4608,
      "ÏĨÎ¹": 4609,
      "Ġá½ħÏĥÎ±Î¹": 4610,
      "Ġá¼ĦÎ½Î¸ÏģÏīÏĢÎ¿Î¹": 4611,
      "ĠÎºÎ¿Î¹Î½ÏīÎ½": 4612,
      "ĠÎ»ÎµÏĢÏĦá½¸Î½": 4613,
      "ĠÎ±á¼´ÏĦÎ¹Î¿Î½": 4614,
      "ĠÏĨÎ·Ïĥá½¶": 4615,
      "Ġá¼ĢÎ½Î±Î³ÎºÎ±á¿ĸá½¹Î½": 4616,
      "ÏĥÎ¼á½±ÏĦÏīÎ½": 4617,
      "ĠÏĦÎµÏģ": 4618,
      "ĠÎ´Îµá½·": 4619,
      "ÎµÏģÏĩ": 4620,
      "Ġá¼ĶÏĢÎ¹": 4621,
      "Ġá¼ĶÎ³Î½Ïī": 4622,
      "ĠÏĩÎ»": 4623,
      "ĠÏĢÎ±Î¼ÏĢ": 4624,
      "Ġá¼ķÏĢÎµÏĦÎ±Î¹": 4625,
      "ĠÎ¼á½³Î¸": 4626,
      "ĠÎ¸ÎµÏģÎ¼Î¿": 4627,
      "ĠÎ±á½ĹÏĦÎ±Î¹": 4628,
      "ĠÏĨÏīÎ½á½´Î½": 4629,
      "Î±Î»Î»á½±": 4630,
      "ĠÎ¼Î¬Î»Î¹": 4631,
      "Ġá¼ĲÎ½ÏĦÎµá¿¦Î¸ÎµÎ½": 4632,
      "á½¹Î½ÏĦÎ±ÏĤ": 4633,
      "Ġá¼ĢÎ½Î¹": 4634,
      "Ġcor": 4635,
      "ĠÎ³Î±ÏĥÏĦÏģá½¶": 4636,
      "Ġ106": 4637,
      "ĠÏĥÎ·Î¼Î±Î¹Î½": 4638,
      "Ġá¼ĲÎ³Î³á½ºÏĤ": 4639,
      "Î¿Î¹ÏĥÎ¹Î½": 4640,
      "ĠÏĦÎ¿á¿¦Î¸": 4641,
      "ÏĮÎ¼ÎµÎ½Î±": 4642,
      "ĠÎ²Î¹Î±": 4643,
      "ĠÏĥÏĨá½¹Î´ÏģÎ±": 4644,
      "ÎºÏģÎ¯": 4645,
      "ably": 4646,
      "ĠÎºÎ·ÏģÏī": 4647,
      "Î½ÏħÎ½á½¶": 4648,
      "Îºá½³Î½Î±Î¹": 4649,
      "á½³ÏĥÎ¸Î±Î¹": 4650,
      "Î¿á¿¦ÏĥÎ±Î½": 4651,
      "Ġá¼ĲÎ½ÏĦÎ¿": 4652,
      "Ġá½ģÏĢÎ¿": 4653,
      "ĠÏĥÏħÎ³Îº": 4654,
      "ĠÏĪÎ±": 4655,
      "ĠÎļÎ±á½¶": 4656,
      "ĠÏĢÎ¿Î»Î»Î¿á¿¦": 4657,
      "ĠÎ¿á¼°ÎºÎ¿Î´Î¿Î¼": 4658,
      "Î¼ÎŃÎ½Î¿Î½": 4659,
      "ng": 4660,
      "ĠÎ±ÏģÏĩ": 4661,
      "Î¹Î½Î±": 4662,
      "ÏĥÎµÏĥÎ¸Îµ": 4663,
      "ĠÏĢÏģÎ¿Î·Î³": 4664,
      "ĠÎ¼á½³Î»Î±Î½": 4665,
      "ert": 4666,
      "Ġ36": 4667,
      "Î¯Î½Î¿Ïħ": 4668,
      "ould": 4669,
      "ĠÎµá¼°Ïģá¿ĨÏĥÎ¸Î±Î¹": 4670,
      "urs": 4671,
      "ĠÎµá¼°Îºá½¹ÏĦÏīÏĤ": 4672,
      "ÏĦÎ·ÏĥÎ¹Î½": 4673,
      "ist": 4674,
      "Ġmy": 4675,
      "Ġá¼ĲÎ¼á½³": 4676,
      "Ġá¼ķÎ½ÎµÎºÎµÎ½": 4677,
      "Ġá¼ĲÏĢÎ¹ÎºÏģÎ±": 4678,
      "Ġá¼ĢÎ½Î¸ÏģÏİÏĢÏīÎ½": 4679,
      "Ġá¼ĳÎ²Î´á½¹": 4680,
      "ĠÏĩÏģá½µÏĥÎ¹Î¼Î¿Î½": 4681,
      "Ġá½¢": 4682,
      "ĠÎµá¼°Ï²": 4683,
      "Ġá¼ĦÎ»Î»Î¿ÏħÏĤ": 4684,
      "ÏħÎ³Ïĩ": 4685,
      "ĠÎ¼á¾¶Î»Î»": 4686,
      "Ïĥá½·ÏĥÏĦÏģÎ±": 4687,
      "Ġá½łÎ¼Î¿": 4688,
      "ĠÎ´Î·Î¼Î¹": 4689,
      "ĠÏĥÏħÎ³ÏĩÏīÏģ": 4690,
      "ĠÏĢÏĦÎ¹Ïĥ": 4691,
      "Ġá¼ĲÎºá½±": 4692,
      "Ġá¼ĲÏĢÎ¹ÏĢÎ¿Î»": 4693,
      "Ġall": 4694,
      "Ġá¼ĦÎ»Î»Î¿ÏĤ": 4695,
      "ĠBb": 4696,
      "ĠÏĢÎ±ÏģÎ±ÏĥÎºÎµÏħ": 4697,
      "Ġá¼ĢÎ³ÏģÏħÏĢ": 4698,
      "ĠÎ¼á½±Î»Î¹ÏĥÎ¸": 4699,
      "ĠÎºÎ±ÏģÎ´á½·á¾³": 4700,
      "Ġá½ĳÎ´Î±ÏĦ": 4701,
      "Ġqu": 4702,
      "Î»Ïį": 4703,
      "ÎºÎ±á½»": 4704,
      "ÏĥÎµÏĦÎµ": 4705,
      "Îµá½·Î¼ÎµÎ½Î¿Î½": 4706,
      "á¼ĲÎ»Î±": 4707,
      "Ġá½¥ÏģÎ±ÏĤ": 4708,
      "Î±ÏħÏĦÎ¿Ïħ": 4709,
      "ĠÎ¼á½µÎ¸": 4710,
      "Ġá¼°Î´Îµá¿ĸÎ½": 4711,
      "ĠÏĨÎ·Ïĥá½¶Î½": 4712,
      "ĠÎĻÏĥÏģÎ±Î·Î»": 4713,
      "15": 4714,
      "ud": 4715,
      "Î§": 4716,
      "Ġá¼ĢÏĥÎµÎ²": 4717,
      "ĠÎ³ÎµÎ³ÎµÎ½": 4718,
      "ĠÎ¼Î·Îºá½³": 4719,
      "ĠÎ³ÏħÎ½á½´": 4720,
      "á½µÎ¼Î·ÏĤ": 4721,
      "Ġá¼ĦÏģÎ¸ÏģÎ¿Î½": 4722,
      "Î±á½ķÏĦÎ·": 4723,
      "ight": 4724,
      "á½¼Î²": 4725,
      "Ġá½ĳÎ³Ïģá½¹ÏĦÎ·ÏĦÎ¿ÏĤ": 4726,
      "Ġá¼ħÏĢÎ±Î½ÏĦÎ±ÏĤ": 4727,
      "ĠÏĢÎ¹ÏĥÏĦ": 4728,
      "ĠÏĦÎ¿ÏįÏĦÎ¿Ïħ": 4729,
      "ĠÏĩá½¹Î½Î´Ïģ": 4730,
      "Îµá½ºÏĤ": 4731,
      "ĠÎµÎ³": 4732,
      "ÎµÎ¹Î¼": 4733,
      "ĠÎ²Î¿Ïģ": 4734,
      "ĠÎ½á½»": 4735,
      "Ġsp": 4736,
      "has": 4737,
      "Î¸ÎµÎ¯": 4738,
      "ÎµÎ»Î¸": 4739,
      "Ġá¾ł": 4740,
      "Ġ34": 4741,
      "ĠÎ½ÎµÎ±Î½": 4742,
      "ĠÎºÎ±ÏģÏĢá½¸Î½": 4743,
      "Ġ)": 4744,
      "ĠáµĲáµį": 4745,
      "ĠÎºÏħÎ½": 4746,
      "ĠÎ´Î¹Î¬": 4747,
      "ÏģÎµÏħÎ¸": 4748,
      "ÏĥÎ±Î½ÏĦÎ¿ÏĤ": 4749,
      "ĠÎ¼á½³Ïĥá¿³": 4750,
      "Ġá½ĦÎ¾ÎµÎ¹": 4751,
      "Ġá¼¤Ïģ": 4752,
      "ant": 4753,
      "á¼ĶÎ½Î¹Î¿Î¹": 4754,
      "Ġseems": 4755,
      "Ġá¼ĪÏģÏĩÎ¹Î³á½³Î½": 4756,
      "op": 4757,
      "á½»ÏīÎ½": 4758,
      "âĢĻ:": 4759,
      "ĠÏĨÏħÏĥ": 4760,
      "ĠÏĥÏħÎ½á½µ": 4761,
      "ÏĢÎ¹ÏĥÎ¸ÎµÎ½": 4762,
      "ĠÎ³á½³Î½Î¿Î¹ÏĦÎ¿": 4763,
      "ĠÏĥÏħÎ¼ÏĢÏĦÏīÎ¼á½±ÏĦÏīÎ½": 4764,
      "16": 4765,
      "fore": 4766,
      "á½³ÏĥÏĦÎ±": 4767,
      "ĠÎµÎ³ÎµÎ½": 4768,
      "ĠÏĢÏģÏİ": 4769,
      "ĠÏĩá½±Ïģ": 4770,
      "Ġá½ĳÏĢÎ±ÏģÏĩ": 4771,
      "ÏĢÎ±Ïĥá¿¶Î½": 4772,
      "ĠÏĢÎ»á½±Î³": 4773,
      "ÏĥÏĦÎµÎ»Î»": 4774,
      "Î¾Î±Î¼ÎµÎ½": 4775,
      "ĠÎµá½ĳÏģÎµá¿ĸÎ½": 4776,
      "Î¼ÏīÎ½Î¹Î±ÎºÎ¿á¿¦": 4777,
      "Îµá½Ķ": 4778,
      "ÏĢÎ¬": 4779,
      "Î±Î½Ïī": 4780,
      "Ġtra": 4781,
      "Ġá½ĳÏĢÎ¿Ïĩ": 4782,
      "ate": 4783,
      "ĠÎ´ÏħÎ½á½±Î¼ÎµÏīÎ½": 4784,
      "ĠÏĥÎ¼Î¹ÎºÏģá½°": 4785,
      "ÏĦÏģÎ¹Î²": 4786,
      "Î¸á½µÏĥÎµÏĦÎ±Î¹": 4787,
      "á½³ÏĥÎ¹": 4788,
      "Î³Î¿ÏĤ": 4789,
      "ÏĥÏĦÎ·ÏĥÎµÎ½": 4790,
      "ĠÎ´Î¹ÏĪ": 4791,
      "ĠÎµá¼°Î´": 4792,
      "Ġá½ĳÏĢÎµ": 4793,
      "Ġthee": 4794,
      "ĠÏĢá½±ÏĩÎ¿ÏĤ": 4795,
      "Î·Î¼ÎŃÎ½": 4796,
      "ÎºÏģÎ±ÏĦÎ¿Î½": 4797,
      "ĠÏĥá½»Î¼ÏĢÏĦÏīÎ¼Î±": 4798,
      "Ġá¼ĦÎ½Î´ÏģÎ±ÏĤ": 4799,
      "á¼ĢÏĢá½¸": 4800,
      "ĠÏĢÎµÏģÎ¹ÏĦÏĦÏīÎ¼á½±ÏĦÏīÎ½": 4801,
      "Ġá½¢Î½": 4802,
      "mp": 4803,
      "Ġá½ĤÎ½": 4804,
      "Ïĩá¿¶Î½": 4805,
      "Î¾Î¿ÏħÏĥÎ¹Î½": 4806,
      "ĠÏĢÎ¿Î´": 4807,
      "á½ħÏĥÎ±": 4808,
      "Ġrep": 4809,
      "Ġá¼ĢÎ³Î±Î¸á½¸Î½": 4810,
      "Ġá¼ĳÎ½á½¶": 4811,
      "ĠGreek": 4812,
      "ÎºÎ±á½·ÏĦÎ¿Î¹": 4813,
      "ĠÎ´Î·Î¼Î¹Î¿ÏħÏģÎ³": 4814,
      "Ġá¼ĶÎ½Îµ": 4815,
      "Î¼á½³Î½Î±Î¹ÏĤ": 4816,
      "Î½Î±ÏĦÎ¿Î½": 4817,
      "Ġá½ĢÏĩ": 4818,
      "Ġá¼ĢÏĢÎ¿ÏĦÎµÎ»": 4819,
      "ĠÏħÏĢÎ¿": 4820,
      "ĠÏĢÏģá½½ÏĦÎ·ÏĤ": 4821,
      "Ġá½ĢÏĥÏĦÎ¿á¿¦": 4822,
      "ĠÏĥÎ±ÏģÎºá½¸ÏĤ": 4823,
      "ĠÎ¼ÎµÎ½": 4824,
      "ĠÎ±á½ĲÏĦá½±Ïģ": 4825,
      "ĠÎ²á½±Ïģ": 4826,
      "ĠÎµá½ĸ": 4827,
      "ĠÎ»á½¹Î³ÏīÎ½": 4828,
      "Ġá¼°ÏĥÏĩÏħÏģÎ¿": 4829,
      "Ġá¼ĳÏģÎ¼Î·": 4830,
      "ĠÎ¼ÏħÏĥ": 4831,
      "ÎºÎ±á¿ĸÏĤ": 4832,
      "Î¶Î·": 4833,
      "ĠÎµá¼´ÏĤ": 4834,
      "ĠÏĥÏĦá½³Ïģ": 4835,
      "ĠÎ´á½³ÎºÎ±": 4836,
      "ĠÎµá¼°ÏģÎ·Î¼á½³Î½Î±": 4837,
      "Ġá¼ĢÎ³Î±ÏĢ": 4838,
      "ĠÏĢÎ»á½µÎ¸Î¿ÏħÏĤ": 4839,
      "ĠÎľÏīÏħÏĥá¿ĨÏĤ": 4840,
      "ĠÏĥÏĦÎµÏģÎµ": 4841,
      "Ġá¼¡Î½á½·ÎºÎ±": 4842,
      "Î¸Î®ÏĥÎµÏĦÎ±Î¹": 4843,
      "ĠÎ¸á¾¶": 4844,
      "Ġsil": 4845,
      "Î·Î¸á¿ĨÎ½Î±Î¹": 4846,
      "ĠÎ¼á½³ÏģÎµÏĥÎ¹": 4847,
      "Î¿ÏħÏĥá¿¶Î½": 4848,
      "ĠÏĩÎ¿Î»á½´Î½": 4849,
      "ies": 4850,
      "Î¼Îµá¿ĸÏĤ": 4851,
      "Î¼Î·ÏĥÎµÎ½": 4852,
      "ÏħÏĦÎ±": 4853,
      "á½¹ÏĨ": 4854,
      "ÏĥÏĦÎ±ÏĥÎ¹ÏĤ": 4855,
      "Î¼Î²Î±Î½Îµ": 4856,
      "Ġá¼ĲÎ½Î±Î½ÏĦ": 4857,
      "Ġá¼ĲÎ¾ÎµÏħÏģ": 4858,
      "ÏĮÏĦÎ·ÏĦÎ±": 4859,
      "Ġá¼ĲÏģÏħÎ¸Ïģ": 4860,
      "ĠÏĢÏģÎ¿ÏĥÎ·Î³Î¿Ïģá½·": 4861,
      "ÏģÏĮ": 4862,
      "ĠÎºá¼ĢÎ½": 4863,
      "ÏīÏĥÎº": 4864,
      "Ġá¼ĲÏĢÎ¹Î½": 4865,
      "ÏĪÎ¿Î½": 4866,
      "Ġá¼ĲÎºÏĨá½»": 4867,
      "ĠÎ´Î¹Î±ÏĩÏīÏģ": 4868,
      "Ġá¼°Ïĥ": 4869,
      "Î¿á½»Ïĥá¿ĥ": 4870,
      "Ġá¼ĶÏĩÎ¿ÏħÏĥÎ±": 4871,
      "ĠÎ»á½³Î³ÎµÏĦÎ±Î¹": 4872,
      "Ġá¼¹ÏĢÏĢÎ¿ÎºÏģÎ¬": 4873,
      "ĠÎ¼ÎµÎ³á½±Î»Î·Î½": 4874,
      "Ġá¼ĳÎºÎ±ÏĦá½³ÏģÏī": 4875,
      "Ġá¼ĲÎ½Î±Î½ÏĦá½·ÏīÎ½": 4876,
      "ĠÎ±á¼°ÏĦá½·Î±": 4877,
      "ĠÏĥÏħÎ¼ÏĢÏĦá½½Î¼Î±ÏĦÎ±": 4878,
      "Î¿ÏĦá½³": 4879,
      "Ġá¼ķÎ´": 4880,
      "Î·Î¼ÎµÏģ": 4881,
      "ĠÏĩÏħÎ¼Î¿á¿¦": 4882,
      "ĠÏĦá½±ÏĩÎ¿ÏĤ": 4883,
      "Ġá½ĢÎ½Î¿Î¼á½±Î¶Î¿ÏħÏĥÎ¹": 4884,
      "ĠÎ²á½±Î¸Î¿ÏĤ": 4885,
      "Ġá¼ĢÎ¸ÏģÎ¿": 4886,
      "ĠÏĢÎ¿Ïģ": 4887,
      "ĠÏĢÏģÎ¿Ïĥá½½ÏĢÎ¿Ïħ": 4888,
      "Î³Î³Î¹": 4889,
      "ĠÏĢÎ±Î½ÏĦÎµÎ»": 4890,
      "Î¸Î±Î½ÎµÎ½": 4891,
      "Ġá¼¡Î¼ÎŃÏģÎ±Î½": 4892,
      "ĠÏĦÏģÎ±Ïĩá½µÎ»": 4893,
      "ĠÏĢÏģÏĮÏĥÏīÏĢÎ¿Î½": 4894,
      "ĠÏĢÎµÎ¹Ïģ": 4895,
      "á½¹Î½ÏĦÏīÏĤ": 4896,
      "á½³ÏģÎ¿ÏĤ": 4897,
      "ÏİÏĥÎº": 4898,
      "ĠÎºÎ±Î¹Ïģá½¸ÏĤ": 4899,
      "Ġbis": 4900,
      "ÏĥÏĥÎ±Î»": 4901,
      "ĠÏĨÎ±ÏģÎ¼Î¬": 4902,
      "ĠÏĢÏĮÎ»Îµ": 4903,
      "Îµá¼´ÏģÎ·ÏĦÎ±Î¹": 4904,
      "Î¼ÎŃÎ½Î±": 4905,
      "á½·ÏĥÏĦÎ±ÏĦÎ±Î¹": 4906,
      "ĠÎ¸á½±ÏĦÎµÏģÎ¿Î½": 4907,
      "ĠÏĥÎ¹ÏĦá½·ÏīÎ½": 4908,
      "Ġk": 4909,
      "ÏĢÏģÎ¿Ïĥ": 4910,
      "ĠÎºá½³": 4911,
      "ĠÎºÏģÎ¿": 4912,
      "ĠÎ´á½¶ÏĤ": 4913,
      "ĠÎ³Î±Ïģ": 4914,
      "ĠÎ²Î»á½³": 4915,
      "Ġá¼ĳÏĦá½³ÏģÏīÎ½": 4916,
      "ÏģÎµÏĦÎ±Î¹": 4917,
      "Ġá¼ķÏĦÎµÏģÎ±": 4918,
      "ĠÎµá¼´ÎºÎ¿ÏĥÎ¹": 4919,
      "ĠÏĥÏĦá½³": 4920,
      "ĠÎ´Î¹Î±ÏĨÎ¿Ïģá¾¶ÏĤ": 4921,
      "Î¼ÏĨÏħÏĦÎ¿Î½": 4922,
      "Ġá¼ĳÏĦÎ¿á½·Î¼ÏīÏĤ": 4923,
      "12": 4924,
      "ÏĥÎ¼Î¿Î½": 4925,
      "á½¹Î½Î´": 4926,
      "Ġá¼ĲÏĥÏĦá½·": 4927,
      "Ġá¿¥á¿ĸ": 4928,
      "Ġá¿¥á½½": 4929,
      "ĠÏĦÎ¯ÏĤ": 4930,
      "ÏĢÏĦÎµÏĦÎ±Î¹": 4931,
      "Î¼Î¹Î½Î¸á½·Î½Î·ÏĤ": 4932,
      "ause": 4933,
      "ÏģÎ·Î½": 4934,
      "Î·ÏģÎµ": 4935,
      "ĠÎ´Îµá¿ĸÎ½": 4936,
      "Î³á½¹": 4937,
      "ÏĩÎ±Î¹": 4938,
      "ÏĨÎ¸Î·": 4939,
      "Î·ÏĥÎ¿Î½ÏĦÎ±Î¹": 4940,
      "Ġá½ĳÏĢÎ¬ÏģÏĩ": 4941,
      "á½·Î½Î¿ÏħÏĥÎ¹": 4942,
      "á½±ÏģÎ¸ÏģÏī": 4943,
      "ĠÏĥÏħÎ½ÎŃ": 4944,
      "ĠÎ¼á½¹Î½á¿³": 4945,
      "ĠÎµá¼°ÏĢá½¼Î½": 4946,
      "ĠÏĢÎ±Î¼ÏĢá½¹": 4947,
      "Ġá¼Ŀ": 4948,
      "Î»ÏĮ": 4949,
      "Ġá¼ĲÎ½ÏĦá½³ÏģÏīÎ½": 4950,
      "ÏĦÎµÏ²": 4951,
      "Î®Ïĥá¿ĥ": 4952,
      "ĠÏĩÏģá½¹": 4953,
      "ĠÎ¸Îµá½¹ÏĤ": 4954,
      "ĠÎºá¾Ħ": 4955,
      "ÏĢá½³Î¼ÏĢ": 4956,
      "Ġxxx": 4957,
      "ĠÏĢá½³ÏĨÏħÎºÎµÎ½": 4958,
      "Î¿ÏħÎ»": 4959,
      "Î±Î½ÏĦÎ¿": 4960,
      "Ġá½ĢÏĥÎ¼": 4961,
      "ÏĢÎµÏĥ": 4962,
      "ĠÎ·Î¼ÏīÎ½": 4963,
      "ĠÏĢá¾¶ÏĥÎ±Î¹": 4964,
      "ĠÎ³Î½Ïİ": 4965,
      "ĠÎ¼Î±ÎºÏģÎ¿": 4966,
      "Îµá¼¶ÏĢÎµÎ½": 4967,
      "ĠÎ³Î¯Î³": 4968,
      "á½³ÏģÏĩÎµÏĦÎ±Î¹": 4969,
      "Ġapp": 4970,
      "Î´Î¿Î¾": 4971,
      "ĠÏĨÎ±ÏģÎ¼á½±Îºá¿³": 4972,
      "Ġá¼¡Î¼á½³ÏģÎ±Î¹ÏĤ": 4973,
      "ÏĪÎ±ÏĥÎ¸Î±Î¹": 4974,
      "Ġá¼ĺÏģÎ±Ïĥá½·ÏĥÏĦÏģÎ±": 4975,
      "Î½á¿¶Î½": 4976,
      "ÏĢá½±Î½": 4977,
      "ĠÎµÎ³Ïī": 4978,
      "á¿ĨÏ²": 4979,
      "ine": 4980,
      "Î¼ÎŃÎ½Î¿Ïħ": 4981,
      "ĠÎºá½±Î¼Î½Î¿Î½ÏĦÎ¿ÏĤ": 4982,
      "his": 4983,
      "iah": 4984,
      "ĠâĢĶ": 4985,
      "á½»ÎµÎ¹": 4986,
      "ĠÏĦÎµÏĥÏĥÎ±Ïģ": 4987,
      "Î®ÏĥÎµÏīÏĤ": 4988,
      "Ġá¼¡Î¼á½·": 4989,
      "á¼ĢÎ¼": 4990,
      "ĠÏĢá½¹ÏĦÎµÏģÎ¿Î½": 4991,
      "Î³ÎµÎ¹á¿¶Î½": 4992,
      "ĠÏĥÎºÎ»Î·Ïģá½¸Î½": 4993,
      "ĠÎĿÎ±Î²": 4994,
      "ĠÏĦÎ¿ÏįÏĦá¿³": 4995,
      "Ġá½ĦÎ³ÎºÎ¿Î½": 4996,
      "Ġá¼ĲÎ½ÎµÏģÎ³ÎµÎ¹á¿¶Î½": 4997,
      "ĠÏĢÎ·Î³": 4998,
      "ĠÎ³ÏģÎ¬": 4999,
      "Î¶ÎµÏĦÎ±Î¹": 5000,
      "Ġá¼ģÏĢÎ±Ïĥá¿¶Î½": 5001,
      "ÏĢÎ±Ïħ": 5002,
      "ĠÎ²ÏģÎ±Ïĩá½»": 5003,
      "ĠÏĢÎ¹Î¸Î±Î½": 5004,
      "Î±ÏģÎ³á½»ÏģÎ¿Ïħ": 5005,
      "Ġá¼ĲÏĢÎ¹ÏĢÎ¿Î»á¿ĨÏĤ": 5006,
      "Ġj": 5007,
      "ÏĥÏĦÎ¿Î¹ÏĤ": 5008,
      "ĠÏĢÏģÎ¿Î³Î½ÏīÏĥÏĦÎ¹Îº": 5009,
      "Ġá¼ĢÎ½Î±ÏĨá½³Ïģ": 5010,
      "ĠÎ½ÎµÏħÏģ": 5011,
      "ĠÎµá½ĳÏģÎµ": 5012,
      "ÏĩÎ·Î»Î¿Î½": 5013,
      "Ġprob": 5014,
      "ÏĢÏĮ": 5015,
      "ÏīÏĢ": 5016,
      "Î¿Î¹Ï²": 5017,
      "ÏĥÎ±á½·": 5018,
      "ĠÏĥÎºÎµ": 5019,
      "Ġá¼ĢÎ»Î·Î¸Îµ": 5020,
      "ĠÏĩÎ»ÏīÏģ": 5021,
      "ÏĥÏĦÎ¿": 5022,
      "Î¼Î±Î¸": 5023,
      "ĠÎ´Î¹á½¸": 5024,
      "ĠÎ»Îµá½·": 5025,
      "ĠÎµá¼°ÏĥÎ±": 5026,
      "Î¿á¿ĸÏ²": 5027,
      "ÏĪá½»Ïĩ": 5028,
      "ĠÏĩÏģÏī": 5029,
      "á½·Î½Î¿ÏħÏĥÎ¹Î½": 5030,
      "Ġá½ĦÏģÏĩ": 5031,
      "ÏĥÏīÎ¼ÎµÎ½": 5032,
      "Ġch": 5033,
      "ĠÎ½ÎµÎºÏģ": 5034,
      "ense": 5035,
      "ĠÏĢÏģá¿¶ÏĦÎ±": 5036,
      "Ġá½ĢÏĥÏĦá¾¶": 5037,
      "ĠÏĢÎ»Îµá½·Î¿ÏħÏĤ": 5038,
      "ĠÎ¿á½ĲÎºá½³ÏĦÎ¹": 5039,
      "19": 5040,
      "Î½ÎµÎ¹": 5041,
      "ÏĩÎµÎ½": 5042,
      "Î»Î¹Î¿Î½": 5043,
      "ĠÎºÎ¹Î½á½µÏĥÎµÏīÎ½": 5044,
      "Î±Ïĥá½±": 5045,
      "ĠÎ³á½³Î³Î¿Î½": 5046,
      "not": 5047,
      "ĠÎºá¼ĤÎ½": 5048,
      "Ġá¼ĶÎ¿Î¹": 5049,
      "Î¿á¿ĸÏĥÎ¹": 5050,
      "Ġá¼¡Î³Îµ": 5051,
      "Î¹Îºá¿ĨÏĤ": 5052,
      "ĠÏĢÎ±ÏģÎŃ": 5053,
      "ĠÎ³á½³Î½ÎµÎ¹": 5054,
      "Ġá¼ĲÏĢÎ¹ÏĥÎºá½³": 5055,
      "ĠÎ´Î¹ÎµÎ»Î¸Îµá¿ĸÎ½": 5056,
      "á¼ģ": 5057,
      "ÏĥÎ¿Î¹ÏĤ": 5058,
      "ĠÏĢÎ¹Î½": 5059,
      "ÏĮÎ´ÏģÎ±": 5060,
      "Ġá¼ĦÎ¼Îµ": 5061,
      "ÏĪÏħÏĩ": 5062,
      "ÏĥÎµá½¶": 5063,
      "ĠÏĥÏħÎ½ÏĦÎµÎ»": 5064,
      "á½¹ÏĦÎ·ÏĦÎ±ÏĤ": 5065,
      "ĠÎ´Î¹Î±ÏĥÏĦÎ¿Î»á¿ĨÏĤ": 5066,
      "Ġá¼ĲÎºÎµá¿ĸÎ½Î¿Î½": 5067,
      "ĠÂ§": 5068,
      "á¼¦": 5069,
      "ĠÏĩÎ±Ïģ": 5070,
      "ĠÎµá¼´ÏĢÎ¿Î¹": 5071,
      "ÏĦÎ¹Îºá½¹Î½": 5072,
      "ĠÎļÎ±": 5073,
      "Ġá½ĳÎ³Ïģá½¹ÏĦÎ·ÏĦÎ±": 5074,
      "ĠÎºÎ¿Î»Î»": 5075,
      "ÏĥÏĦÎµÏģÎ±": 5076,
      "ĠÎ¸ÎµÏģÎ¼Î±Ïĥá½·Î±Î½": 5077,
      "Ġá¼ĢÎ¼ÏħÎ´Ïģ": 5078,
      "Ġá¼ĲÎ½Î¹Î±ÏħÏĦ": 5079,
      "Ġá¼ĪÏģÎ¹ÏĥÏĦÎ¿ÏĦá½³": 5080,
      "Î¯ÏĥÎº": 5081,
      "ĠÎ´Î¹Î¿Ïģá½·": 5082,
      "ĠÏĢÏģÎ¿ÏĥÏĦÎ¹": 5083,
      "Ġpre": 5084,
      "Ġwas": 5085,
      "ĠÏĨÎ»ÎµÎ²á½¸ÏĤ": 5086,
      "Ġá½ĦÏģÎ³Î±Î½Î¿Î½": 5087,
      "Ġá¼ĲÎ»á½±Î»Î·ÏĥÎµÎ½": 5088,
      "Ġá¼ĲÎ¼Î½Î·Î¼á½¹": 5089,
      "ÏīÏĥÎ¹": 5090,
      "Î´Î¿ÏħÏĤ": 5091,
      "Ġá¼ĢÏĢÏĮ": 5092,
      "Î·ÏĥÎµÎ¹": 5093,
      "Ġá¼ĲÎ¾á¿ĨÎ»Î¸ÎµÎ½": 5094,
      "ĠÎºÎ±ÏĦÎ¬": 5095,
      "ĠÏĨÎ±ÏĥÎ¹Î½": 5096,
      "ĠÏĨÎ±á½·Î½ÎµÏĥÎ¸Î±Î¹": 5097,
      "ĠÏĥá½½Î¼Î±ÏĥÎ¹Î½": 5098,
      "ÏĦÎ·Ïģá½·Î±ÏĤ": 5099,
      "ĠÏĢÏħÏģÎµÏĦá½¸Î½": 5100,
      "Ġá½ĦÎ½ÏĦÏīÏĤ": 5101,
      "ĠÎ²á½±Î¸Î¿ÏħÏĤ": 5102,
      "ĠÏĩÏīÏģá½·Î¿Î½": 5103,
      "ĠÏĢÏģÎ±Î³Î¼Î±ÏĦÎµá½·Î±ÏĤ": 5104,
      "Î¼ÎµÎ»á¿¶ÏĤ": 5105,
      "ĠÎ¼á¾¶Î»Î»á½¹Î½": 5106,
      "Ġ*": 5107,
      "ĠXX": 5108,
      "Î¿ÏĥÎº": 5109,
      "ÎµÏĥÎ¸Îµ": 5110,
      "á½µÎ¼Î±ÏĥÎ¹Î½": 5111,
      "Ġá½ĢÏĥÏĨ": 5112,
      "ĠÎ¿á½ĲÎ´ÎµÎ½á½¸ÏĤ": 5113,
      "ĠÎ´á½»Ïĥ": 5114,
      "ĠÎºá½±Î¼ÏĢ": 5115,
      "Î¼ÎŃÎ½Î·": 5116,
      "Î¤á½¸": 5117,
      "ĠÏĦÎ¿á½ĲÎ½Î±Î½": 5118,
      "á½³ÏĥÎ¹Î½": 5119,
      "ĠÏĨÏī": 5120,
      "ÏĦÎ¿Î¯": 5121,
      "ÏĥÎµá½½ÏĤ": 5122,
      "ĠÎ¼ÎµÏĦá½±": 5123,
      "Îµá½·Î±Î¹ÏĤ": 5124,
      "Î¼á½±ÏĩÎ¿Ïħ": 5125,
      "Ġso": 5126,
      "ĠÎ½ÎµÏī": 5127,
      "Ġá¼ĢÏģÏĩÎ¹": 5128,
      "Î¼ÎŃÎ½Î·Î½": 5129,
      "ĠÏĦá½³ÏĦÎ±Ïģ": 5130,
      "ĠÎºá½»ÎºÎ»á¿³": 5131,
      "ĠÎºá½·Î½Î´ÏħÎ½": 5132,
      "ĠÎ´á½¹Î¾ÎµÎ¹": 5133,
      "ĠÏĢÎ»Î±ÏĦ": 5134,
      "ĠÏĢÏģá½±Î³Î¼Î±ÏĦÎ¿ÏĤ": 5135,
      "ee": 5136,
      "ĠÏĥá½·": 5137,
      "ĠÏĦÎµÎ¸": 5138,
      "Ġá¼ĦÎ»Î»á¿³": 5139,
      "ĠÎºÎ±Î»Î¿á½»Î¼ÎµÎ½Î¿Î½": 5140,
      "ĠÏĦá½·Î½Î±": 5141,
      "ĠÏĥÏĦá½¹Î¼Î±ÏĦÎ¿ÏĤ": 5142,
      "ĠÎ»Î¹ÏĢÎ±Ïģ": 5143,
      "Î²ÎµÎ²Î»Î·": 5144,
      "17": 5145,
      "Î¿ÏĦá½±": 5146,
      "ĠÎºÎ±ÏĦÏī": 5147,
      "á½½ÏĦÎµÏģÎ±": 5148,
      "ĠÏĢÎ±Ïĥá¿¶Î½": 5149,
      "ĠÏĥÏĨÏĮÎ´ÏģÎ±": 5150,
      "ĠÎºÎ±Î»Îµá¿ĸÎ½": 5151,
      "ound": 5152,
      "ĠÎ¿á¼°ÎºÎµá½·Î±Î½": 5153,
      "ĠÏĢÏĮÎ»Î¹Î½": 5154,
      "ĠÎ´á½·Î´Î¿Ïħ": 5155,
      "ĠÎ´ÎµÏħÏĦá½³ÏģÎ±Î½": 5156,
      "ĠÎ¸Î±ÏħÎ¼Î±ÏĥÏĦá½¸Î½": 5157,
      "Ġá¼ĳÏģÎ¼Î·Î½Îµ": 5158,
      "Ġá¼ĳÎºÎ±ÏĦá½³ÏģÏīÎ¸ÎµÎ½": 5159,
      "Î½Ïī": 5160,
      "Î¹Î±Î½": 5161,
      "Î³Î¼Î±ÏĦÎ±": 5162,
      "Ġá¼ĲÎºÏĨ": 5163,
      "Ġsub": 5164,
      "ĠÏĢÎ¿Î»Î»á½°ÏĤ": 5165,
      "Ġinst": 5166,
      "Ġbeen": 5167,
      "Ġá¼ĲÎ½Î±Î½ÏĦÎ¹": 5168,
      "ered": 5169,
      "ĠÏĨÏħÎ»Î¬": 5170,
      "ĠÏĢÎ¿Ïĥá½¸Î½": 5171,
      "ĠÎ³ÏģÎ±Î¼Î¼Î±": 5172,
      "Ġá¼ĪÎ±Ïģá½¼Î½": 5173,
      "Ġá¼ĲÏĦá¿¶Î½": 5174,
      "ĠÏĢÏĦÏī": 5175,
      "Ġá¼ĶÏĢÎµ": 5176,
      "Ġá¼ĦÎºÏģ": 5177,
      "Î·Ïĥá½·": 5178,
      "Ġá¼ķÎº": 5179,
      "Ġá¼ĢÎ½Î±ÏĢÎ½Î¿": 5180,
      "Î´Î·Î»": 5181,
      "Î»Î¸á¿ĥ": 5182,
      "Î´ÏīÎºÎµÎ½": 5183,
      "Ġá¼ħÏĢÎ±ÏĥÎ±Î½": 5184,
      "ĠÎ»á½³Î»ÎµÎºÏĦÎ±Î¹": 5185,
      "Ġá¼±ÎµÏģÎµá¿ĸÏĤ": 5186,
      "ĠÏĢÏģÎ¿ÏĨÎ®": 5187,
      "ĠÏĦÎµÏĥÏĥ": 5188,
      "ĠÎºÎ±Î¸Î±á½·": 5189,
      "ĠÏĢÎ±ÏģÎ±ÏĨÏģÎ¿Ïĥ": 5190,
      "ĠÎ¼Î·ÏģÎ¿á¿¦": 5191,
      "á½±Î³ÎµÎ¹Î½": 5192,
      "á½»Î½ÏĦÏīÎ½": 5193,
      "Ġá½łÎ½á½¹": 5194,
      "ĠÎ¿á¼¶Î´Î±": 5195,
      "ĠÎºÏħá½±": 5196,
      "ĠÏĦÏģá½·ÏĦÎ·Î½": 5197,
      "ÎļÏį": 5198,
      "ÏĢá½·Î´Î¿ÏĤ": 5199,
      "á½ĢÏĢ": 5200,
      "ĠÏĨÎ»á½³Î²ÎµÏĤ": 5201,
      "ĠÎ¼á½³Î³Î¹ÏĥÏĦÎ¿Î½": 5202,
      "Ġrender": 5203,
      "ÏĦÏĮÎ½": 5204,
      "ĠÎµÎ½Îµ": 5205,
      "ÏĥÎºá½³": 5206,
      "ÏħÏĥá½·": 5207,
      "ĠÎµá½ĲÎ»á½¹Î³ÏīÏĤ": 5208,
      "ĠVáµĥ": 5209,
      "ÏĩÎ¹ÏĥÏĦÎ±": 5210,
      "ĠÏĥá½»Î¼ÏĢÎ±Î½ÏĦÎ±": 5211,
      "ĠÏĩá½±ÏģÎ¹Î½": 5212,
      "ÏģÎµÏĥÎ¸Î±Î¹": 5213,
      "ÏİÏĥÎµÎ¹": 5214,
      "ÏĥÏĦÎ±ÏĥÎ¸Î±Î¹": 5215,
      "ĠÏĦÎ¹Î½á½°ÏĤ": 5216,
      "Ġme": 5217,
      "Î»á½³Î±": 5218,
      "Ġá½ĢÎ½Î¿Î¼": 5219,
      "ÏĥÎ·ÏĦÎµ": 5220,
      "Î¸á½³Î½ÏĦÏīÎ½": 5221,
      "ÏĬÎº": 5222,
      "ĠÏĩá½½ÏģÎ±ÏĤ": 5223,
      "ĠÎ²Î±Î»Î±Î½": 5224,
      "Îĺ": 5225,
      "ĠÎºÎ±ÏĦÎ·": 5226,
      "ÏĪá¿ĥ": 5227,
      "ĠÎ¼ÎµÏĦÎµ": 5228,
      "Î±Î»Î³": 5229,
      "ĠÏĢÎµÏĢÎ»": 5230,
      "Ġá¼´ÏĥÎ±": 5231,
      "ĠÎ¸ÎµÏģÎ¼á¿·": 5232,
      "á¼ĶÏĦÎ¹": 5233,
      "Îµá½¶Ïģ": 5234,
      "Ġá¼ĪÎ²ÏģÎ±": 5235,
      "*)": 5236,
      "ĠÎºÎ±Î¯": 5237,
      "ĠÎµÏĥÏĦÎ¹Î½": 5238,
      "ĠÏĢÏģÎ¿Î³ÎµÎ³ÏģÎ±Î¼": 5239,
      "Ġtak": 5240,
      "Ï²Î¸Î±Î¹": 5241,
      "ĠÏĢÏģÎ¿ÏĥÏĨ": 5242,
      "ÏĩÎ¸á½µÏĥÎµÏĦÎ±Î¹": 5243,
      "ĠÎ»á½³Î³Î¿Î½ÏĦÎµÏĤ": 5244,
      "Î¼Î¼ÎµÏīÏĤ": 5245,
      "ĠÎ´á½³ÏģÎ¼Î±ÏĦÎ¹": 5246,
      "ÎµÏĥÎ¹ÏĤ": 5247,
      "ĠÎ¼ÏħÏģ": 5248,
      "ĠÏĥÎŃ": 5249,
      "Ġá¼ĲÎ½ÎµÏĦÎµ": 5250,
      "ĠÎ»á½±Ïģ": 5251,
      "Î¶ÏīÎ½": 5252,
      "á½µÎ¼ÎµÏģÎ¿Î½": 5253,
      "Ġverse": 5254,
      "ĠÎ¸ÎµÏģÎ±ÏĢÎµá½·Î±ÏĤ": 5255,
      "ĠÏħÎ¼ÏīÎ½": 5256,
      "ara": 5257,
      "ÎµÎ¸": 5258,
      "ÏĥÎ¯Î±ÏĤ": 5259,
      "ĠÎ¼á¿¦Î½": 5260,
      "Ġá¼ĢÎ»Î»Î¿": 5261,
      "ĠÏĢÎ¿Î»Î»á½´Î½": 5262,
      "Ġá½ĳÎ³Ïģá½°": 5263,
      "Î»á½±Î¼Î²Î±Î½Îµ": 5264,
      "Ġ37": 5265,
      "ĠÏĨÎ»ÎµÎ³Î¼Î¿Î½á½´Î½": 5266,
      "Ġá¼ĲÎ»Î»": 5267,
      "Ġá¼Ĳá½±Î½": 5268,
      "Ïĩá½¹": 5269,
      "á½±Î½ÎµÏĥÎ¸Î±Î¹": 5270,
      "á½±ÎºÎ¿Î½ÏĦÎ±": 5271,
      "á¿¶Î½Î±ÏĤ": 5272,
      "ĠÎ³Î·": 5273,
      "ÏİÎ¼Î±ÏĦÎ±": 5274,
      "Ġá¼ĢÏģÎºÎµá¿ĸ": 5275,
      "Ġá½¥ÏģÎ±Î½": 5276,
      "ĠÏĥÏĦÏģÎ¿": 5277,
      "Ġwords": 5278,
      "Ġye": 5279,
      "ĠÏĦá½·Î½": 5280,
      "ĠÎºÎ¹Î²": 5281,
      "ĠÎµÎ»": 5282,
      "ÎºÎ±Î¸Î±": 5283,
      "ĠÎ»Î·": 5284,
      "ĠÎ½á½±Ïģ": 5285,
      "á½·Î½Î¿Î¹ÏĦÎ¿": 5286,
      "Ġá¼ĦÎ½Î´ÏģÎ±": 5287,
      "Ġne": 5288,
      "Ġá¼ĲÎºÎµá½·Î½Î·Î½": 5289,
      "Ġá¼ĲÏĢá½·Î´Îµ": 5290,
      "Ġá¼ĲÏģÎ³á½±Î¶ÎµÏĥÎ¸Î±Î¹": 5291,
      "Î²á½±Î»Î»Î¿Î½": 5292,
      "ĠÏĢÎ±ÏĦá½´Ïģ": 5293,
      "á¼ĲÎ»Î±á½·Î¿Ïħ": 5294,
      "22": 5295,
      "ust": 5296,
      "ÎºÎ¹Î½": 5297,
      "ÎºÎ·ÏģÎ¿á¿¦": 5298,
      "Î»Îµá½·Î±ÏĤ": 5299,
      "ĠÏĢÎ¿ÏģÎµÏħ": 5300,
      "Ġá¼ĢÎ½Î´": 5301,
      "Î·ÏĥÎ±Î¹": 5302,
      "ÎºÎ¿ÏĢ": 5303,
      "ĠÎ»ÎŃÎ³Î¿Î½ÏĦÎµÏĤ": 5304,
      "Ġá¼ĢÎ³Î³Îµá¿ĸÎ¿Î½": 5305,
      "ĠÎ¸ÏħÎ¼Î¹á½±": 5306,
      "Ġalso": 5307,
      "Î¿á½ºÎ»": 5308,
      "ĠÏĢÎŃÎ½": 5309,
      "Ġpas": 5310,
      "ĠÎ¶á¿¶Î½": 5311,
      "Î¼Î¹Î¿Î½": 5312,
      "ÏĩÎ¸á¿ĨÎ½Î±Î¹": 5313,
      "ĠÎ´ÏħÏĥÎµÎ½ÏĦÎµÏģ": 5314,
      "Ġá¼ģÎ¼Î±ÏģÏĦÏī": 5315,
      "ĠÎ¸Î±Î½á½±": 5316,
      "ÏĢÎ·Î½": 5317,
      "á¿¶Ï²": 5318,
      "Ġá¼Ģá½³ÏģÎ¿ÏĤ": 5319,
      "ĠÎ´Î¹á½±ÏģÎ¸ÏģÏī": 5320,
      "á½½Î¼Î±": 5321,
      "Î»Î±Îº": 5322,
      "ÏħÏĦá½±": 5323,
      "ĠÎ¶Î·ÏĦ": 5324,
      "Ïģá½¹ÏĦÎ·ÏĦÎ¹": 5325,
      "Ġá¼ĲÏĢÎ¿ÏģÎµá½»": 5326,
      "Ġupon": 5327,
      "ĠÎºÎµÎºÎ±ÏħÎ¼á½³Î½Î¿Ïħ": 5328,
      "ãĢī": 5329,
      "Î´Î·Î¼Î¹á¿¶Î½": 5330,
      "ĠÎ³Î·ÏĤ": 5331,
      "ÏĥÎ¹ÏĢ": 5332,
      "Ġá¿¥Î¿Î´": 5333,
      "ĠBa": 5334,
      "ÏĨÎ±á½·Î½ÎµÏĦÎ±Î¹": 5335,
      "Î¤á½°": 5336,
      "Ġá¼ĢÎ½Î¸Ïģá½½ÏĢÎ¿Î¹ÏĤ": 5337,
      "Ġá¼ĲÎ¼Î²á½±Î»Î»": 5338,
      "ĠÎ´Î¹Î±ÏĨá½³ÏģÎµÎ¹": 5339,
      "ĠÎ±Î½Îµ": 5340,
      "ĠÏĥá½²": 5341,
      "ÏģÎ±Î¹Î½": 5342,
      "ĠÏĢÏģÎ¿Î½Î¿": 5343,
      "á½µÎº": 5344,
      "ĠÏĩÏİ": 5345,
      "Î¶Ïī": 5346,
      "Î¿á½»Î¼ÎµÎ½Î¿Î¹": 5347,
      "Ġá¼¸ÏīÎ½": 5348,
      "Ġá¼ĶÏĩÎ¿Î½ÏĦÎ¿ÏĤ": 5349,
      "ĠÎ¾Ïħ": 5350,
      "Ġca": 5351,
      "ĠÎ»á½¹Î³Î¿Î¹ÏĤ": 5352,
      "ĠÎ³ÏħÎ¼Î½á½±": 5353,
      "ãĢĪ": 5354,
      "Ġá¼ĢÏĥÎ¹": 5355,
      "Ġá¼ĲÎ½á½½": 5356,
      "Î»Î»á½±": 5357,
      "á½µÎ¼Î·Î½": 5358,
      "Ġá¼Ħá¿¤á¿¥": 5359,
      "Ġá¼ĳÏī": 5360,
      "Ġá¼ĲÏĢÎ¹Î´Î·Î¼Î¹á¿¶Î½": 5361,
      "Î½Î±Î¹ÏĤ": 5362,
      "Ġá¼ĢÎ½Î±Î»Î¿Î³": 5363,
      "Ġá½ĦÏĩ": 5364,
      "ĠÏĩÎ¹ÏĦ": 5365,
      "ĠÎ¿á½ĲÎ´ÎµÎ¼á½·Î±Î½": 5366,
      "Ġá¼ĢÎ¾Î¹á½¹": 5367,
      "Ġun": 5368,
      "ĠÎ´Î¹Î±á½·ÏĦÎ·ÏĤ": 5369,
      "Î¸á½²Î½": 5370,
      "Î´á½²": 5371,
      "Î´á½»": 5372,
      "á¿ĩÏĤ": 5373,
      "Ġsh": 5374,
      "Ġ35": 5375,
      "ĠÎ¼Î¿Ïģá½·á¿³": 5376,
      "Ġá¼°Î´á½·Î±Î½": 5377,
      "ĠÎ½ÏīÏĦÎ¹": 5378,
      "Î»á¿ĥ": 5379,
      "á½·Î´ÏīÎ½": 5380,
      "Î³á½³Î½": 5381,
      "ĠÏĥÎ¿á½¶": 5382,
      "ĠÎµá¼¶Î´Î¿Î½": 5383,
      "ĠBU": 5384,
      "ĠÏĢÎµÏĨÏħÎº": 5385,
      "ÏĥÏĥÏīÎ½": 5386,
      "ĠÎĵÎ±": 5387,
      "ĠÏĥÏĦÏĮÎ¼Î±": 5388,
      "hras": 5389,
      "ness": 5390,
      "Î¹Î´": 5391,
      "ĠÎºÏģÎµ": 5392,
      "Ġá¼ĲÎ²Î±": 5393,
      "ÏĥÏĦÎ·Ïģ": 5394,
      "á¿ĸÎ±": 5395,
      "ĠÎ´Î¹Î±Ïĥ": 5396,
      "ĠÎĳÎ²": 5397,
      "ĠÎ§Î±Î»": 5398,
      "Ïģá½³ÏĥÎµÏīÏĤ": 5399,
      "ĠÎ´Î±ÎºÏĦá½»Î»ÏīÎ½": 5400,
      "ĠÏĥá½»Î¼Î¼ÎµÏĦÏģÎ¿Î½": 5401,
      "uc": 5402,
      "ĠÏĦÏģÎµ": 5403,
      "Ġá¼ĢÎ¼ÏĢ": 5404,
      "Ġá¼ĢÎ´Î¹": 5405,
      "ĠÎ±á½ĲÏĦá½±": 5406,
      "ĠÏĢÏģÎ¿Îµá½·": 5407,
      "Ġá½¡Ï²": 5408,
      "ÏĦÏīÏģ": 5409,
      "ĠÏĪÎ±Î»": 5410,
      "ÏĥÎ¼á½¸Î½": 5411,
      "Î»ÎµÎ¹Î±": 5412,
      "Ġ49": 5413,
      "ĠÎ»ÎµÏħÎºá½¸Î½": 5414,
      "ĠÎ»ÏĮÎ³Î¿ÏħÏĤ": 5415,
      "Ġá¼ĲÎ´á½·": 5416,
      "Îµá¿ĸÏĦÎ¿": 5417,
      "ĠÏĨÏĮ": 5418,
      "Î¬ÏĦÎ¿Ïħ": 5419,
      "Ġá¼ĲÎºÎ¬": 5420,
      "Ïĥá½·ÏĤ": 5421,
      "ÎºÎ±Î¹Î¿Î½": 5422,
      "Ġá¼ĳÎºÎ±ÏĦá½³ÏģÎ¿Ïħ": 5423,
      "Ġá¼ĲÎºÎµá¿ĸÎ½Î¿ÏĤ": 5424,
      "ĠÎ¼á½µÏĦÏģÎ±ÏĤ": 5425,
      "ĠÎ¸á½³ÏĥÎ¹Î½": 5426,
      "Î½ÎµÎ³ÎºÎµÎ½": 5427,
      "oll": 5428,
      "Ġvi": 5429,
      "ÎºÎ½Î±": 5430,
      "ÏīÎ²": 5431,
      "ÎŃÎ±": 5432,
      "ĠÏĨÎ¬": 5433,
      "ĠÎ¸Î·Ïģ": 5434,
      "á½°ÏģÎ¾": 5435,
      "ĠÎºÎ±ÏĦÎ±Îº": 5436,
      "Î²Î±ÏĦÎ±": 5437,
      "ĠÎ¼ÎŃÏĥá¿³": 5438,
      "Ġá¼ĲÎ»Î¬Î»": 5439,
      "Ġá¼ĲÎ¼ÏĢÎ»á½±": 5440,
      "ĠÏĦÎ¿Î¹Î±á½»ÏĦÎ±ÏĤ": 5441,
      "Ġá¼ĢÎ¼ÏĨá½¹ÏĦÎµÏģÎ±": 5442,
      "Ġá½ĢÎ´á½»Î½Î·ÏĤ": 5443,
      "ĠÏĦá½µÎ½Î´Îµ": 5444,
      "Ġmeaning": 5445,
      "ĠÎ´Î¹ÏĢÎ»": 5446,
      "ÎºÎ±Î¼ÎµÎ½": 5447,
      "ÏĦÎ·ÏĥÎ±Î½": 5448,
      "ÏĢÎ¿Î¼ÎµÎ½": 5449,
      "ÏĥÎºÎ±Î¹": 5450,
      "Ġá½ĦÏĢÎ¹ÏĥÎ¸ÎµÎ½": 5451,
      "ĠÏĢÏģÎ¿ÏĥÏī": 5452,
      "Ġman": 5453,
      "ĠÎ´á½³Î´ÎµÎ¹ÎºÏĦÎ±Î¹": 5454,
      "ÎĳÎĽ": 5455,
      "ĠÎ¸ÎµÏģÎ¼Î±á½·Î½ÎµÎ¹Î½": 5456,
      "ĠÏĢÎ»á½µÎ¸ÎµÎ¹": 5457,
      "ĠÎ¼Î±ÏģÏĦÏħ": 5458,
      "Î³Î½ÏħÏĦÎ±Î¹": 5459,
      "Î½Î¿Î¼": 5460,
      "ĠÎºÎ±Î¹Î½": 5461,
      "ÏīÏĥÎµ": 5462,
      "á¿ĨÏĦÎ±Î¹": 5463,
      "Ġá½ħÏĥÏĦÎ¹ÏĤ": 5464,
      "Î»ÎµÎ¿ÏĤ": 5465,
      "ĠÏĢÏģÎ¿ÎºÎµá½·Î¼ÎµÎ½Î¿Î½": 5466,
      "Î®ÏĥÎ¿ÏħÏĥÎ¹Î½": 5467,
      "Ġá¼ĢÎºÎ¿Ïħ": 5468,
      "ard": 5469,
      "Ġá¼±ÎºÎ±Î½á½¸Î½": 5470,
      "Ġá¼ĲÎºÎµá¿ĸÎ½Î±": 5471,
      "ĠÏĢÎ»Îµá¿ĸÏĥÏĦÎ±": 5472,
      "Ġá¼ĳÏĦá½³Ïģá¿³": 5473,
      "ĠÎ²Î¿á½»Î»ÎµÏĦÎ±Î¹": 5474,
      "ÎĹÎĿ": 5475,
      "ĠÏĢÎ±ÏģÎ±ÏĢÎ»Î·Ïĥá½·ÏīÏĤ": 5476,
      "Ġagain": 5477,
      "ĠÎ¸ÏħÎ¼Î¹á½±Î¼Î±ÏĦÎ¿ÏĤ": 5478,
      "Ġ,": 5479,
      "ĠÏģ": 5480,
      "ÏĥÎ¿ÏħÏĤ": 5481,
      "Î¼á½±Î½": 5482,
      "ÏģÎ¹Î¿Ïħ": 5483,
      "Ġá¼ĲÏĢÎ¹Î²": 5484,
      "ÏħÎ¼Î¿Î½": 5485,
      "ĠÏħÎ¹Î¿Î¹": 5486,
      "ĠÎ¼Î·ÏĦÏģ": 5487,
      "ĠÎºÎµÏģÎ±": 5488,
      "ĠÎ¼á½¹Î½Î¿Ïħ": 5489,
      "Ġá¼ĢÏĨá½·": 5490,
      "ĠÎ±ÏħÏĦÎ·": 5491,
      "Ġhim": 5492,
      "ĠÎ´Î±ÎºÏĦá½»Î»Î¿ÏħÏĤ": 5493,
      "ĠÏĢÎµÏģÎ¹á½³ÏĩÎ¿Î½ÏĦÎ¿ÏĤ": 5494,
      "Ġlitt": 5495,
      "Ġá¼ĢÎ³ÏģÏħÏĢÎ½": 5496,
      "ĠÎ¸á¾¶ÏĦÏĦÎ¿Î½": 5497,
      "ian": 5498,
      "Î½á½±": 5499,
      "ĠÎ´ÎµÎ¹Î½": 5500,
      "á½¹Î´ÏīÎ½": 5501,
      "Î±Î¹Î±": 5502,
      "ÏĥÎ¸á½µÏĥÎµÏĦÎ±Î¹": 5503,
      "ĠÎºÎ±Î¸á½°": 5504,
      "ĠÎ¸ÎµÎ¿ÏĤ": 5505,
      "Ġá¼ĪÏĥÏĥ": 5506,
      "ĠÎ»Î±á¿·": 5507,
      "ĠÏĢÏģá¿¶ÏĦÎ¿ÏĤ": 5508,
      "ĠÎ²Î¿Î·Î¸Î·": 5509,
      "ĠÎ¼ÎµÎ³á½±Î»Î¿Ïħ": 5510,
      "ĠÎĳá¼°Î³Ïį": 5511,
      "ĠÏĥÏİÎ¼Î±ÏĦÎ¿ÏĤ": 5512,
      "ĠÏĦÏģá½³ÏĨ": 5513,
      "Ġá¼Ģá¿¤á¿¥á½½": 5514,
      "Ġá½ģÎ¼Î¹Î»": 5515,
      "ok": 5516,
      "ÏĥÎ±Ïģ": 5517,
      "ÏĦÎ¹Î´Î¿ÏĤ": 5518,
      "Î®Ïģ": 5519,
      "ĠÏĪÏħÏĩÏģá½°": 5520,
      "Î¯Î½ÎµÎ¹": 5521,
      "ĠÎºá½»ÏĥÏĦÎ¹Î½": 5522,
      "ĠÏĢÎ±Î»Î±Î¹Î¿á¿¦": 5523,
      "Ġá¼ĲÎ´á½µÎ»": 5524,
      "ĠÏĥÏĦÎµÎ½Î¿Ïĩ": 5525,
      "ĠÎ»Î±Î²Îµá¿ĸÎ½": 5526,
      "Î¡ÎĻ": 5527,
      "Î´á¿ĨÎ»Î¿Î½": 5528,
      "Ġá½łÎ¼Î¿ÏĢÎ»á½±": 5529,
      "ĠÎºÎ±Î¼ÏĢ": 5530,
      "ÏĩÎ±Î½": 5531,
      "ÏĩÎ¼Î±": 5532,
      "Ġá¼ĢÏĥÏĦ": 5533,
      "ÏĨÎ½Î·ÏĤ": 5534,
      "á½»ÏĥÎµÎ¹": 5535,
      "ÏĥÎµÎ»": 5536,
      "ĠÎµá¼¶ÏĢÎµ": 5537,
      "ÏħÏĦá½¶": 5538,
      "Ġá¼ĢÏĢÎ¿Ïģ": 5539,
      "Ġá¼ĢÏĢÎ¿Î»Îµá½·": 5540,
      "item": 5541,
      "ĠÏĢÏģá½¹Î´Î·Î»Î¿Î½": 5542,
      "ĠÏĢá½±Î¸Î¿ÏħÏĤ": 5543,
      "Ġá½ħÎ»á¿³": 5544,
      "Î¼ÎŃÎ½Î¿ÏħÏĤ": 5545,
      "Ġá¼ĺÏĨ": 5546,
      "ĠÎ´Î·Î»Î¿á¿ĸ": 5547,
      "ĠÏĨÏħÎ»á¿ĨÏĤ": 5548,
      "ĠÎ¼á½³Î³Î±Î½": 5549,
      "ĠÏĦÎµÏĦÎ±ÏģÏĦÎ±": 5550,
      "Î·ÏĥÎµ": 5551,
      "ĠÏĥá½µ": 5552,
      "á½»ÏĤ": 5553,
      "Î®ÏĥÎµÎ¹ÏĤ": 5554,
      "Ġother": 5555,
      "ĠÎ¿á½ĸÏĥÎ±Î½": 5556,
      "Î´Î±Î¼": 5557,
      "ĠÏĢÏģÎ¿ÏĥÎŃ": 5558,
      "ĠÎ±á¼°á¿¶Î½Î¿ÏĤ": 5559,
      "ĠÎºÎ¿Ïģ": 5560,
      "ener": 5561,
      "ĠÎ»á½³Î³Ïī": 5562,
      "ĠÏĦÏģá½·Î±": 5563,
      "ĠÏĦÎµÏĦÏģÎ±": 5564,
      "Îķá¼°": 5565,
      "ives": 5566,
      "Ġused": 5567,
      "ĠÎºÎ¹Î²Ïī": 5568,
      "Î»á½°ÏĤ": 5569,
      "á¿¶ÏĥÎ¸Î±Î¹": 5570,
      "ÎºÎ±Îº": 5571,
      "ÏĥÎ¸Î®ÏĥÎµÏĦÎ±Î¹": 5572,
      "ĠÎ»Ïħ": 5573,
      "ĠÏĩÏī": 5574,
      "Î¸ÏģÎ¿Ïħ": 5575,
      "ĠÎºÎ±ÏĦÊ¼": 5576,
      "ĠÎ´Î¹á½±Î³Î½ÏīÏĥÎ¹Î½": 5577,
      "Ġá¼¡Î¼ÎŃÏģÎ±Î¹ÏĤ": 5578,
      "Ġá¼ĳÏĦá½³ÏģÎ¿Î¹ÏĤ": 5579,
      "ĠÎ»ÎµÏĢÏĦá½°": 5580,
      "Ġá¼ĦÏģÏĩÎ¿Î½ÏĦÎµÏĤ": 5581,
      "ĠÏĩÎ±Î»ÎºÎ¿á¿¦": 5582,
      "Ġá¼°Î´á½³Î±Î½": 5583,
      "ÏĢÎ¬Î½": 5584,
      "ÎºÎŃ": 5585,
      "ÏĦÎ±ÏĦÎ¿Î½": 5586,
      "Î´ÏģÎ¿Î½": 5587,
      "ĠÎµÏģ": 5588,
      "ĠÏĨá½±ÏĥÎº": 5589,
      "Î¿á¿ĸÎ¿Î½": 5590,
      "ÏĢÎ¿Î´": 5591,
      "ĠÏĩÏģá¿Ħ": 5592,
      "ÏģÎ¿ÏĦá½³ÏģÎ±": 5593,
      "Î»Î·Î¼": 5594,
      "ÏİÎ¸Î·": 5595,
      "ÏĦá½·ÏĤ": 5596,
      "ĠÏĪÏħÏĩá½´": 5597,
      "Î¿ÏģÎ¸": 5598,
      "ĠÏĥÎ·Î¼Î±á½·Î½ÎµÎ¹": 5599,
      "Î¬ÎºÎ¹ÏĤ": 5600,
      "ĠÏĦÏģÏĮÏĢÎ¿Î½": 5601,
      "Ġtrans": 5602,
      "á½½ÏĥÎ±ÏĤ": 5603,
      "ĠÎ²Î»Î±Î²": 5604,
      "Ġá¼ĲÏĢÎ¹Î¼ÎµÎ»á¿¶ÏĤ": 5605,
      "read": 5606,
      "ĠÎºÎ±ÏĦÎ±ÏĥÏĦ": 5607,
      "ĠÏĢá½±ÏĥÎ·ÏĤ": 5608,
      "ĠÎ¿á¼¶ÎºÎ¿ÏĤ": 5609,
      "ĠÎĶÎ±Î½Î¹": 5610,
      "ÏĩÎ¸Î·ÏĥÎ±Î½": 5611,
      "Ġá½ĦÎ½ÏĦÎµÏĤ": 5612,
      "Ġá¼ĢÎ½Î±Î³Îºá½±": 5613,
      "Îµá½»Î±": 5614,
      "ÏĦÎ±á¿¦ÏĦ": 5615,
      "ĠÎºá½±ÏĦÏīÎ¸ÎµÎ½": 5616,
      "ĠÎ£Î±Î¿á½ºÎ»": 5617,
      "ĠÎ´ÏģÎ¹Î¼á½³": 5618,
      "ĠÎ³Î½ÏīÏģá½·ÏĥÎ¼Î±ÏĦÎ±": 5619,
      "ĠÏĢÎµá½·ÏģÎ±ÏĤ": 5620,
      "ĠÎ¿á½ĲÎ³Î³á½·Î±ÏĤ": 5621,
      "Î½Ïħ": 5622,
      "ĠÎºÎŃ": 5623,
      "ÏįÎ½Î·ÏĤ": 5624,
      "Ġá¼ĳÏĦÎŃ": 5625,
      "Ġá¼ĢÏĢÎ¿Î»": 5626,
      "ÏĨÎ¿Î²": 5627,
      "ÏĢÏĦá½³Î¿Î½": 5628,
      "ĠÏĨÎ±ÏĥÎ¹": 5629,
      "ĠÎľÎµ": 5630,
      "Ġá¼±ÏĥÏĦ": 5631,
      "ĠÎºÎ±Î»Îµá¿ĸÏĦÎ±Î¹": 5632,
      "ĠÎºÎ±Î»Î¿á¿¦ÏĥÎ¹Î½": 5633,
      "ĠÎºÏģÎ¹Î½": 5634,
      "ÏĥÏĦá½±ÏĥÎµÏīÏĤ": 5635,
      "Ġform": 5636,
      "ĠÏĦÎ¿Î¹Î¿á½»ÏĦÎ¿Ïħ": 5637,
      "ÏĦÎ¿á½»ÏĦÏīÎ½": 5638,
      "Ïģá½»ÏĥÎ¹ÏĢ": 5639,
      "Î½ÏĦÎ±Î¹": 5640,
      "ĠÎºÎ¿Î»": 5641,
      "Î¼Î±á½·": 5642,
      "Ġá¼ĳÏĦÎ¿Î¹": 5643,
      "Ġá¼ĢÏĢÎ¿Î´": 5644,
      "ÏĦá½·Î¸ÎµÎ¹": 5645,
      "âģ½": 5646,
      "ĠÏĨÎ»á½³Î²Î±": 5647,
      "ĠÎ³á½·Î³Î½Î¿Î½ÏĦÎ±Î¹": 5648,
      "ĠÎ±á½ĲÏĦá½±ÏģÎºÏīÏĤ": 5649,
      "ÏĥÎ·Î½": 5650,
      "Î»ÏīÏĤ": 5651,
      "Ġá¼ĲÎ¼Î±": 5652,
      "ĠÏĢÎµá¿ĸ": 5653,
      "á¿¶ÏĦÎ¿Î½": 5654,
      "Ġá¼ĶÎ´ÎµÎ¹": 5655,
      "Ïģá½·á¿³": 5656,
      "ĠÏĦÎ±ÏģÎ±Ïĩ": 5657,
      "Î³Î±Î³Î¿Î½": 5658,
      "ĠÏĩÏħÎ¼á½¸ÏĤ": 5659,
      "Ġá¼ĲÎºÎµá½·Î½Î·ÏĤ": 5660,
      "Î²Î¿Î»Î¿Î½": 5661,
      "ĠÎ¾Î·ÏģÎ±á½·Î½ÎµÎ¹Î½": 5662,
      "ĠÏĩÏħÎ»á½¸Î½": 5663,
      "ĠÎ¼Î·Î´ÎµÎ¼á½·Î±Î½": 5664,
      "ĠÏĦÏģá½±ÏĩÎ·Î»Î¿Î½": 5665,
      "ĠÎºá¿¶Î»Î¿Î½": 5666,
      "ĠÏĦÎ¿á½ĲÎ½Î±Î½ÏĦá½·Î¿Î½": 5667,
      "postea": 5668,
      "ĠÏĨá½±Î½Î±Î¹": 5669,
      "ĠÎ»Ïį": 5670,
      "á½½Î´ÎµÎ¹": 5671,
      "ĠÎ¸Ïģá½³": 5672,
      "á½·Î½á¿ĥ": 5673,
      "Ġá¿¥á½µÏĥÎµÏīÏĤ": 5674,
      "ĠÏĢÎ¿Î»Î»á¿ĨÏĤ": 5675,
      "ĠÎ¼ÎµÎ³Î¬": 5676,
      "ĠÎºá½»ÏģÎ¹Î¿Î½": 5677,
      "Ġá¼ĲÎ¼á½²": 5678,
      "ÏīÏģá½·Î±Î½": 5679,
      "ĠÏĥÏĦá½¹Î¼Î±ÏĦÎ¹": 5680,
      "Ġá¼±ÎµÏģÎµá½ºÏĤ": 5681,
      "Ġá½łÏĨá½³": 5682,
      "Ġá½ĢÎ´á½»Î½Î·Î½": 5683,
      "á½»ÏĦÎ·ÏĦÎ±": 5684,
      "mpv": 5685,
      "ÏĦÎµÎ½": 5686,
      "ÏĥÎ²": 5687,
      "ĠÎ¼Îµá¿ĸ": 5688,
      "á½¹Î½Î±": 5689,
      "Î¿Î¹Î±": 5690,
      "ĠAC": 5691,
      "Î®ÏĥÎ¿Î¼Î±Î¹": 5692,
      "Î»Î·ÏĨ": 5693,
      "ĠÎ¿á½ĸÏģÎ¿Î½": 5694,
      "ÏģÎ·Î¼Î±": 5695,
      "ĠÎ£ÎµÎ¹": 5696,
      "ĠÎ·Î½": 5697,
      "ĠÎ¼ÎµÏĦá½³": 5698,
      "ĠÎºÎµÏĨÎ±Î»á¿ĩ": 5699,
      "ÏīÎ¸á¿ĩ": 5700,
      "Ġ41": 5701,
      "ĠÎ´ÏħÏĥÏĢÎ½Î¿": 5702,
      "ÏĦÏģá½·Î²": 5703,
      "ĠÎºÏģÎ¹Ïĥá½·": 5704,
      "ĠÏĢÎµÏģÎ¹ÏĦÏĦá½¸Î½": 5705,
      "Ġá¿¥á½·Î¶Î·ÏĤ": 5706,
      "Ġá¼ĢÏħÏĦá¿¶Î½": 5707,
      "ĠÏĦÎ±ÏįÏĦÎ·Î½": 5708,
      "á¼ĦÎ»Î»Î¿": 5709,
      "Ġá¼ĳÎ±ÏħÏĦÎ¿á½ºÏĤ": 5710,
      "ĠÏĦá¼ĢÎ½Î±Î½": 5711,
      "Ġá¼ľ": 5712,
      "ÎºÏģá½¹ÎºÎ¿Ïħ": 5713,
      "ĠÏĢÏĦÎµÏģ": 5714,
      "Ġá¼ĲÏĢÎ¬": 5715,
      "ÎŃÎ¿Î½": 5716,
      "Ġá½ĢÎ¼ÏĨ": 5717,
      "Ġá½ĢÎºÏĦ": 5718,
      "ĠÏĢÏģÎ¿ÏĬ": 5719,
      "ĠÎ¿á½ĸÏĥÎ±": 5720,
      "Ġá¿¥á¾·": 5721,
      "ĠÎ³Î½á¿¶Î½Î±Î¹": 5722,
      "ĠÏĦÎ¿á½ĶÎ½Î¿Î¼Î±": 5723,
      "ĠÏĥÏħÎ¼Î²ÎµÎ²Î·Îº": 5724,
      "18": 5725,
      "scr": 5726,
      "Ġear": 5727,
      "Î¼Î¼": 5728,
      "ĠÎºÎ»Î±": 5729,
      "Î³á½·Î½ÎµÏĦÎ±Î¹": 5730,
      "Ġá¼ĢÏĢÎµÎ¹": 5731,
      "ÏĥÎ±Î½ÏĦÎ±ÏĤ": 5732,
      "á½»Î»ÏīÎ½": 5733,
      "ĠÎ»ÎµÏĢÏĦÏħÎ½": 5734,
      "Î²Î¿Î»á½´Î½": 5735,
      "ĠÎ²Î¿ÏħÎ»Î·Î¸": 5736,
      "ĠÏĦÎ¿ÏįÏĦÎ¿Î¹ÏĤ": 5737,
      "Ġá¼ĶÎ»Î±ÏĦÏĦÎ¿Î½": 5738,
      "oc": 5739,
      "Î»á½´Î½": 5740,
      "ĠÎºá½±Ïģ": 5741,
      "ÏĩÎ·ÏĤ": 5742,
      "ÏĮÎ¼ÎµÎ¸Î±": 5743,
      "Ġá¼ĢÏĢÎ±": 5744,
      "Ġá¼ĢÎ»Î»Î®Î»": 5745,
      "ĠÏĨÎ»ÎµÏĪ": 5746,
      "Î¿á½ĲÏĩ": 5747,
      "ĠÎ¼Î¹ÎºÏģá½°": 5748,
      "ĠÏĦÎ¿á¿ĸÏĥÎ¹Î½": 5749,
      "á½¥ÏĥÏĦ": 5750,
      "ĠÎºÎ±ÎºÎ¿ÏĩÏħÎ¼": 5751,
      "Î¿á½ĹÏĦÎ¿ÏĤ": 5752,
      "ĠÏĢá½µÏĩ": 5753,
      "ĠÎĳá¼°Î³á½»ÏĢÏĦÎ¿Ïħ": 5754,
      "Ġri": 5755,
      "ĠãĢĪ": 5756,
      "Î±ÏĢÎ¿": 5757,
      "Î¿Î´Î¿ÏĤ": 5758,
      "Ġá¼ĲÏģÎµ": 5759,
      "ĠÏĢÏħÎ»": 5760,
      "ĠÎµÏĢÎ¿Î¹": 5761,
      "ÏĥÏĦÎ¿ÏħÏĤ": 5762,
      "ÏĥÎ¸á½³Î½": 5763,
      "ĠÏĨÎ¯": 5764,
      "ĠÎµá¼°ÎºÎ¿ÏĥÏĦ": 5765,
      "Ġsense": 5766,
      "Ġá¼¸Î¿á½»": 5767,
      "ĠÎµá¼°ÏģÎ·Î¼á½³Î½Î¿Î½": 5768,
      "ĠÎ±ÏħÏĦÎ·Î½": 5769,
      "Ġá¼ĳÎºÎ±ÏĦá½¸Î½": 5770,
      "Ġá¼ĢÎºÎ¿á½»ÎµÎ¹Î½": 5771,
      "Ġá¼ĢÎ¸Ïģá½¹ÏīÏĤ": 5772,
      "ÏĩÎ¼Î±Î»Ïī": 5773,
      "Ġá¼Ń": 5774,
      "Î¿Î¹ÎµÎ½": 5775,
      "ĠÏĨÎ¬Ïģ": 5776,
      "ĠÎ½Î¹Îº": 5777,
      "Ġá½§Î´Îµ": 5778,
      "ĠÎĵÎ±Î»Î±": 5779,
      "ÏĢÎ¿Î¹Îµá¿ĸ": 5780,
      "Î¿Î¼ÎŃÎ½Î¿Ïħ": 5781,
      "Î¿Î²Î¿": 5782,
      "Ġá½¦ÏĦÎ±": 5783,
      "oss": 5784,
      "ĠÏĥÏĢÎ»á½±Î³Ïĩ": 5785,
      "ÎĳÎĽÎĹÎĿ": 5786,
      "ÎĳÎĽÎĹÎĿÎŁÎ¥": 5787,
      "ue": 5788,
      "á¿¶ÏĦÎ±": 5789,
      "ĠÎ±Î³": 5790,
      "ĠÏĥÏĢÎµÏģ": 5791,
      "ÏįÎ½Î·": 5792,
      "ĠÏĢÎ¿ÏģÎµá½»": 5793,
      "ĠÎºÎ±ÏĦÎ±ÏĥÎº": 5794,
      "ĠÎ¼á½³ÏĥÎ¿Ïħ": 5795,
      "ition": 5796,
      "ĠÎ³ÎµÎ½ÎŃ": 5797,
      "Ġwe": 5798,
      "ĠÎ²Î±ÏĥÎ¹Î»á½³Î±": 5799,
      "á½»Î½Î·Î½": 5800,
      "á½·Î¶ÎµÎ¹Î½": 5801,
      "ĠÎłÎ±": 5802,
      "ĠÏĢÏģá½½ÏĦá¿ĥ": 5803,
      "ĠÎ§Ïģá½»ÏĥÎ¹ÏĢ": 5804,
      "ĠGod": 5805,
      "á½½Î´ÎµÏĥÎ¹": 5806,
      "Ġá¼ĲÏĢÎ¿ÏģÎµÏį": 5807,
      "Ġá¼ĲÎ´ÎµÏĥÎ¼á½±ÏĦÏīÎ½": 5808,
      "Î½á¿¦Î½": 5809,
      "Ġá¼ĲÎ»ÎŃ": 5810,
      "ĠÎµÏīÏĤ": 5811,
      "ĠÏĥá½°ÏģÎ¾": 5812,
      "Ġá¼ĦÎ¾Î¹": 5813,
      "ĠÎ¼ÎµÏĥ": 5814,
      "á½³ÏģÏīÎ½": 5815,
      "Ġá¼°ÏĥÏĩÏį": 5816,
      "Ġno": 5817,
      "ĠÏĢÏģá½½ÏĦÏīÎ½": 5818,
      "á½µÏĥÎµÏĥÎ¹Î½": 5819,
      "Î¸á½³Î½ÏĦÎ¿ÏĤ": 5820,
      "ĠÏĥá½»Î½Î¸Îµ": 5821,
      "ĠÏĥÎºÎµÏħÎ±": 5822,
      "ĠÏĢÏģÎ¿Ïĥá½³ÏĦÎ¹": 5823,
      "ĠÎ´ÎµÏħÏĦá½³ÏģÎ¿Ïħ": 5824,
      "ace": 5825,
      "ÏĢÏģÎ±": 5826,
      "ÎºÎ¿Î¼": 5827,
      "Î²Î·ÏĥÎ±Î½": 5828,
      "á½µÏģ": 5829,
      "á½µÏĥÎ¿Î¼ÎµÎ½": 5830,
      "ÏĪÎ¿Î½ÏĦÎ±Î¹": 5831,
      "Ġá¼ĲÏĢÎ¹ÏĦÏģá½³": 5832,
      "Ïģá½¹ÏĦÎµÏģÎ¿ÏĤ": 5833,
      "Î¿Î»á½¹Î³": 5834,
      "Ġá¼ħÏĢÎµÏģ": 5835,
      "ĠÏĢá½¹Î»Îµ": 5836,
      "Ġá¼ģÏĢÎ±Î»": 5837,
      "ĠÏĥÏħÎ»Î»Î¿Î³": 5838,
      "Ġperhaps": 5839,
      "Î¼ÎµÏģ": 5840,
      "ÏīÎ¼á½³Î½ÏīÎ½": 5841,
      "ĠÎ´ÏģÎ±": 5842,
      "á½¹ÏĦÎµÏģÎ¿ÏĤ": 5843,
      "á½µÎ¼Î±ÏĥÎ¹": 5844,
      "ĠÏĦÎµÏĦÏĦ": 5845,
      "á½¹Î½Î¿ÏĤ": 5846,
      "á¿¦ÏĦÎ±Î¹": 5847,
      "ĠÎ´Î¹Î±Î³Î¹Î½": 5848,
      "Ġá¼ĲÎ¾Î¹": 5849,
      "Ġá¼¡Î¼Îµ": 5850,
      "ĠÎºÎ±ÏĦÎ±ÏĥÏĩ": 5851,
      "Ġá½ĦÎ³Îº": 5852,
      "ĠÎ¸ÎµÏģÎ¼á½¹ÏĦÎ·ÏĦÎ±": 5853,
      "Ġá¼¡Î»Î¹Îºá½·Î±ÏĤ": 5854,
      "Ġá½ģÎ¼Î¿Î¹Î¿Î¼": 5855,
      "ĠÎ´Î¹Î¿ÏģÎ¹ÏĥÎ¼": 5856,
      "ĠÏĩÎµÎ¹Î¼á¿¶Î½Î¿ÏĤ": 5857,
      "ĠÎ£Î±Î»ÏīÎ¼á½¼Î½": 5858,
      "ĠÎ³ÎµÎ³ÎµÎ½Î·": 5859,
      "Ġá¼Ģá½³ÏģÎ±": 5860,
      "Î¿á¿¦Î¼Î±Î¹": 5861,
      "ĠÎµÎ±Î½": 5862,
      "ĠÏĨá¿¶ÏĤ": 5863,
      "ĠÎ¸ÏĤ": 5864,
      "ĠÎ²Îµ": 5865,
      "ĠÎ³á½³Î½Î·": 5866,
      "Î´á½³ÏĤ": 5867,
      "ĠÏĥÏħÎ¼ÏĢá½±": 5868,
      "Î»Î±Î¼Î²Î±Î½": 5869,
      "ĠÎ´ÏĮÎ¾Î±Î½": 5870,
      "ĠÏĢÏģÎ¿ÏĥÎ¸Îµá¿ĸÎ½Î±Î¹": 5871,
      "ĠÎ¶Ïīá¿ĨÏĤ": 5872,
      "Î¸ÎµÏģÎ¼Î±": 5873,
      "Ġlike": 5874,
      "ÏĥÏħÎ¼": 5875,
      "ÏĢÎ±ÏĤ": 5876,
      "Î¼á½µÎ½": 5877,
      "Ġá¼ĲÏĩÎ¸": 5878,
      "Î³Î±Ïģ": 5879,
      "ĠÎ±Î³Î±": 5880,
      "Ġá¼ĲÎ½á½³": 5881,
      "á½ºÏ²": 5882,
      "Ġá½ĢÎ³": 5883,
      "Ġá¼ķÎ¾ÎµÎ¹": 5884,
      "Ġá¼ĢÎ½Î±ÏĦÎµ": 5885,
      "ĠÏĢÎ±ÏģÎ±Î´Îµá½·": 5886,
      "ĠÎ´ÎµÏĥÎ¼": 5887,
      "one": 5888,
      "ĠÎ¿á½ĲÏĩá½¶": 5889,
      "Ġá¼ĲÎ½Î±Î½ÏĦÎ¯Î¿Î½": 5890,
      "Ġá½ĢÎ½Î¿Î¼á½±Î¶ÎµÏĦÎ±Î¹": 5891,
      "á½ĳÏĢ": 5892,
      "ĠÏĥÎ¼Î¹ÎºÏģá½¸Î½": 5893,
      "Ġá¼¸ÏīÏĥ": 5894,
      "Ġá¼ĢÎ½Î±ÏĦÎ¿Î¼á¿ĨÏĤ": 5895,
      "Ġá½łÎ½á½¹Î¼Î±": 5896,
      "ip": 5897,
      "Ïĭ": 5898,
      "Ġá¼ĢÏĥÎ±ÏĨ": 5899,
      "ÏĨá½·": 5900,
      "ĠÎ¿ÏħÏĦ": 5901,
      "Î»Î»Î¹Î¿Î½": 5902,
      "Î²á½±Î½Î·ÏĤ": 5903,
      "Ġá¼ĶÏĦÎµ": 5904,
      "Î¹Îºá½°": 5905,
      "Î¹Îºá½´Î½": 5906,
      "á½¼Î¸": 5907,
      "Ġá¼ĲÎ³ÎŃÎ½": 5908,
      "á¼°Î´Î¿á½º": 5909,
      "ĠÎ¾Ïį": 5910,
      "ĠÎ¸ÎµÏģÎ¼á½°": 5911,
      "ĠÎ¼ÎµÏĦÎ±Î²": 5912,
      "ÏĨÏħÎ»á½±": 5913,
      "ĠÎ»Î¿Î¹ÏĢá½¸Î½": 5914,
      "ĠÎ¸ÎµÏģÎ±ÏĢÎµá½·Î±Î½": 5915,
      "ĠÎ¼á½³Î³Î±ÏĤ": 5916,
      "á¼Ĩ": 5917,
      "ÎµÏĥÎ¸Î±á½·": 5918,
      "ĠÏĢá½»": 5919,
      "ÎµÎ¹Î¿Î½": 5920,
      "ĠÏĨÎ¹": 5921,
      "ĠÎ½Î·": 5922,
      "ĠÎºÎ±Î¸á½±Ïģ": 5923,
      "ĠÏĦÏģÎ¹Î±Îº": 5924,
      "Ġá¼ĶÎ¼ÏĢÎ±Î»Î¹Î½": 5925,
      "ĠÎºÎ±ÏģÎ´Î¯Î±ÏĤ": 5926,
      "Ġá¼ĢÏģÏĦÎ·Ïģá½·Î±Î¹ÏĤ": 5927,
      "ĠÏĥÏĨÏħÎ³Î¼Î¿á¿¦": 5928,
      "ĠÏĥá½±ÏģÎºÎ±": 5929,
      "ĠÏĢÎ»á½±ÏĦÎ¿ÏĤ": 5930,
      "ĠÏĥÏĦÏģÏħÏĨ": 5931,
      "ĠÏĢÏģá¾¶Î³Î¼Î±": 5932,
      "Î¹ÏĥÏĦÎ¹Îº": 5933,
      "ÏĨÏģÎ±": 5934,
      "ĠÏĥÏĢÎ¿Ïħ": 5935,
      "Î´ÎµÎ¯": 5936,
      "Î»Î±á¿ĸÏĤ": 5937,
      "ĠÎ´Î¹Î±Î¸Î®": 5938,
      "Ġá¿¥Îµ": 5939,
      "Ġá½ĦÏģÎ¿ÏĤ": 5940,
      "Ġá½ĳÏĢÎ¿ÏĥÏĦ": 5941,
      "Ġá¼ĲÏģÎµá¿ĸ": 5942,
      "ĠÎ¿á¼¶Î½Î¿ÏĤ": 5943,
      "ĠÏĢÏĮÎ»ÎµÏīÏĤ": 5944,
      "ĠÎ´Î¹Î±Î¸á½³ÏĥÎµÏīÎ½": 5945,
      "ĠÎ³ÎµÎ³ÏģÎ±Î¼Î¼á½³Î½ÏīÎ½": 5946,
      "ĠÎ¸Î±ÏħÎ¼á½±Î¶": 5947,
      "ĠÎ²Î¹Î²Î»á½·á¿³": 5948,
      "resent": 5949,
      "ĠÎºÎ½á½µÎ¼Î·ÏĤ": 5950,
      "Î¿á½ĹÏĦÎ¿Î¹": 5951,
      "ĠÏĦÎµÏĦÎ±Î³": 5952,
      "ÏĥÎ¯Î±Î½": 5953,
      "Î¼á½·Î±": 5954,
      "ĠÎºÎ±ÏĢÎ½": 5955,
      "Î¿ÏħÎ²": 5956,
      "ĠÏĥá½µÎ¼ÎµÏģÎ¿Î½": 5957,
      "ÏĥÏĦÎ·ÏĤ": 5958,
      "Ġá¼ĲÎ½ÎµÏĥÏĦ": 5959,
      "ĠÏĨÏģ": 5960,
      "Ġá¿¥Î·Î¸": 5961,
      "Î¿Î¼ÏĨÎ±": 5962,
      "ĠÏĦÎ¹Î½á¿¶Î½": 5963,
      "ĠÎºá½»ÏĥÏĦÎµÏīÏĤ": 5964,
      "ĠÎ³Î±ÏĥÏĦá½´Ïģ": 5965,
      "Î»Î±Î²á½¼Î½": 5966,
      "ÎµÎ¯Î´": 5967,
      "ĠÏĥÎºá½³Î»Î¿ÏĤ": 5968,
      "Ġá½ħÎ¼Î¿Î¹Î¿Î½": 5969,
      "ĠÏĢÎ¿Î»ÏħÎµÎ¹Î´": 5970,
      "ĠÏĦá¼ĢÎ½Î±Î½ÏĦá½·Î±": 5971,
      "Î¿á¼·": 5972,
      "ÏīÎ½Î±": 5973,
      "ĠÎ½á½³": 5974,
      "Ġá¼ĲÏĢÎ¹ÏĥÏĢ": 5975,
      "Ġá¿¥Îµá½»": 5976,
      "ÏĦÏģá¿³": 5977,
      "ĠÎ´Îµá½»": 5978,
      "ÏĥÏīÏĥÎ¹Î½": 5979,
      "Ġá½ĳÎ³ÏģÎ¿á¿¦": 5980,
      "ĠÎ¼á½¹Î½Î¿Î¹ÏĤ": 5981,
      "ĠÏĢÏħÏģÎµÏĦÎ¿á¿ĸÏĤ": 5982,
      "Îºá½¹ÏĦÎ±": 5983,
      "sel": 5984,
      "ĠÏĩÎµá¿ĸÏģÎ¿Î½": 5985,
      "Ġone": 5986,
      "Ġexc": 5987,
      "Îµá½ĶÎ´Î·Î»Î¿Î½": 5988,
      "Î½Î·ÏĥÎµÎ½": 5989,
      "á¼©": 5990,
      "Ïģá½°ÏĤ": 5991,
      "Ïħá¼±": 5992,
      "ĠÏĢá¿ĨÏĩ": 5993,
      "Î¸Î¿Î¹ÏĤ": 5994,
      "á½±Î½ÎµÏĦÎ±Î¹": 5995,
      "Ġá¼ĲÎ½ÎŃ": 5996,
      "á½µÎºÎµÎ¹": 5997,
      "á½µÏĥÎ¿Î¼Î±Î¹": 5998,
      "Ġá½ĳÏĢá½³": 5999,
      "Ġacc": 6000,
      "Ġá¼¡Î¼Î¹": 6001,
      "Ġá¼ĢÏĢÎ¿ÏĦÎµ": 6002,
      "Ġscr": 6003,
      "ence": 6004,
      "ĠÎµá¼°Ïĥá¿ĨÎ»Î¸ÎµÎ½": 6005,
      "Î¿Î¼ÎŃÎ½Î·": 6006,
      "ĠÏĥÎ¼á½»ÏģÎ½Î·ÏĤ": 6007,
      "Ġá½łÏĨÎµ": 6008,
      "ĠâĦµB": 6009,
      "Î¹ÏĥÏĦá¿ĨÏĤ": 6010,
      "ĠÏĥá½»Î½Î´Îµ": 6011,
      "ĠÎ²Î±ÏĥÎ¹Î»Îµá¿ĸÏĤ": 6012,
      "ĠÏĢÎ¿Î»ÎµÎ¼": 6013,
      "Ġá¼¸Î±Îºá½¼Î²": 6014,
      "ÏģÎº": 6015,
      "Î»ÏħÎ¸": 6016,
      "ÏħÏĢÏĦ": 6017,
      "ĠÎºÎ±á½»": 6018,
      "ÏĩÏģÎ¿Î½": 6019,
      "Î¿á¿¶Î½": 6020,
      "Ġá¼ĶÎ¾": 6021,
      "Ġá¼ĲÎºÎ¸": 6022,
      "ĠÏĩÏģÎµ": 6023,
      "ĠÏĦá¿ĩÎ´Îµ": 6024,
      "ÏĦÏģÎ¯": 6025,
      "Ġ38": 6026,
      "ĠÏĨÎ±Î³": 6027,
      "Ïĥá½·á¾³": 6028,
      "ĠÏĢÎ½ÎµÏħÎ¼Î±": 6029,
      "Ġá¼łÎ³": 6030,
      "ĠÎ³Î¹Î½á½¹Î¼ÎµÎ½Î¿Î½": 6031,
      "ĠÎ³ÎµÎ³ÏģÎ±Î¼Î¼á½³Î½Î±": 6032,
      "ĠÎ±á¼°ÏĥÎ¸á½µÏĥÎµÏīÏĤ": 6033,
      "Î¿á½ĲÎ´á½²Î½": 6034,
      "ÎĶÎ¹": 6035,
      "ĠÎ½ÏīÏĦÎ¹Î±á½·Î¿Ïħ": 6036,
      "ĠÎ²Î¿Î·Î¸Î·Î¼á½±ÏĦÏīÎ½": 6037,
      "ast": 6038,
      "máµį": 6039,
      "Ġá¼ĢÎ²": 6040,
      "ĠÎµÎºÎ±": 6041,
      "ĠÎ±á½ĲÏĥÏĦÎ·Ïģ": 6042,
      "Î¾á½·": 6043,
      "ÏģÎ¹ÏĤ": 6044,
      "Ġá¼ĢÎ½ÏĦá½·": 6045,
      "ÎµÎ»á¿¶Î½": 6046,
      "ÎºÎ¿Î½ÏĦÎ¿ÏĤ": 6047,
      "ĠÎ»á½¹Î³Î¿ÏħÏĤ": 6048,
      "ĠÎ»á½³Î³Î¿ÏħÏĥÎ¹Î½": 6049,
      "ĠÎ¿á¼°ÎºÎµá¿ĸÎ¿Î½": 6050,
      "ĠÎºÎ±Îºá½¸Î½": 6051,
      "ĠÎĿÎ±": 6052,
      "ĠBáµĥáµĩU": 6053,
      "Ġá¼ĳÎ²Î´Î¿": 6054,
      "ĠÎ¸Î±Î»á½±": 6055,
      "ĠÎ½ÏħÎºÏĦá½¸ÏĤ": 6056,
      "Ġá½ĢÎ½Î¿Î¼Î¬Î¶": 6057,
      "ÏĥÎ¸Î·Ïĥ": 6058,
      "Ġá¼ĦÎ³Î³ÎµÎ»": 6059,
      "Ġá½ħÏĥá¿³": 6060,
      "Ġá¼ĲÎ¾Î±Ïģ": 6061,
      "Î¿á¿¦Î½ÏĦÎ¹": 6062,
      "Î¸ÎµÏĥÎ¸Î±Î¹": 6063,
      "Î»á½·ÏĥÎº": 6064,
      "Î¬Î½Î¿Ïħ": 6065,
      "ÏĥÎ¼Î¿Ïħ": 6066,
      "Ġá¼ĢÏĨÎ±Î¹Ïģ": 6067,
      "Ġá¼ĲÏģÎ¿á¿¦Î¼ÎµÎ½": 6068,
      "Ġá½ĢÎ»á½·Î³Î±": 6069,
      "ĠÏĢá½³ÏĪÎµÏīÏĤ": 6070,
      "ÎºÎ±Î¸Î±Ïģ": 6071,
      "ress": 6072,
      "á¼ĲÏĢÎµÎ¹Î´á½´": 6073,
      "Ġá¼ĲÎºÎºÎ»Î·Ïĥ": 6074,
      "ose": 6075,
      "á¼¥": 6076,
      "ÏģÎ¹Î½": 6077,
      "ÏĢÎ½ÎµÏħ": 6078,
      "Î¸Îµá½·Î·": 6079,
      "á½·ÏĥÏĦÎ·": 6080,
      "ÏĨÏħÎ»": 6081,
      "ĠÏĥÎ¹Îº": 6082,
      "ÏįÏĩ": 6083,
      "ĠÏĢÎ¿ÏģÎµÏį": 6084,
      "ĠÎ´Î¹Î±Î»Îµá½·": 6085,
      "han": 6086,
      "ĠÎ²Î±ÏĥÎ¹Î»á½³ÏīÏĤ": 6087,
      "Î¯Î½ÏīÎ½": 6088,
      "ÎŁÎĿ": 6089,
      "ĠÏĢÎ»Î·ÏĥÎ¹": 6090,
      "â¸ĥ,": 6091,
      "ĠÏĢÏģÎ¿ÏĥÎµÏħÏĩ": 6092,
      "ĠÎ¶á¿¶Î±": 6093,
      "Ġá¼ĢÎ½Î´Ïģá½¸ÏĤ": 6094,
      "ĠÎ¸á½³ÏģÎ¿ÏħÏĤ": 6095,
      "ĠÎ´Î¹á½±ÏģÎ¸ÏģÏīÏĥÎ¹Î½": 6096,
      "Ïģá½½": 6097,
      "ÏĥÎ·ÏĦÎ±Î¹": 6098,
      "ÏĥÎ·Î¼Î±": 6099,
      "Îºá½¼ÏĤ": 6100,
      "ÏĦÎ±á½»": 6101,
      "ĠÎ²Î»Î¬": 6102,
      "Ġá½¡ÏĥÎµá½¶": 6103,
      "ĠÎ´Î¹Î±Î¸á½µ": 6104,
      "ÏģÎ¿ÏĦá½±": 6105,
      "Ġá¼ĢÎ»Î»Ê¼": 6106,
      "Î¿Î»Î¿Ïĩ": 6107,
      "ĠÎ¼á½³Î»Î±": 6108,
      "ĠÏĢÎ¿Î¹á½µÏĥÎµÎ¹ÏĤ": 6109,
      "Ġá¼ĢÏĨÎ±Î¹": 6110,
      "Î»ÎµÎ¹ÏĨÎ¸": 6111,
      "Ġá¼ĦÏģÏĦÎ¹": 6112,
      "ĠÎ³Î¹Î½á½½ÏĥÎºÎµÎ¹Î½": 6113,
      "ĠÎµá½ĳÏģá½µÏĥÎµÎ¹ÏĤ": 6114,
      "ĠÂ¶": 6115,
      "Ġprobably": 6116,
      "ĠÏĥÏĦÏģÎ¿Î³Î³": 6117,
      "ĠÏĢÏģÎ¿Îµá½·ÏģÎ·ÏĦÎ±Î¹": 6118,
      "20": 6119,
      "á¼ł": 6120,
      "Ġá¼°ÏĩÎ¸": 6121,
      "á½·Î½ÎµÏĦÎ¿": 6122,
      "ĠÎºÎµÏĨá½±Î»": 6123,
      "ĠÏĢá½¹Î»Î¹Î½": 6124,
      "ĠÎ½á½¹ÏĥÎ¿Ïħ": 6125,
      "ĠIsa": 6126,
      "ÏĦÎ¹Î½á½²ÏĤ": 6127,
      "Ġá¼ĢÎ»Î·Î¸á½²ÏĤ": 6128,
      "ĠÏĥÏĦÎ±Î¸": 6129,
      "Ġá¼ĢÎ½ÏīÎ¼Î±Î»": 6130,
      "Î½ÏĦÎ¹Î½": 6131,
      "Ġá¼ĲÎ¶": 6132,
      "ĠÎ´á¿¶": 6133,
      "ÎµÎ½Î¹Î±": 6134,
      "á¿ĨÎ½Î±á½·": 6135,
      "ÏĥÏĦá½¹Î½": 6136,
      "Î²Î¿ÏĤ": 6137,
      "ĠÎ´Î¹ÏĮÏĦÎ¹": 6138,
      "ÎºÎ±ÏħÏĦ": 6139,
      "Ġá¼ĶÎ½Î¸ÎµÎ½": 6140,
      "ÏħÎ»Î¿Î³": 6141,
      "Ïĥá½·Î±Î¹ÏĤ": 6142,
      "Ġá¼ĳÎ±ÏħÏĦá¿ĨÏĤ": 6143,
      "ÏīÏģá½·Î±ÏĤ": 6144,
      "ĠÎ´Î¹Î±ÏĨÎ¿Ïģá½°Î½": 6145,
      "ĠÎ»Î±Î¼Î²á½±Î½": 6146,
      "ĠÏĢÎµÏģÎ¹ÏĦÏĦá½½Î¼Î±ÏĦÎ±": 6147,
      "ĠÎ³ÏħÎ½Î±Î¹Îºá½¸ÏĤ": 6148,
      "Ġra": 6149,
      "ÏĢÏģá½¹": 6150,
      "Î»Î¼": 6151,
      "ĠÎ¼Î¿Î½": 6152,
      "Î´Î±Ïģ": 6153,
      "Î¾Î¬": 6154,
      "ÎŃÎ»": 6155,
      "ĠÎ²Î»Î±": 6156,
      "ÏĥÎ±ÏĥÎ±": 6157,
      "ĠÏĢÎ±ÏĦÏģÎ¹": 6158,
      "Ï²Î±": 6159,
      "Ġá¼ĢÎ»Î»Î¿á½·": 6160,
      "Ġá¼ĢÎ½Î±ÏĨÎµÏģ": 6161,
      "ÏĥÏĦÎ±Î»": 6162,
      "ĠÏĢÎ¿Î¹á½¹ÏĦÎ·ÏĦÎ¿ÏĤ": 6163,
      "ĠÏĢÎµÏĥ": 6164,
      "á½ħÎ¸ÎµÎ½": 6165,
      "Î¼ÎŃÎ½Î¿Î¹ÏĤ": 6166,
      "ĠÎķá½Ĳ": 6167,
      "ĠÎ¾Î·Ïģá¿¶Î½": 6168,
      "Ġá½ģÎ´á¿·": 6169,
      "ĠÎ³Î¹Î³Î½á½¹Î¼ÎµÎ½Î¿Î½": 6170,
      "ĠÎ¼ÎµÎ¸á½¹Î´Î¿Ïħ": 6171,
      "ĠÎ´Î¹Î±ÏĥÏĦá½³Î»Î»": 6172,
      "ĠÎĶÎ±ÏħÎµÎ¯Î´": 6173,
      "Î¸á½³Î½ÏĦÎ±": 6174,
      "ÏĦÏĦÏīÎ¼Î±": 6175,
      "Ġá¼ĦÎ»Î»Î·Î»Î±": 6176,
      "Ġá¼ĶÏĥÏĩÎ±": 6177,
      "ever": 6178,
      "Î¿ÏħÎ¼á½³Î½Î¿Ïħ": 6179,
      "Î¿Î¹Î¼": 6180,
      "ĠÎ±á½ĲÎ¾Î±Î½": 6181,
      "Ġá¼ĲÎ½Î´á½³ÏĩÎµÏĦÎ±Î¹": 6182,
      "ĠÏĨá½¹": 6183,
      "ĠÏĢÏģÎ¿Î³Î½": 6184,
      "Ġá¼ĲÏĢÎ¹Î´": 6185,
      "á½·Î½Î·Î½": 6186,
      "Ġá¿¥á½³": 6187,
      "ÏĦÎ¿ÏħÏģÎ³": 6188,
      "ĠÎ±á¼°Î³": 6189,
      "ĠÏĢá½±Î¼ÏĢÎ¿": 6190,
      "Ġmore": 6191,
      "ĠÎºÎ¹Î½Îµá¿ĸÏĥÎ¸Î±Î¹": 6192,
      "ĠÏĢá½¹Î»ÎµÎ¹ÏĤ": 6193,
      "Ġá¼ĳÎ±ÏħÏĦá½¸": 6194,
      "ĠÏĢÏģá½½ÏĦÎ·": 6195,
      "ĠÏĦá½±Î´Îµ": 6196,
      "ĠÎ¼ÎŃÏģÎ¿ÏĤ": 6197,
      "ĠÎ´á½·Î±Î¹": 6198,
      "Ġá¼ĢÎ¼ÏħÎ´": 6199,
      "ĠÏĥÎºÎ¹á¿¤á¿¥": 6200,
      "ĠÎ³á½±Î»Î±Îº": 6201,
      "ĠâĢľ": 6202,
      "ĠÏĢá½µÏĩÎµÏīÏĤ": 6203,
      "un": 6204,
      "Ġá¼Ĩ": 6205,
      "ĠÎ´Îµá¿ĸÏĥÎ¸Î±Î¹": 6206,
      "Ġá½ĢÎ¸Î¿Î½": 6207,
      "á½±Î½Î¿Î¹ÏĤ": 6208,
      "ĠÎ´Î¹Î±ÏĢÎ»á½±": 6209,
      "ĠÏĢÎ¿Î¹Î·": 6210,
      "ĠÎ¸ÎµÏģÎ¼á½¹Î½": 6211,
      "Ġá¼ĲÎ»ÏĢ": 6212,
      "ĠÏĢÎ¿Î½Î·": 6213,
      "ĠÎľÏīÏħÏĥá¿ĨÎ½": 6214,
      "ĠÎ¸Î±Î»Î¬": 6215,
      "ĠÎ´ÏħÎ½Î¬Î¼ÎµÏīÏĤ": 6216,
      "Ġá½ĢÎºÏĦá½¼": 6217,
      "Báµĥ": 6218,
      "ix": 6219,
      "ÏīÏĥÎ±Î½": 6220,
      "Î¸á½³Î½Î±Î¹": 6221,
      "ÏĩÎµá½·": 6222,
      "ÏģÎ¹ÏĥÎ¼Î±": 6223,
      "á½¹Î½Î±Î¹": 6224,
      "á¿¦ÏĥÎ¹Î½": 6225,
      "Ġá¼ĢÎ½á½½Î¼Î±": 6226,
      "Ġout": 6227,
      "ĠÎºÎ±ÏĦÎ±Î²": 6228,
      "Ġá¼ĪÏģ": 6229,
      "ĠÎĻÎµ": 6230,
      "á½·Î¶ÎµÏĥÎ¸Î±Î¹": 6231,
      "ĠÏĢÎ¿Î»á½»": 6232,
      "ĠÏĥÏīÏĦÎ·Ïģ": 6233,
      "ĠÎ¼Î¹á¾·": 6234,
      "ĠÎ´ÎŃÎºÎ±": 6235,
      "Ġá¼ĶÎ¸Î½ÎµÏĥÎ¹Î½": 6236,
      "ĠÏĢÏħÎºÎ½á½¸Î½": 6237,
      "ĠÏĢÏģÎ±Î³Î¼Î±ÏĦÎµá½·á¾³": 6238,
      "ĠÏĢá½±ÏĥÏĩÎµÎ¹Î½": 6239,
      "ĠÏĥÏĦÎ¿Î¹ÏĩÎµá¿ĸÎ±": 6240,
      "ÏĥÏĥÎ±ÏģÎµÏĤ": 6241,
      "Ġá¼ĲÏĥÏĩá½±ÏĦÏīÏĤ": 6242,
      "ĠÎ²Î»á½±Î²Î·Î½": 6243,
      "ĠÎ¼ÎµÎ³á½³Î¸Î¿ÏħÏĤ": 6244,
      "'s": 6245,
      "ÏĥÎ¼á½³Î½Î¿Î½": 6246,
      "ÏħÎ³Î³Î¿ÏĤ": 6247,
      "ĠÎ¼Î±ÏĥÏĦ": 6248,
      "ĠÎ±Î»Î»": 6249,
      "ĠÏĥÏĢÎ±Î½": 6250,
      "ĠÎ³Î¿Î½": 6251,
      "Î²Î¿Î½": 6252,
      "ĠÎ²á½¹": 6253,
      "Ġá½ĳÏĢÎ·ÏģÎµ": 6254,
      "Ġaf": 6255,
      "ÏĥÎºÎµÎ¹": 6256,
      "Ġá¼ĢÎ½Î±á½·": 6257,
      "ĠÎ¸ÎµÏīÏģ": 6258,
      "ĠÏĦÎ¿Î¹Î¿Ïį": 6259,
      "ĠÎ½Îµá½»Ïģ": 6260,
      "ĠÎ¸ÎµÏģÎ¼á½¹ÏĦÎµÏģÎ¿Î½": 6261,
      "Ġá¼ĲÎºÎµá½·Î½á¿ĥ": 6262,
      "ĠÎ¿á¼°ÎºÎµá½·Î±ÏĤ": 6263,
      "Î²Î¿Î»Î¿á½ºÏĤ": 6264,
      "ĠÎĿÎµ": 6265,
      "á½·ÏĥÏĦÎ±ÏĥÎ¸Î±Î¹": 6266,
      "ĠÏĢÎ»ÎµÎ¿Î½ÎµÎº": 6267,
      "III": 6268,
      "ĠÎ³Ïģá½±ÏĨÎµÎ¹": 6269,
      "Ġá¼ĲÏĢÎ¹ÏĦÎ·Î´Îµ": 6270,
      "Ġá¼ħÎ³Î¹Î¿Î½": 6271,
      "Ġá½ķÏĪÎ¿ÏĤ": 6272,
      "Ġá½ĳÏĢÎ¿Ïĩá½¹Î½Î´": 6273,
      "ĠÏĥÏĦá½³Î±Ïģ": 6274,
      "Ġtaken": 6275,
      "ÎºÏĦÎ¿Î½": 6276,
      "ĠÎ´Î¹ÎŃ": 6277,
      "Ġá¼Ħá¿¤á¿¥Ïī": 6278,
      "Ġá½ħÏĢÎ¿Ïħ": 6279,
      "Î®ÏģÎ¹Î¿Î½": 6280,
      "Ġá¼ĢÎ½ÏĦÎ±": 6281,
      "ÏģÎ·ÏĥÎ¹Î½": 6282,
      "ÏĩÏģÎ¹Îµ": 6283,
      "ĠÎ²Î±ÏĥÎ¹Î»ÎµÏħÏĤ": 6284,
      "ĠÎ¼Î±ÏĥÏĩ": 6285,
      "ĠÎµÎ¹ÏĢÎµÎ½": 6286,
      "Ġá¼ĲÏģÎ³á½±ÏĥÎ±ÏĥÎ¸Î±Î¹": 6287,
      "ĠÎ¼Î¹Ïĥ": 6288,
      "ĠÏĥÎ·Î¼Îµá½·ÏīÎ½": 6289,
      "ĠÎºÎ±ÏģÏĢÎ¿á¿¦": 6290,
      "ĠÎ¼á½³Î»Î¹ÏĦÎ¹": 6291,
      "ĠÎ»Î¹Î¸Î±ÏģÎ³á½»ÏģÎ¿Ïħ": 6292,
      "ĠÎ´ÎµÎ¹ÎºÎ½": 6293,
      "ĠÏĢÎ±Î¼ÏĢá½¹Î»Î»": 6294,
      "Î»ÎµÎ½": 6295,
      "Î¼Î¼Î±ÏĦÎ±": 6296,
      "Î¼Î±Ïĩ": 6297,
      "Î¯ÏĥÏī": 6298,
      "ÏĥÎ±ÏĥÎ¸Îµ": 6299,
      "Î¸Î·ÏĥÎµÏĦÎ±Î¹": 6300,
      "ĠÎ±á¼°ÏĥÏĩ": 6301,
      "ĠÎ¼ÎµÎ³á½±Î»Î±": 6302,
      "Ġá¼ĲÏģÏī": 6303,
      "ÏĦá½³ÏĤ": 6304,
      "Ġá¼ĲÎ»Î¬": 6305,
      "Ġá¼ĢÏģÏĦÎ·Ïģá½·Î±Î¹": 6306,
      "ĠÎ¤Î¯": 6307,
      "ĠÎºÎµÎ½á½½ÏĥÎµÏīÏĤ": 6308,
      "ĠÎ¼ÎµÎ³á½±Î»Î·ÏĤ": 6309,
      "á½ĳÏĢÎ¿": 6310,
      "Ġá¼ķÎ»ÎºÎ·": 6311,
      "ÎºÏģÎ¹ÏĥÎ¹Î½": 6312,
      "ĠÎµá½ĲÏĨÏģÎ¿Ïĥ": 6313,
      "ĠÏĢÏģÎ¿ÏĥÎºÏħÎ½": 6314,
      "Ġá¼ĲÎ¼ÏĢÎµÎ¹ÏģÎ¹Îº": 6315,
      "Ġá¼ĲÎ½á½½ÏĢÎ¹Î¿Î½": 6316,
      "ĠÏĨÎ¬ÏģÎ¼Î±": 6317,
      "á½±ÏĥÎ±Î¹": 6318,
      "á½»ÎµÏĥÎ¸Î±Î¹": 6319,
      "ĠÎ³Î·Î½": 6320,
      "á½µÎ¸ÎµÎ¹Î±Î½": 6321,
      "Ġá¼ĦÎ»": 6322,
      "Ïģá½±ÏĦÎ¿Ïħ": 6323,
      "Ġá¼¤Î½": 6324,
      "ÏĥÎ¼Î¿ÏĤ": 6325,
      "Ġá½ķÎ»Î·Î½": 6326,
      "ĠÎ³á½³Î½ÎµÏĥÎ¹ÏĤ": 6327,
      "ÏĥÎºÎµÏħÎ±Ïĥ": 6328,
      "ĠÏĩÎ±Î»Î±Ïģ": 6329,
      "Ġá¼ĵÎ¾": 6330,
      "ĠÏĩÏģá¿ĨÏĥÎ¹ÏĤ": 6331,
      "ÏĦá½´": 6332,
      "ĠÏĦÎ±Î¹ÏĤ": 6333,
      "á½·Î¿ÏħÏĤ": 6334,
      "á¿ĨÎ½Î±": 6335,
      "ĠÏĨá½±Î³": 6336,
      "Ġá¼ĢÎ½ÏĦ": 6337,
      "Ġam": 6338,
      "ĠÎ³ÎµÏī": 6339,
      "red": 6340,
      "Î½Î¿á½ºÏĤ": 6341,
      "ĠQa": 6342,
      "ĠÏĢÎµÏĨÎ¸": 6343,
      "Ġfoll": 6344,
      "ĠÎºÎ±ÏģÎ´Î¯Î±": 6345,
      "ĠÎ¼Î±Î»á½±": 6346,
      "ĠÏĨÏīÎ½á½´": 6347,
      "Ġá¼ĢÏħÏĦá¿¶": 6348,
      "ĠÏĪá½»Î¾Î¹Î½": 6349,
      "ĠÎ´Î¹Î±ÏĨÎ¸Îµá½·": 6350,
      "ĠÏĦá½³ÏĦÎ±ÏģÏĦÎ¿Î½": 6351,
      "ÏĥÎ¯Î½": 6352,
      "ÏħÏĥÎ±Î½": 6353,
      "Î¹Î½Îµ": 6354,
      "Ġá¼ĲÎ½Î½Î¿": 6355,
      "ĠÎ¸Ïį": 6356,
      "Î½Î±ÎºÎ¿ÏĤ": 6357,
      "ĠÎ¼ÎµÎ»Î¹Îº": 6358,
      "á½±Î½Î±ÏĤ": 6359,
      "Ġá½ĳÏĢÎŃÏģ": 6360,
      "Ġá¼ģÎ»á¿¶Î½": 6361,
      "ÏĦÎ¹Îºá½¸ÏĤ": 6362,
      "Ġince": 6363,
      "ĠÎ»Î±Î¼ÏĢ": 6364,
      "ĠÎ·á½Ĳ": 6365,
      "ĠÏĢÏģá½¹ÎºÎµÎ¹ÏĦÎ±Î¹": 6366,
      "Î»á½³Î¸": 6367,
      "ĠÎļÏįÏģÎ¹Î¿Î½": 6368,
      "ĠÎ¹Î²": 6369,
      "ĠÎ½á½¹ÏĥÎ¿Î½": 6370,
      "ĠÎ²Î¿ÏħÎ²": 6371,
      "ĠÎ´ÎµÏħÏĦá½³ÏģÎ±ÏĤ": 6372,
      "Î²Î±Î»ÎµÎ½": 6373,
      "ĠÎ¼Îµá½·Î¶ÏīÎ½": 6374,
      "ĠÎ´ÎµÏħÏĦá½³Ïģá¿³": 6375,
      "ĠKings": 6376,
      "ĠÎ¼Î·Îºá½³ÏĦÎ¹": 6377,
      "Qáµĥ": 6378,
      "Î¿Î»ÎµÎ¸": 6379,
      "Î¹ÏĥÏĦÎ±": 6380,
      "ÏĥÎ¼Î±ÏĦÎ¿ÏĤ": 6381,
      "ĠÏĢÏĦá½»": 6382,
      "ĠÎ´Î¿Î³": 6383,
      "Î¸á½±": 6384,
      "á½±Ïĥá¿ĥ": 6385,
      "á½¹ÏĦÎµÏģÎ¿Î¹": 6386,
      "á½»Î½ÎµÎ¹Î½": 6387,
      "á½µÏĥÎ±ÏĥÎ¸Î±Î¹": 6388,
      "ĠÎ¿á½ĲÏĥá½·Î±": 6389,
      "ĠÏĩÏģá¿ĨÎ½Î±Î¹": 6390,
      "Ġá¼ķÏĪ": 6391,
      "Ġá¼¸Î¿ÏģÎ´": 6392,
      "ĠÎ¶á¿´": 6393,
      "ĠÏĢÎ»Î·Î¼Î¼Îµ": 6394,
      "ĠÎ»ÏĮÎ³á¿³": 6395,
      "ÏĦÏĦÎµÏĦÎ±Î¹": 6396,
      "ĠÏĨÎ»ÎµÎ²Î¿ÏĦÎ¿Î¼á½·Î±ÏĤ": 6397,
      "á½³ÏģÏĩÎµÏĥÎ¸Î±Î¹": 6398,
      "ĠÏĥá½»Î¼Î¼ÎµÏĦÏģÎ¿ÏĤ": 6399,
      "ĠÎ´Î¿á¿¦Î½Î±Î¹": 6400,
      "ĠÎĴÎ±Î¹Î¸": 6401,
      "ĠÏĢÎ±Î½ÏĦÎµÎ»á¿¶ÏĤ": 6402,
      "ĠÎ¼Îµá¿ĸÎ¶Î¿Î½": 6403,
      ",'": 6404,
      "ÏĢÎ±Î¹": 6405,
      "Î´Ïį": 6406,
      "á½½ÏĦÏīÎ½": 6407,
      "ÏħÎ½ÏĦÎ±Î¹": 6408,
      "Ġá¼ķÎ¾Î¹Î½": 6409,
      "ĠÏĢÎ±Ïģá½¹Î½ÏĦÎ±": 6410,
      "Ġá¼ģÏģ": 6411,
      "ĠÎ¼á½¹Î½Î¿ÏĤ": 6412,
      "Ġá¼ĲÏģá¿¶": 6413,
      "ĠÎĶÎ±": 6414,
      "ĠÎºÎµÏĨÎ±Î»á½´": 6415,
      "ĠÏĢÏħÏģÎµÏĦÎ¿á½¶": 6416,
      "ĠÏĢÎ±Î¹Î´Îµ": 6417,
      "Ġá½ĢÎ»á½·Î³á¿³": 6418,
      "ĠÏĦÎµÏĦÏĦá½±ÏģÏīÎ½": 6419,
      "ĠÎºÎ±ÏĦÎ¿": 6420,
      "ĠÏĢÎ½": 6421,
      "á½±ÏĥÎ±ÏĤ": 6422,
      "Î¯Î½ÎµÏĦÎ±Î¹": 6423,
      "ÏįÏīÎ½": 6424,
      "ÏĥÎºÎµá½»Î±": 6425,
      "Î¼Î¿Î¯": 6426,
      "ÏīÏģÎ¿Î½": 6427,
      "Î¼Î¹Î±": 6428,
      "Î´ÎµÎ¹Î³": 6429,
      "ĠÏĥÏħÎ½ÎµÎº": 6430,
      "ĠÎ»ÎŃÎ³Ïī": 6431,
      "ÏĥÏĦÎ·Î¼Î±": 6432,
      "ĠAQÎĵ": 6433,
      "Ġá¼ĦÏģÏĦÎ¿Î½": 6434,
      "ĠÎºÎ±ÏĦá½±ÏĥÏĦÎ±ÏĥÎ¹Î½": 6435,
      "ĠÎµá½ĶÎ´Î·Î»Î¿Î½": 6436,
      "Ġá¼ĲÎ½Î±Î½ÏĦá½·Î±": 6437,
      "ĠÎ³Î¯Î½ÎµÏĦÎ±Î¹": 6438,
      "Ġá¼ĦÏģÎ¸ÏģÏīÎ½": 6439,
      "ĠÏĦÎ¿ÏħÏĦá½³ÏĥÏĦÎ¹Î½": 6440,
      "ĠÎ´Î±ÏĪ": 6441,
      "Ġá¼ĲÎ´á½·Î´Î±": 6442,
      "ĠÎ²ÎµÎ²Î±": 6443,
      "Îºá¾": 6444,
      "ĠÎµÏĥÏĦÎ±Î¹": 6445,
      "Î¾á½·Î±Î½": 6446,
      "Î¬Î¼": 6447,
      "ĠÏĢÎ»Î±Î½": 6448,
      "â¸Ĥ": 6449,
      "ĠÎ¼á½¹Î½ÏīÎ½": 6450,
      "Ġinf": 6451,
      "á½·Î¶ÎµÏĦÎ±Î¹": 6452,
      "ĠÏĦÎ±á½»ÏĦÎ±Î¹ÏĤ": 6453,
      "Ġbefore": 6454,
      "Ġá¼ĢÏģÏĦÎ·Ïģá½·Î±": 6455,
      "ĠÎ³Î»á½½": 6456,
      "ĠÎ²Î¹Î²Î»Î¯": 6457,
      "ĠÎ´Î¹Î´Î¬": 6458,
      "ĠÏĦÎŃÎ»Î¿ÏĤ": 6459,
      "Ġá¼ĲÎºÎµá¿ĸÎ¸ÎµÎ½": 6460,
      "ĠÏĢÏģÎ¿ÎµÎ¹ÏģÎ·Î¼á½³Î½ÏīÎ½": 6461,
      "ult": 6462,
      "ĠÎ§ÏģÎ¹ÏĥÏĦÎ¿á¿¦": 6463,
      "Ġá¼ĢÎ½ÏīÎ¼á½±": 6464,
      "oin": 6465,
      "ÏĥÎ¿": 6466,
      "á½±Î»Î·": 6467,
      "ÏĥÏĦá½¸Î½": 6468,
      "Î¼Î±á¿ĸÏĤ": 6469,
      "Ġá¼ĲÎ½Î¯": 6470,
      "ĠÏĩÎµÎ¯": 6471,
      "Î¿Î¼Î¿Î»Î¿Î³": 6472,
      "Î³Î¿Î½ÏĦÎ±Î¹": 6473,
      "ĠÎ¼Î·Î´ÎµÎ½á½¸ÏĤ": 6474,
      "á½½Î´ÏħÎ½": 6475,
      "Î»Î±Î²ÎµÎ½": 6476,
      "Î»Î±Î¼Î²á½±Î½ÎµÎ¹Î½": 6477,
      "Ġá¼ĢÎ¼ÏĨÎ¿ÏĦá½³ÏģÎ±ÏĤ": 6478,
      "ĠÎ»ÎµÎ¹ÏĦÎ¿ÏħÏģÎ³": 6479,
      "ĠÎ´ÏħÏĥÎºÏģÎ±Ïĥá½·Î±Î½": 6480,
      "ations": 6481,
      "ĠÎ±á½ĶÎ¾": 6482,
      "Ġá¿¥Î¹Î½á¿¶Î½": 6483,
      "ÏĦÏĦÎ·ÏĤ": 6484,
      "ĠÎºÎ¿Î¼": 6485,
      "ÎºÏĦÎµÎ¹Î½": 6486,
      "Î´Î±Î½": 6487,
      "ĠÏĥÏĢÎµ": 6488,
      "ĠÎ³Î¬": 6489,
      "ÏĥÎ¸Î±": 6490,
      "Î»Î¹ÏĢÎ¿Î½": 6491,
      "Î»Î¹ÏĢÎµÎ½": 6492,
      "ĠÏĢÎ±ÏģÎ·Î³": 6493,
      "ĠÎľÎ±Î½Î±": 6494,
      "ĠÎ¼á½³ÏģÎµÏĥÎ¹Î½": 6495,
      "ĠÏĥÏĦÎ¿Î¹ÏĩÎµá½·ÏīÎ½": 6496,
      "Ġá¼±Î´Ïģá¿¶": 6497,
      "ĠÎ¼Î¬Î»Î¹ÏĥÏĦÎ±": 6498,
      "ĠÏĦÏģÎ±Ïĩá½µÎ»Î¿Ïħ": 6499,
      "Ġá¼Ħá¿¤á¿¥ÎµÎ½": 6500,
      "ext": 6501,
      "ne": 6502,
      "Î»á½¹": 6503,
      "ÏħÎ¿ÏĤ": 6504,
      "á¿¶Î´á½³ÏĤ": 6505,
      "ĠÏĥÎµÎ»": 6506,
      "á½½Î¼Î¿Ïħ": 6507,
      "Î¼á½³Î½Î±Î¹": 6508,
      "Î¹Îºá¿¶ÏĤ": 6509,
      "ÏģÎ·Î¼á½±ÏĦÏīÎ½": 6510,
      "Ġá¼ĢÏģÎº": 6511,
      "ÏģÎ³á½±": 6512,
      "ĠÎ¶á½½á¿³": 6513,
      "Ġá¼ĢÏĢÎŃÏĥÏĦÎµÎ¹Î»ÎµÎ½": 6514,
      "Ġá¼ĶÎ»ÎµÎ¿ÏĤ": 6515,
      "Ġá¼ģÎ¼Î±ÏģÏĦÎ¯Î±ÏĤ": 6516,
      "ĠÏĢÎµÏģá½·ÏĦÏĦÏīÎ¼Î±": 6517,
      "ĠÏĥÏĢÎ¿Î½Î´á½»Î»ÏīÎ½": 6518,
      "á½µÎ³Î·ÏĥÎ¹Î½": 6519,
      "Ġá¼ĶÎ¼ÎµÎ»Î»": 6520,
      "ĠÏĦÎ¿ÏĥÎ¿á½»ÏĦá¿³": 6521,
      "ĠÎ¼á½³Î¸Î¿Î´Î¿Î½": 6522,
      "ÎºÎ±Î¸Î±á½·": 6523,
      "ossib": 6524,
      "ĠÎ´á½½": 6525,
      "á½³ÏĦÏī": 6526,
      "Î³ÎµÎ¹Î½": 6527,
      "ĠÏĢÎ¿á½·": 6528,
      "Ġá¼ĢÎ½Î¸": 6529,
      "ĠÏĩÏģá½µÏĥÎµÏīÏĤ": 6530,
      "Ġá¼ĲÎ¾Î±Î¹": 6531,
      "ĠÎµá½ĲÏĩ": 6532,
      "Î»á½·Î±": 6533,
      "ĠÎ£Ïħ": 6534,
      "Ġá¼ĢÏĨÏģÎ¿": 6535,
      "ĠÎ¼ÎŃÏĥÎ¿Î½": 6536,
      "Ġá¼ĲÎ¼ÏĢá½·": 6537,
      "Ġá¼ĲÎ³á½³Î½Î¿Î½ÏĦÎ¿": 6538,
      "ĠÎ´á½¹Î¾Î±Î½": 6539,
      "ĠÎ³ÎµÎ³ÏģÎ±Î¼Î¼á½³Î½Î¿Î½": 6540,
      "Ġreading": 6541,
      "ĠÏĩÎµÏģÏĥá½¶Î½": 6542,
      "ĠÏĥÏħÎ¼Î¼á½³ÏĦÏģÏīÏĤ": 6543,
      "ĠÏĢÎµÎ¹ÏģÎ±": 6544,
      "Ġá¼ĲÎ´Îµá½·ÏĩÎ¸Î·": 6545,
      "Ġá¼ģÎ¼Î±ÏģÏĦÏīÎ»": 6546,
      "ĠÎºÎ¿Î½": 6547,
      "ÏĩÎµÎ¹Î½": 6548,
      "Î´Î·Î½": 6549,
      "Î¿ÏħÏĩ": 6550,
      "Ġá¼ĲÏĢá½±": 6551,
      "ĠÎ´Î¹Î±ÏĨÎµÏģ": 6552,
      "Ġá¼ĢÎ»Î»Î¿ÏĨ": 6553,
      "Ġá¼ĲÎ³Î½": 6554,
      "ÏĦÎ¹Îºá¿·": 6555,
      "ity": 6556,
      "Î¼Î½á¿ĨÏĥÎ¸Î±Î¹": 6557,
      "Ġhow": 6558,
      "ÏĦÏħÎ»Î¿Î½": 6559,
      "ÏĪÎ±Î½ÏĦÎµÏĤ": 6560,
      "á½½ÏĦÎ±ÏĦÎ±": 6561,
      "ĠÏĢÎ»ÎµÎ¿Î½á½±Î¶": 6562,
      "ĠÏĪá½»Î¾ÎµÏīÏĤ": 6563,
      "Î¼ÏĮÎ½": 6564,
      "Î·ÏĦá¿¶Î½": 6565,
      "Î¼Î±ÏĦá½·": 6566,
      "Îµá¿ĸÎ±Î¹": 6567,
      "Î¬Î´Îµ": 6568,
      "ÏĢÎ¿ÏģÎµÏį": 6569,
      "Ġá½¡Ïģá¿¶Î½": 6570,
      "Ġá¼ĲÏĢÎ¹ÏĨÎ±Î½": 6571,
      "Ġá¼ĢÎ½Î±Î»á½±Î¼Î²Î±Î½Îµ": 6572,
      "Ġá¼ĲÎ³á½½": 6573,
      "Ġá¼¦Î»Î¸Î¿Î½": 6574,
      "ĠÎĻÎ¿ÏħÎ´Î±": 6575,
      "Î²Î±á½·Î½ÎµÎ¹": 6576,
      "á½»Î½ÎµÎ¹": 6577,
      "ount": 6578,
      "ĠÏĦá½±ÏĩÎ¹ÏĥÏĦÎ±": 6579,
      "ÏħÎ¸á½·Î¿Ïħ": 6580,
      "ĠÏĢÎ¬ÏĥÎ·ÏĤ": 6581,
      "ĠÎ¼Î®ÏĦÎµ": 6582,
      "ĠÎ²ÏģÎ±Ïĩá½·Î¿Î½Î±": 6583,
      "ĠÏĦÎ¿ÏħÏĦá½³ÏĥÏĦÎ¹": 6584,
      "Ġá½ĳÏĢÎ¿Î¼Î½á½µÎ¼Î±ÏĥÎ¹Î½": 6585,
      "Ġright": 6586,
      "ven": 6587,
      "word": 6588,
      "Ġ:": 6589,
      "ĠÎºÏĦ": 6590,
      "ÎºÎ¿Î»": 6591,
      "ÏĨÎ¿ÏĤ": 6592,
      "ĠÎ±Ïģ": 6593,
      "ÎµÎ½á½¶": 6594,
      "ÎºÎ±Î¼": 6595,
      "Î·Ïĥá½¹Î¼ÎµÎ¸Î±": 6596,
      "Ġá¼ĲÎ¾Î¿ÏħÏĥ": 6597,
      "ĠÎºÎ±Î¸á½¹ÏĦÎ¹": 6598,
      "Ġpara": 6599,
      "Ġá¼ĦÎ»Î»Î¿Î½": 6600,
      "ĠÏĢÎ»Îµá¿ĸÎ¿Î½": 6601,
      "ĠÏĥÎºá½·": 6602,
      "ÎĦ,": 6603,
      "ĠÏĢÏģÎ¿Ïĥá¿Ĩ": 6604,
      "á½ħÏĥÎ¿Î¹": 6605,
      "ice": 6606,
      "ĠÎ¿ÏħÎ´Îµ": 6607,
      "ĠÎ±á¼µÎ¼Î±ÏĦÎ¹": 6608,
      "ÎĵÎĳÎĽÎĹÎĿÎŁÎ¥": 6609,
      "Ġá¼ĢÎ»Î»á½µÎ»Î±Î¹ÏĤ": 6610,
      "Î±Î¸á½°Î½": 6611,
      "ĠÏĩÎ¹Î»Î¹Î¬": 6612,
      "ĠÏĨÎ»á½³Î³Î¼Î±": 6613,
      "ĠÏĦÏħÎ³Ïĩ": 6614,
      "ĠÎºÎ±ÏĦÎµÏģ": 6615,
      "Î·Î´": 6616,
      "á½¹ÏĦÏīÎ½": 6617,
      "ÎºÎ±ÏĥÎ¹": 6618,
      "ÏģÎ·Î³": 6619,
      "ĠÎºÎ±ÏĦÎ±ÏĢ": 6620,
      "Î¼Î¿Ïģ": 6621,
      "Ġá¼ĪÏĦ": 6622,
      "ÏħÎ³Î³Î±": 6623,
      "ĠÏĢÏģá½¹Ïĥ": 6624,
      "ĠÎ§Î±Î½": 6625,
      "ĠÎºÏģá½·ÏĥÎµÏīÏĤ": 6626,
      "ĠÏĩÏģÎ·ÏĥÏĦá½¸Î½": 6627,
      "old": 6628,
      "Î¿á½ĶÎºÎ¿ÏħÎ½": 6629,
      "á¼ĲÏĨÎµÎ¾á¿ĨÏĤ": 6630,
      "á½ĢÏĢá½·Î¿Ïħ": 6631,
      "ĠÎĹ": 6632,
      "Ġá¼ĢÏĦÎ¿Î½": 6633,
      "á½µÏģÎ¹Î¿Î½": 6634,
      "Ġá¼ĶÏĦÏħÏĩ": 6635,
      "ĠÏĩÎµá½¶Ïģ": 6636,
      "á½½Î¼ÎµÎ½Î¿Î½": 6637,
      "ĠÎ²Î¬": 6638,
      "Î±Î»ÎµÏģ": 6639,
      "Î®Ï²": 6640,
      "Î´ÎµÏĩ": 6641,
      "á¼ĢÏģ": 6642,
      "ĠÎºÎ±ÏĦÎ±Î½": 6643,
      "Î³Î½á½»": 6644,
      "Ġá¼ĶÎ½Î¹": 6645,
      "ĠÎľÎ±Ïģ": 6646,
      "ĠÎºá½±ÏĦÎ±": 6647,
      "Î·Î¼Î¬ÏĦÏīÎ½": 6648,
      "ÏģÎ¿ÏħÏģÎ³": 6649,
      "ÏħÏĢÏĦÎ¿Î½": 6650,
      "ĠÏĥÏĨÏħÎ³Î¼Î¿á½¶": 6651,
      "Ġá¼ĲÏĩÎ¿á½»ÏĥÎ·ÏĤ": 6652,
      "ĠÏĨÏįÏĥÎ¹Î½": 6653,
      "ĠÏĢÏĦÏīÏĩ": 6654,
      "ĠÏĥÏĢÎ¿ÏħÎ´": 6655,
      "ts": 6656,
      "á½µÎºÎ¿Î½ÏĦÎ±": 6657,
      "ĠÏĢÏģÎ¿Î²": 6658,
      "ĠÎ¸ÎµÏī": 6659,
      "ĠÏĢÏģÎ¿Ïĥá½³Ïĩ": 6660,
      "ĠÏĢÏģÎ¿ÏĥÏĨÎµÏģ": 6661,
      "ĠÏħÎ¹Î¿ÏĤ": 6662,
      "Ġ3âģ°": 6663,
      "Ġá¼´Î´Î¹": 6664,
      "Ġá¼¥Î´Îµ": 6665,
      "ĠÎĴÎµÎ½Î¹Î±": 6666,
      "ĠÏĢá½¹ÏģÎ¿ÏħÏĤ": 6667,
      "Ġá¼ĳÎ±ÏħÏĦá½´Î½": 6668,
      "ĠÎºÎ±ÏģÎ´Î¯á¾³": 6669,
      "ĠÏĢÏħÏģá½¶": 6670,
      "ÏģÎ¹ÏĥÏĦÎ¿Î»Î¿Ïĩ": 6671,
      "ĠÏĢÎ±Î»Î±Î¹á¿¶Î½": 6672,
      "ĠÎ½Îµá½»ÏģÎ¿Ïħ": 6673,
      "ĠÏĢÎµÏĢÎ¿Î½Î¸á½¸ÏĤ": 6674,
      "Î¿á¿ĨÏĥÎ±Î¹": 6675,
      "ĠÏĢá¿¦Î¿Î½": 6676,
      "Ġá¼ĲÎºÎµÎ¯Î½á¿ĥ": 6677,
      "Ġá¿¥á½±ÏĩÎ¹Î½": 6678,
      "ĠÏĪÎµÏħÎ´": 6679,
      "ĠÎ³ÎµÎ³ÏħÎ¼": 6680,
      "ĠÎ³á½³Î³Î¿Î½ÎµÎ½": 6681,
      "hrase": 6682,
      "we": 6683,
      "Î¿ÏĥÎ¹": 6684,
      "ÏĢÎµÎ¹Î´": 6685,
      "ÎºÎ»ÎµÎ¹": 6686,
      "Î·Î½Îµ": 6687,
      "ÏĨÎ¿Ïħ": 6688,
      "ÏĨÎµÎ»": 6689,
      "á½¹ÏĦÎ¿ÏĤ": 6690,
      "ÏīÎ½Î¿ÏĤ": 6691,
      "ÎµÎ½Î½": 6692,
      "ÎŃÎ½Î±": 6693,
      "Ïģá½·Î½Î¿Ïħ": 6694,
      "Ġá¿¥Î±ÏĨ": 6695,
      "Ġá¼¸Î´Î¿á½º": 6696,
      "ÏĦÎ¹Îºá½°ÏĤ": 6697,
      "á¼ĶÏĥÏĦÏī": 6698,
      "ĠÏĥá½»ÏĥÏĦÎ±ÏĥÎ¹Î½": 6699,
      "ĠÎºÏģÎ¬": 6700,
      "ĠÏĢÏħÏģÎµÏĦÎ¿á½ºÏĤ": 6701,
      "ĠÎ¼Î±Î¸Îµá¿ĸÎ½": 6702,
      "ĠÏĥÏħÎ¼ÏĢá½·": 6703,
      "ĠÎ»ÎµÎ³á½¹Î¼ÎµÎ½Î¿Î½": 6704,
      "ĠÏĨÎ±Î½ÏĦÎ±": 6705,
      "ĠÏĦÏĮÏĦÎµ": 6706,
      "ĠÏĨÎ±Î¹Î½Î¿Î¼á½³Î½ÏīÎ½": 6707,
      "Ġá¼¡Î»Î¹Îºá½·Î±Î½": 6708,
      "Ġá¼ĲÏĢÎ¹Î´á½³ÏĥÎµÏīÏĤ": 6709,
      "ĠÏĥÎºÎ¿ÏĢÎ¿": 6710,
      "ss": 6711,
      "Î¼á½°": 6712,
      "ĠÎºÝ²": 6713,
      "ĠÎ´Î¿Ïį": 6714,
      "Î¸Î¿Î¹": 6715,
      "ĠÎ±á½ĲÏĦÏĮ": 6716,
      "Ġá¼ĶÎ¼ÏĨÏħÏĦÎ¿Î½": 6717,
      "ĠÎ¸ÏģÏĮÎ½": 6718,
      "ĠÏĢÎ¿Î»Î¹": 6719,
      "Ġá¼°á¾¶ÏĥÎ¸Î±Î¹": 6720,
      "Î³Î¿Î½ÏĦÎ¿ÏĤ": 6721,
      "ÎŃÎ½ÏĦÎµÏĤ": 6722,
      "ÏĦÎ¹ÎºÎ¿á½ºÏĤ": 6723,
      "Î¸ÏģÎ¿Î½": 6724,
      "Î¼Î¿Ïĥ": 6725,
      "ĠÎ£Ïī": 6726,
      "ĠÎ¼á½¹Î½Î·": 6727,
      "Ġá½ĳÏĢÎ¿ÏĩÎ¿Î½": 6728,
      "ĠÎłÎķ": 6729,
      "á½±Î¶ÎµÏĥÎ¸Î±Î¹": 6730,
      "ĠÎ²Î±ÏĥÎ¹Î»ÎµÏīÏĤ": 6731,
      "ĠÏĦÎ¿Î¹Î¿á¿¦ÏĦÎ¿Î¹": 6732,
      "ĠÎ¶Î·ÏĦÎµá¿ĸÎ½": 6733,
      "ĠÎ½ÎµÏĨÏģá¿¶Î½": 6734,
      "Ġá¼ĶÏģÎ³Î¿Î¹ÏĤ": 6735,
      "ĠÎ³Ïģá½±ÏĨÎµÎ¹Î½": 6736,
      "ÏĦÎµÏĦÎ±Î³": 6737,
      "ĠÏĥÎ¹ÏĦá½·Î±": 6738,
      "ĠÏĥÎºÎ·Î½á¿ĨÏĤ": 6739,
      "Ġá¼ĺÏģÎ±ÏĥÎ¹": 6740,
      "ĠÎ´Î¹Î´Î±ÏĥÎºÎ±Î»á½·Î±ÏĤ": 6741,
      "ĠÎĶÎ±Î½Î¹á½´Î»": 6742,
      "ÏģÎ¯": 6743,
      "ÏĥÏĦÎµÏħ": 6744,
      "Ġá½ĳÏĥÏĦ": 6745,
      "ÏĥÎµÎ¹Î½": 6746,
      "ĠÎ¼ÎµÎ»Î»": 6747,
      "ind": 6748,
      "Ġ39": 6749,
      "á½³ÏĩÎµÏĥÎ¸Î±Î¹": 6750,
      "Î·Î¸Î¹": 6751,
      "ĠÏĢá½¹Î»ÎµÏīÏĤ": 6752,
      "ĠÎºÎµÏĨÎ±Î»Î±Î»Î³": 6753,
      "Ġ40": 6754,
      "ĠÎ¼á½¹Î½Î±": 6755,
      "Ġá½ĢÏģÎ³á½±Î½Î¿Î¹ÏĤ": 6756,
      "Ġgener": 6757,
      "Ġá¼¥ÏĢÎ±ÏĦÎ¹": 6758,
      "ĠÏĢÎ»Îµá½·Î¿Î½Î¿ÏĤ": 6759,
      "Ġadd": 6760,
      "ĠÎ¼ÎµÎ³á½³Î¸ÎµÎ¹": 6761,
      "ĠÎĴÎ±Î²ÏħÎ»á¿¶Î½Î¿ÏĤ": 6762,
      "Ġá¼ĶÎ¿Î¹ÎºÎµÎ½": 6763,
      "ĠÎºÎ¿á¿ĸ": 6764,
      "ÏįÏĦÎ·": 6765,
      "Ġá¼ĢÏĢÏİ": 6766,
      "ĠÎ½á½·": 6767,
      "Ġar": 6768,
      "Ġá¼ķÎ¾": 6769,
      "Î¼ÎµÎ³": 6770,
      "ÏĥÏĩÎ¿Î½": 6771,
      "ĠÎºÎ±ÏĦÎ±ÏĢÎ±": 6772,
      "ĠÎ´á½»Î½Î±Î½": 6773,
      "Î¼Î¹Î³": 6774,
      "Î¼ÎŃÎ½Î¿Î¹": 6775,
      "vii": 6776,
      "Î¯Î±Ï²": 6777,
      "ĠÏĦá½±Î¾Î¹Î½": 6778,
      "ĠÎ´Î¹Î±ÏĨÎ¿Ïģá½°": 6779,
      "Ġá¼ĲÎ½á½·Î¿Î¹ÏĤ": 6780,
      "ĠÏĥÏĦá½»ÏĨ": 6781,
      "Ġá¼¤ÎºÎ¿ÏħÏĥÎµÎ½": 6782,
      "ĠÎ»Î¹Î²Î±Î½Ïī": 6783,
      "Î¼Ïİ": 6784,
      "ĠÏĢÏĦ": 6785,
      "Ġá½Ļ": 6786,
      "Ïĩá¿³": 6787,
      "ÎµÎ¹Ïĥ": 6788,
      "ĠÎµá¼µ": 6789,
      "á½³Î½Î±": 6790,
      "ĠÎ¸Î»Î¯": 6791,
      "Ġcome": 6792,
      "Ġá¼°ÏĥÏĩá½»": 6793,
      "Ġdo": 6794,
      "Ġá¼ĺÎ½": 6795,
      "ĠÏĩÎµÎ¹ÏģÎ¿ÏħÏģÎ³": 6796,
      "ĠDE": 6797,
      "ĠÎ£Î±Î¼Î±": 6798,
      "ĠÎ¾Î·ÏģÎ±á½·Î½ÎµÎ¹": 6799,
      "Ġá¼ģÏĢá½±ÏĥÎ±Î¹ÏĤ": 6800,
      "Ġá¼ĢÎ´ÎµÎ»ÏĨÎ¿á½¶": 6801,
      "Ġá¼ĶÎ½Î´ÎµÎ¹Î¾Î¹Î½": 6802,
      "ĠÏĢÎµÏĢÎ¿Î½Î¸á½¹ÏĦÎ¿ÏĤ": 6803,
      "ĠÎºÎµÏģÎºá½·": 6804,
      "ĠÎºÎ¿ÏģÏħÏĨ": 6805,
      "bis": 6806,
      "ment": 6807,
      "ten": 6808,
      "ĠÎµÏĦÎ¹": 6809,
      "ĠÏĨá½·": 6810,
      "ĠÏĨÎ»ÎŃ": 6811,
      "á½½Î¸Î·": 6812,
      "ÏĥÎ¹Î±ÏĤ": 6813,
      "Î»ÎµÏĦÎ¿": 6814,
      "Ġá¼ĳÏĢÎ¿": 6815,
      "Ġá¼ĳÏĥÏĢ": 6816,
      "Ġá¼ĢÎ½Î±ÏĦÏģá½³": 6817,
      "ÏīÎ¸Î¹": 6818,
      "ĠÎ²Î±ÏĥÎ¹Î»ÎµÎ¯Î±ÏĤ": 6819,
      "ĠÏĦÏģá½¹ÏĢÎ¿ÏĤ": 6820,
      "Î¿Î¼ÎŃÎ½Î·ÏĤ": 6821,
      "ĠÎµá½ĶÎ»Î¿Î³Î¿Î½": 6822,
      "Ġá¼ķÎ»ÎºÎ¿ÏħÏĤ": 6823,
      "Ġá¼ĶÎ¸Î½Î¿ÏĤ": 6824,
      "ĠÏĢÎµÎ½ÏĦÎ±": 6825,
      "ĠÎ½ÏĮÎ¼Î¿Î½": 6826,
      "ĠÎ¸Î±ÏĦá½³ÏģÎ¿Ïħ": 6827,
      "Ġá¼ĲÎ¼ÏĢÎ»á½±ÏĥÏĦ": 6828,
      "Ïĥá½º": 6829,
      "ĠÏĦá½»": 6830,
      "ĠÏĦÏħÏĨ": 6831,
      "Î¿á¿¦ÏĦÎ¿": 6832,
      "Ġá¼ĲÎ½Î½": 6833,
      "Ġá¼ĶÏģÎ·": 6834,
      "Ġá¼ĶÎ´Î¿": 6835,
      "ĠÏĨÎ»Î¿Î¹": 6836,
      "Î½ÎµÏħÏĥÎµÎ½": 6837,
      "Î®ÏĥÎ±ÏĤ": 6838,
      "Ġtw": 6839,
      "ĠÏĦÎ¹ÏĥÎ¹": 6840,
      "Î»á½±Î²": 6841,
      "ĠÎ¾Î·Ïģá½¹ÏĦÎ·ÏĦÎ±": 6842,
      "ĠÏĢá½³ÏģÎ¹": 6843,
      "á½µÏĥÎµÎ¹ÎµÎ½": 6844,
      "ĠÎ¾Î·Ïģá¾¶ÏĤ": 6845,
      "ÏĦÎ¿á½»ÏĥÎ·ÏĤ": 6846,
      "Î²Î±Î»Î¿Î½": 6847,
      "Ġá¼ĢÏĢÎµÏĪ": 6848,
      "Ġá½ĢÎ»á½·Î³Î¿Ïħ": 6849,
      "Îµá¼¶ÏĦÎ±": 6850,
      "Î¸Î½á½µ": 6851,
      "Ġá½ĦÎ¾Î¿ÏĤ": 6852,
      "Ġá¼ķÎ»ÎºÎµ": 6853,
      "fort": 6854,
      "ÏĢÎ½ÎµÏħÎ¼Î¿Î½": 6855,
      "Ġá¼ĲÎ»Î¸Îµá¿ĸÎ½": 6856,
      "ĠÎ³Î¯Î³Î½ÎµÏĦÎ±Î¹": 6857,
      "ĠÎĳá¼°Î³ÏįÏĢÏĦÎ¿Ïħ": 6858,
      "23": 6859,
      "li": 6860,
      "ĠW": 6861,
      "Î½Î±ÏĤ": 6862,
      "Î¿ÏĥÎ±Î½": 6863,
      "ÏĢÏħÏģ": 6864,
      "Î¯Î·": 6865,
      "ÎŃÎ½Î±Î¹": 6866,
      "Î»ÎµÏĩ": 6867,
      "ĠÎ´Î¹Î±ÏĦÎµ": 6868,
      "ÏĥÎµÎ¹ÎµÎ½": 6869,
      "ÎµÎ»Î¸Îµá¿ĸÎ½": 6870,
      "ĠÏĪÏħÏĩÏģÎ¿": 6871,
      "ĠÎ¸ÎµÏģÎ¼á½´Î½": 6872,
      "ĠÏĨÎ±á½·Î½Î¿Î½ÏĦÎ±Î¹": 6873,
      "ĠÎºÎ±ÏģÎ´Î¹": 6874,
      "ĠÎ¿á¼¶Î´": 6875,
      "ĠÏĦÏģá½·Ïĩ": 6876,
      "xxx": 6877,
      "ĠÏĢÎ±Ïĩá½º": 6878,
      "Î±á½ĲÏĦá½¸ÏĤ": 6879,
      "ĠÏĢÎ»Î±Î³": 6880,
      "ĠÎ´Î¹Î±Î½Î¿": 6881,
      "ĠÎºá½³Î½ÏīÏĥÎ¹Î½": 6882,
      "Ġá¼ĪÎ²ÏģÎ±á½°Î¼": 6883,
      "ÏĦÏĦÎ±Î½": 6884,
      "á½±Î¼Î¿Ïħ": 6885,
      "Ġá¼¡Î´Î¿Î½": 6886,
      "Ġá¼ĢÏĢá½½": 6887,
      "Ġá¼ĢÎ½ÏĦÎ¹Îº": 6888,
      "á¼ĢÎº": 6889,
      "ĠÏĩÏģá½¹Î½Î¿ÏĤ": 6890,
      "Ġá¼ĳÎºá½±ÏĥÏĦÎ·ÏĤ": 6891,
      "Î·ÏĦá½³Î¿Î½": 6892,
      "ĠÏĦÎµÏĦÏģá½±": 6893,
      "Ġá¼ĢÏĢá½¹Î´ÎµÎ¹": 6894,
      "Îµá¼´ÏĢÎµÏģ": 6895,
      "ĠÏĥÎºÎ¿ÏĢá½¸Î½": 6896,
      "Ġá¼ģÏĢá½±ÏĥÎ·ÏĤ": 6897,
      "Ġá¼ĲÎ»á½±ÏĦÏĦÎ¿Î½": 6898,
      "ĠÎ³ÏħÎ½Î±Î¹Îºá¿¶Î½": 6899,
      "ĠÎ´á½±ÎºÏĦÏħÎ»Î¿Î½": 6900,
      "Ġá¼ĲÏģÏħÏĥÎ¹": 6901,
      "Î²Î¬Î»Î»": 6902,
      "á¼ħÏĢÎ±Î½": 6903,
      "ĠÎ¦Î±ÏģÎ±á½¼": 6904,
      "Ġá¼ĲÎ¼Î±ÏħÏĦ": 6905,
      "ĠÎ¼Î±ÏĥÏĩá½±Î»": 6906,
      "ĠÎłÎķÎ¡ÎĻ": 6907,
      "ĠÎ´á½»Î½Î±Î½ÏĦÎ±Î¹": 6908,
      "but": 6909,
      "Î¿á¼´": 6910,
      "ÏĥÎ·Î¼": 6911,
      "Ġá¼ĲÎ´á½³": 6912,
      "Ġá¼ĲÎ´Îµá½·ÎºÎ½Ïħ": 6913,
      "Ġá¼ĢÎ¸ÏģÎ¿Î¹": 6914,
      "Î¹Î½Î±Î½": 6915,
      "á¿¶Î½ÏĦÎµÏĤ": 6916,
      "ÏĢÎ¿ÏģÎµá½»": 6917,
      "ĠÎ²Ïģá½¹": 6918,
      "Î±Î»Î±Î¹": 6919,
      "Î®ÏĥÎ±ÏĦÎµ": 6920,
      "ĠÏĦÎ¹ÏĥÎ¹Î½": 6921,
      "Î»Î¹Î¿ÏĤ": 6922,
      "Ġá¿¥Î¿Î¼ÏĨÎ±": 6923,
      "ĠÏĢÎ±ÏģÎµÎ½": 6924,
      "Ġá¼ĲÎ³ÏĩÎµÎ¹Ïģ": 6925,
      "ĠÏĢÎµÏģÎ¹ÏĢÎ±": 6926,
      "Ġá¼°ÏĥÏĩá½ºÎ½": 6927,
      "ĠÏĦÏģÎ¿ÏĨá½´": 6928,
      "ĠÏĦÎ¿Î¹Î±á½»ÏĦÎ±Î¹ÏĤ": 6929,
      "ĠÏĥÏĨÏħÎ³Î¼Î¿á¿ĸÏĤ": 6930,
      "Ġá¼ĲÏĢÎ¹ÏĥÏĦÏģÎŃ": 6931,
      "ĠÎºÎ±ÏĦÎ±ÏĥÎºÎµÏħá¿ĨÏĤ": 6932,
      "Î¿ÎµÎ¹Î´á½²ÏĤ": 6933,
      "ĠÏĦá½¹Î½Î´Îµ": 6934,
      "ÏĦÏĦÎ¿ÏħÏĥÎ¹Î½": 6935,
      "ĠÏĢá½³ÏģÎ±ÏĦÎ±": 6936,
      "ĠÎ¸Î¬Î»Î±": 6937,
      "Ġá¿¥á½±ÏĩÎµÏīÏĤ": 6938,
      "ĠÎµá¼°ÏĥÎµÎ»Î¸": 6939,
      "ep": 6940,
      "Î½á¿³": 6941,
      "ÏħÏĪ": 6942,
      "ĠÎºÎ¿Ïħ": 6943,
      "ĠÎºÎ»Î·": 6944,
      "Î·Ïĩ": 6945,
      "Î¸Ïħ": 6946,
      "á½¸Ï²": 6947,
      "á¿ĨÏĦÎµ": 6948,
      "ÏģÎ±ÏĢÎµ": 6949,
      "á¾´": 6950,
      "ĠÎ»Î®Î¼": 6951,
      "ÏĢÎ¿ÏĥÏĦ": 6952,
      "ÏįÏģÎ¹Î¿Î½": 6953,
      "á½·Î½Î±ÏĤ": 6954,
      "ÏħÎ¼ÎŃÎ½": 6955,
      "ĠÏĢÎµÏģÎ¹ÏĢÎ½ÎµÏħÎ¼Î¿Î½": 6956,
      "ÎºÎ¿Î¹Î½": 6957,
      "á¿ĸÎ½Î¿ÏĤ": 6958,
      "ĠÎľá½´": 6959,
      "á½±Î³ÎµÎ¹": 6960,
      "ĠÏĢÎ»ÎµÏħ": 6961,
      "ĠÎºá½±Î»Î»Î¹": 6962,
      "ÏħÎ»Î¿Î¹": 6963,
      "ÏĦÎŃÏģÎ±ÏĤ": 6964,
      "Ġá¼ĲÎ¼ÎŃ": 6965,
      "ĠÎ¼ÏħÎµÎ»": 6966,
      "Ġá¼ĲÏĢá½·ÏĥÏĦÎ±ÏĥÎ¸Î±Î¹": 6967,
      "ĠÎ¾Î·ÏģÎ¿á¿¦": 6968,
      "ĠÎ¼ÎµÎ³á½±Î»ÏīÏĤ": 6969,
      "ĠÎ´Î¹Î´á½±": 6970,
      "á½³Î±ÏĦÎ¿ÏĤ": 6971,
      "Ġwho": 6972,
      "ÏĥÏħÎ½Îµ": 6973,
      "ĠÏĦÎ±á½ĲÏĦá½¸": 6974,
      "Ġá¼ĲÏĢÎ±Î½Î¿ÏģÎ¸": 6975,
      "ÏĥÏĥÎ±ÏģÎ±": 6976,
      "ÏĦÏĮÏĦÎµ": 6977,
      "ĠÎ±á¼´ÏĥÎ¸Î·ÏĥÎ¹ÏĤ": 6978,
      "á½įÏĦÎ¹": 6979,
      "Î´ÎµÎ¹ÎºÎ½á½»": 6980,
      "ĠÎµá½ĹÏģÎ¿Î½": 6981,
      "ĠÏĦÏģÎµÏĨ": 6982,
      "Ġut": 6983,
      "Ġid": 6984,
      "ĠÏĦÏħÏĩ": 6985,
      "ĠÏĢÏĦá½³Ïģ": 6986,
      "Ġá¼ĢÏĩ": 6987,
      "ÏĥÏĦá¿³": 6988,
      "ĠÏĢÏģÎ¿Ï²": 6989,
      "Î®Î¼Î±ÏĦÎ¿ÏĤ": 6990,
      "Ġá¼°Î´á½·ÏīÏĤ": 6991,
      "Ġá¼ĦÎ»Î»Î±Î¹ÏĤ": 6992,
      "ĠÏĢÎµÏģÎ¹ÏĦ": 6993,
      "Î³Î³ÎµÎ¹": 6994,
      "ÏĥÎ¼Î¿á¿¦": 6995,
      "ĠÏĢÎ±Î½ÏĦÎµÏĤ": 6996,
      "Ġá¼ĲÏģÎµá¿ĸÏĤ": 6997,
      "Ġá¼ĶÎºÏĨÏħÏĥÎ¹Î½": 6998,
      "ĠÎ¸Î·ÏģÎ¹": 6999,
      "Ġá¼ĲÎ¾ÎµÏħÏģÎµá¿ĸÎ½": 7000,
      "Î·Î¼ÎµÏģÎ¹Î½": 7001,
      "ĠÎºÎ±ÏĦÎ±Î¹": 7002,
      "Ġá¼ĲÎ»Î»Î¹": 7003,
      "ĠÎ±Î¼Î±Ïģ": 7004,
      "ĠÎµÏĨ": 7005,
      "ÎµÎ¹Îº": 7006,
      "Î²Î»Îµ": 7007,
      "ÎºÎ±Î»Îµ": 7008,
      "Î½Î±ÏĦÎ¿": 7009,
      "ĠÎ²á½·": 7010,
      "ĠÎ²Î»ÎŃ": 7011,
      "Ġpart": 7012,
      "Ġá¼ĪÎ¼": 7013,
      "Î³Î³ÎŃ": 7014,
      "ĠÎ£Î±Î²": 7015,
      "Î´ÎµÎ¹Îº": 7016,
      "ĠÏĢÎ±Î½ÏĦÎ¿": 7017,
      "á¼ĶÏĩÎµÎ¹": 7018,
      "ĠÎłÎ¿": 7019,
      "Î´ÏīÏĥÎ¹Î½": 7020,
      "Î¤Î¯": 7021,
      "ĠÏĢÎ¹Î¼ÎµÎ»": 7022,
      "Î¿Î¼ÎŃÎ½Î¿ÏħÏĤ": 7023,
      "Ġá¼ĢÎ»á½¹": 7024,
      "ÏĢÏģá¿¶ÏĦÎ¿Î½": 7025,
      "Ġthough": 7026,
      "ĠÎ½á½»ÎºÏĦÎ±": 7027,
      "Ġá¼ĺÏģÎ±Ïĥá½·ÏĥÏĦÏģÎ±ÏĦÎ¿ÏĤ": 7028,
      "Ġá¼ĲÎ»Î¬Î»Î·ÏĥÎµÎ½": 7029,
      "Î½ÏĦÎ¹Î½Î±": 7030,
      "ÏĥÎ¿á¿¦Î½": 7031,
      "ĠÏĦÎ±Ïģ": 7032,
      "Î¼Î¿á¿ĸÏĤ": 7033,
      "ĠÎ±ÏĢ": 7034,
      "ĠÎµÏĢÎ±": 7035,
      "ĠÎ±á½ĲÎ»": 7036,
      "á½µÏĥÎ±Î½ÏĦÎµÏĤ": 7037,
      "Ġá½ĳÏĥÏĦÎµÏģ": 7038,
      "ÏĮÏĦÎµÏģÎ¿Î½": 7039,
      "Ġá¼ĲÎºÏĢÎµ": 7040,
      "Ġá½ĢÏĢÎ¿": 7041,
      "Î¶Î±": 7042,
      "ĠÎµá¼¶ÏĩÎµÎ½": 7043,
      "reat": 7044,
      "ĠÏĢÎ¿Î¹Îµá¿ĸÏĦÎ±Î¹": 7045,
      "ĠÎ±á¼°ÏİÎ½": 7046,
      "ĠÏħÏĢÎµÏģ": 7047,
      "ĠÏĪÏħÏĩÏģá¿·": 7048,
      "ĠÎ´Î¹Î±ÏĨÎ¿ÏģÎ±á½¶": 7049,
      "ÏĦá½µÏģÎ¹Î¿Î½": 7050,
      "ĠÎ¸ÎµÏģÎ¼Î±Î¹Î½á½¹Î½ÏĦÏīÎ½": 7051,
      "Ġá½ĢÎ¾á½³ÏīÎ½": 7052,
      "Ġá½ģÎ´Î¿á¿¦": 7053,
      "Î²á½±Î»Î»ÎµÎ¹": 7054,
      "Ġá¼ĲÏĢÎ¹ÏĥÎºÎ¿ÏĢ": 7055,
      "ĠÏĥÏĦá½¹Î¼Î±ÏĩÎ¿Î½": 7056,
      "Ġá¼ģÎ¼Î±ÏģÏĦá½·Î±ÏĤ": 7057,
      "ÏĢÎµÏĢá½³ÏģÎµÏīÏĤ": 7058,
      "ÏĩÎ±Î»Îº": 7059,
      "ĠÎºÎ¿ÏĦá½»Î»Î±ÏĤ": 7060,
      "Ġdiffere": 7061,
      "ĠÎ¼ÏħÎº": 7062,
      "Î¯Ï²": 7063,
      "Î¯Î´Î±": 7064,
      "Î¬ÎºÎ¿Î½ÏĦÎ±": 7065,
      "Î½Î±ÏĦÎ¿ÏĤ": 7066,
      "Ġá¼ĢÎ½á½·": 7067,
      "ĠÎµá¼¶ÏĢÎ±": 7068,
      "Ġá¼¸Î½": 7069,
      "Î¿ÏįÏĥÎ·ÏĤ": 7070,
      "ĠÏĢÎ¿Î»ÏħÏĩ": 7071,
      "ĠÎ¼ÎŃÎ³": 7072,
      "ĠÎ³Î¹Î½Î¿Î¼á½³Î½ÏīÎ½": 7073,
      "ĠÏĦÏģá½¹ÏĢá¿³": 7074,
      "ĠÎ´ÏħÎ½Î±ÏĦá½¹Î½": 7075,
      "Î¾Î±Î½ÏĦÎ¿": 7076,
      "ĠÏĦÎ¿Î¹Î¿á½»ÏĦÎ¿ÏħÏĤ": 7077,
      "ĠÏĥÏħÎ¼Î²Î¿Ïħ": 7078,
      "Î³Î½ÏīÏĥÎ¹ÏĤ": 7079,
      "á½¡ÏĥÎ±á½»ÏĦÏīÏĤ": 7080,
      "ÏĢÏĦÎ¿ÏħÏĥÎ¹Î½": 7081,
      "ĠÏĦÏĮÏĢÎ¿Î½": 7082,
      "ĠÏĥÏħÎ¼ÏĨá½»": 7083,
      "ĠÏĢÎ±ÏģÎ¿Î¾ÏħÏĥÎ¼Î¿á¿¦": 7084,
      "ĠÏĩÏģá¿ĨÏĥÎ¹Î½": 7085,
      "Ġá¼ĻÎ»Î»": 7086,
      "Ġá¼¸Î¿á½»Î´Î±": 7087,
      "Î³Î±ÏģÎ¿á¿¦Î½": 7088,
      "Ġincep": 7089,
      "Î¹ÏĥÎ¸": 7090,
      "ÎµÎ³": 7091,
      "Î¼Î¼Î±ÏĦÎ¿ÏĤ": 7092,
      "Ġá¼ĲÎ´Ïī": 7093,
      "á½°Îº": 7094,
      "á½°Î´": 7095,
      "Î´ÏħÎ½Î±": 7096,
      "ĠÎ´Î¹á½½": 7097,
      "ÏĦÎ¹á¿¶Î½": 7098,
      "ÎºÎ±Î¯": 7099,
      "Ġá½ģÏĢÏī": 7100,
      "Î¶ÎµÎº": 7101,
      "Ġá¼ĳÎ¿Ïģ": 7102,
      "Î¿Î»á½´": 7103,
      "Ġá½¥Ï²": 7104,
      "ĠÏĥÏĦÏħÏĨ": 7105,
      "Ġá½ĳÎ³Ïģá½°Î½": 7106,
      "ĠÏĪÏħÏĩá¿ĩ": 7107,
      "Ġá¼ĢÏĨÎµÎ»": 7108,
      "Ïĥá½·Î¿Ïħ": 7109,
      "ĠÏĦá½³Î¼Î½": 7110,
      "Îºá½¹ÏĦÏīÎ½": 7111,
      "Ïģá½³ÏĨ": 7112,
      "Ġá¼ĢÎ´ÏħÎ½Î±": 7113,
      "á½½Î½ÏĦÏīÎ½": 7114,
      "ĠÏĢÎ¬Ïĥá¿ĥ": 7115,
      "ĠÏĦÎ¿Î¹Î¿á¿¦ÏĦÎ¿": 7116,
      "ĠÏĥÏħÏĥÏĦÎ¿Î»á¿ĨÏĤ": 7117,
      "ĠÏĩÎ»Î¹": 7118,
      "ÏĦÎ·Î¼Î±": 7119,
      "Î»ÎµÏħÏĥ": 7120,
      "ĠÎ¼ÎµÎ¼Î½Î·": 7121,
      "á½±ÏģÎ³": 7122,
      "á¼ĲÎ¼Î¿á½¶": 7123,
      "Ġá¼ĢÏģÏĦá½·": 7124,
      "Ġá¼ĦÎ»Î»Î±Î¹": 7125,
      "Î¼Î¿á½·": 7126,
      "ĠÎºÎµÎºÏģÎ±": 7127,
      "ĠÎ¿á½ĶÏĢÏī": 7128,
      "Î²Î±á½·Î½ÎµÎ¹Î½": 7129,
      "ĠÏĦá½³Î¼Î½ÎµÎ¹Î½": 7130,
      "Ġá½ĢÏĨÎ¸Î±Î»Î¼Î¿á½¶": 7131,
      "ĠÏĥÏīÏĦÎ·Ïģá½·": 7132,
      "á½µÏĥÎµÏĦÎµ": 7133,
      "ĠÏĢÏĮÎ»ÎµÎ¹ÏĤ": 7134,
      "Ġá½ģÎ´Î¿Î¹": 7135,
      "Ġá½ģÎ´Î¿á½ºÏĤ": 7136,
      "ĠÏĥÏħÎ½ÎµÏĩá½²ÏĤ": 7137,
      "ĠÎ¸ÎµÏģÎ±ÏĢÎµá½»": 7138,
      "Ġá¼ĲÎ¼ÏĨÎ±": 7139,
      "Ïģá½¹ÏĦÎ±ÏĦÎ¿Î½": 7140,
      "ĠÎ´Î¹Î±ÏģÎ¸Ïģá½½ÏĥÎµÏīÏĤ": 7141,
      "ĠÏĢÎ»á½±Î³Î¹Î±": 7142,
      "Ġá¼ĢÏģÏĩÎ¹ÎµÏģ": 7143,
      "ĠÏĥÏĦÏģÏħÏĨÎ½": 7144,
      "24": 7145,
      "ĠÎºÎ±Î½": 7146,
      "ÏīÏĦÎ±Î¹": 7147,
      "Ġá¼Ĳá¿¤á¿¥": 7148,
      "ĠÎ±ÎºÎ¿Ïħ": 7149,
      "ĠÏĢÏģÎ¬": 7150,
      "Î¯Î±Î¹": 7151,
      "ÏĦÎµá¿ĸÏĤ": 7152,
      "ĠÎ¸ÏģÎ±": 7153,
      "ÏįÎµÎ¹Î½": 7154,
      "Ġá¼ĲÎºÎ»á½»": 7155,
      "Ïģá½·Î¿Î¹ÏĤ": 7156,
      "á¿¦Î½Î±Î¹": 7157,
      "ĠÏĢÎ±ÏĦÎŃÏģÏīÎ½": 7158,
      "Ġá¿¥á½µ": 7159,
      "ĠÎºÎ±ÏĦÎ±Î³": 7160,
      "Ġá½ĳÎ³Ïģá¾¶ÏĤ": 7161,
      "ÏĨÎ±á¿ĸÏĤ": 7162,
      "ead": 7163,
      "ĠÏĦÏģá½·ÏĦÎ·": 7164,
      "ĠÏĢÏģá½½ÏĦÏīÏĤ": 7165,
      "ĠÏĦá½±ÏĩÎµÎ¹": 7166,
      "á½µÏĥÎµÎ¹Î½": 7167,
      "ĠÎºá½¹Î»": 7168,
      "ĠÎ´ÏĮÎ¾Î·ÏĤ": 7169,
      "ĠÎ´Î¯ÎºÎ±Î¹": 7170,
      "Ġá¼ĶÏĨÎ±Î¼ÎµÎ½": 7171,
      "ĠÏĩÏģÏĮÎ½Î¿Î½": 7172,
      "ĠÏĦá½³ÏĦÏĦÎ±ÏģÎ±ÏĤ": 7173,
      "ĠÏĥÏĢÎŃÏģÎ¼Î±ÏĦÎ¿ÏĤ": 7174,
      "ĠÏĢÎ±Î½ÏĦÎ±Ïĩá½¹": 7175,
      "ĠÏĢÎ»ÎµÎ¹á½¹Î½ÏīÎ½": 7176,
      "Ġá¼¤ÏģÎ¾Î±ÏĦÎ¿": 7177,
      "ĠÎºá¾ĦÏĢÎµÎ¹ÏĦÎ±": 7178,
      "Ġá¼ĢÎ½Î´Ïģá½±": 7179,
      "ĠÏĥÏħÎ¼Î²ÎµÎ²Î·Îºá½¸ÏĤ": 7180,
      "ĠÎ´Î±ÏĪÎ¹Î»": 7181,
      "lat": 7182,
      "ÎºÏī": 7183,
      "á½±ÏĥÏĦ": 7184,
      "ĠÎµÏĩ": 7185,
      "ĠART": 7186,
      "ĠÎ½ÏħÎ½á½¶": 7187,
      "ĠÎµá¼¶Î´ÎµÎ½": 7188,
      "á½·Î½Î¿Î½ÏĦÎ¿ÏĤ": 7189,
      "Ġá¼°Ïĩ": 7190,
      "Ġá¿¥ÎµÏħ": 7191,
      "Ġá¼ĢÏģÎ¾á½±": 7192,
      "ĠÎµá¼´Î´Î·": 7193,
      "ĠÏĢÏģÎ¿ÏĥÎ·Îº": 7194,
      "ÏĦá½±ÏĤ": 7195,
      "ĠÎºÎ±Î»á½¸Î½": 7196,
      "Ġá¼ķÎ»ÎºÎµÎ¹Î½": 7197,
      "ĠÏĨÏħÎ»á½±ÏĦÏĦÎµÎ¹Î½": 7198,
      "ĠÏĢÏģÏīÏĦÎ¿": 7199,
      "ĠBabAF": 7200,
      "ĠÎ³ÏħÎ½Î±á¿ĸÎºÎµÏĤ": 7201,
      "Ġadnot": 7202,
      "ÏĦÏĦÎ¿ÏħÏĥÎ¹": 7203,
      "Ġá¼ĲÏĥÎ¸á½·": 7204,
      "Ġá¼ĲÏĩÎ¸Ïģá¿¶Î½": 7205,
      "ĠIsaiah": 7206,
      "Ġea": 7207,
      "á½»ÏģÎ¹Î¿Î½": 7208,
      "ĠÎ³Î±Ï²": 7209,
      "Î¼Î±ÏĩÎ¿ÏĤ": 7210,
      "Î»Î»Î¿Ïħ": 7211,
      "Î»Î»Î¿ÏĤ": 7212,
      "ĠÏĦá¿¶Î½Î´Îµ": 7213,
      "á½½Î²Î¿Î»Î¿Î½": 7214,
      "Ġá½ĢÎ»á½³Î¸": 7215,
      "ĠÏĢÏģÎ¿ÏĢÎµ": 7216,
      "Îµá½·á¿³": 7217,
      "Ġá¼ĲÎ¾ÎµÏħ": 7218,
      "ÏİÎ´Î·": 7219,
      "ĠÎºÎ±ÏĦÎ±ÏĨ": 7220,
      "ĠÏĢÎ¿Î¹á¿¶Î½": 7221,
      "ĠÏĢÎ¿Î»Î»Î¬ÎºÎ¹ÏĤ": 7222,
      "ĠÏĢÎ±ÏģÎ±Î»Îµ": 7223,
      "Ġwhere": 7224,
      "Ġwould": 7225,
      "ĠÎĻÏĥ": 7226,
      "ĠÎ¼ÎµÎ³á½±Î»Î·": 7227,
      "Î´ÏīÎºÎ±": 7228,
      "ÏĢá½·ÏĢÏĦÎµÎ¹": 7229,
      "oth": 7230,
      "ĠÎºÎ±ÏģÎ´Î¯Î±Î½": 7231,
      "ĠÏĨÎ»ÎµÎ³Î¼Î¿Î½á½°ÏĤ": 7232,
      "ĠÏĦÎŃÎºÎ½Î±": 7233,
      "Ġá¼ĶÎ»ÎµÎ³ÎµÎ½": 7234,
      "ĠÏĢÎ»ÎµÏħÏģá¿¶Î½": 7235,
      "á¼ĦÎ»Î»Î·": 7236,
      "ĠÎ¸Î»á½·Î²": 7237,
      "ĠÏĨÎ¸Î¹Î½Î¿ÏĢ": 7238,
      "Báµĥáµĩ": 7239,
      "]+": 7240,
      "Ïģá¾·": 7241,
      "Î¼Ïħ": 7242,
      "ÎºÎ¿Î¹": 7243,
      "ÏĥÏĦÎµÎ¹Î»": 7244,
      "ĠÎ´Î¹á¿ĨÎ»Î¸Î¿Î½": 7245,
      "ĠÏĦÎµÏĦÏģ": 7246,
      "ĠÎ²Î¹": 7247,
      "Ġá¼ĳÏĨÎ¸": 7248,
      "ĠÏĢÎ¿Î´á¿¶Î½": 7249,
      "Ġá½ĳÏĢÎ±Î»Î»á½±": 7250,
      "Ġob": 7251,
      "Ġá¼ĶÏĩÎ¿Î¹": 7252,
      "ĠÎ¾Îµ": 7253,
      "Ġins": 7254,
      "Ġfort": 7255,
      "Î¿Î¼ÎŃÎ½Î·Î½": 7256,
      "ĠÎ£Î±Î¼Î¿Ïħ": 7257,
      "ĠÎ¸ÏħÎ¼Î¿á¿¦": 7258,
      "ĠÎ»Î¿Î¹ÏĢá½°": 7259,
      "ĠÏĨÎ¿Î²Î·Î¸": 7260,
      "ĠÎ½Î¿Î¼á½·Î¶ÎµÎ¹Î½": 7261,
      "Ġá¼ĲÏĢÎ¹ÏĦÎ·Î´Îµá½·": 7262,
      "Î»Î¹Î²á½±Î½Î¿Ïħ": 7263,
      "ĠÏĥÎ·ÏĢÎµÎ´": 7264,
      "ĠÎ¼Î·Î´á½³ÏĢÏī": 7265,
      "Ġá¿¥á¿ĸÎ³Î¿ÏĤ": 7266,
      "ÎļÏįÏģÎ¹Îµ": 7267,
      "cl": 7268,
      "ĠÏĢÎ·Î»": 7269,
      "Î¸á¿¶Î½": 7270,
      "Î³Î·": 7271,
      "á½²ÏĪ": 7272,
      "á½µÏĥÎ¿ÏħÏĥÎ¹Î½": 7273,
      "ÏĥÎ¸Î·Î½": 7274,
      "ĠÎ¿á½ĲÏģÎ·": 7275,
      "Ġá¼ĦÏĦÎ¿": 7276,
      "Ġá½ĢÏĢÏĦ": 7277,
      "ĠÏĢÎ¿ÏģÎµÏħÎ¸": 7278,
      "Ġá¼ĢÎ½á½µ": 7279,
      "ĠÎ´Î¹Î±ÎºÏģá½·": 7280,
      "Ġ(?)": 7281,
      "Ġá¼ĢÎ½Î±ÏĢÎ½": 7282,
      "Ġá½ĦÏģÎ¿ÏħÏĤ": 7283,
      "Î¸ÎµÏĦÎ±Î¹": 7284,
      "ĠÎ¶á½µ": 7285,
      "ĠÏĢá½±Î½Î¸": 7286,
      "ĠÏĦá½³Î»Î¿ÏĤ": 7287,
      "á½±Î¶ÎµÏĦÎ±Î¹": 7288,
      "ÏĢá½·ÏĢÏĦÎµÎ¹Î½": 7289,
      "ÏĦá½µÏĦÏīÎ½": 7290,
      "ĠÎ±ÏħÏĦÎ¿": 7291,
      "ĠÏĥÎºÎ»Î·Ïģá½°": 7292,
      "Ġá¼ĢÎ³Î³Îµá½·Î¿Î¹ÏĤ": 7293,
      "Ġá¼ĲÎºÎµá¿ĸÎ½Î¿Î¹": 7294,
      "Ġá¼ĢÏĢÎ¿ÎºÏģá½·": 7295,
      "Î»ÎµÏįÏĥÎµÏĦÎ±Î¹": 7296,
      "á½¹Î´á¿³": 7297,
      "ĠÎ¸ÎµÏģÎ±ÏĢÎµÏħÏĦÎ¹Îºá¿ĨÏĤ": 7298,
      "ĠÏĩÎ±Î»ÎµÏĢá½¸Î½": 7299,
      "Ġá½ĢÎ»Î¯Î³Î¿Î½": 7300,
      "ĠÏĥÏħÎ¼Î¼ÎµÏĦÏģá½·Î±Î½": 7301,
      "ĠÏĨÎ»á½²ÏĪ": 7302,
      "Ġá¼ĢÏĢÎ¿ÏĨá½»ÏĥÎµÎ¹ÏĤ": 7303,
      "ure": 7304,
      "ÏīÎ´á½³": 7305,
      "ÏĩÎµÏĦÎ±Î¹": 7306,
      "ĠÏĥÎ±Ïģ": 7307,
      "ÎµÎ¹Î¼á½³Î½ÏīÎ½": 7308,
      "Ġá¼ĶÎ¼ÏĨ": 7309,
      "Ġá½ĳÎ¼ÎµÎ½": 7310,
      "Ġá½ģÏģá¿¶Î½": 7311,
      "ÏĪÎ·": 7312,
      "Î®ÎºÎ¿Î½ÏĦÎ±": 7313,
      "Ġá¼ĲÏĢÎ¹ÏĥÏĩ": 7314,
      "Ġá¼ĲÎ¾Î±ÏģÎº": 7315,
      "Ġá¼°Îº": 7316,
      "Ġá¿¥Î¯Î¶": 7317,
      "Ġá¼ĶÏĩÎ¿Î¼ÎµÎ½": 7318,
      "Ġá½¥ÏĤ": 7319,
      "ĠÎ±á¼°ÏĩÎ¼Î±Î»Ïī": 7320,
      "ĠÎ³ÎµÎ½Î½Î·": 7321,
      "Ġá½ĳÏĢÎ¿Î¸á½³": 7322,
      "ĠÎ¸ÎµÏģÎ¼á¿¶Î½": 7323,
      "Î¿ÏįÎ¼ÎµÎ½Î¿ÏĤ": 7324,
      "Ġá¼ĢÎ³ÏīÎ³": 7325,
      "ÎĳÎ¤": 7326,
      "ÏĥÏĦÎ¹Îºá¿¶Î½": 7327,
      "ĠÎ¶Î·ÏĦá½µ": 7328,
      "Ġconf": 7329,
      "Ġá½ĢÏĢÎ¯ÏĥÏī": 7330,
      "Î²Î±Î»Î»Îµ": 7331,
      "ĠÎµá¼°Îºá½¸ÏĤ": 7332,
      "Ġá¼ĢÎ³Îºá¿¶Î½Î±": 7333,
      "ĠÎºá½·Î½Î´ÏħÎ½Î¿ÏĤ": 7334,
      "Ġá½ĳÏĢÎ¿ÏĩÎ¿Î½Î´": 7335,
      "Ġá½ģÏĢÏīÏĥÎ¿á¿¦Î½": 7336,
      "mit": 7337,
      "ÎµÏĥÎºÎ±Î¹": 7338,
      "ĠÏĩÎ¬": 7339,
      "Ġá½ģÎ¼Î¿á¿¦": 7340,
      "ĠÎ²Î»Îµ": 7341,
      "Ġtext": 7342,
      "Ġá¼ĢÎ½á½½Î´ÏħÎ½": 7343,
      "ĠÎ´Î¹Î±á¿¤á¿¥": 7344,
      "ĠÏĦÎ¹ÏĦ": 7345,
      "Î»Î¹Î¼": 7346,
      "Ġá¼ĢÎ½Î±Î¼Î¹": 7347,
      "ĠÏĢÎµÎ´": 7348,
      "ĠÎ³ÎµÎ½Î¿Î¼á½³Î½Î·ÏĤ": 7349,
      "Ġá¼¥ÎºÎµÎ¹": 7350,
      "ĠÎĵÎ±Î»": 7351,
      "ĠÎºÏģÏħ": 7352,
      "ÎºÏīÎ½Î¿ÏĤ": 7353,
      "Ġá¼ĢÎºÏģÎ¹Î²á¿Ĩ": 7354,
      "á¿ĨÎ½Î±ÏĤ": 7355,
      "ÏĦÎ¯ÏīÎ½": 7356,
      "â¸ĥ.": 7357,
      "ĠÏĨÏīÎ½á¿ĩ": 7358,
      "Ġá¼ĲÎ»Î±Ïĩ": 7359,
      "Ġits": 7360,
      "ĠÏĨÏħÎ»á½±ÏĦÏĦÎµÏĥÎ¸Î±Î¹": 7361,
      "ĠÏĥÎºÎ¿ÏĢá½¸ÏĤ": 7362,
      "Ġá¼ĳÏĢÏĦÎ±": 7363,
      "ĠÏĦÏģÎ±á½»": 7364,
      "Î¿ÎµÎ¹Î´Î¿á¿¦ÏĤ": 7365,
      "Ġá½ģÏģÎ¼á½´Î½": 7366,
      "Ġá½ģÎ»Î¿ÎºÎ±ÏħÏĦ": 7367,
      "Ïħá¼±Î¿á½¶": 7368,
      "*)]": 7369,
      "ĠÏĦÎ·Îº": 7370,
      "Î±Î½ÏĦÎ±": 7371,
      "ÏĦÎµÏīÏĤ": 7372,
      "ĠÎ»Î¿á½»": 7373,
      "Ġá½ģÎ»Îº": 7374,
      "Î¿Î¼Î¬": 7375,
      "ĠÎ±á¼°á¿¶Î½Î±ÏĤ": 7376,
      "ĠÎ³ÎµÎ½á½¹Î¼ÎµÎ½Î¿Î½": 7377,
      "Ġá¾Ķ": 7378,
      "Îµá¼°Ïĥá½¶": 7379,
      "ĠÎ¼ÎµÎ³á½±Î»ÏīÎ½": 7380,
      "ĠÎµá½ĲÎ¸á½º": 7381,
      "ĠÎļÏħÏģÎ¹Î¿Ïħ": 7382,
      "á¼¢Î½": 7383,
      "ĠÎºÏģá½±ÏĥÎµÎ¹": 7384,
      "ĠÏĨÎ»ÎµÎ³Î¼Î±ÏĦ": 7385,
      "Ġá¼ĲÏĢÎ¿á½·Î·ÏĥÎ±Î½": 7386,
      "ĠÎ¸á½³ÏĥÎµÏīÏĤ": 7387,
      "ĠÎ´Î¹Î´Î±ÏĥÎº": 7388,
      "ĠÎ³ÏħÎ¼Î½Î±Ïĥá½·ÏīÎ½": 7389,
      "ĠÏĢÎ»Îµá½·Î¿Î½Î±": 7390,
      "Ġá¼ĲÏĢÎ¹ÏĦÎ·Î´ÎµÎ¹": 7391,
      "ĠÏĨÏħÏĥÎ¹Îºá¿¶Î½": 7392,
      "ĠÏĨÏģÎµÎ½á¿¶Î½": 7393,
      "Ġá¼ĲÎ¼ÏĨá½»ÏĦÎ¿Ïħ": 7394,
      "Ġá½ĳÏĢÎ¿Î¼Î½Î·Î¼á½±ÏĦÏīÎ½": 7395,
      "Ġrendering": 7396,
      "ĠÏĢÎŃÎ½ÏĦÎµ": 7397,
      "Ġá¼ĢÎ¾Î¹á½¹Î»Î¿Î³Î¿Î½": 7398,
      "ÏģÎ·ÏĤ": 7399,
      "Î¿ÏħÎ¼á½³Î½Î¿Î¹ÏĤ": 7400,
      "ĠÎµÎ»Îµ": 7401,
      "ĠÏĨÎ»Î¿Î³": 7402,
      "Ïģá½·Î¶": 7403,
      "ĠÏĢÏģÎ¿Îµ": 7404,
      "Ġá¼ĲÏĢÎ¹Î¸": 7405,
      "Î¼á½±Ïģ": 7406,
      "ĠÏĢÎ±ÏģÊ¼": 7407,
      "Ġá½¥Ïģá¾³": 7408,
      "Î¿Î³ÎµÎ½": 7409,
      "Ġinter": 7410,
      "Ġá¼ĶÎ½Î´Î¿": 7411,
      "ĠÏĨÎ±á½·Î½Î¿Î¹ÏĦÎ¿": 7412,
      "ÏĦÏĦá½¹Î½ÏĦÏīÎ½": 7413,
      "ÏīÎ¸Î®ÏĥÎµÏĦÎ±Î¹": 7414,
      "ĠÏĦá½¹Î´Îµ": 7415,
      "ĠÎ¼ÎŃÎ»Î¹": 7416,
      "ĠÏĥÏĩÎ¹ÏĥÏĦá¿ĨÏĤ": 7417,
      "ĠCf": 7418,
      "Ġá¼ĢÏĢÎ¿ÎºÏģÎ¹": 7419,
      "ĠÎºÎ±Î¸Î±Ïģá½¸Î½": 7420,
      "ĠÏĢÏģÎ±Î³Î¼Î±ÏĦÎµá½·Î±Î½": 7421,
      "Ġá¼ĳÎ²Î´Î¿Î¼": 7422,
      "ĠÎ³Î½á½½ÏģÎ¹ÏĥÎ¼Î±": 7423,
      "á¼µÎ½Î±": 7424,
      "Ġá¼ĲÎ¾Î±á½·ÏĨÎ½Î·ÏĤ": 7425,
      "ĠÎµá¼´ÏīÎ¸ÎµÎ½": 7426,
      "ĠÎ»á½±Î²": 7427,
      "Ġá¼ĪÏģÏĩÎ¹Î³á½³Î½Î·ÏĤ": 7428,
      "ÏĢÎ·ÏĤ": 7429,
      "ĠÎºÏģá½¹ÎºÎ¿Ïħ": 7430,
      "ÏĮÏģ": 7431,
      "á½±Î½Î·": 7432,
      "á½±Î½Î·Î½": 7433,
      "ĠÎĳá¼´": 7434,
      "á¼ĲÎ³": 7435,
      "Ġá¼ĢÏĢÎ¿ÎºÎµ": 7436,
      "Ġá¼¸Îµ": 7437,
      "ĠQmáµį": 7438,
      "Ġá¼´Î´Î¹Î±": 7439,
      "ÏģÎ¿ÏħÎ½": 7440,
      "ĠÎłÎµÏģ": 7441,
      "Ġá¼ĢÎ½Î¸Ïģá½½ÏĢÎ¿ÏħÏĤ": 7442,
      "Ġá¼ĢÏĥÏĨá½±Î»": 7443,
      "ĠÏĢÎ¬ÏĥÎ±ÏĤ": 7444,
      "ĠÏĨá½³ÏģÎµÏĦÎ±Î¹": 7445,
      "ĠÏĨá½³ÏģÎµÏĥÎ¸Î±Î¹": 7446,
      "ĠÏĩÏģÎ·ÏĥÏĦá½³Î¿Î½": 7447,
      "ĠÏĦÎ±ÏįÏĦÎ·ÏĤ": 7448,
      "ĠÏĥÏħÎ¼Î¼á½³ÏĦÏģÎ¿Ïħ": 7449,
      "Ġá¼¸Î±ÎºÏİ": 7450,
      "ĠÎ²Î¿ÏģÏģ": 7451,
      "Ġá¼ĲÎ¼Î½Î·Î¼á½¹Î½ÎµÏħ": 7452,
      "Ġagainst": 7453,
      "ĠÎľÎ±Î½Î±ÏĥÏĥ": 7454,
      "ÏģÏİ": 7455,
      "ÏīÏĥÎ±": 7456,
      "Ġá¼ĲÏģÏĩ": 7457,
      "ĠÎ¼Î¿á¿ĸ": 7458,
      "ĠÎµÎ±Ïħ": 7459,
      "Î¾Î·ÏĦÎ±Î¹": 7460,
      "ÎŃÏģÎ±": 7461,
      "ÏĦÎ¿Ïį": 7462,
      "Î®ÎºÎµÎ¹": 7463,
      "ĠÎ³ÎµÏħ": 7464,
      "Ġá¼ĢÎºÎ¹Î½": 7465,
      "Ġá¼ĢÎºÎ¼á¿ĨÏĤ": 7466,
      "ĠÎ²Î±Î´á½·": 7467,
      "Ġbr": 7468,
      "ĠÎ¸ÎµÏģÎ¼Î±Î¹Î½": 7469,
      "ĠÎ³Î¹Î½ÏİÏĥÎº": 7470,
      "á¼ĦÎ¼ÎµÎ¹Î½Î¿Î½": 7471,
      "Î¸á½³Î½ÏĦÎµÏĤ": 7472,
      "Ġá¼ĲÎ¼ÏĨÏģá½±": 7473,
      "Ġá½¦Î½": 7474,
      "ĠÏĥÎºá½³Î»Î·": 7475,
      "Î¹Î¼ÏħÎ¸á½·Î¿Ïħ": 7476,
      "ĠÏĢÏģá½±ÏĦÏĦÎµÎ¹Î½": 7477,
      "ĠÎ¸Î±Î½Î¬ÏĦÎ¿Ïħ": 7478,
      "Ġá¼°Î±ÏĦÏģÎ¹Îºá¿ĨÏĤ": 7479,
      "Ġá¼°Î±ÏĦÏģÎ¿á½¶": 7480,
      "ĠÎ½ÎµÎ±Î½á½·ÏĥÎº": 7481,
      "ĠÎ¼Î±ÏģÏĦÏħÏģá½·Î¿Ïħ": 7482,
      "Ġá¼ĦÎ¾Î¹Î¿Î½": 7483,
      "pos": 7484,
      "ÏĦÏģÎ±ÏĤ": 7485,
      "ÏĦÎ±ÏĥÎ¹Î½": 7486,
      "Î´á½»Î½Î±": 7487,
      "ÏĦÎµÏħ": 7488,
      "Ġá¼ĲÏĢá½±Î½": 7489,
      "Ġá¼ĶÎ±Î½": 7490,
      "Ġá¼ĶÏĦÎµÎ¹": 7491,
      "ĠÎ»á½µÎ¼": 7492,
      "ĠÎ¸Î·ÏĥÎ±": 7493,
      "ĠÏĦÎµÎ»ÎµÎ¹": 7494,
      "Ġá½ĢÎ»ÎµÎ¸": 7495,
      "ĠÎ¼ÎµÎ¼Î½á¿ĨÏĥÎ¸Î±Î¹": 7496,
      "Ġá¼ĢÏĢÎµÏģ": 7497,
      "ĠÎ´Î¹Î±ÏĨÏīÎ½": 7498,
      "Ġá¼ĲÏĢÎ¹Î»Î·": 7499,
      "Î»Î¹Î´": 7500,
      "Î¸Î·ÎºÎµ": 7501,
      "ÏĢÎµÏĥÎµÎ½": 7502,
      "Ġá¼ĲÎ³ÎºÎ±Ïģ": 7503,
      "Ġá¼ħÎ³Î¹": 7504,
      "Ġá¼¤ÏĢÎµÏģ": 7505,
      "ĠÎ±á¼°Î½": 7506,
      "ĠÎ´ÎµÎºÎ±": 7507,
      "Ġwhe": 7508,
      "ÏĥÏĥÎ¿Ïħ": 7509,
      "ĠÏĢá½¹ÏģÏīÎ½": 7510,
      "Ġá½ĢÏĥÏĦÎ¿á¿ĸÏĤ": 7511,
      "ĠÎ¸ÎµÏģÎ¼Î±á½·Î½ÎµÎ¹": 7512,
      "ĠÏĢÎ»Îµá¿ĸÏĥÏĦÎ¿Î¹": 7513,
      "ĠÏĥÏĦÎ¿Î¼á½±ÏĩÎ¿Ïħ": 7514,
      "ĠÏĦÏģÎ¿ÏĢ": 7515,
      "ĠÏĨÎ±Î¹Î½á½¹Î¼ÎµÎ½Î¿Î½": 7516,
      "ĠÎ´ÏħÏĥÎºÏģÎ±Ïĥá½·Î±ÏĤ": 7517,
      "Ġá¼ĶÏģÏĩÎµÏĦÎ±Î¹": 7518,
      "Ġá½ĢÎ½ÏĮÎ¼Î±ÏĦÎ¹": 7519,
      "Ġá¼ĢÏĨÎ¹ÎºÎ½Îµá¿ĸÏĦÎ±Î¹": 7520,
      "ĠÏĢÎ±ÏģÎ±ÏĢÎ»á½µÏĥÎ¹Î¿Î½": 7521,
      "Ġá¼ĦÏģÎ¹ÏĥÏĦÎ¿Î½": 7522,
      "ÏħÏģÎµ": 7523,
      "Îºá½¸ÏĤ": 7524,
      "ĠÏĥÎ¬Ïģ": 7525,
      "á¿ĸÏ²": 7526,
      "Î¾Î¿Î¼Î±Î¹": 7527,
      "ÏĪÎ±Î»": 7528,
      "Ġá¼ĲÎºÏĩ": 7529,
      "ĠÎ¼ÎµÎ»": 7530,
      "Ġá¼ĳÏĥÏĦ": 7531,
      "á½±Î½Î¸Î·ÏĤ": 7532,
      "á½·Î½Î¿Î½ÏĦÎµÏĤ": 7533,
      "Ġá¿¥Ïħ": 7534,
      "Ġá¿¥Î±Î³": 7535,
      "Ġpostea": 7536,
      "Ġsame": 7537,
      "Ġá¼ĦÎ»Î»Î·ÏĤ": 7538,
      "ĠÎ¼á½³ÏĥÎ·ÏĤ": 7539,
      "ĠÎľÎ±Îº": 7540,
      "á½³Î¿Î½ÏĦÎ±": 7541,
      "ĠÎłÎ¿Î½": 7542,
      "Ġrescr": 7543,
      "Ġdes": 7544,
      "ÏĥÏĦá½±ÏĥÎµÎ¹ÏĤ": 7545,
      "ĠÎ¹ÏĥÏĩ": 7546,
      "ĠÏĢÎ±ÏĩÏħÎ¼": 7547,
      "Ġá½ĢÎ½Î¿Î¼á½±Î¶ÎµÎ¹": 7548,
      "Ġá¼ĢÎ½Î¸Ïģá½½ÏĢá¿³": 7549,
      "Ġá½ĢÎ´á½»Î½Î·": 7550,
      "ĠÎºÎ±ÏĦÎ±ÏĥÎºÎµÏħá½´Î½": 7551,
      "Ġclause": 7552,
      "Ġá¿¥Î·ÏĦá½·Î½Î·ÏĤ": 7553,
      "gg": 7554,
      "ÏĦÏģÎ±Î½": 7555,
      "ĠÎµÎ¼ÏĢ": 7556,
      "ÎºÎ±ÏĦ": 7557,
      "ÏĪá½»": 7558,
      "Î®Î¸Î·ÏĥÎ±Î½": 7559,
      "ĠÏĩÏģá¿¶Î½ÏĦÎ±Î¹": 7560,
      "Î¼ÎµÎ»Î¹": 7561,
      "Ġá¼ĢÏĢÎ¿ÏĩÏīÏģ": 7562,
      "ĠÏĢÎ»Î®": 7563,
      "ĠÎ±á¼°Î´": 7564,
      "ĠÏĨá½»Î»Î»Î±": 7565,
      "Î¼Î¹á¾¶ÏĤ": 7566,
      "á½»Î½Î·": 7567,
      "ĠÏĦÏģá½·ÏĦá¿³": 7568,
      "Ġref": 7569,
      "ĠÎµÎ¹Ïĥ": 7570,
      "Ġá½ĢÎ¾á½»": 7571,
      "Ġá¼ĢÎ¾Î¹Î¿á¿ĸ": 7572,
      "ĠÎ¿á½ĲÏģÎ±Î½á½¸Î½": 7573,
      "ĠÏĥÏĨÎ¿Î´Ïģá½¹ÏĦÎµÏģÎ¿Î½": 7574,
      "ĠÏĩÎ¹ÏĦá¿¶Î½Î±": 7575,
      "Ġá¼ĲÎ³ÎµÎ½á½µÎ¸Î·": 7576,
      "ĠÎ²ÎµÎ»ÏĦá½·": 7577,
      "ĠÎ·Î¼ÎµÏģÎ±": 7578,
      "Ġhowever": 7579,
      "nce": 7580,
      "ob": 7581,
      "Ġro": 7582,
      "ÏĢÎ¿á½»": 7583,
      "ĠÎ²Î¿Ïį": 7584,
      "Ġá¼ĢÏĢÎ¿Î½": 7585,
      "Ġá¼ĢÏĢÎµÎº": 7586,
      "Î·ÏĥÎ¬": 7587,
      "Ġ(?": 7588,
      "Ġá¼ĲÏĢÎ¹ÏĦá½·Î¸ÎµÎ¹": 7589,
      "Ġá¼ĢÎ½Î±ÏĢÎ½ÎµÏħ": 7590,
      "Ġá¼ĶÏĩÎ¿Î½ÏĦÎ±ÏĤ": 7591,
      "Ġá¼ĶÏĩÎ¿ÏħÏĥÎ±Î½": 7592,
      "ĠÎºÎ±Î¹ÏģÎ¿á¿¦": 7593,
      "á½ħÏĢÏīÏĤ": 7594,
      "Î¿ÏįÎ½ÏĦÏīÎ½": 7595,
      "ĠÎ¼Î¹ÎºÏģÎ¿": 7596,
      "á½»Î»Î¿Ïħ": 7597,
      "Ġbeing": 7598,
      "á¼´Ïĥ": 7599,
      "Ġá¼ĢÏĥÏĨÎ±": 7600,
      "Ġá¼ĲÎ¼Î²Î±Î»": 7601,
      "ĠÏĢÎµÏĢá½³ÏģÎµÏīÏĤ": 7602,
      "ĠÎ»Î±Î¼Î²Î±Î½": 7603,
      "ĠÎ»Î±Î²á½¼Î½": 7604,
      "ĠÏĩÏģá½½Î¼ÎµÎ¸Î±": 7605,
      "ĠÏĢÎµá½·Ïģá¾³": 7606,
      "ĠÎºÎµÎ»Îµá½»ÎµÎ¹": 7607,
      "Ġá¾łÎºÎ¿": 7608,
      "á¼¦Î½": 7609,
      "Ġá¼ĦÎºÏģÏīÏĤ": 7610,
      "Ġfollow": 7611,
      "21": 7612,
      "ĠÂ°]": 7613,
      "ĠÏĦÎµÎ½": 7614,
      "ĠÎºÎ»ÎµÎ¹": 7615,
      "á½³Î²Î·": 7616,
      "ĠÏĥÎ¹Î½": 7617,
      "ÏĥÏĦá½³Î¿Î½": 7618,
      "ĠÎ´Î¹ÏĦ": 7619,
      "á½½Î¼Î±ÏĦÎ¿ÏĤ": 7620,
      "Ġá¼ĲÎºÏĦÎµÏĦÎ±": 7621,
      "á¿ĥÏĥÎ¹": 7622,
      "ÏīÎ¸á½³Î½": 7623,
      "ĠSt": 7624,
      "Ġhand": 7625,
      "ĠÎºÏģá½·ÏĥÎ¹ÏĤ": 7626,
      "ĠÎºÏģá½±ÏĥÎµÏīÎ½": 7627,
      "Ġá¼ĶÎ»ÎµÎ³Î¿Î½": 7628,
      "ĠÏĢÎ¿Î¹á½µÏĥÎ±ÏĥÎ¸Î±Î¹": 7629,
      "á½»ÏĦÎ·ÏĦÎ¿ÏĤ": 7630,
      "ĠÏĢÎ»Îµá½·Î¿Î½Î¹": 7631,
      "Ġá¼ĲÎ³ÎµÎ½Î®Î¸Î·": 7632,
      "ĠÎ¿á½ĲÎ´á½³ÏĢÏī": 7633,
      "Ġá¼ĲÎ»á½³Î³Î¿Î¼ÎµÎ½": 7634,
      "ĠÎ´ÏħÏĥÏĢÎ½Î¿á½·Î±ÏĤ": 7635,
      "Ġá¿¥Îµá¿¦Î¼Î±": 7636,
      "ÏĢÎ¹Îº": 7637,
      "ĠÎ´á½³Î½": 7638,
      "á¿ĸÏĦÎ¹ÏĤ": 7639,
      "Î¯Î¼ÏīÎ½": 7640,
      "á½½Î¼ÎµÎ½Î¿ÏĤ": 7641,
      "Ġá¼ĦÏĩÏģÎ·": 7642,
      "ÏĪÎ¿ÏħÏĥÎ¹Î½": 7643,
      "ĠÎµá¼´ÏĢÎ¿Î¼ÎµÎ½": 7644,
      "ĠÎ¼á½³ÏĥÎ·Î½": 7645,
      "ĠÏĥÏħÎ½Î±Î½": 7646,
      "Ġá¼ĢÏĨÎ±Î½": 7647,
      "ĠÏĦÏģÎŃ": 7648,
      "Ġá¼¹ÏĢÏĢÎ¿ÎºÏģá½±ÏĦÎ·Î½": 7649,
      "ĠÎºÎ±Îºá½°": 7650,
      "á½½Î½ÏīÎ½": 7651,
      "ÏįÎ½á¿ĥ": 7652,
      "Ġá½ĳÏĢá½¹Î»Î¿Î¹": 7653,
      "ĠÏĢÎ»Î·ÏĥÎ¯Î¿Î½": 7654,
      "ĠÏĥÏħÎ³Î³Ïģá½±": 7655,
      "ĠÎ¼ÎŃÎ½ÏĦÎ¿Î¹": 7656,
      "ĠÎ³Î»á½·ÏĥÏĩÏģÎ¿Î½": 7657,
      "ĠÎµá¼´ÏīÎ¸Îµ": 7658,
      "Ġá¼ĲÏĢÎ¹ÏĢÎ»á½³Î¿Î½": 7659,
      "ĠÏĥÎµÎ±ÏħÏĦá¿·": 7660,
      "rong": 7661,
      "Ġimprob": 7662,
      "ÎµÏģÎ±": 7663,
      "Ġá½ī": 7664,
      "Î´Î±Î»": 7665,
      "ÏĨÎ¿ÏħÏĤ": 7666,
      "ĠÏĥÎ±Î²": 7667,
      "ĠÎ±á½ĲÏĦÎ¿": 7668,
      "ÏĦÎ¹Î¼": 7669,
      "ĠÎ¸á½µ": 7670,
      "ĠÎ¸ÏħÎ³": 7671,
      "Î½Î±ÏĥÎ¸Î±Î¹": 7672,
      "ĠÎ¸Îµá½±ÏĥÎ±ÏĥÎ¸Î±Î¹": 7673,
      "Ġá½ĦÏģÎµÎ¹": 7674,
      "ĠÏĥÏħÎ½á¿Ĩ": 7675,
      "Ġá¼¦ÏģÎ¿ÏĤ": 7676,
      "á½µÎ½Î·": 7677,
      "ĠÎ¼á½±ÏĦÎ·Î½": 7678,
      "ĠÎ´ÏħÎ½á½±Î¼ÎµÎ½Î¿Î½": 7679,
      "ÏĦÎŃÏģÎµÏĤ": 7680,
      "Î¼ÎŃÎ½Î¿ÏĤ": 7681,
      "ĠÎ³Î½á¿¶ÏĥÎ¹Î½": 7682,
      "Ġá¼¹ÏĢÏĢÎ¿ÎºÏģá½±ÏĦÎµÎ¹": 7683,
      "ĠRT": 7684,
      "ĠÎ¼Î±Î»Î±Îºá½¸Î½": 7685,
      "Î³Ïģá½±ÏĨ": 7686,
      "ĠÏĢÎ»ÎµÏħÏģá½°ÏĤ": 7687,
      "Î·Ïĥá½±Î¼ÎµÎ½Î¿ÏĤ": 7688,
      "ĠÎ´Î¿ÎºÎµá¿ĸÎ½": 7689,
      "Ġá¼ĢÏĢÎ¿Î¸Î±Î½Îµá¿ĸÎ½": 7690,
      "Ġá¼¨ÏĥÎ±": 7691,
      "ĠÎ½Îµá½»ÏģÎ¿Î¹ÏĤ": 7692,
      "Ġá¼¸Î½Î´Î¹Îº": 7693,
      "Î±ÏĥÎ±": 7694,
      "Î±á¼°": 7695,
      "Î¼ÎµÎ¹ÏĤ": 7696,
      "ÏĥÏĦÏīÏĤ": 7697,
      "Î²Î·ÏĤ": 7698,
      "ĠÎ´Î¹á½±Î½": 7699,
      "ĠÏĦá½°Ï²": 7700,
      "ÏĥÎ¹ÎµÏĤ": 7701,
      "ĠÎ¸á¿Ĩ": 7702,
      "ÏĪÎ¿Î¼Î±Î¹": 7703,
      "Ġocc": 7704,
      "ĠÎºÎ±Î¸Ê¼": 7705,
      "Ġá¿¥á½·Î³": 7706,
      "Î¿Î¼á½³Î½Î±Î¹ÏĤ": 7707,
      "Ïģá½±ÏĤ": 7708,
      "Ġá¼ĲÎ³ÎºÎ±ÏĦÎ±": 7709,
      "ĠÎ¸ÎµÎ¿Ïħ": 7710,
      "Ġá½ĦÏĪÎµÎ¹": 7711,
      "ÏĦÎ¹Îºá½µÎ½": 7712,
      "ĠÎ²Î±Ïĥ": 7713,
      "ĠÎ¿á¼·Î±": 7714,
      "á½³Î¿Î½ÏĦÎ¿ÏĤ": 7715,
      "Î¸á½³ÏĤ": 7716,
      "Ġá½ĳÏĢá½±ÏģÏĩá¿ĥ": 7717,
      "ĠÎłÎŃ": 7718,
      "Ġrest": 7719,
      "ÏĦÎ¯ÏĤ": 7720,
      "Ġá¼ģÏĢÎ»Î¿á¿¦Î½": 7721,
      "ĠÎ´ÏħÎ½Î±Î¼á½³Î½ÏīÎ½": 7722,
      "ĠÏĦÎ¿Î¹Î¿á½»ÏĦá¿³": 7723,
      "Ġá¼ĢÎ³Î±Î¸á¿¶Î½": 7724,
      "Ġá¼ĢÏĢÎ¿ÏĥÏĦÏģÎŃ": 7725,
      "Ġá¼ĢÏģÎ±Î¹á½¸Î½": 7726,
      "ĠÎ³ÏħÎ½Î±á¿ĸÎºÎ±ÏĤ": 7727,
      "Ġá¼ĶÏĥÏīÎ¸ÎµÎ½": 7728,
      "ĠÎ´ÏİÏĥÏī": 7729,
      "Ġcomp": 7730,
      "ĠÏĩÏģá½¹Î±Î½": 7731,
      "ĠÏĦÎµÏĥÏĥÎ±ÏģÎµÏĥÎºÎ±Î¹": 7732,
      "á¼ĢÎ¼Î¼ÏīÎ½Î¹Î±ÎºÎ¿á¿¦": 7733,
      "Ġá¼ĲÏĢÎ¿ÏģÎµá½»Î¸Î·": 7734,
      "ĠÎ§Ïģá½»ÏĥÎ¹ÏĢÏĢÎ¿ÏĤ": 7735,
      "Ġif": 7736,
      "ÏĥÏĨÎ±Î»": 7737,
      "ĠÏĦá½µ": 7738,
      "ÏĢÏĮÎ½": 7739,
      "ĠÎºÎ·Îº": 7740,
      "Î¿ÏħÏĥá½·": 7741,
      "Î¯Î½ÎµÎ¹Î½": 7742,
      "ÏģÎ¹ÏĥÎµÎ½": 7743,
      "á½¹Î½ÏīÏĤ": 7744,
      "Ġá¼ĲÏĥÏĦÎ¯Î½": 7745,
      "Ġá½¡Î´á½·": 7746,
      "Î»Î¹Î¿Î¹": 7747,
      "ĠÎ¸ÎµÏĮÎ½": 7748,
      "ÏĢÎ¿Î½ÏĦÎ±Î¹": 7749,
      "ĠÎµá½ĲÎºÏģÎ±": 7750,
      "Î¸ÎµÎ½ÏĦÎ¿": 7751,
      "ĠÏĢá½±Î½ÏĦ": 7752,
      "Ġá½ĳÎ³ÏģÎ¿": 7753,
      "ÎºÎ¿ÏħÏĥÎµÎ½": 7754,
      "ĠÏĦÎ¿ÏħÏĦÎŃ": 7755,
      "ĠÏĦÎ¿Î¹Î±á¿¦ÏĦÎ±Î¹": 7756,
      "ĠÎ¼Î±ÏģÎ±": 7757,
      "ĠÎ´Î¹Î´á½¹Î½Î±Î¹": 7758,
      "ĠÏĢÎ±Î»Î±Î¹Î¿á½¶": 7759,
      "urn": 7760,
      "ÏĢÎ»Î±ÏĥÏĥÎµ": 7761,
      "own": 7762,
      "ulg": 7763,
      "Î¿Î´Î¿Î½Î¿Ïĥ": 7764,
      "ĠÎºÎ¬Î¼Î½": 7765,
      "Ġunt": 7766,
      "Ġá½ģÏĢÎ¿á¿ĸá½¹Î½": 7767,
      "Ġá¼ĲÏĢÎ¹ÏĦá½µÎ´ÎµÎ¹Î¿Î½": 7768,
      "ĠÎ³Ïģá½±Î¼Î¼Î±ÏĦÎ¹": 7769,
      "ĠÏĦá½·Î½Î¿ÏĤ": 7770,
      "ART": 7771,
      "ĠáµĽâģ±áµĪ": 7772,
      "ÏĢÏĦÎ¹": 7773,
      "Î³ÏħÏĢÏĦÎ¿Î½": 7774,
      "á½±Î¼ÎµÎ½Î¿ÏĤ": 7775,
      "Ġá¼ĢÏĦÏģá½³": 7776,
      "ĠÎ¿ÏħÏĩ": 7777,
      "ÎµÎ½á½¹": 7778,
      "ÎµÏģÎµ": 7779,
      "Î¾Î¿ÏħÏĤ": 7780,
      "Ġá¼ĲÎ½á½·ÏīÎ½": 7781,
      "ĠÎ´Î¹ÎµÎº": 7782,
      "Ġá¼ĶÏĦÎ¿ÏħÏĤ": 7783,
      "Îµá¿ĸÏĥÎ¸Îµ": 7784,
      "Î¿á½»ÏĥÎ±Î¹ÏĤ": 7785,
      "ĠÏĦÎ¿Î¹Î³Î±ÏģÎ¿á¿¦Î½": 7786,
      "nder": 7787,
      "ÎºÎ¿ÏħÏĥÎ±Î½": 7788,
      "Î±á½·ÏģÎµÏĥÎ¹Î½": 7789,
      "ĠÏĢÏħÏģá½·": 7790,
      "ĠFor": 7791,
      "Î¼ÎŃÎ½Î·ÏĤ": 7792,
      "Ġname": 7793,
      "ĠÏĦá½¹ÏĢÎ¿Ïħ": 7794,
      "ĠÎ¿á¼°ÎºÎµá½·ÏīÎ½": 7795,
      "Ġá¼ĢÎ¼ÏĨÎ·Î¼ÎµÏģÎ¹Î½": 7796,
      "ĠÎ´Î¹Î±ÏĥÏĦÎ¿Î»á½´Î½": 7797,
      "ĠÎ»ÎµÏĢÏĦÎ¿": 7798,
      "ĠÏĩÏīÏģá½·ÏīÎ½": 7799,
      "ĠÏĦÎ±á¿¦Î¸": 7800,
      "áµĽi": 7801,
      "Ġá¼ĦÏģÎ¹ÏĥÏĦÎ±": 7802,
      "ĠÏĦÏģÎ¿Ïĩá½·ÏĥÎº": 7803,
      "ĠÏĢÎ¿Î´á½¸ÏĤ": 7804,
      "ĠÏĢÎµÏĢÎ»Ïħ": 7805,
      "ĠÏĢÎ»Î·ÏĥÎ¹á½±Î¶": 7806,
      "ook": 7807,
      "Î½ÏīÎ½": 7808,
      "Î¿ÏĦá½µÏĦÏīÎ½": 7809,
      "Î¼Î¯": 7810,
      "Ġá¼ĢÎ¼Î²": 7811,
      "Ġá¼ĶÎ¼Î²": 7812,
      "ĠÎ¿á½ĲÏģ": 7813,
      "Ġá¼ĦÏĨ": 7814,
      "ĠÎ´Î¹Î±Î¼á½³Î½": 7815,
      "ĠBQ": 7816,
      "ÏĦÎ¹Îºá¿¶ÏĤ": 7817,
      "ĠÏĪÏħÏĩÏģá½¹ÏĦÎµÏģÎ¿Î½": 7818,
      "Ġá¼ĢÏĨá½³": 7819,
      "Ġá¼ģÏĢÎ¬Î½ÏĦÏīÎ½": 7820,
      "ÎºÏģÏħ": 7821,
      "ÏĦá½³ÏĦÎ±": 7822,
      "ÎŃÏģÎµÎ¹": 7823,
      "ĠLuc": 7824,
      "Î¾Î±Î½ÏĦÎµÏĤ": 7825,
      "ĠÏĢÏģá½¸Ï²": 7826,
      "ĠÎ´ÎµÏħÏĦá½³ÏģÎ±": 7827,
      "Ġali": 7828,
      "ĠÎ»ÏĮÎ³Î¿Ïħ": 7829,
      "ĠÏĢÎ±ÏģÎ¿Î¾ÏħÎ½": 7830,
      "ĠÏĢÎ½Îµá½»Î¼Î¿Î½Î¹": 7831,
      "ÏĥÏĥÎ±ÏģÎ±ÏĤ": 7832,
      "Ġá¼Ģá¿¤á¿¥ÏīÏĥÏĦá½·Î±Î½": 7833,
      "ĠÏĢÎµÏĢÎ¿Î¹Î¸": 7834,
      "ĠÏĦÎµÏĥÏĥÎµÏģ": 7835,
      ",)": 7836,
      "ÏĦÏģá½±": 7837,
      "ÏĤÝ²": 7838,
      "ĠÏĦá¿¶": 7839,
      "ÏħÎ¼á½±ÏĦÏīÎ½": 7840,
      "ÎºÎµÏħ": 7841,
      "á½±ÏģÎ¹Î¿Î½": 7842,
      "Î¹Î½ÎµÎ½": 7843,
      "ĠÏĥÎµÎ¹": 7844,
      "Ġá¼ĲÎ½Î¿Ïĩ": 7845,
      "Ġá¼ĶÎ³": 7846,
      "ÎŃÏĦÏī": 7847,
      "ĠÏĦÎ¿ÏĥÎ±á½»": 7848,
      "Ġá½Ģá¿¤á¿¥": 7849,
      "ĠÏĢÎ±ÏģÏī": 7850,
      "ĠÏĢÎ±Ïģá½¹Î½ÏĦÎ¹": 7851,
      "ĠÏĥÎºÎµÏį": 7852,
      "ĠÎ¼á½µÎ½Î¹": 7853,
      "ĠÏĢÎ¿Î»á½ºÎ½": 7854,
      "Ġnear": 7855,
      "ÏĢá½·ÏĢÎ±Î½": 7856,
      "ari": 7857,
      "Ġá½ĢÎ¾ÏħÎ¼": 7858,
      "ĠÎ»á½³Î¾ÎµÏīÏĤ": 7859,
      "ĠÎ±á¼°ÏĥÎ¸Î±Î½": 7860,
      "Ġá¼ĢÎ½ÎµÎ»": 7861,
      "ĠÎºÎ±ÏģÏĢá½¸ÏĤ": 7862,
      "ĠÎ½ÎµÏĨÏģÎ¿á½ºÏĤ": 7863,
      "ĠÎ´ÏģÎ¹Î¼á½º": 7864,
      "Ġá½ĢÎ½á½¹Î¼Î±ÏĦÎ±": 7865,
      "Ġxl": 7866,
      "Ġá¼ĲÏ²ÏĦÎ¹": 7867,
      "Ġrendered": 7868,
      "ĠÏĥÏĢÎ»á½±Î³ÏĩÎ½Î¿Î½": 7869,
      "Ġá¼ĪÏĥÎºÎ»Î·ÏĢÎ¹á½±Î´Î·ÏĤ": 7870,
      "Ġpassa": 7871,
      "Ġá¼ĺÏģÎ±ÏĥÎ¹ÏĥÏĦ": 7872,
      "Ġá¼¸Î±ÎºÏİÎ²": 7873,
      "act": 7874,
      "rd": 7875,
      "ĠÏĦÏģÎ¹Î²": 7876,
      "Ġá¼ĲÏĦÎµ": 7877,
      "ĠÎ±ÏĢÏī": 7878,
      "Î¿Î¹ÏĦ": 7879,
      "ĠÎ³ÎµÏģ": 7880,
      "Î¼á½³Î½ÏīÏĤ": 7881,
      "Î»Î±á½¶": 7882,
      "Ġá¼ĲÎ¾Î¿Î»ÎµÎ¸": 7883,
      "Ġá¿¥Î·": 7884,
      "ÏĥÏĩÎ·": 7885,
      "ĠÎµá½ĲÎ±": 7886,
      "Ġá¼ĢÎºá½±": 7887,
      "ĠÏĪÏħÏĩÏģá½¹Î½": 7888,
      "Î¸ÏģÏīÏĢÎ¿ÏĤ": 7889,
      "ĠÎ´Î¿ÎºÎ¹": 7890,
      "ĠÏĢÎ±ÏĩÎµá¿ĸÏĤ": 7891,
      "Ġá¼°Î±ÏĦÏģá½¸ÏĤ": 7892,
      "ĠÎ²Î¿ÏĦ": 7893,
      "ÎĻÎĴ": 7894,
      "ÎĻÎŁÎĿ": 7895,
      "Ġgl": 7896,
      "á½¹ÏĦÎ±ÏĦÎ±": 7897,
      "á½½Î´ÎµÎµÏĤ": 7898,
      "Ġá¼ĦÎºÏģÏīÎ½": 7899,
      "ĠÏĪá½»ÏĩÎµÎ¹Î½": 7900,
      "Ġá½ĦÏģÎ³Î±Î½Î±": 7901,
      "ĠÏĨÏģÎµÎ½Î¹": 7902,
      "Ġá¼ĢÏĢÎ¿Î´Îµá½·Î¾ÎµÏīÏĤ": 7903,
      "ĠÏĢÎ±á¿ĸÎ´ÎµÏĤ": 7904,
      "ĠÏĢÏĦÎ¹ÏĥÎ¬Î½": 7905,
      "Ġá¼ķÎ´ÏģÎ±ÏĤ": 7906,
      "Ġá¼ĲÎ½ÎµÏĦÎµá½·": 7907,
      "ĠÏĢÎ±ÏĩÏħÎ¼ÎµÏģ": 7908,
      "It": 7909,
      "ÏģÎ·ÏĥÎµÎ½": 7910,
      "ÏĥÎ¿ÏħÏĥÎ¹": 7911,
      "Î³Î»": 7912,
      "ĠÎµÎ¸": 7913,
      "ĠÎ³á½¹Î½": 7914,
      "á¿ĸÎ½Î±Î¹": 7915,
      "Î·ÏĥÏī": 7916,
      "ÏĢÎ±Î¸": 7917,
      "ĠÎ´ÎµÎ´": 7918,
      "ĠÎ²Î±ÏĥÎ¹Î»ÎµÎ¹": 7919,
      "Ġá¼ĢÏģÏĩÎ±": 7920,
      "Ġmight": 7921,
      "Ġá¼ĢÏĨÎµÏĪ": 7922,
      "ĠÎ»á½³Î³ÎµÏĥÎ¸Î±Î¹": 7923,
      "ĠÏĢá½¹Î´Î±": 7924,
      "ĠÎ¿á¼´Î´Î±": 7925,
      "Ġday": 7926,
      "Ġá½ĦÎ½Î¿Î¼Î¬": 7927,
      "ĠÎºÎµÎ½Î¿á¿¦Î½": 7928,
      "ĠÏĢÎ±Ïĩá½»": 7929,
      "Ġá¼°ÏĥÏĩÏħÏģá½¸Î½": 7930,
      "ĠÎµá½ĶÎºÏģÎ±ÏĦÎ¿Î½": 7931,
      "ĠÎµá¼°ÏģÎ®": 7932,
      "Î»Îµá½»ÏĥÎµÏĦÎ±Î¹": 7933,
      "Î½ÎµÎ³ÎºÎ±Î½": 7934,
      "ĠÏĢá½±Î¸Î·Î¼Î±": 7935,
      "Ġearth": 7936,
      "ĠÎ´á½·Î±Î¹ÏĦÎ±Î½": 7937,
      "Ġá½¥Ï²ÏĢÎµÏģ": 7938,
      "ĠÏĦÎµÎ½á½¹Î½ÏĦÏīÎ½": 7939,
      "ĠZ": 7940,
      "Ġ]": 7941,
      "ÎµÏĦÎ±á½·": 7942,
      "ÏħÏģá½·Î¿Ïħ": 7943,
      "ĠÎºá¼ĢÏĢ": 7944,
      "á½³Î²": 7945,
      "ÏĩÎ»": 7946,
      "Î´Ïģá½¹": 7947,
      "ĠÏĢÏģá½³": 7948,
      "ÎŃÏĦÎ¹": 7949,
      "ÏģÎ¹Î³": 7950,
      "Î½Î±Î³": 7951,
      "Ġá¼ĲÎºÏĨÏħ": 7952,
      "ĠÏĢÎ±ÏĦÎŃÏģÎ±": 7953,
      "Ġá¼ĲÎ¾Î®": 7954,
      "ĠÏĦÎ¹Ïĥá½¶": 7955,
      "Ġá¼ķÏĢÎµÏĥÎ¸Î±Î¹": 7956,
      "Ġá¼ĶÏĩÏī": 7957,
      "ĠÏĢÎ¿Î»Î»á½´": 7958,
      "Î³Î³ÎµÎ¹Î»": 7959,
      "ĠÎ¼á½¹Î½Î±ÏĤ": 7960,
      "ĠÏĢÎµÏģÎ±": 7961,
      "Ġá¼±Î¼á½±": 7962,
      "ĠÎºÎ±Î»Î¿á¿¦ÏĥÎ¹": 7963,
      "á½µÎ½ÏīÎ½": 7964,
      "ĠÎ¿á¼°ÎºÎµÎ¹": 7965,
      "Ġá½ģÎ¼Î¿Î³ÎµÎ½": 7966,
      "Ġá¼ĢÎ³Î³ÎŃ": 7967,
      "Ġá¼¸Î·ÏĥÎ¿á¿¦Î½": 7968,
      "ĠÏĥÏħÏĥÏĦá½³Î»Î»": 7969,
      "ĠÏĥÎºÎ¿ÏĢÎµá¿ĸÏĥÎ¸Î±Î¹": 7970,
      "Ġá½ĢÎ½á½¹Î¼Î±ÏĦÎ¹": 7971,
      "ĠÎ´Î¹Î±ÏĨÏģá½±": 7972,
      "ĠÏĦá½»ÏĩÎ¿Î¹": 7973,
      "ĠÏĥÏħÎ½Î¸á½³ÏĥÎµÏīÏĤ": 7974,
      "ÎºÏģÎ¯Î¸Î·": 7975,
      "ĠÏĨÎ±ÏģÎ¼Î¬ÎºÏīÎ½": 7976,
      "ĠÎĿÎ±Î²Î¿ÏħÏĩ": 7977,
      "Ġchil": 7978,
      "Ġá¼ĦÎ³Î³ÎµÎ»Î¿ÏĤ": 7979,
      "ĠÏĨÎ¬ÏģÎ¼Î±ÎºÎ¿Î½": 7980,
      "ĠÏĩÎ»Î¹Î±Ïģ": 7981,
      "ÎĻÎĴÎĽ": 7982,
      "á½ł": 7983,
      "Î¼Î¬Ïģ": 7984,
      "ÏħÎ¾": 7985,
      "ÏīÎ¸ÎµÎ½": 7986,
      "Î¸Î¿Î¼ÎµÎ½": 7987,
      "ÏĨÏį": 7988,
      "ĠÎµÎ±ÏħÏĦÎ¿Ïħ": 7989,
      "Ġá¼ĶÏĦ": 7990,
      "Ġá¼ĲÎºá½³": 7991,
      "Îµá½·ÏĤ": 7992,
      "Ġá¼ĢÎ½Î±Î¹Ïģ": 7993,
      "Î·ÏĥÎ·": 7994,
      "ÏĥÎºÎµÎ¹Î½": 7995,
      "Ġpossib": 7996,
      "ÏĦÎ¿Î¹Î±": 7997,
      "ÏĢÎ¿Î½ÏĦÎ±": 7998,
      "Ġá¼ĪÏĢÎ¿Î»Î»": 7999,
      "ÏĨÎ¸Î±Ïģ": 8000,
      "oun": 8001,
      "ÏĦÏĦá¿ĥ": 8002,
      "ĠÎ¹Î´": 8003,
      "ÎŁá¼±": 8004,
      "Ġ62": 8005,
      "ÏĥÎ¸ÏīÏĥÎ±Î½": 8006,
      "ĠÎºÏįÎºÎ»á¿³": 8007,
      "ĠÎ¸ÎµÏģÎ±ÏĢÎµá½»ÎµÎ¹Î½": 8008,
      "ĠÎ¸Î±ÏħÎ¼á½±": 8009,
      "ĠÏĩÏħÎ»á½¸ÏĤ": 8010,
      "Ġá¼´ÏĥÏĩÎµÎ¹": 8011,
      "Î¿ÏĥÎºÏħ": 8012,
      "ĠÎºÏģÎ¹Ïĥá½·Î¼ÏīÎ½": 8013,
      "á¼ĨÏģ": 8014,
      "ÏģÎ³á½±ÏĥÎ±ÏĦÎ¿": 8015,
      "ÏīÏģÎ¹Îº": 8016,
      "á½±Î²": 8017,
      "ĠÎ¿Î½": 8018,
      "á½»Î³": 8019,
      "ĠÎ³Î±": 8020,
      "ĠÎ±á½ĲÏĦÎ¬": 8021,
      "Îµá¿ĸÏĥÎ¹Î½": 8022,
      "ĠÎ»Î·Î¼": 8023,
      "á½½Î¸Î±": 8024,
      "ĠÎ¸á½±Î»Î±": 8025,
      "Ġá½ģÎºá½¹": 8026,
      "ĠÏĦÎ¿á½ºÏ²": 8027,
      "á½³ÏģÎµÎ¹": 8028,
      "Ġá½¡Î¼": 8029,
      "Ġthan": 8030,
      "ĠÎ´Î¹Î±ÏĥÏĦÎµÎ»Î»": 8031,
      "ĠÏĩÏģÎ·Ïĥá½·": 8032,
      "Ġá¼ķÏĦÎµÏģá½¹Î½": 8033,
      "Î¼ÎµÏĦÎ±": 8034,
      "Ġá¼¸ÏĥÎ±": 8035,
      "ĠÏĥÏħÎ½ÏĦÎ¹": 8036,
[...]
